#version: 0.2
á ¡
á ¢
á¡ ª
á¡ Ń
á¡ ¬
á¡ª á¢
Ġ á¡
Ġ á¢
á¡ª á¡
á¡Ń á¢
á¡¬ á¢
á¡ §
á¡ ±
á ł
Ġá¡ ¥
á¡ ³
á¡ªá¡ §
á¡ ¨
Ġá¢ ĺ
á¡Ń á¡§
Ġá¡ ³
Ġ áł
á¡ «
Ġ á¡¬
á¡Ń á¡¬á¢
á¡ªá¢ Ĭ
á¡Ńá¢ ĳ
á¡ªá¢ ŀ
á¡ªá¡ ±
á¡ª á¡¬
á¡ª á¡ª
á¡ªá¡± á¡±
á¡ªá¢ Ļ
á¡± á¡±
á¡Ńá¢ ŀ
Ġá¡ ¯
Ġá¢ Ķ
á¡ªá¡ «
á¡ªá¢ ĳ
Ġá¢ Ĭ
á¡ªá¢ Ŀ
á¡ªá¢ Ķ
á¡¬ á¡§
Ġá¡ ¸
Ľ á¡³
á¢ Ļ
Ġá¡ ´
á¡ªá¡ ³
Ġáł Ĥ
á¡Ń á¡¬
á¡ªá¡ ¨
Ġ á¡Ńá¡§
á¡¬á¢ ĳ
Ġá¡¥ á¢
á¡ªá¢ Ĳ
Ġá¢ Ļ
Ġá¢ Į
Ġá¡¥ á¡Ńá¡¬á¢
Ġáł ĥ
Ġá¢ ļ
á¢ Ĭ
á¡Ńá¢ Ļ
Ġá¡¬ á¡¬á¡§
Ġá¢ ĭ
Ġá¢ ľ
á¡ªá¢ Ľá¡³
á¡ªá¢ İ
á¡ªá¢ ĭ
Ġá¢Ļ á¡³
Ġá¡³ á¡ªá¡¬
á¡¬á¢ Ļ
á¢ Ķ
á¢ ļ
ī á¡¨
Ġá¢ĭ á¡Ńá¡¬á¢
á¡Ńá¢ Ĭ
á¡Ń á¡±á¡±
ã Ģ
á¡ªá¢Ķ á¡ªá¡§
á¡ª á¡Ńá¡§
á¡Ńá¢ Ĳ
Ġá¡¥á¡Ńá¡¬á¢ Ĭ
á¡Ń á¡ª
á¡¬á¢ ŀ
á¡ªá¡¬ á¡¨
° á¡¨
Ġ ãĢ
á¡¬ á¡
á¡ªá¢ ļ
Ġá¢ Ī
Ġá¡¥ á¡Ńá¡¬
Ġá¡¯ á¡«
Ġá¡¬ á¡¬
á¡¬á¢ Ĭ
á¡Ńá¢ Ķ
á¡ªá¢ ĩ
Ġá¡´ á¡Ńá¢ĳ
Ġá¡ «
á¡Ńá¢ Ŀ
á¡Ń á¡ªá¢Ĭ
á¡ ¥
á¡ªá¢ĭ á¡Ń
á¢ Ľ
á¡ªá¢ Ľ
á¡¬á¢ ľ
áł ł
Ġá¡¬ á¡«
ļ á¡§
Ġá¡¥á¡Ńá¡¬á¢Ĭ á¡ªá¡«
Ġá¡¥ á¡Ńá¢ŀ
á¡¬á¢ Ĳ
Ġá¡³ á¡ªá¡§
á¡ª á¡ªá¡³
Ġá¡¥á¢ ļá¡§
á¡Ń á¡³
Ġá¢ĺ á¡ªá¡«
á¡ªá¡ª á¡ªá¡³
Ġá¡´ á¡Ńá¡¬á¢
á¡ªá¡ ´
á¡¬ á¡±
áłł áł
á¡¬ á¡±á¡±
á¡¬á¡ ¦
á¢ ĳ
Ġá¡¥ á¡Ńá¢ĳ
á¡Ńá¢ į
á¢Ķ á¡ªá¡§
á¢ ĭ
Ġá¢ĺ á¡Ńá¡¬á¢
á¡ ´
Ġá¡³ á¡ªá¢Ŀ
á¡ªá¡±á¡± á¡Ńá¢ĳ
á¡Ń á¡«
á¡ªá¡±á¡± á¡ªá¡§
áł ¢
Ġá¡¬á¡¬ á¡ªá¡§
á¡ªá¢ĳ á¢Ļ
Ġá¢ĺ á¡ªá¢ŀ
á¡Ńá¢ ľ
á¡ª á¡ªá¢Ĭ
á¡Ńá¢ İ
á¡ªá¢ īá¡¨
áł ¡
áł ¤
Ġá¢ĺ á¡ªá¢Ĭ
á¡Ńá¢ ĵ
Ġá¢ĭá¡Ńá¡¬á¢ İ
á¡Ńá¢ ļ
ĠãĢ ĭ
á¡Ńá¡ªá¢Ĭ á¡±á¡±
á¡ªá¢Ļ á¡³
á¡¬á¢ ļ
ĠãĢ Ĭ
á¡ªá¡ª á¡ªá¢Ķá¡ªá¡§
á¢ ĺ
á¡¬á¢ Ľá¡³
á¡¬á¢ İ
á¡Ń á¡ªá¡ª
Ġá¡¥á¢ ŀ
á¡¬á¡ °á¡¨
Ġá¡³á¡ªá¡¬ á¡¬
á¡Ńá¡ª á¡ªá¢Ķá¡ªá¡§
á¡Ńá¢ ĩ
Ġá¡¯ á¡¬á¢Ĭ
á¡« á¡¨
á¢Ĭ á¡ªá¡¨
á¡ªá¢ ľ
á¢ Ľá¡³
á¡ªá¢Ŀ á¡¨
áł¢ áł
Ġá¡¸ á¡ªá¢ŀ
áł¡ áł
á¡Ń á¡Ńá¡§
á¡¬á¢ Ķ
á¢ īá¡¨
Ġá¡¥ á¡ªá¢ŀ
á¡¬ á¡¬
á¡Ń á¡
á¡ªá¡ °á¡¨
á¡ªá¢Ĳ á¡¨
Ġá¢Ķ á¡Ńá¢ŀ
á¡ªá¢Ĭ á¡ªá¡¨
á¡Ń á¡±
Ġá¡¥ á¡ªá¢İ
Ġá¢ļ á¡³
Ġá¢Ĭ á¡ªá¢Ľá¡³
á¡ªá¢Ĭ á¢Ķá¡ªá¡§
áł¤ áł
á¡¬ á¡ªá¡ª
Ġá¢ ı
Ġá¢ĭá¡Ńá¡¬á¢İ á¡Ńá¡§
á¡ªá¢ į
Ġá¢ľ á¡Ńá¢į
Ġá¢Į á¡Ńá¡ªá¢Ĭá¡±á¡±
á¡¬á¢ ĭ
á¢ Ł
á¡¬á¡¬ á¡¨
Ġá¡¬á¡¬ á¡ªá¢Ŀ
á¡ª á¡ªá¡¬á¡¨
á¡¬á¢ Ŀ
á¡¬á¢ ĩ
Ġá¢ĺ á¡³
á¡¬á¡± á¡«
Ġá¢ĺá¡Ńá¡¬á¢ ŀ
áł ¦
Ġá¢Ĭ á¡ªá¢Ļ
Ġá¢Įá¡Ńá¡ªá¢Ĭá¡±á¡± á¡Ńá¢Ĳ
á¡Ńá¢ Ľá¡³
á¡Ńá¡ °á¡¨
Ġá¢Ĭ á¡ªá¢ĳ
á¡ª á¡ªá¢Ķá¡ªá¡§
Ġá¢Ĭ á¡ªá¢ŀ
á¡ªá¢Ĭ á¡ªá¡§
á¡ªá¡±á¡± á¡³
á¢Ļ á¡§
á¡ªá¢Ķ á¡«
Ġá¡³á¡ªá¡¬ á¡¬á¡°á¡¨
Ġá¢ľ á¡ªá¡´
Ġá¢ĭá¡Ńá¡¬á¢ ŀ
Ġá¡¥ á¡Ńá¢Ļ
Ġá¡¸ á¡Ńá¢ŀ
Ġá¡¥ á¡±
Ġá¡¥ á¡¬á¢ŀ
Ġá¡³ á¡ªá¢ŀ
á¡ªá¢Ļ á¡§
Ġá¢ĭ á¡Ńá¡¬
á¡¬ á¡«á¡¨
Ġá¢Ķ á¡ªá¡¬
Ġá¡¥á¡Ńá¡¬á¢ Ľ
á¡ªá¢ĭ á¡Ńá¢ĳ
Ġá¢ĺ á¡ªá¡±á¡±
Ġá¡¯á¡¬á¢Ĭ á¡ªá¡¨
á¡³ á¡ªá¡¨
Ġá¡¬ á¡Ńá¡¬
Ġá¡¯ á¡ªá¡¬
Ġá¢Ī á¡ªá¢ŀ
á¡Ńá¢Ĭ á¡ªá¡¨
Ġá¡¸ á¡ªá¢İ
Ġá¢ĺ á¡ªá¢ĳ
Ġá¡´ á¡Ńá¢Ĳ
á¡ªá¢Ķ á¡³
á¢ļ á¡³
á¡Ńá¢ īá¡¨
á¡ªá¢Ĭ á¢Ļ
áł Ĥ
á¡ªá¢Ĭ á¢Ĭ
Ġá¡¥ á¡Ń
á¢ĭ á¡Ń
Ġá¡´ á¡Ńá¢Ļ
á¡ ¸
á¡¬á¢ į
Ġá¡¥ á¡ªá¢Ľ
á¡ªá¢ļ á¡«
á¡ª á¡Ńá¡ªá¢Ĭ
á¡Ńá¡¬á¢ ŀ
Ġá¡¥á¡± á¡§
Ġá¡³á¡ªá¡¬ á¡¬á¢Ļ
Ġá¢ Ĺ
Ġá¢ı á¡§
Ġá¡ Ĵ
á¡¬á¢ Ľ
Ġá¢Į á¡ªá¢Ļ
á¡ªá¡ª á¡ª
á¡¬á¢ īá¡¨
Ġá¡¥á¢ Ĭ
á¡Ńá¡ª á¡ªá¢Ļ
á¢ļ á¡«
Ġá¡¥ á¢Ļ
áł¦ áł
á¡ªá¡ª á¡ªá¢Ļ
á¡¬á¡±á¡± á¡Ńá¢ĳ
á¡ªá¡¬ á¡¬á¢ĳ
á¡¬ á¡³
á¢ ŀ
Ġá¢ĺ á¡ªá¢İ
Ġáł Ħ
Ġá¡¥á¢ İ
á¡ªá¢ĭ á¡Ńá¡§
Ġá¡¥á¡Ńá¢ĳ á¡Ńá¢ĵ
Ġá¡¬ á¡ªá¢ŀ
á¡¬á¢ľ á¡ªá¡§
Ġá¡³ á¡¬á¡¦
Ġá¡¥á¡Ńá¡¬ á¡±
Ġá¡¥ á¡ªá¢ĳ
á¡±á¡± á¡ªá¡§
á¡ªá¢ĳá¢Ļ á¡§
á¡ª á¡ªá¢Ļ
á¡Ńá¢ŀ á¡«
á¡Ńá¡ª á¡ªá¡³
Ġá¡¸ á¡Ńá¢ľ
á¡Ńá¢Ķ á¡³
á¢Ļ á¡³
Ġá¢ĺá¡ªá¢ŀ á¡§
Ġá¢ľ á¡ªá¢ŀ
Ġá¡¬ á¡¬á¢ŀ
á¡ª á¡Ńá¢Ĭ
á¡Ńá¢ Ľ
Ġá¡³á¡ªá¡¬á¡¬ á¡ªá¡ªá¢Ķá¡ªá¡§
á¡ªá¡³ á¡ªá¢Ĳ
Ġá¢ľ á¡ªá¢Ĭá¡ªá¡¨
á¡¬ á¡Ńá¡§
á¡Ńá¢ ĭ
Ġá¢ĺ á¡Ńá¢İ
á¡Ńá¡±á¡± á¡Ńá¢ĳ
á¡ªá¡±á¡± á¡ªá¡Ńá¡§
Ġá¡ ĵ
á¡ ¯
á¡ªá¢ ĵ
Ġá¢ľ á¡ªá¡±á¡±
Ġá¡³á¡ªá¡¬ á¡¬á¢īá¡¨
Ġá¡¥á¡Ńá¡¬ á¡³
á¡¬á¡ªá¡ª á¡ªá¡§
Ġá¢ĭá¡Ńá¡¬á¢ Ĭ
Ġá¡³á¡ªá¡¬á¡¬ á¡ªá¡ªá¡³
á¡ªá¡« á¡¨
Ġá¡¥ á¡ªá¡³
Ġá¡¥á¡Ńá¡¬á¢ ŀ
Ġá¡³ á¡¬á¢ļ
Ġáł ª
Ġá¡¥á¡Ńá¡¬ á¡ªá¢Ļ
á¡ªá¢Ļ á¡ªá¢ĩ
á¡ ¦
Ġá¡¥á¢ ĭ
á¡³ á¡ªá¡§
Ġá¢ĺ á¡Ńá¢ĳ
á¡Ńá¢Ĭ á¢Ķá¡ªá¡§
Ġá¡´ á¡Ńá¡«
á¡¬ á¡ªá¡ªá¡³
Ġá¢ĺ á¡Ńá¢Ļ
á¡ªá¢Ĭ á¡ªá¡Ńá¡§
Ġá¡¥ á¡ªá¡´
Ġá¡¥ á¡¬á¢ĳ
Ġá¡¸ á¡Ńá¡³
Ġá¢Ķá¡Ńá¢ŀ á¡±á¡±
á¡ªá¡³ á¡ªá¡¨
á¡Ńá¡¬á¢ Ĭ
Ġá¢Ĭá¡ªá¢Ļ á¡ªá¡¬á¡¨
Ġ (
Ġá¡´á¡Ńá¡¬á¢ ĭ
Ġá¡¥á¡Ńá¡¬ á¡¬á¢ĳ
Ġáł ¤
á¡ª á¡Ń
Ġá¢Į á¡¬á¡±á¡«
á¡Ńá¡¬ á¡¨
á¡¬á¢Ļ á¡§
Ġá¡¥á¡Ńá¢ĳ á¡ªá¡§
Ġá¢Ķ á¡ªá¡Ńá¡ªá¢Ĭ
Ġá¡¥á¡Ńá¡¬ á¡«á¡¨
Ġá¡¥á¢ Ľ
Ġá¢Ķ á¡¬á¢ĳ
á¡Ńá¡±á¡± á¡ªá¡Ńá¡§
Ġá¡¥ á¡Ńá¢ļ
Ġá¢Ĭ á¡ªá¡Ńá¢Ĭ
á¡ªá¡ªá¢Ĭ á¢Ĭ
á¢Ľ á¡¬á¢ĳ
Ġá¢Ķ á¡ªá¡±
á¡ªá¢ļ á¡³
á¡ªá¢Ľ á¡ªá¢Ŀ
á¢ Į
Ġá¡¥á¡ªá¢İ á¡¬á¢Ļ
Ġá¢ĺ á¡ªá¡³
Ġá¡³á¡ªá¡¬á¡¬á¢Ļ á¡ªá¢ĩ
Ġá¡³ á¡ªá¢ľ
Ġá¡¥ á¡¬
á¡Ńá¢ĳ á¢ļ
Ġá¡¸á¡Ńá¢ľ á¡ªá¢Ŀ
Ġá¢ĺá¡ªá¢Ĭ á¡ªá¢Ŀá¡¨
á¢Ĭ á¡ªá¡§
Ġ )
á¡Ńá¡±á¡± á¡ªá¡§
á¡Ńá¢Ŀ á¡¨
Ġáł ¬
Ġá¢Ī á¡ªá¢Ľá¡ªá¢Ŀ
á¡Ńá¢Ļ á¡Ńá¢ĩ
á¡Ńá¢Ļ á¡ªá¢Ĳ
á¡ªá¡±á¡± á¡Ńá¡§
Ġá¡¬ á¡Ńá¢Ĭ
Ġá¢ĺ á¡Ńá¢ŀ
Ġá¡¥ á¡ªá¢Ķ
Ġá¢Ĭ á¡ªá¢Ŀ
Ġá¢Ķ á¡ªá¡±á¡±
č Ċ
Ġá¡´á¡Ńá¢ĳ á¡ªá¡ªá¡³
á¡¬á¢ľ á¡ªá¢Ĳ
á¢Ľ á¡«
á¡ªá¢Ļ á¡ªá¡¬á¡¨
á¢ İ
Ġá¡¥ á¡Ńá¡§
¯ áł
Ġá¢ĺ á¡ªá¢Ļ
á¡Ńá¡ªá¡ª á¡ªá¡«
Ġá¡¥á¡Ńá¡¬á¡³ á¡ªá¢Ŀ
á¡¬á¡± á¡³
Ġá¡¯ á¡Ńá¢Ļá¡Ńá¢ĩ
á¡ªá¢Ķ á¡Ńá¡§
Ġá¢ĺ á¡Ńá¡±á¡±
Ġá¡´ á¡Ńá¢ŀ
Ġá¡¬ á¡¬á¢Ĳ
Ġá¢ĺ á¡Ńá¢Ķ
Ġá¢Ļ á¡ªá¡±á¡±á¡ªá¡§
á¡Ńá¢Ļ á¡ªá¡§
á¡ªá¡±á¡±á¡Ńá¢ĳ á¡«
á¡ªá¡ª á¡ªá¡§
Ġá¡¥á¢Ļ á¡Ńá¢Ŀ
á¡¬á¢İ á¡³
Ġá¢ļ á¡¬á¢Ļ
Ġá¡¸ á¡Ńá¢ĳ
Ġá¡´á¡Ńá¡¬á¢ Ĭ
á¡ªá¢Ĭ á¡¬á¡¦
á¡ªá¢Ķ á¡§
á¡ªá¢ĳ á¢ļ
Ð °
Ġá¢Ĭ á¡ªá¢İ
Ġá¢ĺ á¡ªá¡¬
Ġá¢Ĭá¡ªá¡Ńá¢Ĭ á¡ªá¡Ńá¡§
Ġá¢ĺ á¡ªá¢Ĳá¡¨
áłłáł Ń
Ġáł ²
á¡Ńá¢ŀ á¡ªá¢Ĳ
á¡¬á¢ĭ á¡Ńá¢ĳ
á¡Ńá¡¬á¢ ĭ
á¡ªá¡ª á¡ªá¢Ķá¡«
Ġá¢ĺ á¡ªá¢ĭá¡Ńá¡§
á¡Ńá¡¬á¢ ĳ
Ġá¡¥ á¡¬á¢Ļ
Ġá¡¥ á¡ªá¢ĳá¢Ļ
áł ĥ
Ġáł¤ áł
Ġá¡¥á¢ŀ á¢Ĭ
Ġá¡¥á¡Ńá¡¬á¢ ĳ
á¡Ńá¢Ļ á¡§
Ġá¢Ķá¡Ńá¢ŀá¡±á¡± á¡ªá¡±á¡±á¡Ńá¢ĳá¡«
Ġá¡¸ á¡ªá¡¬
Ġá¡´á¡Ńá¡¬á¢ Ļ
Ġ á¡Ńá¡³
Ġá¡´á¡Ńá¢ĳ á¢Ľá¡³
Ġá¡¥á¡Ńá¢ŀ á¡Ńá¡§
Ġá¡¥á¡Ńá¡¬á¢Ĭ á¡ªá¡¨
á¡Ń á¡¬á¡§
Ġá¢Ķá¡ªá¡¬ á¡¬á¡ªá¡ªá¡ªá¡§
áłłáł ¨
á¡ªá¢ĳ á¡ªá¢Ľá¡³
Ġá¢ļ á¡ªá¢ĩ
Ġá¡¯ á¡ªá¢ŀ
á¡Ńá¢Ķ á¡Ńá¡§
Ġá¢ĺ á¡Ńá¡¬
Ġá¢ļ á¡¬á¡±á¡«
Ġá¢ĺ á¡Ń
á¡ªá¢Ľ á¡ªá¡«
áł İ
á¡¬ á¡ªá¡ªá¢Ķá¡ªá¡§
Ġáł ¶
Ġá¡³ á¡ªá¢Ķá¡§
á¡Ńá¢ĳ á¢Ļ
á¡¬á¢Ķ á¡«
Ġá¡³ á¡ªá¡±á¡±
á¡ªá¢Ĭ á¡ªá¢Ŀ
Ġá¡¥ á¡Ńá¡ªá¡ª
á¡ªá¢Ļ á¡ªá¡«
Ġá¡´á¡Ńá¡¬á¢ ŀ
Ġá¢Ĭ á¡ªá¢ĭá¡Ń
á¡ªá¢Ĭ á¢ĳ
Ġá¢Ķ á¡ªá¢ŀ
á¡¬á¢ĭ á¡Ń
Ġá¢Ķá¡ªá¡Ńá¡ªá¢Ĭ á¡¬á¢Ĳ
Ġá¡³ á¡¬á¢ĳ
Ġá¡¥ á¡³
á¡¬á¡±á¡± á¡ªá¡Ńá¡§
Ġá¡³ á¡ªá¡ªá¡ªá¢Ķá¡«
Ġá¡¬ á¡ªá¢ĳ
Ġá¡¥ á¡ªá¢ľ
á¡Ńá¡ª á¡ªá¢Ķ
Ġá¢ĭá¡Ńá¡¬á¢İ á¡Ńá¢ĵ
á¡ªá¢ŀ á¢Ļ
Ġá¡¥ á¡ªá¡¬
áł Ń
Ġá¡³ á¡ªá¡¨
Ġá¢Ķ á¡¬á¡³
á¡¬á¢Ŀ á¡¨
á¡ªá¡±á¡± á¡ªá¢Ŀ
á¡Ńá¢Ĭ á¡ªá¡§
Ġá¢Ī á¡Ńá¢ŀ
Ġá¢ĭá¡Ńá¡¬á¢ Ļ
Ġá¢Ĭ á¡ªá¢Ķá¡ªá¡§
áł¢áł ¨
Ġá¡´á¡Ńá¢ĳ á¡Ńá¡ªá¡ªá¢Ķá¡ªá¡§
á¡ªá¢ĭá¡Ń á¡³
Ġá¡¥á¡ªá¢Ľ á¡¬á¢Ĳ
á¡ªá¢Ĭ á¡ªá¡«
Ġá¡¥ á¡ªá¡±á¡±á¡Ńá¢ĳ
Ġá¡³ á¡ªá¡«á¡¨
Ġá¢Ķ á¡Ńá¡±
Ġá¡¯ á¡ªá¢İ
Ġ á¡Ńá¡Ńá¡§
Ġá¡¬ á¡ªá¢Ķ
Ġá¡¯á¡¬á¢Ĭ á¡ªá¡§
Ġá¡¥ á¡¨
á¡¬ á¡ªá¢Ĭ
Ġá¢Ļ á¡ªá¢Ĭá¡ªá¡§
á¡Ńá¡±á¡± á¡³
á¡¬á¢Ļ á¡³
á¡ªá¢ļ á¡¬á¢ĳ
Ġá¡¬á¡ªá¢ŀ á¢Ĭá¡ªá¡¨
á¡ªá¢ĳ á¢Ľ
Ġá¢Ķá¡ªá¡¬ á¡¬á¡§
Ġá¡¥ á¡ªá¢Ļ
á¡ªá¢ĩ á¡¨
Ġá¡´á¡Ńá¢ĳ á¡Ńá¡°á¡¨
Ġ -
á¡Ńá¡±á¡± á¡ªá¢Ŀ
Ġá¢Ī á¡Ń
á¡Ńá¡¬ á¡ªá¢Ĭ
Ġá¢Ķ á¡¬á¢ŀ
Ġá¡³ á¡ªá¢ĳ
Ġá¢ĺá¡Ńá¡¬á¢ ĳ
Ġá¡´ á¡Ńá¢Ķ
á¢ ľ
á¡ªá¢İ á¡ªá¢Ŀ
á¡ªá¡ªá¢Ĭ á¡±á¡±
á¡ªá¢Ĭá¢Ļ á¡ªá¡«
á¢Ļ á¡ªá¡§
Ġá¢ĭá¡Ńá¡¬ á¡³
á¡Ńá¢Ķ á¡¬á¡±á¡±
á¡ ²
Ġá¢ĺ á¡Ńá¡ªá¡ªá¡ªá¡«
Ġá¢Į á¡ªá¡§
Ġá¢Ķ á¡Ńá¢ľ
á¡Ńá¢ĳ á¢īá¡¨
Ġá¡´ á¡Ńá¢ľ
á¡ªá¢ĳ á¡«
Ġá¢ĭá¡Ńá¡¬á¢ ļ
Ġá¢Ļ á¡§
Ġá¡¥á¡Ńá¡¬á¢ Ķ
á¡¬á¢ ĵ
Ġá¢Ķ á¡¬
áłłáł ·
áł¡áł Ń
Ġáł ģ
Ġá¡¸ á¡Ńá¡±á¡±
Ġá¡¥ á¡ªá¡±á¡±
á¡¥ á¡Ńá¡¬
Ġá¡¬ á¡Ńá¢ŀ
Ġá¡´á¡Ńá¢ĳ á¡³
Ġá¡¸ á¡ªá¡±á¡±
á¡¬á¢Ĳ á¡¨
á¡¬á¢Ļ á¡ªá¡§
Ŀ á¡¨
Ġá¡³ á¡¬á¢Ķá¡«
á¢ļ á¡¬á¡§
Ġá¢Į á¡¬á¡±á¡³
Ġá¢Ĭ á¡ªá¡³
Ġá¡¥á¡Ńá¢ļ á¡¬á¢Ŀ
Ġá¢Ķ á¡ªá¢ĳ
á¡¬ á¡ª
Ġá¡¥á¡Ńá¢Ļ á¡³
Ġá¡¥ á¡Ńá¢ľ
Ġá¢Ķ á¡ªá¢Ŀá¡¨
Ġá¡¬á¡Ńá¡¬ á¡¬á¢Ĳ
ĠãĢ ī
Ġá¡³ á¡¬á¢Ļá¡§
Ġá¡¸ á¡Ńá¢Ķá¡¬á¡±á¡±
á¡ªá¢ĳ á¡ªá¡§
á¡Ńá¢Ĳ á¡¨
Ġá¡¥á¡Ńá¡¬á¡ªá¢Ļ á¡Ńá¢Ķ
á¡±á¡± á¡ªá¢Ľá¡³
á¡ªá¢ļ á¡§
Ġá¡¥á¢Ľ á¡«
á¡ªá¢ļ á¡¬á¡§
á¡Ńá¢ Ł
á¢Ļ á¡ªá¢ĩ
á¡¬ á¡ªá¡¬á¡¨
ĠãĢ Ī
Ñ į
á¡ªá¢Ĭ á¢ļá¡«
á¢ Ī
á¡ªá¢ŀ á¢ĳ
Ġá¡¥á¡ªá¢ŀ á¡ªá¡Ńá¡§
Ġá¡¥ á¡Ńá¡±
Ġá¡¸ á¡ªá¢Ļ
Ġá¢Ķá¡Ńá¢ľ á¡Ńá¢Ĳ
á¡¬á¢Ĭ á¢Ķá¡ªá¡§
á¡Ńá¢Ļ á¡³
Ġáł ł
Ġá¢ľá¡ªá¡±á¡± á¡ªá¢Ĭ
áł £
Ġá¡³á¡ªá¡¬ á¡¬á¡±á¡±á¡Ńá¢ĳ
áł ³
Ġá¡¥á¢ ĳ
Ġáł ¦
Ġá¢ĺ á¡Ńá¡ªá¡ªá¢Ļ
ãĢ Ĭ
á¡ªá¡± á¡«
Ġ Ð
Ġá¢ĺá¡Ńá¡¬á¢ŀ á¡³
Ġáł °
Ġá¢Ĭ á¡¬á¢Ļ
áł ¬
Ġá¢ĭá¡Ńá¡¬á¢ ĳ
Ġá¡¸ á¡Ńá¡¬
Ġá¢ĺ á¡ª
Ġá¡¥á¡ªá¢İá¡¬á¢Ļ á¡Ńá¢ŀá¡ªá¢Ĳ
Ġá¡³á¡¬á¢ĳ á¡§
Ġá¢Į á¡Ńá¡¬á¢ŀ
Ġá¡¯ á¡Ńá¡¬á¢ĭ
á¡¬á¢ľ á¡ªá¢ĳ
Ġá¢Ķ á¡¬á¢ĩ
Ġá¡¥á¡ªá¢Ľ á¡¬á¢ĳ
á¡¬á¢ĳ á¡ªá¢Ľá¡³
Ġá¡¯ á¡Ńá¢į
Ġá¢Į á¡ªá¢ŀ
á¡Ńá¢ĳ á¡§
Ġá¡¯ á¡ªá¡±á¡±
Ġá¡³á¡ªá¡¬ á¡¬á¢Ľá¡³
á¡´ á¡Ńá¢ĳ
á¡Ńá¢Ļ á¡ªá¡«
Ġá¢ĺ á¡ªá¡±
Ġá¢Ĭá¡ªá¢ĳ á¡§
á¡¬á¢ĳ á¢ļ
Ġáł ³
Ġá¢ĺá¡Ńá¡¬á¢ İ
á¡ªá¡±á¡±á¡Ńá¢ĳ á¢Ľá¡³
Ġá¡¸ á¡ªá¢ĳ
Ġá¢Ķ á¡Ńá¡¬
Ġá¢ļ á¡¬á¡±
Ġá¡¯ á¡ªá¢Ŀ
á¡Ńá¢ļ á¡¬á¡§
á¡¬á¢Ĭ á¡ªá¡¨
Ġá¢Į á¡Ńá¡¬á¡§
áł °
á¡¬á¢ĳ á¢Ļ
á¡Ńá¡ª á¡ªá¢ļá¡«
, "
á¡³ á¡ªá¡¬
Ġá¡¥á¡Ńá¡¬á¡ªá¢Ļá¡Ńá¢Ķ á¡Ńá¢Ļá¡ªá¡§
Ġá¢ľ á¡ªá¢İá¡ªá¢Ŀ
Ġá¢ĺ á¡ªá¡¬á¡¬á¢ĳ
Ġá¡¥á¡ªá¡´ á¡Ń
á¡ªá¡ ²
Ġá¡³ á¡ªá¢īá¡¨
á¡ªá¡ªá¢Ĭá¢Ĭ á¡¬á¡¦
á¡Ńá¢į á¡¨
Ġá¡¥á¢ŀ á¢Ļ
Ġáł ¨
Ġá¡³á¡¬á¢ļ á¡¬á¡¬á¡¨
Ġá¡¥á¡ªá¢ŀ á¢īá¡¨
Ġá¡¸á¡ªá¢ŀ á¡¬á¡§
Ġá¡¥ á¡ªá¡ªá¡ª
Ġá¡¥ á¡´
Ġá¢Ī á¡ªá¢Ļ
á¡¬á¢Ĭ á¡ªá¡Ńá¡§
Ġá¡´á¡Ńá¢ľ á¡³
Ġá¢Īá¡Ń á¡Ńá¢Ĳ
Ġá¡¥á¡ªá¢ŀ á¡³
į á¡¨
Ġá¢Ķ á¡Ńá¢Ļ
Ġá¢ĺá¡Ńá¢İ á¢Ļ
Ġá¡¥ á¡ªá¡ªá¢Ĭ
áł¡áł ¨
Ġá¡¸ á¡Ń
áł¡áł ·
Ġá¢Ĭ á¡ªá¢Ķ
Ġá¡¸á¡ªá¢İ á¡Ńá¢ĩ
Ġá¡³á¡ªá¡¬ á¡¬á¢Ĳá¡¨
á¡Ńá¡ªá¡ª á¡ª
áł¢áł Ń
Ġá¢ĺá¡Ńá¡¬á¢ ĭ
á¡Ńá¢Ļ á¡ªá¢ĩ
Ġá¢ĭá¡Ńá¡¬á¢ Ķ
á¡ªá¢Ĭ á¢Ķ
á¡Ńá¢ĳ á¢Ļá¡§
Ġá¢ĺá¡ªá¢ĳ á¡³
Ġá¡¯ á¡ªá¢Ŀá¡¨
Ġá¡¥á¡¬ á¡¬á¢İá¡³
á¡ªá¢ĭ á¡Ńá¢Ĳ
á¡ªá¢ĳ á¡ªá¡ªá¡ªá¡³
á¢ŀ á¡«
Ġá¡´á¡Ńá¡¬á¢Ļ á¡Ńá¢Ĭ
á¡¬á¢ĳ á¡ªá¡§
Ġá¢ľ á¡ªá¡±á¡±á¡³
Ġá¢Ī á¡ªá¢Ŀ
Ġá¡¸ á¡ªá¡±á¡±á¡ªá¡§
Ġá¢ĺ á¡ªá¢Ķ
Ġá¢Ĭ á¡ªá¡Ńá¡§
á¡ªá¡ª á¡ªá¡«
Ġáł¤áł ¨
á¡ªá¢ļ á¡¬á¡Ńá¡§
Ġá¢Ķ á¡¬á¡°á¡¨
Ġá¡´á¡Ńá¢ĳ á¡Ńá¡§
á¡ªá¡´ á¡Ńá¢ŀá¡«
Ð° Ð
á¡Ńá¡±á¡± á¡ªá¡«
Ġá¡¸á¡Ńá¡³ á¡¬á¡¦
á¡±á¡± á¡ªá¡ªá¡ªá¡³
Ġá¢ĭá¡Ńá¡¬á¢İ á¡Ńá¢Ľ
Ġá¡¬ á¡ªá¢į
á¡´ á¡Ńá¢Ŀ
á¡ªá¢ĳ á¢īá¡¨
Ġá¡¥á¢İ á¡Ńá¡°á¡¨
Ġá¡¥á¢ĭ á¡Ńá¡§
áł¢áł ¯
Ġá¡¬á¡Ńá¡¬ á¡³
Ġá¢ļ á¡ªá¡±á¡±á¡ªá¡§
á¡¬á¢Ļ á¡ªá¡«
á¡ªá¢İ á¢Ķ
Ġáł µ
Ġá¡¥á¢ Ķ
á¡Ńá¡ªá¢Ĭ á¢Ķ
á¡Ńá¡± á¡«
Ġá¢Ĭ á¡¬á¢ļ
á¡ªá¢ĳ á¢Ĭá¡ªá¡¨
Ġá¢ Ł
Ġá¢Į á¡Ńá¡¬á¡ªá¢Ĭ
á¡¥ á¡Ńá¢ŀ
áł¤áł ·
Ġá¡¥á¡Ńá¡¬á¢ ĭ
á¡ªá¢ŀ á¡ªá¢Ľá¡³
Ġá¢Ĭá¡ªá¢Ļ á¡Ńá¡§
á¢Ľ á¡ªá¡«
Ġá¡¥á¢Ĭ á¡ªá¡¨
Ġáł ¡
Ġá¢Į á¡ªá¢Ļá¡³
Ġáł ¢
á¡¬á¢į á¡¨
Ġá¢ļ á¡ªá¢ŀ
Ġá¡¥á¡Ńá¡¬ á¡ªá¢Ĭá¢Ĭ
Ġá¡´á¡Ńá¡¬á¢ ĳ
Ġá¡¸á¡Ńá¢ĳ á¡´
Ġáłł áł
á¡Ńá¡¬á¢ İ
á¡¬á¢Ľ á¡ªá¡«
Ġá¡¸ á¡Ńá¢Ļá¡§
á¡ªá¡±á¡±á¡Ńá¢ĳ á¡ªá¡ªá¡³
á¡ªá¢ĳá¢Ļ á¡³
Ġá¢Ĭá¡ªá¢ŀ á¡ªá¡¬á¡¨
á¡´ á¡Ńá¢ŀ
Ġá¢ļ á¡¬á¢ĳ
á¡ªá¡ª á¡ªá¢ļá¡«
Ġá¡¬á¡¬á¢ŀ á¡±á¡±
Ġá¡¥á¡Ńá¡ªá¡ª á¡ªá¡±á¡±á¡ªá¡§
Ġá¡¥á¡ªá¢Ľá¡¬á¢ĳ á¢ĳ
Ġá¡´á¡Ńá¡¬á¢ Ŀ
Ġá¢ĺá¡Ńá¡¬á¢İ á¡ªá¡§
ãĢ ĭ
Ġá¡¸á¡ªá¢İ á¢Ļá¡³
á¡ªá¢ĳ á¡¬á¢ĩ
á¡³ á¡ªá¢ŀ
Ġá¢Ĭá¡ªá¢ŀ á¡ªá¢Ĭá¢Ļá¡ªá¡«
á¢Ł á¡¦
á¡Ńá¢ ļá¡§
Ġá¡¯á¡ªá¡¬ á¡¬á¢ŀ
Ġá¢Ķ á¡¬á¡¬á¡¨
Ġá¡¯ á¡ªá¢į
á¢Ľ á¡¬á¡«á¡¨
Ġá¡³á¡ªá¡¬á¡¬á¢Ļ á¡ªá¢Ĳ
Ġ ;
Ġá¡¥á¡Ńá¢ŀ á¡Ńá¢Ķ
áłłáł ¯
á¢Ļ á¡ªá¢Ĳá¡¨
áłłáł ¢
Ġá¡¯á¡ªá¡¬ á¡¬á¢Ĭ
Ġá¡¯ á¡Ńá¡±á¡±
Ġá¡¸á¡ªá¡¬ á¡¬á¢ŀ
Ġá¡´á¡Ńá¡¬á¢Ĭ á¡ªá¡Ńá¡§
á¡ªá¡ª á¡ªá¢Ķ
Ġá¡¥á¡ªá¢Ķ á¡ªá¡±á¡±
á¡Ńá¢ĳ á¡«
Ġá¢ĭá¡Ńá¡¬á¢Ĭ á¢Ľ
á¡ªá¢Ļ á¡Ńá¢Ŀ
Ġá¢ĺá¡ªá¢Ĭ á¢ŀá¡«
Ġá¢Ĭá¡¬á¢Ļ á¡ªá¡Ńá¡§
á¢ĭ á¡Ńá¢ĳ
Ġá¢ĭá¡Ńá¡¬á¢Ļ á¡ªá¢ĳ
á¡¬á¢ĳ á¢īá¡¨
á¡ªá¢ĳ á¡ªá¢Ĳ
Ġá¡¥á¡¬á¢ŀ á¡ªá¢Ĭá¢Ķá¡ªá¡§
Ġá¡¸ á¡ª
Ġá¢ĺá¡ªá¢ĳ á¡ªá¢Ĭá¡ªá¡«
á¢Ł á¢ŀ
Ġá¡¥á¢ŀ á¢Ĭá¡ªá¡¨
Ġá¢ľá¡ªá¡±á¡± á¡Ńá¢įá¡¨
Ġá¢Ķ á¡Ńá¡¬á¢ĳ
á¡Ńá¢ĳá¢ļ á¡Ńá¡Ńá¡§
á¡ªá¢Ļ á¡ªá¡§
Ġá¢ľá¡ªá¡´ á¡Ńá¢Ļá¡ªá¢Ĳ
Ġá¢ĺ á¡ªá¡´
Ġá¢ĺ á¡Ńá¢ĵ
á¡Ńá¢ĭ á¡Ń
Ġá¢Ķá¡ªá¡± á¡ªá¢īá¡¨
Ġá¢ ¤
Ġá¢ĺá¡Ńá¢İá¢Ļ á¡ªá¢Ļá¡³
Ġá¡¸á¡Ńá¢Ķá¡¬á¡±á¡± á¡Ńá¡§
Ġá¡´á¡Ńá¡¬á¢ĭ á¡Ńá¡§
á¡ªá¡ª á¡ªá¢Ĳ
á¢Ļ á¡ªá¡¬á¡¨
á¢ĳ á¡ªá¢Ĳ
á¡¥ á¡Ńá¡¬á¢Ĭ
Ġá¢Īá¡Ńá¢ŀ á¡³á¡ªá¡§
Ġá¢ĺá¡ªá¢ŀ á¡ªá¢īá¡¨
á¡ªá¡ªá¡ª á¡ªá¡§
á¡Ńá¢Ĭ á¡ªá¡Ńá¡§
Ġá¡¬ á¡ªá¢Ĭ
Ġá¡¥ á¡Ńá¡ªá¢Ĭá¢Ķ
Ġá¡³ á¡ªá¢Ļ
á¡¬á¢Ĭ á¡ªá¢Ŀ
Ġá¢Ĭ á¡ªá¡°á¡¨
áł¤áł ¯
á¡Ńá¡ª á¡ªá¢ĳ
Ġá¢ļá¡ªá¢ŀ á¡¬á¡¬á¡¨
á¡¬ á¡ªá¡ªá¢Ļ
Ġá¢ĺá¡Ńá¢İ á¢Ļá¡§
Ġá¢Į á¡Ńá¡¬á¢
áł¤áł Ń
Ġá¡¬á¡Ńá¢Ĭ á¡¬á¢ľá¡ªá¢Ĳ
Ġá¢ļ á¡«
á¢ ĩ
Ġá¡¥á¡Ń á¡´
Ġá¡´á¡Ńá¡¬á¢ĭ á¡Ń
á¡¬á¢İ á¡ªá¢ĩ
Ġá¢ļ á¡ªá¢ļ
Ġá¢ļ á¡¬
Ġá¢Ĭá¡ªá¢ŀ á¡ªá¢Ĭá¢ĳ
Ġá¡¯ á¡¬á¡±á¡±
á¡ªá¡ª á¡Ńá¢Ŀ
Ġá¡´á¡Ńá¢Ķ á¡Ńá¡Ńá¡§
á¢ĩ á¡¨
Ġá¢Ĭ á¡¬á¢Ľá¡³
Ġá¡¥á¡ªá¡³ á¢ļá¡³
á¡ªá¢Ķ á¡¬á¡§
á¡³ á¡ªá¢Ĳ
Ġá¢Į á¡ªá¢Ĳ
á¡¬ á¡¨
á¡¬á¢Ļ á¡ªá¢ĩ
Ġá¢ļ á¡ªá¡±á¡±
á¢Ł á¢
Ġá¡¥á¡ªá¡¬ á¡¬á¢Ĳ
áł ¨
Â ·
Ġá¢ĺ á¡§
Ġá¡¬á¡¬ á¡±á¡±
á¡ªá¢ ĺ
á¡Ńá¢ŀ á¡¬á¡§
á¡ªá¢Ľ á¡¬á¢ĳ
Ġáł¶ áł¢áł¨
Ġá¡¥á¡Ńá¡¬á¡± á¡ªá¡§
Ġá¡¯á¡ªá¡¬á¡¬á¢Ĭ á¡ªá¢į
á¡ªá¢İ á¢Ľá¡¬á¢ĳ
áł ·
á¡±á¡± á¡³
Ġá¡¬ á¡Ńá¡±á¡±
Ġá¢ĺ á¡Ńá¢Ĭ
á¡ªá¡±á¡± á¡ªá¡«
Ġá¡¥á¡Ńá¡¬á¡ªá¢Ĭá¢Ĭ á¡ªá¢ŀ
Ġá¢ĺá¡ªá¡¬ á¡¬á¢İá¡³
á¡Ńá¡« á¡¨
á¡ªá¢ĭá¡Ńá¢ĳ á¢Ľá¡³
Ġáł Ń
Ġá¡¥á¡Ńá¡¬á¢ Ŀá¡¨
á¢ļ á¡¬á¢ĳ
Ġá¡¥á¢Ĭ á¡¬á¢ĳ
Ġá¢Ķ á¡¬á¢Ļ
Ġá¢Ĭ á¡ªá¡§
Ġá¢Ĭ á¡¬á¢ĳ
Ġáł ´
Ġá¢ĺá¡Ńá¢Ļ á¡Ńá¢Ŀá¡¨
á¡ªá¢Ľ á¡«
Ġá¢ĺá¡ªá¢ĳ á¢Ĭ
á¡Ńá¡ªá¡ª á¡ªá¡§
Ġá¢Į á¡ªá¢Ķá¡«
Ġá¢Įá¡Ńá¡ªá¢Ĭá¡±á¡± á¡Ńá¢ĳá¢ļá¡Ńá¡Ńá¡§
Ġá¡¬á¡ªá¢Ķ á¡ªá¢ĩ
á¡ªá¢ĭá¡Ńá¢ĳ á¢ĭá¡Ń
á¡ªá¡´ á¡Ńá¢ŀ
Ġá¡¸ á¡ªá¢Ŀá¡¨
á¡ªá¡ªá¢Ĭ á¡±
Ġá¡¥á¡Ńá¡¬á¢Ĭ á¢ĭ
Ġá¡¸á¡ªá¡¬ á¡¬á¢Ŀá¡¨
Ġá¡¥á¡¬ á¡ªá¢Ĭá¢Ĭ
Ġá¢Ķá¡Ńá¢Ļ á¡Ńá¢ĳ
á¡¬á¢ŀ á¢Ļ
Ġá¢ ŀ
Ġ Ñ
Ġá¢ĺá¡ª á¡Ńá¢Ĭá¡ªá¡¨
Ġá¢ĭá¡Ńá¡¬á¢İá¡Ńá¢Ľ á¡¬á¢Ĳ
Ġá¡¥á¡Ńá¢Ļ á¡ªá¢īá¡¨
Ġá¢Ī á¡ªá¡ª
á¡ªá¢ĭ á¡Ńá¢Ļ
Ġá¢ĺá¡Ńá¡¬á¢ĭ á¡Ńá¢ŀ
Ġá¢Ķá¡Ńá¡± á¡Ńá¢Ķ
Ġá¢ĺá¡ªá¡±á¡± á¡Ńá¡³
Ġá¡¬á¡ªá¢ŀ á¡¬á¢į
Ġá¢ľ á¡Ńá¢Ķ
Ġá¢ĺá¡Ńá¡¬ á¡³
á¡ªá¡ªá¢Ĭ á¢Ķ
Ġá¢ļ á¡ªá¢Ĭ
á¡¬á¢ľ á¡ªá¢ŀ
Ġá¡¸ á¡Ńá¢Ļ
á¡¬á¢ľ á¡ªá¢Ľá¡³
á¡ªá¡³ á¢Ķ
á¡Ń á¡ªá¡¬á¡¨
Ġáł ®
Ġá¡¸ á¡ªá¢ľ
á¢Ĭ á¡¬á¡§
á¡¬á¢ŀ á¡«
á¡Ńá¢İ á¢Ľá¡«
Ġá¢Ķ á¡Ńá¡¬á¢
Ġá¡¥á¡ªá¡¬ á¡¬á¢İá¡ªá¢ĩ
á¡Ńá¢ŀ á¢ĳ
Ġá¡¸ á¡ªá¢Ķ
Ñ Ģ
á¢Į á¡Ńá¡ªá¢Ĭá¡±á¡±
Ġá¢Ĭá¡ªá¢İ á¡ªá¡§
Ġá¡³á¡ªá¢ŀ á¡ªá¡±á¡±á¡Ńá¡§
Ġá¢ĺá¡Ńá¢Ļ á¡Ńá¢ŀ
Ġá¢ļ á¡¬á¢İ
Ġá¡¯ á¡ªá¢Ķá¡Ńá¡§
â Ģ
Ġ Â·
áł ´
Ġá¢Ķá¡Ńá¡¬ á¡±
Ġá¡´á¡Ńá¡¬á¢ Ķ
Ð ½
á¡¬á¢ĭ á¡Ńá¡§
Ġá¡¥á¡ªá¡±á¡±á¡Ńá¢ĳ á¡§
Ġá¢Ķá¡¬á¢ĳ á¡Ńá¡¬á¡¨
á¡ªá¢Ĭ á¢Ĭá¡ªá¡¨
á¡Ńá¡ ¦
Ġá¡¥á¡Ńá¡¬ á¡´á¡Ńá¢Ŀ
Ġá¡´á¡Ńá¡¬á¢Ĭ á¡ªá¡¨
Ġá¡¥á¡Ńá¡¬á¡ªá¢Ļ á¡Ńá¢Ŀ
áł¡áł ³
Ġá¢Ĭ á¡¬á¢ĭá¡Ń
á¡ªá¡³ á¢Ļ
Ġá¡¬ á¡Ńá¡³
Ġá¡¥á¡³ á¡ªá¡Ń
Ġá¡¥á¡Ńá¢ŀ á¡ªá¡§
á¢Ĭ á¡¬á¡¦
Ġá¡³á¡ªá¡¬ á¡¬á¢Ľá¡ªá¡«
Ġá¢ļ á¡¬á¡ªá¡ª
áł¤áł ¯áł
á¡ªá¢İ á¢Ľá¡«
á¡¬ á¡³á¡ªá¡¨
Ġá¡¥á¡ªá¢ŀ á¡³á¡ªá¡§
Ġá¡³á¡ªá¡¬á¡¬ á¡³á¡ªá¡¨
Ġá¢Įá¡ªá¢Ļ á¡ªá¢ĭá¡Ń
á¡ªá¢į á¡¨
Ġá¢Ķ á¡Ńá¢İ
á¡¬á¢Ĭ á¡¬á¡¦
Ġá¡¬ á¡ªá¢ĭá¡Ńá¡§
Ġá¢ļ á¡¬á¢ŀ
á¢Ĭ á¡ªá¢Ľá¡³
á¡Ńá¢Ĭ á¡ªá¢Ŀ
Ġá¡¯ á¡ªá¢Ķá¡³
áł¤áł ¨
áł¦áł ·
Ġá¡¥ á¡Ńá¢İ
Ġá¡¥á¡Ńá¢ĳ á¢Ľá¡³
Ġá¡¥á¢ ļ
Ġá¢ĺá¡Ń á¡Ńá¢Ŀá¡¨
á¡ªá¢Ļ á¡Ńá¡±á¡±á¡ªá¢Ŀ
á¡Ńá¡ ²
Ġá¡¸á¡Ńá¡±á¡± á¡Ńá¢ļ
Ġá¢ĭá¡Ńá¡¬ á¡ªá¢Ļ
áłłáł ¶
Ġá¡¥á¡¬á¢Ļ á¡ªá¢Ĭ
á¡¥ á¡Ńá¢ĳ
á¡Ńá¡ªá¢Ĭ á¢Ĭ
á¡ªá¡±á¡± á¡ªá¢Ľá¡³
á¡ªá¡±á¡± á¡ªá¡ªá¡ªá¡³
Ġá¡¥á¡Ńá¡¬á¢Ķ á¡Ńá¡¬á¡¨
áł ¯
Ġá¡´á¡Ńá¢ĳ á¡ªá¡ªá¡Ńá¢Ŀ
Ġá¡ ¶
Ġá¢Īá¡ªá¢ŀ á¢ļá¡³
áłłáł ³
Ġá¡¥ á¡Ńá¢Ķá¡³
Ġá¢ĺá¡ªá¢İ á¢Ļ
á¡¥ á¡ªá¢ŀ
Ġá¢ĺá¡Ńá¡¬á¢ Ķ
á¢ĺ á¡ªá¢ŀ
Ġá¡¸ á¡Ńá¡±
Ġá¡¥á¡Ń á¡Ń
Ġá¡¥á¡Ńá¡¬á¢ Ļ
Ġá¢Ĭá¡¬á¢ļ á¡¬á¢ľá¡ªá¢Ĳ
Ġá¢Įá¡ªá¢ŀ á¢Ĭ
Ġá¡¥á¡ªá¢İá¡¬á¢Ļ á¡Ńá¢ŀ
á¡ªá¢ĭá¡Ń á¡«
á¡´ á¡Ńá¢ŀá¡«
Ð ¾
á¢Ļ á¡Ńá¡§
Ġá¢Ķá¡Ńá¢ŀ á¡Ńá¡ªá¡ªá¢ļá¡«
Ġá¢ĺá¡ªá¢Ĭ á¡ªá¢Ļá¡³
Ġá¡¸ á¡Ńá¡±á¡±á¡Ńá¢ĳ
á¡ªá¢ĭ á¡Ńá¢Ŀ
á¡ªá¡±á¡±á¡Ńá¢ĳ á¡Ńá¡§
Ġá¡´á¡Ńá¢ĳá¡³ á¡ªá¢ļá¡³
Ġá¡¥ á¡ªá¡ªá¢Ĭá¢Ĭá¡¬á¡¦
¬ áł¤
Ġá¢ĺá¡ªá¢ŀ á¡Ńá¢īá¡¨
Ġá¡¸á¡ª á¡Ńá¢ĳá¡«
Ġá¢Ĭ á¡¬á¡§
á¡¥ á¢ŀ
Ġá¡¬ á¡ªá¡±á¡±á¡Ńá¡§
Ġá¡´á¡Ńá¡¬á¢ŀ á¡«
Ġá¡¥á¡± á¡ªá¢ĭá¡Ń
Ġá¡¯ á¡ªá¢Ļá¡§
Ġá¢ĺ á¡ªá¢ĭ
á¡¬á¢Ľ á¡§
Ġá¡¬á¡ªá¢ĳ á¡ªá¡±á¡±á¡³
Ġá¡¬á¡Ńá¡¬ á¡¬á¡¨
Ġá¢Ĭ á¡¬á¡¦
á¡¬á¢Ķ á¡Ńá¡§
á¡Ńá¡¬ á¡¬á¢ĳ
Ġá¢ļá¡¬á¡± á¡ªá¢Ŀ
á¡ªá¡±á¡± á¡Ńá¢Ŀ
Ġá¡´á¡Ńá¢ĳ á¡±á¡±á¡ªá¡§
á¡ªá¢ŀ á¡ªá¡«
Ġá¢ļá¡¬á¢Ļ á¡ªá¡ªá¡ªá¡³
Ġá¢ĺ á¡ªá¡§
á¢Ľá¡¬á¢ĳ á¢Ļá¡§
Ġá¡´ á¡Ńá¢Ķá¡³
Ġá¢ľ á¡ªá¢ĩ
áł Ĭ
á¢Ļ á¡ªá¢Ľá¡³
Ġá¡¥á¢ŀ á¢ĭ
áł µ
á¢ļ á¡§
Ġá¢ĺá¡ªá¢Ļ á¡ªá¡§
Ġá¢ľá¡ªá¡´ á¡Ńá¡ªá¡ªá¡³
Ġá¡¬ á¡ªá¡ªá¡¬á¡¨
á¡ªá¢ŀ á¡ªá¢Ĳ
á¡Ńá¡ª á¡ªá¢ļá¡¬á¡Ńá¡§
Ġá¢ĺá¡ªá¢İ á¢Ľ
Ġá¡¥á¡Ńá¡¬á¢ĳ á¡ªá¢Ļ
Ġá¢Ķ á¡Ńá¢ĳ
Ġá¡¬ á¡Ńá¡ªá¡ªá¢Ķ
áł¡áł ¯
Ġá¡¥ á¡ªá¢Ľá¡³
á¡ªá¡´ á¡Ńá¢Ŀ
Ġá¡¥ á¡¬á¡±
Ġá¡¥á¡ªá¡ªá¡ª á¡Ńá¡«
á¡¥ á¡Ńá¡¬á¢
á¢Įá¡Ńá¡ªá¢Ĭá¡±á¡± á¡Ńá¢Ĳ
á¡¬á¢ĳ á¢Ļá¡§
Ġá¢ľ á¡Ńá¢Ķá¡³
á¢ļ á¡¬á¡ªá¡ª
Ġá¡³ á¡¬á¢Ļá¡ªá¡§
Ġá¢Ķ á¡ªá¢ľ
á¡ªá¢Ľ á¡¬á¢Ĳ
Ġá¡´ á¡Ńá¢ļ
á¡ªá¢ŀ á¡ªá¡§
Ġá¡¥á¡ªá¢ĳ á¡«
Ġá¡¯ á¡ªá¡ªá¡¬á¡¨
Ġá¡´á¡Ńá¢ŀ á¡ªá¡ªá¡ªá¡§
á¡ªá¡ªá¡ªá¢Ļ á¡ªá¢Ľá¡³
Ġá¢Ķ á¡Ńá¡¬á¢ŀ
Ġá¢ļ á¡¬á¡ªá¢Ĭ
Ġá¢ĺá¡Ńá¢ĳ á¡Ńá¡±á¡±á¡ªá¡«
Ġá¡´á¡Ńá¢ĳ á¡±á¡±
Ġá¡¥á¡Ńá¡¬á¢Ĭ á¡ªá¢Ŀá¡¨
Ġá¢Ī á¡ªá¢Ĳ
Ġá¡¸á¡Ńá¢ŀ á¡ªá¢Ĳ
Ġá¢Ķá¡Ńá¢ŀ á¡±á¡±á¡ªá¡§
á¡¬á¢ĩ á¡¨
Ġá¡¯á¡ªá¡¬ á¡¬á¢Ļ
Ġá¢ĺ á¡Ńá¡³
Ġá¡¯ á¡ªá¢Ķ
Ġá¢Ī á¡Ńá¢ľ
Ġá¡¥á¡Ńá¢ŀ á¡Ńá¢Ľá¡³
Ġá¡¥á¡Ńá¢ŀ á¡Ńá¢ĳá¢Ļ
Ñį Ð
Ġá¡¥á¡¬á¢ŀ á¡ªá¢ĭá¡Ń
á¢ĺ á¡ªá¢Ĭ
Ġá¡¯ á¡ªá¢Ĭ
áł ª
á¡¬á¢ĭá¡Ńá¢ĳ á¢ĭá¡Ń
Ġá¢Į á¡ªá¡±á¡±á¡³
Ġá¡¥á¡ªá¢ĳá¢Ļ á¡ªá¡§
Ġá¢ĺá¡ªá¢Ĭ á¡ªá¡§
Ġá¡¯ á¡¬á¢Ļá¡³
Ġá¡¯á¡¬á¢Ĭ á¡ªá¢Ļ
á¡ªá¡¬ á¡¬á¢ŀ
Ġá¢Į á¡ªá¡±á¡«
á¡Ńá¢ĭ á¡Ńá¡§
Ġá¢ ¥
Ġá¢Ĭá¡ªá¢ĳ á¡ªá¢ĭá¡Ń
µ áł¤
Ġá¡¥á¡Ńá¡¬á¡¬á¢ĳ á¡§
áł¡áł ¬
Ġá¡³á¡ªá¡¬ á¡¬á¡±á¡±
Ġá¢ĺá¡Ńá¡¬á¢ŀ á¡Ńá¢Ĳ
á¡¬á¢Ķ á¡³
á¡Ńá¡³ á¡ªá¡¨
Ġá¡¥ á¡ªá¢ĩá¡¨
á¡ªá¢Ĭá¢Ĭ á¡¬á¢ĵ
Ġá¡¸á¡ªá¢İ á¡ªá¡±á¡±
Ġá¢Ķ á¡¬á¡±á¡±
Ġá¢ĺá¡ªá¡±á¡± á¡ªá¢ŀ
Ġá¢ĺá¡Ńá¢İ á¡³
Ġá¡¥ á¡Ńá¢Ķá¡Ńá¡§
á¡ªá¡±á¡±á¡Ńá¢ĳ á¡Ńá¡ªá¡ªá¢Ķá¡ªá¡§
Ġá¢Ķ á¡Ńá¡ªá¢Ĭá¡±á¡±
Ġá¢Ī á¡ªá¡¬
Ġá¢ľá¡ªá¡´ á¡Ńá¡ªá¡ªá¢Ķá¡ªá¡§
á¡ªá¢İ á¢Ļ
á¡ªá¢Ļ á¡ªá¢Ĳá¡¨
Ġá¡¸á¡ªá¢ŀ á¡¬á¡±á¡±
Ġá¡¥á¡ªá¢Ļ á¡ªá¢ĳá¡«
Ġá¢ĺá¡Ńá¡¬á¢ĳ á¡Ńá¢Ĭá¡ªá¡¨
Ġá¢Ĭá¡ªá¢Ķ á¡ªá¡¬á¡¨
á¡¬á¢Ļ á¡ªá¡¬á¡¨
á¢ įá¡¨
Ġá¡¥á¡Ńá¡¬á¢ŀ á¢ĭá¡Ńá¢ĳ
Ġá¢Ļ á¡ªá¢Ĭá¡¬á¡¦
á¡ªá¢Ļ á¡Ńá¡§
Ġá¡¥ á¡ªá¢Ļá¡§
Ġá¡´á¡Ńá¢Ļ á¡Ńá¢Ĳ
Ġá¢Į á¡Ńá¢ŀá¡«
ï ¸
Ġá¡¥á¡Ńá¢ŀ á¡±á¡±
Ġá¢ĺ á¡ªá¡±á¡±á¡ªá¡§
áł¢áł ³
Ġá¡¬ á¡ªá¡±á¡±
áł¦áł ¨
Ġá¡¥á¡Ńá¡Ń á¡ªá¢ĩá¡¨
á¢ĭ á¡Ńá¡¬á¢İ
Ġá¢Ĭ á¡ªá¢Ľ
Ġá¡¥á¡Ń á¡ªá¢ļ
Ġá¡¥á¢ Ŀá¡¨
Ġá¡´á¡Ńá¡¬á¢Ļá¡Ńá¢Ĭ á¡ªá¢Ĳ
Ġá¢Ĭá¡ªá¢ĳ á¡ªá¡§
Ġá¢ĺá¡ªá¢İá¢Ļ á¡ªá¢Ĭá¢ĳ
Ġá¡¥á¡Ń á¡ªá¢Ļ
Ġá¢ĺá¡ªá¡´ á¡Ńá¡§
Ġá¡´ á¡Ńá¡±á¡±
Ġá¡¥á¡ªá¢Ķá¡ªá¡±á¡± á¡Ńá¢Ļá¡ªá¢Ĳ
Ġá¡¥á¢Ľ á¡ªá¡§
Ġá¢ĺá¡ªá¢Ĭ á¡ªá¢Ĭá¡ªá¡Ńá¡§
Ġá¡¬ á¡Ńá¡¬á¢Ĭ
Ġá¢ļá¡¬á¡ªá¡ª á¡Ńá¢ĳá¡§
Ġá¡¥á¢ĭ á¡Ńá¢ŀ
Ġá¢ľ á¡ªá¢Ĭ
á¢Ķ á¡¬á¡§
á¡¸ á¡ªá¢ŀ
Ġá¡´á¡Ńá¢ĳ á¢Ľá¡ªá¡«
Ġá¡¥á¡Ńá¢ŀ á¡Ńá¢ĳá¢ļ
áł¢áł ¶
á¡¬á¢ Ĺ
á¡Ńá¢ĭ á¡Ńá¢ĳ
Ġá¡¥á¡Ńá¡¬ á¡ªá¢Ĭá¢Ĭá¡ªá¡¨
Ġá¡¥á¡ªá¢İ á¡«
Ġá¡¥ á¡ª
Ġá¢Įá¡Ńá¡¬á¡ªá¢Ĭ á¢ĭá¡Ń
á¡ªá¡±á¡±á¡Ńá¢ĳ á¡§
á¡¬á¢ļ á¡«
á¡Ńá¡ª á¡ªá¢Ļá¡³
á¡ªá¡³ á¡ªá¢Ŀ
á¡Ńá¡¬ á¡ªá¡¬á¡¨
Ġá¡¥á¡Ń á¡Ńá¡±á¡±
á¡ªá¢ĳá¢Ļ á¡ªá¡«
Ġá¢ļ á¡¬á¡±á¡³
áłłáł ®
Ġá¡¥á¡Ńá¢Ļ á¡ªá¡±á¡±á¡ªá¡§
Ġá¡³á¡ªá¢ľ á¡ªá¢Ŀ
Ġá¢ĺá¡ªá¢Ĭ á¡¬á¡§
Ġá¢Ĭ á¡ªá¡³á¡ªá¢Ĳ
á¢Ľ á¡¬á¢ľá¡ªá¡§
Ġá¡¥á¡Ńá¡¬á¢ĭ á¡Ńá¢ĳ
á¡Ńá¢Ļ á¡Ńá¢Ŀ
á¡ªá¢ļ á¡¬á¡ªá¡ª
Ġá¢ĺá¡Ńá¢ĳ á¡§
á¡¬á¢ĳ á¢Ĭá¡ªá¡¨
Ġá¡¥ á¡Ńá¢Ĭ
Ġá¡³á¡ªá¢ŀ á¡¬á¢İ
Ġá¡¬á¡¬á¢ŀ á¡Ńá¢ĩ
á¢Ķ á¡Ńá¢ŀ
Ġá¢ĭá¡Ńá¡¬á¢ļ á¡Ńá¡§
Ġá¢Į á¡ªá¢ĳá¢ļ
áł ¥
Ġá¢Ĭá¡ªá¡³ á¡ªá¢ļá¡³
Ġá¡¥á¡Ńá¢ĳ á¡ªá¡±á¡±á¡ªá¡§
á¢Ļ á¡ªá¢Ĭá¡ªá¡§
Ġá¡¸á¡Ńá¢ĳ á¡§
Ġá¢Ĭ á¡ªá¢Ĭ
Ġá¢ľ á¡ªá¢Ļ
á¡ªá¢ŀ á¢Ĭ
á¡³ á¡ªá¢Ŀ
á¢ĳ á¡ªá¢Ľá¡³
Ġá¢ļ á¡¬á¢Ĭ
Ġá¡¥á¡Ńá¢ŀ á¢Ļá¡³
áł¤áł °
á¡ªá¢ĳ á¡ªá¢ĭá¡Ń
Ġá¡¥á¡¬á¢ĳ á¡ªá¢ĭá¡Ńá¡³
á¡Ńá¡±á¡±á¡Ńá¢ĳ á¢Ľá¡³
á¡ª á¡ªá¢Ļá¡³
á¡¥ á¡ªá¢İ
Ġá¡¯ á¡ª
á¢ĳ á¡ªá¡§
Ġá¡¥á¡ªá¡³ á¡ªá¡ªá¡³
á¡Ńá¡³ á¡ªá¢Ĳ
Ġá¢ľá¡ªá¢ŀ á¡³
Ġá¡¯ á¡Ńá¢ľ
Ġá¢ĺ á¡ªá¢ĭá¡Ńá¡³
Ġá¡¬á¡Ńá¡¬ á¡²
Ġá¡¥á¡Ńá¡¬á¢Ĭ á¡¬á¡§
Ġá¢ĭá¡Ńá¡¬á¢ Ĳ
Ġá¢ĺá¡Ńá¡¬á¢ŀ á¡³á¡ªá¡§
Ġá¢ĺá¡Ńá¡¬ á¡²
Ġá¡¥á¡Ńá¢ĳ á¡ªá¢İá¢Ľá¡¬á¢ĳ
Ġá¢Ķ á¡ªá¢Ĭ
á¢Ķ á¡«
Ġá¢ĺá¡Ńá¡±á¡± á¡Ńá¢ŀ
Ġá¢Į á¡ªá¡ªá¢Ļ
áł¢áł ·
áł¡ áł¢
á¡¬ á¡¬á¡§
Ġá¢Īá¡ªá¢ŀ á¡±á¡±
á¡ªá¢ļ á¡Ńá¡Ńá¡§
Ġá¢Ķ á¡ªá¢ļ
Ġá¢ļá¡¬ á¡ªá¢Ĭá¢Ĭá¡¬á¢ĵ
Ġá¡³á¡ªá¡¬ á¡¬á¡±á¡±á¡ªá¡Ńá¡§
Ġá¡¸ á¡ªá¡ªá¢Ļ
Ġá¡¥á¡³á¡ªá¡Ń á¡ªá¢ļá¡¬á¡§
á¡ªá¢ĳ á¡ªá¡ªá¡ªá¢Ķá¡ªá¡§
Ġá¢Ĭá¡ªá¢ĳ á¡ªá¢Ľá¡³
á¡¬ á¡Ń
Ġá¢Ķá¡ªá¢ľ á¡«
á¡ªá¢Ĭ á¢ļ
Ġá¡¯ á¡¬á¢Ļ
áł¦áł Ń
Ġá¢ĺ á¡Ńá¢Ŀá¡¨
Ġá¢Īá¡ªá¡¬ á¡¬á¡ªá¡ª
á¡¥á¡Ńá¡¬á¢Ĭ á¡ªá¡«
Ġá¢ĭá¡Ńá¡¬á¢ŀ á¢ļá¡³
Ġá¡´á¡Ńá¢ĳ á¡³á¡ªá¡¨
á¡ªá¡ªá¡ªá¢Ļ á¡ªá¡ªá¡ªá¡³
á¡¬á¢Ĭ á¡ªá¡§
á¡ªá¡ª á¡ªá¢ŀ
Ġá¡¯á¡ªá¡¬ á¡¬á¢Ŀ
á¡¬á¡±á¡±á¡Ńá¢ĳ á¢Ľá¡³
Ġá¡¸á¡Ńá¡±á¡± á¡Ńá¢ŀ
Ġá¢Ĺ á¡ªá¡±á¡±
Ġá¢ĺ á¡ªá¡ªá¢Ĭ
á¡ª á¡ªá¢Ķ
Ġá¢Ķ á¡¬á¢ĭ
Ġá¢Ĭ á¡¬á¢Ĭá¡ªá¡Ńá¡§
á¡ªá¢ĭá¡Ńá¢ĳ á¡Ńá¢Ĭá¢Ķá¡ªá¡§
áł ĭ
á¡ªá¢Ĭ á¡ªá¢Ľá¡³
Ġá¢Ķá¡Ńá¢ŀ á¡Ńá¢ĳá¢ļ
Ġá¡¬á¡Ńá¡±á¡± á¡Ńá¢ĵ
á¡ ¶
Ġá¡´á¡Ńá¢ĳ á¢Ļá¡ªá¢ĩ
Ġá¢Ĭ á¡¬á¡±á¡«
Ġá¢ĭá¡Ńá¡¬á¢ŀ á¢Ļá¡ªá¢Ĳá¡¨
Ġá¢Ĭá¡ªá¢Ļ á¡ªá¢Ĳá¡¨
áł ¶
Ġá¡´á¡Ńá¢ĳá¡³ á¡ªá¢Ķ
á¡Ńá¡¬á¢ Ļ
Ġá¢Ł á¡ªá¡ªá¡¬á¡¨
Ġá¢Ĭá¡ªá¡Ńá¢Ĭ á¡ªá¡§
Ġá¡´á¡Ńá¡¬á¢Ķ á¡ªá¢ĭá¡Ńá¡«
Ġá¢Ĭ á¡ªá¡¬
Ġá¡¥á¡ªá¢İ á¡ªá¢ŀ
Ġá¡³ á¡ªá¢ĳá¢ļ
Ġá¢ĺ á¡ªá¡±á¡±á¡Ńá¢ĳ
Ġá¡¯á¡ªá¡¬ á¡¬á¢Ļá¡§
Ġá¢ĭá¡Ńá¡¬á¢Ĭ á¡ªá¢ŀ
Ġá¢Ķá¡¬ á¡ªá¢Ľá¡¬á¢ĳ
Ġá¢Į á¡¬á¡ªá¢Ĭ
Ġá¢Ķá¡Ńá¢ŀ á¡Ńá¡ªá¡ªá¢ļá¡¬á¡Ńá¡§
Ġá¡¬á¡Ńá¢ŀ á¡¬á¢ĩ
Ġá¡¥á¡Ńá¢ŀ á¡Ńá¡±á¡±á¡³
Ġá¡¥á¡ªá¢ĳ á¡ªá¡ª
Ġá¡¥á¡Ńá¡¬á¢ĳ á¡¬á¢Ĭá¡ªá¢Ŀ
Ġá¡¥á¡Ńá¡¬á¢Ľ á¡ªá¢ĭá¡Ń
Ġá¡¯á¡ªá¡±á¡± á¡ªá¢Ļ
Ġá¡¥á¡Ńá¢ŀ á¢ļ
á¡¬á¡±á¡± á¡Ńá¡§
Ġá¡¯ á¡¬á¢ĳ
Ġá¢ľá¡ªá¢ŀ á¡Ńá¡ªá¢Ĭá¢Ĭ
á¢ļ á¡¬á¢ŀ
Ġá¡¸á¡Ńá¢ŀ á¢ļá¡¬á¡§
Ġá¡¸á¡ªá¢ĳ á¡ªá¡±á¡±á¡Ńá¡§
á¡´ á¡Ń
Ġá¢Į á¡ªá¡±
Ġá¢ĺá¡ªá¢ŀ á¡Ńá¡«
Ġá¢Ļ á¡Ńá¡±á¡«
áł¤áł ³
Ġá¡¸á¡Ńá¢Ķá¡¬á¡±á¡± á¡³
Ġá¡¥á¡¬á¢ŀ á¡ªá¢Ľá¡³
á¡ªá¡±á¡± á¡ªá¡ªá¡ªá¢Ķá¡ªá¡§
á¡Ńá¡±á¡± á¡Ńá¡§
á¡¬ á¡ªá¢ļá¡³
Ġá¢Ī á¡Ńá¡³
Ġá¢Į á¡Ńá¢ŀ
Ġá¢Īá¡ªá¡ª á¡ªá¢ļá¡§
Ġá¡¥á¡Ńá¢ĳ á¡ªá¢į
Ġá¡¥ á¡ªá¢Ĭ
á¡Ńá¢Ļ á¡Ńá¡§
Ġá¡¥á¡Ńá¢ŀ á¢Ĭ
Ġá¡¥á¡Ńá¢ŀ á¡Ńá¡«
Ð ¸
Ġá¡¯á¡Ńá¡±á¡± á¡Ńá¡Ńá¡§
Ġá¡¬ á¡¬á¢Ĺ
Ġá¢Ķ á¡¬á¡±
á¡¬á¢ľ á¡ªá¡Ńá¡§
Ġá¢ļ á¡¬á¢įá¡¨
á¡ªá¢ļ á¡¬á¢Ĭ
á¡Ńá¢Ĭ á¡¬á¡¦
ĠáłĤ áłĤ
Ġá¢Ķá¡Ńá¡¬á¡± á¡«
á¡±á¡± á¡ªá¢Ĳ
Ġá¢Ķá¡Ńá¡± á¡¬á¡§
Ġá¢Ĭá¡ªá¢ĳ á¡³á¡ªá¢ŀ
Ġá¢Īá¡ªá¢Ļ á¡ªá¡°á¡¨
á¡ªá¡ªá¡ªá¢Ļ á¡ªá¡ªá¡ªá¢Ķá¡ªá¡§
Ġá¢Ī á¡Ńá¢Ł
Ġá¢ĭá¡Ńá¡¬á¢ ľ
á¡ªá¡¬ á¡«
á¡¬á¢ĳ á¡ªá¡ªá¡ªá¡³
Ġá¡¥á¡Ńá¡¬á¢Ľ á¡ªá¢Ĳ
Ġá¢Ķá¡¬á¢ĳ á¡±á¡±
Ġá¡¬ á¡¬á¢ĳ
Ġá¢ĺá¡ªá¢ĳ á¡ªá¡«
á¡ªá¢Ļ á¡Ńá¢Ĳ
Ñ ĥ
Ġáł¶ áł¢
Ġáłĥ "
Ġá¡¸ á¡ªá¢Ľ
á¢Ļ á¡ªá¢Ĳ
á¡Ńá¢ĳ á¡ªá¢Ľá¡³
á¢ĭ á¡Ńá¡§
á¡¬á¢ŀá¢Ļ á¡¬á¡ªá¢ļá¡³
Ġá¢ĺ á¡ªá¢Ļá¡§
Ġá¡¸á¡ªá¢ŀ á¡¬á¢ĳá¢ļ
á¡¬á¢ĭá¡Ńá¢ĳ á¢Ľá¡³
á¡ªá¢ŀá¢Ļ á¡ªá¢Ĭá¡ªá¡§
á¢ĺ á¡Ńá¡¬á¢ŀ
á¡ª á¡ªá¢Ļá¡§
Ġá¡¯á¡ª á¡¬á¢İ
2 0
Ġá¡¸á¡Ńá¡¬ á¡¬á¡°á¡¨
á¡ªá¡¬ á¡¬á¢Ļ
Ġá¡¥á¡Ńá¡¬á¡± á¡Ńá¢Ļá¡Ńá¢Ŀ
á¡Ń á¡Ń
Ò ¯
á¢Ļ á¡ªá¡±á¡±á¡ªá¡§
á¢ĺ á¡¦
á¡ªá¢İ á¡§
Ġá¢Ī á¡ªá¢ļ
á¡¬á¢ ļá¡§
áłłáł °
Ġá¢ĭá¡Ńá¡¬ á¡¬á¢ļ
Ġá¢Ķá¡Ńá¡¬á¢ĳ á¢Ľá¡¬á¡«á¡¨
á¡¬á¢Ķ á¢Ĭ
á¡¥ á¡Ńá¡§
á¡ªá¡±á¡± á¡ªá¢Ļá¡³
Ġá¡¬ á¡Ńá¡¬á¢ŀ
Ġá¢Īá¡ªá¢ŀ á¡ªá¡ªá¡³
Ġá¢ĭá¡Ńá¡¬á¢Ĭ á¡ªá¡¨
Ð ³
Ġá¡¸á¡Ńá¢Ļ á¡ªá¢ĳá¢Ļ
Ġá¡³á¡ªá¡¬ á¡¬á¢ļ
Ġá¢ľá¡ªá¡´ á¡Ńá¢Ľá¡³
Ġá¡¬á¡Ńá¡¬á¡³ á¢Ĭá¡ªá¡§
Ġá¢Ķ á¡¬á¢Ŀá¡¨
Ġá¢Įá¡ªá¢ŀá¢Ĭ á¡ªá¢Ľá¡¬á¢Ĳ
Ġá¢ĭá¡Ńá¡¬á¢Ļ á¡ªá¢Ĭá¡ªá¡¨
á¡Ń á¡ªá¢Ļ
Ġá¡¬á¡¬á¢ŀá¡±á¡± á¡ªá¢Ĳ
Ġá¢Ĭ á¡¬á¢Ĭá¢Ķá¡ªá¡§
á¡¬á¡³ á¡ªá¢Ĳ
Ġá¡¥á¡ªá¢İ á¡§
á¡ªá¢ŀ á¡¬á¡§
Ġá¡¥á¡Ńá¢ŀ á¢ļá¡¬á¡§
Ġá¢ľá¡Ńá¢Ķ á¡Ńá¢Ļá¡ªá¡«
á¡¬á¢ľ á¡ªá¢Ļá¡³
áł ²
Ġá¢ĭá¡Ńá¡¬á¢Ķ á¡ªá¢Ĳ
Ġá¡¥á¢ĭ á¡Ńá¢Ķ
Ġá¢ĭ á¡Ńá¡¬á¡§
Ð »
Ġá¢Ķá¡Ńá¢İ á¡³
Ġá¡¥á¡ªá¢İá¡¬á¢Ļ á¡ªá¡§
Ġá¡³á¡ªá¡¬á¡¬á¡±á¡± á¡ªá¢ĳá¡«
á¡ªá¢ĳ á¡ªá¡ªá¡¬á¡¨
Ġá¡¥á¢ Ĳ
á¡¬á¡±á¡±á¡Ńá¢ĳ á¡ªá¡ªá¡³
Ġá¢Ĭá¡ªá¢ĳá¡³á¡ªá¢ŀ á¡«
á¡Ńá¢İ á¡Ńá¢ļá¡¬á¡§
Ġá¡¥á¢İ á¡Ńá¡±
Ġá¡³ á¡¬á¢Ļ
Ġá¡´ á¡Ńá¡³
á¢ Ĺ
Ġá¡¥á¢Ļ á¡¦
Ġá¡¬á¡ªá¢Ķ á¡ªá¡ªá¡ªá¡³
á¡ªá¡± á¡ªá¢Ŀ
á¡ªá¡ª á¡ªá¢Ľá¡³
Ġá¡¥á¡Ńá¡¬á¡³ á¡ªá¢ŀá¢Ļá¡ªá¢Ĭá¡ªá¡§
Ġá¢ľ á¡¬á¢ŀá¢Ļá¡¬á¡ªá¢ļá¡³
á¢ĭá¡Ńá¡¬á¢İ á¡Ńá¡§
Ġá¢Ĭ á¡ªá¢ļ
Ġá¡¥á¡¬á¡ªá¢Ĭá¢Ĭ á¡¬á¢Ľá¡³
á¢ĳ á¡¬á¡¬á¡¨
áłłáł ¯áł
µ áł¦
á¡ªá¡´á¡Ńá¢ŀ á¡¬á¢ĳ
Ġá¡¥á¡ªá¡´ á¡Ńá¢ŀ
Ġá¢Ĭá¡ªá¢ŀ á¡³á¡ªá¡¨
á¡¬ á¡Ńá¡ªá¢Ĭ
Ġá¢Ĭ á¡¬á¢Ľ
Ġá¡¸ á¡Ńá¢Ľ
Ġá¡¥á¡Ńá¡¬á¢Ĭ á¢ĭá¡Ń
Ġá¢ĺá¡ªá¢İ á¡ªá¢ļ
Ġá¢ļá¡ªá¢ļ á¡ªá¡¬á¡¨
Ġá¢ĺá¡Ńá¡¬á¢ĭá¡Ńá¢ŀ á¡¬á¡¬á¡¨
Ġá¢Ĺ á¡ªá¡ªá¢Ĭá¡±
á¡³ á¡¬á¡¦
Ġá¢Ĭá¡ªá¢ŀ á¡ªá¢Ĳ
Ð ´
Ġá¢ĺá¡ªá¢ŀ á¢Ĭá¡ªá¡¨
á¡ªá¢İ á¡ªá¡Ńá¡§
Ġá¢Įá¡Ńá¡¬á¢ŀ á¢Ļá¡ªá¢Ĭá¡ªá¡§
á¢Ľ á¡¬á¡§
Ñ ħ
Ġá¡¬á¡Ńá¢Ĭ á¡¬á¢ľ
Ġá¢ĺá¡ªá¡±á¡± á¡Ńá¡§
Ġá¡¥á¡Ńá¡¬á¡¬á¢ĳ á¡ªá¢ĵ
Ġá¡¥á¡Ńá¡¬á¢ ľ
Ġáłª áłłáł¶
á¡¥ á¡±
áłłáł ª
Ġá¡¥á¡Ńá¡¬á¡¬á¢ĳ á¡ªá¡Ń
Ġá¡¥á¢Ļ á¡ªá¢Ĭá¡ªá¢Ŀ
Ġá¢Į á¡ªá¡±á¡±
Ġá¡¥á¡ªá¡´ á¡Ńá¡±á¡±á¡ªá¡Ńá¡§
á¢Ĭ á¡ªá¢Ĭá¡ªá¡§
Ġá¡¥ á¡Ńá¡ªá¢Ĭá¡±á¡±
Ġá¡¥á¡Ńá¡¬á¢Ľ á¡ªá¢Ľá¡³
Ġá¢ĺá¡ªá¢Ĭ á¡ªá¢ŀ
Ġá¡¥á¡Ńá¡¬ á¡¬á¢ŀ
á¡ °á¡¨
Ġá¡¥á¡Ńá¢ŀ á¡Ńá¡±á¡±á¡Ńá¢ĳ
Ġá¢ĺ á¡Ńá¢īá¡¨
Ġá¡¥á¡Ńá¢ŀá¡Ńá¢ĳá¢Ļ á¡Ńá¡±á¡±á¡ªá¡§
á¡¬á¢Ĭ á¡¬á¡§
á¡Ńá¡¬á¢ ļ
á¡Ńá¢ĳ á¡±á¡±
Ġá¢Ĭ á¡ªá¢Ĭá¢ļá¡«
Ġá¡ ·
á¡Ńá¢ĳ á¡ªá¡§
Ġá¡´á¡Ńá¢Ļ á¡Ńá¢Ľá¡³
Ġá¡¥á¢Ĳ á¡¨
Ġá¢Ķá¡Ńá¡¬á¢ įá¡¨
Ġá¡¥á¡Ńá¡¬á¢Ľ á¡Ńá¢İá¡Ńá¢ļá¡¬á¡§
Ġá¡¬ á¡ªá¢ľ
á¡ªá¡¬ á¡¬á¢ļ
Ġá¢ĭá¡Ńá¡¬á¢ļ á¡³
á¡¬á¢Ķ á¡ªá¡ª
Ġá¡¸á¡ªá¢ŀá¡¬á¡±á¡± á¡Ńá¢ļ
á¡ªá¡±á¡± á¡ªá¢Ļá¡Ńá¢Ŀ
Ġá¢ĺá¡ªá¢Ĭ á¡ªá¢Ĭá¢Ķ
á¡Ńá¢Ĭ á¢ļá¡«
Ġá¡³ á¡¬á¢Ķ
á¢ĭ á¡Ńá¡¬
Ġá¡¥á¡ªá¢ĳ á¡³á¡ªá¡§
Ġá¡¥á¡¬á¢ŀ á¡ªá¡±á¡±á¡³
áł¢áł ¬
á¡Ńá¡±á¡± á¡ªá¢Ļá¡³
ï ¼
Ġá¡¥ á¡ªá¡±
á¡ªá¢ĭá¡Ńá¢ĳ á¡Ńá¡§
á¡³ á¡¨
Ġá¡¯á¡ªá¢İ á¡Ńá¢Ŀ
Ġá¢ľá¡ªá¡±á¡±á¡ªá¢Ĭ á¡¬á¢Ľá¡³
Ġá¡´á¡Ńá¢ĳ á¡±á¡±á¡ªá¢Ľá¡³
Ġá¡¥á¡Ńá¢ľ á¡Ńá¡§
á¡Ńá¢Ĭ á¡ªá¢ĳ
á¡ªá¡±á¡± á¡Ńá¢ŀ
Ġá¡¸á¡ªá¢İ á¡¬á¢īá¡¨
Ġá¡¥á¡Ńá¡¬á¢Ĭ á¡ªá¢ŀ
Ġá¢Ĺá¡ªá¡±á¡± á¡ªá¢ŀá¢Ļ
Ġá¡¬á¡Ńá¢Ĭ á¡¬á¢ľá¡ªá¡§
á¡ªá¢Ľ á¡¬á¢Ĭ
á¡¬á¢ ¤
Ġá¡¥á¡¬á¢ŀ á¡ªá¢Ĭá¡ªá¡Ńá¡§
á¡ªá¢ĳ á¡§
Ġá¢Īá¡ªá¢ŀ á¡Ńá¡ªá¡ªá¢Ķá¡ªá¡§
Ġá¡¸á¡ªá¢ŀ á¡¬á¢ļ
Ġá¡³á¡ªá¡¬á¡¬ á¡³á¡ªá¢Ĳ
Ġá¢ĺá¡ªá¡³ á¢Ķ
Ġá¡¸ á¡ªá¡§
á¡Ńá¡¬á¢ Ķ
á¡ªá¡Ńá¢Ĭ á¡ªá¡§
Ġá¡´ á¡Ńá¡¬
Ġá¢ĺá¡Ńá¢Ĭ á¡¬á¢ŀ
Ġá¡¯ á¡ªá¢ĳ
Ġá¢ ¡
Ġá¢Ķ á¡ªá¢Ļ
Ġá¢Į á¡ªá¢Ķá¡¬á¡§
Ġá¡¬á¡ªá¢Ĭ á¡¬á¢ŀ
Ġá¡¸á¡Ńá¡±á¡±á¡Ńá¢ļ á¡ªá¡±á¡±á¡ªá¡§
Ġá¡¸á¡Ńá¡³ á¡¬á¢ŀ
Ġá¡³á¡ªá¢ľ á¡ªá¡§
Ġá¢ļ á¡Ńá¡¬á¢Ĭ
á¡ªá¡ªá¡ª á¡ªá¡«
áł¤áł ®
Ġá¢ĭá¡Ńá¡¬ á¡ªá¢Ļá¡³
á¢Ĭ á¡ªá¢ĭá¡Ń
á¡ªá¢Ļ á¡Ńá¡«
Ġá¢Ĭ á¡¬á¢ŀá¡«
Ġá¡´á¡Ńá¢ĳ á¢ļá¡¬á¡ªá¡ª
Ġá¢Ĭ á¡ªá¢Ļá¡³
á¡ªá¡¬ á¡¬á¡§
Ġá¢Ĭ á¡ªá¡²
á¡ªá¢Ĭá¢Ļ á¡ªá¢Ľá¡³
Ġá¡¥á¢ŀá¢Ĭ á¡¬á¢ĳ
Ġá¢Ķ á¡ªá¢İ
Ġá¢ĺ á¡Ńá¡ªá¡ªá¢ĳ
á¡ªá¡ªá¢Ĭá¡±á¡± á¡Ńá¡«
Ġá¡¥á¡Ńá¡¬á¡ªá¢Ļ á¡Ńá¢Ķá¡Ńá¡§
Ġá¢ļ á¡Ńá¡ªá¡ª
Ġá¡¯á¡ªá¡±á¡±á¡ªá¢Ļ á¡Ńá¢į
Ġá¢ĺá¡Ńá¡¬á¢ Ĭ
Ġá¡¥á¡Ńá¢ŀ á¡ªá¢ĳá¡¬á¢ĩ
Ġá¡¥á¡ªá¢Ķ á¡¬á¢ĩ
Ġá¡¥á¡Ńá¢ŀ á¢Ļá¡Ńá¡§
Ġá¡¬ á¡¬á¢Ĭ
á¡¬á¡¬ á¡Ń
Ġá¡³á¡ªá¢ľ á¡ªá¢ŀá¢ĳ
Ġá¡´á¡Ńá¡¬á¢ĳ á¡«
Ġá¡¥á¡ªá¡´ á¡Ńá¡ªá¡ªá¢Ķá¡ªá¡§
á¡ªá¢ŀ á¡ªá¡ªá¡ªá¢Ķá¡ªá¡§
Ġáł³ áł¤
Ġá¢Īá¡Ńá¢ŀ á¡³
© áłŃ
Ġá¢ľá¡ªá¡±á¡± á¡Ńá¡§
Ġá¢Ķá¡ªá¡±á¡± á¡Ńá¢Ľá¡³
Ġáł¬ áł¦áł
Ġá¢ľá¡ªá¢ŀ á¡¬á¢Ľá¡³
á¡ª á¡Ńá¡ªá¡ªá¡ª
á¡ªá¢Ĭá¢Ļ á¡ªá¢Ĳ
á¡ªá¢ §
á¢Ļ á¡ªá¡«
áł¢áł ¯áł
á¡Ńá¢ĳá¢Ļ á¡ªá¡«
Ġá¡¥á¡Ńá¡¬á¢Ĭá¢ĭ á¡Ńá¢Ĭá¢Ķá¡ªá¡§
á¡¥á¡Ńá¡¬ á¡±
á¡Ńá¢ļ á¡«
Ġá¢ĭá¡Ńá¡¬á¢ŀ á¢Ļ
Ġá¢Īá¡Ńá¢ŀ á¡³á¡ªá¡¨
Ġá¡¥á¡ªá¡ªá¡ª á¡ªá¢İá¡ªá¡Ńá¡§
Ġá¡´á¡Ńá¡¬á¢ĭ á¡Ńá¡«
á¡ª á¡ªá¢Ľ
Ġá¡¥á¡Ńá¡¬á¡± á¡ªá¢Ĭá¡ªá¢Ŀ
Ġá¢Įá¡ªá¢Ļ á¡ªá¢Ĭ
á¢ Ŀ
Ġá¡¯ á¡Ńá¡¬á¢ĳ
Ġá¢Ķá¡Ńá¡± á¡¬á¢ŀ
Ġá¡´á¡Ńá¢ŀ á¡Ńá¡±á¡±á¡³
Ġá¡¯á¡ªá¢ŀ á¡ªá¡§
á¡ªá¡ ·
Ġá¡¥á¢ļ á¡¬á¢Ĭá¡ªá¡¨
á¢Ĭ á¡ªá¢ŀ
á¡ªá¢ļá¡¬á¢ĳ á¡ªá¡§
á¢ĭ á¡Ńá¡«
Ġá¡¥á¡Ńá¢Ļ á¡Ńá¢ŀ
Ġá¢Ķ á¡ªá¢ĭá¡Ńá¢Ĳ
Ġá¢Į á¡Ńá¢ŀá¡¬á¡§
Ġá¡¥á¡ªá¡ªá¢Ĭ á¡ªá¡ªá¡ªá¢ŀ
Ġá¡¯á¡¬á¢Ļ á¡Ńá¡§
Ġá¡¥á¡Ńá¡¬á¢ŀá¢ĭá¡Ńá¢ĳ á¢Ľá¡¬á¢ĳ
Ġá¡¸á¡ªá¢Ļ á¡ªá¡±á¡±
Ġá¢ĺá¡Ń á¡ªá¡¬á¡¨
Ġá¢ĺá¡ªá¢ĭ á¡Ńá¢Ķ
á¡¬á¡± á¡ªá¡§
á¡ªá¢İ á¡ªá¢Ĳ
Ġá¡´á¡Ńá¢Ļ á¡Ńá¢ĳá¢īá¡¨
Ġá¢ĺá¡ªá¡¬ á¡¬á¡§
Ġá¡¯ á¡Ńá¢İ
Ġá¢Ķ á¡ªá¢ĭá¡Ńá¢ĳ
Ġá¡¥á¡ªá¢Ľá¡¬á¢ĳá¢ĳ á¡ªá¢īá¡¨
Ġá¢Įá¡ªá¢Ļ á¡ªá¢ĳá¢Ĭá¡ªá¡¨
áł° áłłáł¨
Ġá¢ļá¡¬á¢Ļ á¡ªá¡´á¡Ńá¢ŀá¡«
Ġá¡¥á¡Ńá¢ŀ á¡Ńá¡ªá¡ªá¡³
á¢ ĵ
Ġá¢ľá¡ªá¢ŀ á¡¬á¡«á¡¨
Ġá¡¯ á¡ªá¢ĭ
á¢Ł á¡ªá¡¬á¡¨
á¡¬á¡±á¡± á¡Ńá¢Ŀ
Ġá¢ļ á¡ªá¡ªá¢Ĭá¢Ĭ
Ġá¡¬ á¡ªá¢ĩá¡¨
Ġá¡¥á¢ŀá¢Ļ á¡ªá¢į
Ġá¢ľá¡ªá¢ŀ á¡¬á¢ĳá¢ļ
Ġá¢ļ á¡Ńá¡ªá¡ªá¢ĳ
Ġá¡¥á¢ŀ á¡ªá¢ĭá¡Ńá¢Ĳ
Ġá¡¸á¡Ńá¢ľ á¡ªá¡±á¡±á¡Ńá¢ĳá¡§
Ġá¡¸ á¡ªá¡ªá¢Ĭá¡±á¡±
Ġá¡¥á¡Ń á¡Ńá¢Ĳ
Ġá¡¥á¡´ á¡Ńá¢Ĭá¡ªá¡§
á¡Ń á¡ªá¢Ļá¡³
á¡Ńá¢Ľ á¡ªá¡«
á¡Ńá¢İ á¢Ľá¡¬á¢ĳ
Ġá¡¥á¢Ķ á¡ªá¢ŀ
á¡ªá¡ª á¡Ńá¡§
Ġá¡¬á¡¬á¢ŀ á¡Ńá¢Ĭá¡ªá¡¨
Ġá¡¯á¡¬á¡±á¡± á¡Ńá¢Ŀ
á¢Ł á¢ĳ
á¡Ń á¡Ńá¢Ĳ
Ġá¢Įá¡Ńá¡¬á¢ Ŀ
Ġá¢Ĭá¡ªá¢ĳ á¡ªá¢Ĭá¢Ķá¡ªá¡§
Ġá¡¥á¡Ńá¡¬á¡ªá¢Ĭá¢Ĭá¡ªá¢ŀ á¡ªá¢Ĭá¢Ķá¡ªá¡§
á¡ªá¢Ĭá¢Ļ á¡ªá¢Ĭá¢Ķá¡ªá¡§
Ġá¢Īá¡ªá¡ª á¡ªá¢ļ
Ġá¢ĭá¡Ńá¡¬á¢ŀ á¢ĭá¡Ń
Ġáł¨ áł¢
áłłáł ¬áł¤
Ġá¡¬ á¡ªá¡³á¢Ķ
Ġá¡¥á¢ŀ á¢Ļá¡§
Ġá¢Ķá¡¬ á¡ªá¢Ĭá¢Ĭ
Ġá¡¸á¡Ńá¡³ á¢ļ
á¡ªá¢ŀ á¡ªá¢ĭá¡Ń
á¡ªá¡ªá¡ªá¢Ķ á¡ªá¡±á¡±á¡ªá¢Ŀ
Ġá¢Ĺ á¡ªá¢Ķá¡¬á¡§
Ġá¡¥á¡Ńá¢ĳ á¡ªá¡±á¡±
Ġá¡³á¡ªá¡¬ á¡¬á¢ŀá¡«
Ġá¡¥á¢İ á¡ªá¢Ĭá¢Ļá¡ªá¡«
á¢ĺ á¡ªá¢ĳ
Ġá¡¯á¡ªá¡±á¡± á¡Ńá¢Ŀ
Ġá¡¸á¡Ńá¢ĳá¡´ á¡Ńá¢īá¡¨
Ġá¡¥á¡Ńá¡¬á¢ĳ á¡³
Ġá¢ĺá¡ªá¡±á¡± á¡Ńá¢Ļ
Ġá¡¥á¡ªá¡±á¡±á¡Ńá¢ĳ á¢īá¡¨
á¡ªá¡±á¡± á¡ªá¢Ĳ
Ġá¡¯á¡ªá¡¬ á¡¬á¢Ľá¡§
Ġá¡¥á¡ªá¡³ á¢ļá¡¬á¢ŀ
Ġá¢Ĭ á¡ªá¡±
Ġá¢Į á¡Ńá¡¬
á¡ªá¡ª á¡ªá¡ª
áł ®
á¢ļ á¡ªá¡«
Ġá¡¸ á¡Ńá¢Ł
Ġá¢ĺá¡Ńá¢Ķ á¡ªá¡ªá¡ªá¡«
Ġá¡´á¡Ńá¢ĳ á¡Ńá¡±á¡±á¡ªá¡Ńá¡§
Ġá¡¥á¡Ńá¡¬á¢ŀ á¢ĳ
Ġá¡¥ á¡Ńá¡ªá¡ªá¢Ļ
Ġá¢ĺá¡Ńá¡¬á¢ŀ á¡«
Ġá¡¥ á¡Ńá¡«
á¡ªá¢Ĭá¢Ķ á¡ªá¢Ĭá¡ªá¢Ŀ
Ġá¢Īá¡ªá¢ŀ á¡Ńá¡«
Ġá¡¯á¡ªá¢ŀ á¡§
Ġá¡¥á¡´ á¡Ńá¢Ĭá¡ªá¡¨
Ġá¡¯á¡ªá¢ŀ á¡¬á¡§
Ġá¡´á¡Ńá¡¬á¢ĭ á¡Ńá¢Ļá¡§
Ġá¡¥á¡Ńá¢ĳ á¡ªá¡ªá¡³
Ġá¡¸á¡Ńá¢ŀ á¡¬á¢ľá¡ªá¡§
á¡Ńá¡ªá¡ªá¢Ķ á¡ªá¡±á¡±á¡ªá¢Ŀ
á¡¬á¢ Ł
Ġá¢Īá¡Ńá¢Ł á¡ªá¡«
Ġá¢Ī á¡Ńá¢Ļ
Ġá¢Ļ á¢Łá¡¦
Ġá¢ĺá¡Ńá¢ŀ á¡ªá¢Ķ
Ġá¢ĺ á¡ªá¡±á¡±á¡³
ãĢ Ī
Ġá¢Ļ á¡Ńá¡±á¡±á¡ªá¢Ŀ
Ġá¢ĺá¡ªá¢Ļ á¡Ńá¡«
Ġá¡³ á¡ªá¡ªá¡ª
Ġá¢ļ á¡Ń
á¡Ńá¢Ķ á¡«
á¡Ńá¢ŀ á¢Ĭ
Ġá¡¸á¡ªá¢ŀ á¡ªá¢Ľá¡³
Ñ Ĥ
á¡ªá¡³ á¢ļ
á¡Ńá¡ªá¡ªá¢Ļ á¡ªá¡ªá¡ªá¢Ķá¡ªá¡§
á¡´ á¡Ńá¢Ķá¡³
Ġá¢Īá¡ªá¢ŀ á¡±á¡±á¡ªá¢Ľá¡³
Ġ âĢ
á¢Ļ á¡ªá¢Ŀ
á¡ªá¡ªá¡ªá¢Ļ á¡ªá¡°á¡¨
á¡Ńá¢Ľ á¡«
á¡¸ á¡Ńá¢ŀ
á¡Ńá¢ĳ á¢Ĭ
á¡¬á¢ľ á¡ªá¢ĳá¢Ļ
Ġá¢Ĭá¡ªá¢İ á¢Ľá¡¬á¡«á¡¨
á¡¥á¡± á¡§
Ġá¢ĺ á¡Ńá¡ªá¢Ĭá¡±á¡±
á¡ªá¢ŀ á¡ªá¢Ĭá¢Ķá¡ªá¡§
Ġá¡¥á¡Ńá¡¬á¢Ĭ á¡ªá¢Ŀ
Ġá¢ı á¡ªá¢İá¡§
Ġá¡¸á¡Ńá¡±á¡±á¡Ńá¢ļ á¡ªá¢īá¡¨
Ġá¢Ĭá¡ªá¢ĳ á¡ªá¡³á¡ªá¢Ĳ
Ġá¢ĺá¡Ńá¡³ á¢ļ
Ġá¡¸á¡ªá¢İ á¡¬á¢ľá¡ªá¢ŀ
Ġá¢Ķ á¡¬á¡¬á¡Ń
á¡Ńá¢ŀ á¡ªá¢Ľá¡³
Ġá¡³á¡ªá¢ŀ á¡Ńá¢ĩ
á¡ªá¢ŀ á¡¬á¢Ĳ
Ġá¢Į á¡Ńá¢Ļá¡³
Ġá¡³á¡ªá¢ĳá¢ļ á¡¬á¢Ĭá¡ªá¢Ŀ
Ġá¡¬á¡¬ á¡Ń
Ġá¡¥á¡Ńá¢ŀ á¡Ńá¡ªá¡ªá¢Ķá¡ªá¡§
Ġáł¤áł ·
Ġá¢Į á¡ªá¢ŀá¢Ļ
Ġá¡³á¡ªá¡±á¡± á¡ªá¢Ļá¡Ńá¢Ŀ
Ġá¡¥á¡Ńá¢Ļ á¡ªá¢Ķá¡³
Ġá¢ĺ á¡ªá¢ĵ
Ġá¡¥á¡Ńá¡´ á¡Ńá¢īá¡¨
Ġá¡¥á¡Ńá¡ªá¡ª á¡ªá¡±á¡±
Ġá¢ĺá¡ªá¢ŀ á¡¬á¢ĭá¡Ńá¡§
Ġá¡¥á¡Ńá¡¬ á¡°á¡¨
Ġá¡¥á¢İ á¡±
Ġá¡´á¡Ńá¡¬á¢ĳ á¡Ńá¡¬á¡¨
Ġá¢Į á¡ªá¢ĳá¢Ľ
á¡¥ á¡Ńá¡¬á¢ŀ
á¡ªá¢İ á¢Ľ
á¡ªá¢ľ á¡ªá¢Ŀ
Ġá¢Įá¡ªá¢Ļ á¡ªá¡°á¡¨
á¡Ńá¢İ á¡ªá¢Ĳ
Ġáł¢ áł¶
Ġá¡³á¡ªá¢ĳ á¡±á¡±
á¡ªá¢ŀ á¡ªá¡ªá¡ªá¡³
Ġá¡¥á¡ªá¡±á¡±á¡Ńá¢ĳ á¢Ľ
Ġá¡¥á¡Ńá¡¬á¢Ĭá¡ªá¢ŀ á¡ªá¢ļá¡¬á¢ĳ
á¡ªá¡¬á¡¬á¢ĳ á¡ªá¡§
Ġá¢ľ á¡ªá¢İ
á¢ĳ á¡ªá¢ĭá¡Ń
Ġá¡¥á¡ªá¢ŀ á¡¬á¢Ĭá¡¬á¡¦
Ġá¢ĭá¡Ńá¡¬á¢Ļá¡ªá¢ĳ á¢Ĭá¡ªá¢Ĭá¡ªá¡§
áł¦áł ¯
Ġá¢ĺá¡Ńá¡¬á¢ŀ á¡Ńá¢Ĭá¢Ķá¡ªá¡§
Ġá¡¸á¡Ńá¢ŀ á¡¬á¡«á¡¨
Ġá¡¯á¡Ńá¡¬á¢ĭ á¡Ńá¢Ĭá¡ªá¡¨
Ġá¡¥ á¡¬á¢Ľ
Ġá¢¥ á¡Ńá¢İ
Ġá¡³á¡¬á¢ļ á¡¬á¢Ĭá¢Ķá¡ªá¡§
Ġáł¤áł ¯
Ġá¡¥á¡ªá¢İ á¢Ľá¡¬á¢ĳá¢Ļá¡§
Ġá¡¥á¡ªá¡ªá¢Ĭ á¢ĩá¡¨
á¡Ńá¢ļ á¡¬á¡ªá¡ª
Ġá¡¯ á¡Ńá¡ªá¡ªá¡ªá¡«
Ġá¡¥á¡Ńá¡¬á¡¬á¢ĳ á¡ªá¡±á¡±
Ġá¢Į á¢Ł
á¡ªá¢Ĭ á¢Ľ
Ġáł¦ áłŃ
Ġáł¦ áł¨
á¡¬á¢ľ á¡ªá¡ªá¡¬á¡¨
á¡ªá¡¬ á¡¬á¡ªá¡ªá¡ªá¡§
Ġá¢Įá¡Ńá¡¬á¡ªá¢Ĭ á¢Ĭá¡ªá¡¨
Ġá¡¥á¡ªá¢Ķ á¡¬á¡ª
Ġá¡¥á¡¬á¢Ļá¡ªá¢Ĭ á¡ªá¢Ĳ
Ġá¡¥á¢ŀ á¡Ńá¢Ĭá¡ªá¡¨
Ġá¢ļ á¡ªá¡«
á¢Ĭ á¡ªá¢ĳ
Ġá¡¸ á¡ªá¡´á¡Ńá¢Ŀ
á¡¯ á¡«
á¡ªá¡· á¡Ńá¡§
Ġá¡¯á¡ªá¢ĳ á¡¬á¢ľá¡ªá¡Ńá¡§
Ġá¡¸á¡Ńá¢ľ á¡ªá¢Ļá¡Ńá¡±á¡±á¡ªá¢Ŀ
á¡´ á¡Ńá¢Ļ
Ġá¡¯á¡ªá¢İ á¡ªá¡¬á¡«
Ġá¢Įá¡ªá¢Ļ á¡ªá¢Ĭá¡ªá¡¨
Ġá¡³ á¡ªá¢Ĭ
Ġá¡¬ á¡Ńá¡§
Ġá¢Į á¡ªá¢ĳ
Ġá¢ĺá¡ªá¢Ĭ á¡ªá¢Ļ
Ġá¡´á¡Ńá¢ĳ á¢Ļá¡ªá¢Ĳá¡¨
Ġá¢Įá¡ªá¢ŀ á¡±á¡±
Ġá¢ĺ á¡ªá¡Ńá¢Ĭá¡ªá¡§
Ġá¢Ķ á¡ªá¡§
Ġá¡¸á¡ªá¢İ á¢Ļ
Ġá¡¥á¡Ńá¡¬á¢ İ
Ġá¡¯á¡Ńá¡¬á¢ĭ á¡Ńá¢Ŀ
Ġá¢Įá¡¬á¡ªá¢Ĭ á¡±á¡±á¡ªá¡§
Ġá¡¥á¡Ńá¢ĳ á¡Ńá¡ªá¡ªá¢Ķá¡ªá¡§
á¡ªá¡³ á¡ªá¡«
á¢ĭ á¡Ńá¡¬á¢Ĭ
Ġá¢Ķá¡¬á¡±á¡± á¡Ńá¡Ńá¡§
Ġá¡³á¡ªá¢ŀ á¡¬á¢ĳá¢Ļ
Ġá¢ĺá¡ªá¡¬á¡¬á¢ĳ á¢ĭá¡Ń
ĠÐ ±
Ġá¢ľ á¡ªá¡ªá¢Ĭ
Ġá¡¬á¡Ńá¡¬ á¡«
á¡¯ á¡¬á¢Ĭá¡ªá¡¨
á¡Ń á¡Ńá¡ªá¢Ĭ
Ġá¢Ķá¡ªá¡±á¡± á¡Ńá¢ŀá¡«
Ġá¡´á¡Ńá¡¬á¢ İ
á¡¬ á¡¬á¢ŀ
Ġá¡¥ á¡Ńá¢Ķ
Ġá¡¥á¡Ńá¡¬á¢ ļ
Ġá¡¯á¡ªá¡¬á¢İ á¡ªá¡§
Ġá¡¥á¢ ¨
á¡¬á¢¤ á¡ªá¡¨
á¡Ńá¢ĳ á¡ªá¢Ĳ
Ġá¢ļá¡¬á¢İ á¡ªá¢Ĭá¡ªá¡¨
á¡Ńá¡±á¡± á¡Ńá¢Ŀ
1 9
Ġá¡¸ á¡Ńá¢ļ
Ġá¢Ĭá¡ªá¢Ļ á¡Ńá¡«
Ġá¡³á¡ªá¢ľ á¡ªá¢Ķ
Ġá¡¸á¡Ńá¡±á¡±á¡Ńá¢ĳ á¡§
áłłáł ¬
á¡Ńá¡ªá¡ªá¢Ļ á¡ªá¢Ľá¡³
Ġá¡³á¡ªá¡¬á¡¬á¢Ļ á¡ªá¢Ĳá¡¨
Ġá¡¯á¡¬á¢Ĭ á¡ªá¡ªá¢Ļá¡§
Ġá¡¥ á¡ªá¡ªá¢Ĭá¢Ĭ
Ġá¢ľá¡ªá¢ŀ á¡¬á¡ªá¡ªá¡³
á¡¬á¡ ´
á¡¥ á¡¬á¢ŀ
Ġá¢Ķá¡ªá¡± á¡ªá¡±á¡±á¡ªá¡§
á¡¥ á¢ļá¡§
á¡Ńá¢Ļ á¡Ńá¡±á¡±á¡ªá¢Ŀ
Ġá¡¥á¢ŀá¢Ļ á¡ªá¡±á¡«
Ġá¡¬á¡¬á¢ĳ á¡Ńá¡±á¡±
Ġá¡¬ á¡ªá¡³á¡ªá¢Ĳ
Ġá¡¬á¡¬á¢ŀ á¡Ńá¢Ĭá¡ªá¡§
Ġá¢Ķá¡Ńá¢ŀ á¡´á¡Ńá¢ĳ
Ġá¢Ĭá¡ªá¢İ á¡ªá¢ĭá¡Ń
á¡Ńá¢ļ á¡ªá¢Ĳ
Ġá¡´á¡Ńá¢Ļ á¡Ńá¡ªá¡ªá¡³
á¢Łá¢ Ŀ
Ġá¡¥á¡¬á¡± á¡¬á¢ľ
Ġá¡¬á¡ªá¢ĳ á¡±á¡±
Ġá¢ĺá¡Ńá¡¬á¢ŀ á¡¬á¢į
Ġá¡¸á¡Ńá¡±á¡±á¡Ńá¢ŀ á¡Ńá¡ªá¢Ļá¡³
Ġá¢ĺá¡ª á¡ªá¢Ļá¡§
Ġá¡¬á¡¬ á¡±á¡±á¡ªá¡§
Ġá¢ĭá¡Ńá¡¬á¢Ĭ á¢Ľá¡¬á¢ĳá¢Ļá¡§
á¡ªá¢Ĭá¢Ļ á¡ªá¢ĭá¡Ń
á¡ªá¡Ń á¡ªá¢Ļá¡§
á¡¥á¡Ńá¡¬á¢ Ľ
Ġá¢ĺá¡Ńá¢ŀ á¢Ķ
Ġá¡¥á¡Ńá¢ŀ á¡³
Ġá¡³á¡¬á¢ļ á¡¬á¢Ľá¡³
á¡Ńá¢ŀ á¡ªá¡§
Ġá¢ļá¡Ńá¡¬á¢Ĭ á¡ªá¡§
Ġ ï¸
Ġá¡¬á¡ªá¢ĳ á¡ªá¡±á¡±
Ġá¡¥ á¡Ńá¡±á¡±
á¢ ¤
áł¦áł ¯áł
á¢ĭ á¡Ńá¡¬á¢ŀ
á¡Ńá¢Ĭ á¡ªá¢Ĳ
Ġá¡¸á¡ªá¢Ľ á¡ªá¡±á¡±á¡³
Ġá¡¬ á¡ªá¢ĭ
Ġá¢Į á¡ªá¡ªá¢Ĭ
á¡¸ á¡Ńá¢ľ
Ġá¡¥á¡Ńá¡¬ á¡¬á¢Ŀá¡¨
Ġá¢Īá¡ªá¢Ļ á¡ªá¡±á¡±á¡ªá¢Ļá¡³
Ġá¡¥á¡Ńá¡¬á¢Ĭ á¢ļá¡³
áł ¯áł
Ġá¢ļá¡¬á¢ŀ á¡ªá¡«
Ġá¡¥á¡ªá¢İ á¡¬á¢Ķá¡ªá¡ª
Ġá¡¸á¡Ńá¡³á¢ļ á¡ªá¢Ķá¡³
Ġá¡¸á¡Ńá¡¬ á¡¬á¢Ķá¡«
Ġá¡³á¡ªá¢ŀ á¡¬á¢Ľá¡³
á¡Ńá¢Ł á¡ªá¡§
Ġá¢ļá¡¬á¢ŀ á¢İ
Ġá¡¥á¢ŀ á¢Ļá¡ªá¡§
Ġá¡¥á¡Ńá¢ŀ á¡Ńá¢ĵ
áł¡áł ¯áł
Ġá¢Į á¡Ńá¢Ļá¡Ńá¡§
Ġá¡¥á¡Ńá¡¬á¢ŀá¢ĳ á¡Ńá¢Ĭá¡ªá¡¨
Ġá¢ĺá¡Ńá¢Ļá¡Ńá¢ŀ á¡ªá¡ªá¡ªá¡«
á¡ªá¡±á¡± á¡Ńá¢Ĳ
á¢Ł á¡§
Ġá¡´á¡Ńá¢ĳá¡³á¡ªá¢Ķ á¡Ńá¢ŀá¡ªá¢Ĳ
áł¡áł ®
á¡¬á¢İ á¡Ńá¢ŀ
á¡¬á¢ĳ á¡ªá¡ªá¡ªá¢Ķá¡ªá¡§
Ġá¢ľ á¡ªá¡·á¡Ńá¡§
Ġá¢Ķá¡¬á¡ªá¢Ľá¡¬á¢ĳ á¡ªá¢ĭá¡Ń
á¢ļ á¡ªá¢ĩ
Ġá¡¯ á¡ªá¡³á¢Ļ
Ġá¢ľá¡ªá¢ŀá¡Ńá¡ªá¢Ĭá¢Ĭ á¡ªá¡«
Ġá¡¥á¢ĭá¡Ńá¢ŀ á¢Ĭá¡ªá¡¨
Ġá¡¸á¡ªá¡±á¡± á¡Ńá¢ŀ
Ġá¡³á¡ªá¢ĳ á¡ªá¡Ńá¡ªá¢Ĭ
Ġá¢Įá¡ªá¢ĳá¢ļ á¡¬á¡§
á¡Ńá¢Ĭ á¡ªá¡«
á¡ªá¢Ĭ á¡ªá¢ĭá¡Ń
Ġá¡³á¡ªá¡±á¡± á¡ªá¢ŀá¡¬á¡§
áł¡áł¬ áł¦
Ġá¢ĺá¡Ńá¡±á¡± á¡Ńá¢ŀá¡¬á¡§
Ġá¡¥á¢Ĭ á¡ªá¢ļá¡«
Ġá¡¸á¡Ńá¢ŀ á¡³á¡¨
Ġá¢ļ á¡ªá¢ĳ
Ġá¡¬ á¡¬á¢ļá¡«
Ġá¡¥ á¡ªá¢Ĭá¢Ĭ
Ġá¢Ķá¡¬á¢ŀ á¡Ńá¡«
Ġá¢Ķá¡¬á¢ĳ á¡¬á¢Ļá¡ªá¡¬á¡¨
Ġá¡¯á¡Ńá¢ľ á¡ªá¡§
Ġá¡¥á¡Ńá¡¬á¡± á¡³
Ġá¡¥ á¡ªá¡¬á¡¨
Ġá¢Ķ á¡ªá¢ĭá¡Ńá¢Ļ
Ġá¡¥á¡³ á¡ªá¢Ķá¡³
Ñ ģ
Ġá¢ĭá¡Ńá¡¬á¢Ļá¡ªá¢ĳ á¢İ
Ġá¢ĺá¡ªá¢ŀ á¢Ĭá¡ªá¡§
á¡ªá¢ŀá¢Ļ á¡ªá¡«
Ġá¢Ī á¡ªá¢ĳ
Ġá¢Ķá¡Ńá¢ŀ á¡ªá¡ªá¡³
á¡ªá¢ŀ á¢Ķ
Ġá¢ľá¡ªá¡´ á¡Ńá¢īá¡¨
Ġá¡¥á¡Ńá¡¬á¢Ĭ á¡ªá¢Ļá¡§
á¡¸ á¡ªá¢İ
á¡¬á¢ľ á¡Ńá¡³
Ġá¡¥á¡Ńá¡¬á¢ŀ á¢Ĭá¡ªá¡§
Ġá¡¯á¡¬á¢Ĭá¡ªá¢Ļ á¡Ńá¢Ĭá¡ªá¢Ŀ
Ġá¢ĭá¡Ńá¡¬á¡ªá¢Ļ á¡Ńá¡Ńá¡ªá¢Ĭ
â ĳ
á¡ªá¢Ĭ á¡ªá¢Ĭá¢Ķá¡ªá¡§
Ġá¢Ķá¡Ńá¢İ á¡Ńá¡§
á¡Ńá¡±á¡±á¡Ńá¢ĳ á¡ªá¡ªá¡³
Ġá¡¥á¡ªá¡ªá¢Ĭ á¡ªá¡ªá¡ªá¡§
Ġá¡¥á¢ į
Ġá¡¥á¢İ á¡Ńá¢Ķ
Ġá¡¯á¡¬á¡±á¡± á¡Ńá¢ļá¡§
á¡ªá¢ŀá¢ĳ á¡¬á¡¬á¡¨
Ġá¡¬ á¡¬á¢Ľ
Ġá¡¸á¡Ńá¢Ľ á¡¬á¢į
Ġá¢ĺá¡ªá¢ŀ á¢Ĭ
Ġá¢Ļ á¡Ńá¡¬á¡ªá¡¬á¡¨
Ġá¡¬ á¡ªá¡«
Ġá¢ľá¡ªá¡±á¡±á¡ªá¢Ĭ á¡¬á¡±á¡±á¡ªá¡Ńá¡§
Ġá¢Ķá¡ªá¡Ńá¡ªá¢Ĭ á¡¬á¢ĳá¢Ĭá¡ªá¡¨
áł¤áł ¬
Ġá¢ĺá¡Ńá¡¬á¡³ á¢Ķá¡¬á¡§
Ġá¡¥á¢Ĭ á¡ªá¡±á¡ªá¢Ŀ
á¡Ńá¡ªá¡ªá¢Ļ á¡ªá¡ªá¡ªá¡³
Ġá¡´á¡Ńá¢ľ á¡ªá¡§
Ġá¡´ á¡Ńá¡ª
ãĢ ī
Ġá¡¥á¡Ńá¢ĳ á¡±á¡±
Ġá¡¥á¡´ á¡Ńá¢Ĳ
Ġá¢ļá¡¬á¢ĳ á¡ªá¡±á¡±á¡³
á¡ªá¢Ľ á¡¬á¡§
Ġá¢Ķá¡Ńá¡¬á¢ŀ á¡Ńá¡¬á¡¨
Ġá¡¥ á¡Ńá¢ĩ
á¡¥ á¡ªá¢ĳ
áłłáłŃ áłłáł¨
Ġá¡¥á¢ļ á¡Ńá¢ĵ
á¡¬á¡± á¡Ń
á¢Łá¢ŀ á¡¬á¢¤á¡ªá¡¨
Ġá¡¥á¡ªá¢İ á¡ªá¡§
Ġá¢ §
á¡¬á¢Ļ á¡ªá¢Ĳ
Ġá¢Ĭá¡ªá¢ŀá¡ªá¢Ĭá¢ĳ á¡ªá¢ĭá¡Ń
Ġá¢ĭá¡Ńá¡¬á¢Ļ á¡Ńá¢ĳ
Ġá¢ļ á¡Ńá¡¬á¢
Ġá¡¯á¡ªá¢į á¡¨
á¡ªá¢Ĭá¢ļ á¡¬á¡Ńá¡§
Ġá¢ĭ á¡Ń
Ð° ÑĢ
Ġá¡¯ á¡¬á¢ŀ
á¡Ńá¢ ĺ
Ġá¡¯á¡¬á¢ĳ á¡´á¡Ńá¢Ķá¡³
Ġá¢ļ á¡Ńá¢Ĭ
á¡Ńá¢İ á¢Ķ
Ġá¡¥á¡Ńá¢Ļá¡Ńá¢ŀ á¡¬á¢Ļ
Ġá¡¥á¡ªá¢İ á¡Ńá¢Ŀ
Ġá¢Ķá¡ªá¡±á¡± á¡Ńá¡ªá¡ªá¡³
á¡ªá¢Ĭ á¡ªá¢Ļá¡Ńá¡«
Ġá¢Ķ á¡ªá¡Ń
Ġá¢Ķá¡¬á¢ĳ á¢Ļá¡ªá¡±á¡±á¡ªá¡§
Ġá¢ĭá¡Ńá¡¬á¢ĳ á¡¬á¢ľ
Ġá¡´á¡Ńá¢ĳ á¡Ńá¢Ĳá¡¨
Ġá¢ļ á¡Ńá¡ª
Ġá¢Ĭ á¡ªá¡³á¡ªá¡¨
á¡Ńá¡¬ á¡¬á¡³
Ġá¡¥á¡ªá¢Ľ á¡ªá¡«
Ġá¢ĺá¡Ńá¡¬ á¡¬á¢Ĳ
Ġá¡³á¡ªá¢ľ á¡ªá¢ĳ
á¡¬á¢ľ á¡ªá¡ªá¡ªá¡³
á¡ª á¡ªá¢ļá¡«
Ġá¡¸á¡ªá¢ŀ á¡ªá¡ªá¡ªá¡³
á¡ªá¢Ľ á¡¬á¡ªá¡¬á¡¨
á¡ªá¡¬á¡¬á¢ĳ á¡ªá¢Ľá¡³
Ġá¢Į á¡¬á¢ĩá¡¨
áł¢áł ®
Ġá¢ĺá¡Ń á¡Ńá¢ŀ
Ġá¡³á¡ªá¡¬ á¡¬á¢ĩá¡¨
á¡ªá¡ªá¢Ĭ á¢Ľ
Ġá¡´á¡Ńá¢ŀ á¡Ńá¡±á¡±á¡ªá¡§
Ġá¢Ķá¡ªá¢ĳ á¢Ĭá¡¬á¡¦
Ġá¡¸á¡ªá¢Ļ á¡ªá¡±á¡±á¡³
á¡ªá¢ Ł
Ġá¡³á¡¬á¢ĳ á¡¬á¡¬á¡¨
á¡ª á¡ªá¢ļ
á¡¬á¡±á¡±á¡Ńá¢ĳ á¡Ńá¡ªá¡ªá¢Ķá¡ªá¡§
Ġá¡¥á¡Ńá¡ªá¢ļ á¡ªá¢ĳá¡¬á¢ĩ
á¡¬á¢ĳ á¡±á¡±á¡ªá¡§
Ġá¢ĺá¡ªá¢Ĭ á¡ªá¢ĭá¡Ń
Ġá¢ļá¡Ńá¡ªá¡ª á¡Ńá¢į
Ġá¡¥á¢İá¡± á¡ªá¢ĳá¢Ĭá¡ªá¡¨
Ġáłª áł£
á¡¬á¢ŀ á¡ªá¢Ĳ
Ġá¡¸á¡ªá¢İá¡ªá¡±á¡± á¡ªá¢ĳá¡ªá¡ªá¡ªá¡³
Ġá¢Ķ á¡¬á¢Ĭ
Ġá¡¸ á¡Ńá¡±á¡«
Ġá¡¬á¡¬ á¡ªá¢Ĭá¢Ĭ
Ġá¢ĺá¡Ńá¡¬á¡³ á¡ªá¡Ńá¡§
á¡¬á¡±á¡±á¡Ńá¢ĳ á¡Ńá¡§
Ġá¢Ĺá¡ªá¡ªá¢Ĭá¡± á¡ªá¢Ĳ
á¡ªá¢İ á¢Ļá¡ªá¡§
Ġá¢Ī á¡Ńá¢İ
á¡ªá¢ĺ á¡¦
á¡ªá¡ª á¡ªá¡ªá¡ªá¡³
Ġáłª áłłáł·
Ġá¡¥ á¡Ńá¡ªá¡ªá¢Ķ
á¡ªá¢ĳ á¡ªá¢Ĭá¢Ķá¡ªá¡§
Ġá¢ĺ á¡ªá¢Ľá¡¬á¢Ĭ
Ġá¡¥á¡ªá¢ľ á¡ªá¢ĳ
á¢ĺ á¡ªá¡±á¡±
Ġá¡´á¡Ńá¡¬á¢ŀ á¡¬á¢ĳá¢Ļ
Ġá¢ĺá¡Ńá¢ŀ á¡ªá¢Ļá¡ªá¡«
Ð°Ð ¹
á¢ ı
Ġá¢Įá¡Ńá¡¬á¢ŀ á¢ĭ
Ġá¢Ī á¡Ńá¢ĳ
Ġá¢ľ á¡Ńá¢Ķá¡Ńá¡§
Ġá¢ĺá¡Ńá¢Ļ á¡Ńá¡±á¡±á¡ªá¢Ļá¡³
Ġá¢ĺá¡ªá¡± á¡¬á¢ĳá¢ļ
Ġá¢ĺá¡ªá¢ŀ á¡¬á¢ĭá¡Ńá¢ĳ
á¡Ńá¢ĩ á¡¨
Ġá¡¥á¡ªá¢ĳ á¡ªá¢īá¡¨
áł¦áł ¬
Ġá¡¬ á¡Ńá¢ĳ
Ġá¢ĺ á¡Ńá¡ªá¡ª
Ġá¢ĺá¡ªá¢Ĭá¡ªá¢ŀ á¡ªá¢Ĭá¡¬á¡¦
Ġá¡¸á¡Ńá¢ŀ á¡¬á¡§
Ġá¡´á¡Ńá¡¬á¢ŀ á¡¬á¡§
á¡¬á¢ľá¡ªá¢ĳ á¢ļá¡«
Ġá¡¸ á¡ªá¡±
á¡¥ á¢İ
Ġá¡¥ á¡¬á¢İ
á¡¬á¢ŀ á¡ªá¢Ľá¡³
á¢ļ á¡¬á¢Ĭ
á¡Ńá¢ĭ á¡Ńá¡«
Ġá¢ľá¡ªá¡´ á¡Ńá¢Ļá¡ªá¢ĩ
á¡Ńá¢Ļ á¡ªá¡¬á¡¨
á¢ĺá¡ªá¢ŀ á¡§
á¢Ĭ á¡ªá¡Ńá¡§
Ġá¢Ķ á¡Ńá¡¦
Ġá¢Įá¡ªá¢ĳá¢ļ á¡¬á¡Ńá¡§
Ġá¢Įá¡Ńá¡¬á¢ Ķ
á¡Ńá¡ªá¢Ĭ á¢Ĭá¡ªá¡¨
Ġá¡¥á¡ªá¢ĳ á¡Ńá¢ĵ
á¡ªá¢ĳá¢Ļ á¡Ńá¡§
Ġá¡¥á¡ªá¢Ļ á¡ªá¢ĳ
Ġá¡³ á¡¬á¢Ľá¡§
Ġá¢ĺá¡ªá¢İ á¡¬á¢Ŀ
Ġá¡¯á¡Ńá¡±á¡± á¡Ńá¡±á¡±á¡ªá¡§
Ġá¢¤ á¡¬á¡±á¡Ń
Ġá¡¥ á¡²
á¡Ńá¢ĭ á¡Ńá¡Ńá¡§
á¢Ĭ á¡¬á¢Ľá¡³
Ġá¢ļá¡¬á¡ªá¢Ĭ á¢īá¡¨
Ġá¢Ķá¡Ńá¢ŀá¡±á¡± á¡ªá¢Ĳ
Ġá¢ļ á¡¬á¡ªá¡¬á¡¨
Ġá¢Ķ á¡¬á¡ªá¡ª
Ġá¢ĭá¡Ńá¡¬ á¡¬á¢Ļá¡ªá¡§
Ġá¡¬ á¡§
á¡ªá¡±á¡± á¡ªá¡°á¡¨
Ġá¢ľá¡ªá¡±á¡±á¡ªá¢Ĭ á¡¬á¡ªá¡ªá¡³
Ġá¢ĭá¡Ńá¡¬á¢ŀ á¢Ĭ
Ġá¡¥á¡Ńá¡¬á¡¬á¢ĳ á¡ªá¢ļá¡¬á¢ĳ
Ġá¡¥á¡¬á¢ĳ á¡ªá¢ŀ
á¡Ńá¡¬á¢ Ľ
á¡ªá¢ĭá¡Ńá¢ĳ á¡³á¡ªá¡¨
á¡ªá¢ĳá¢Ļ á¡ªá¡§
á¡Ńá¢ŀ á¢ļá¡³
á¡Ńá¢ Ĺ
Ġá¢ĺ á¡ªá¡ªá¢Ĭá¢Ķ
Ġá¡¥ á¡¬á¢Ķ
Ġá¡¥á¡Ńá¡¬á¢ľ á¡ªá¢ĵ
Ġá¡¯á¡ªá¡¬á¡¬á¢ŀ á¡ªá¢ĩ
Ġá¢ľá¡ªá¡´ á¡Ńá¢ļá¡§
Ġá¢ĺá¡ªá¢ŀ á¡ªá¡±á¡±
Ġ 1
Ġá¡¥ á¡¬á¡³
Ġá¢Ĭ á¡ªá¢Ĭá¡ªá¡§
Ġá¡³ á¡ªá¢Ļá¡³
á¡Ńá¢ļ á¡¬á¢ĳ
Ġá¢Įá¡Ńá¡¬á¡ªá¢Ĭ á¢ĭá¡Ńá¡§
Ġá¡³á¡ªá¡¬ á¡¬á¢ĳ
á¡ªá¡ªá¡ªá¢Ļ á¡ªá¡§
Ġá¡´á¡Ńá¢ĳ á¡±á¡±á¡ªá¡ªá¡ªá¡³
á¢ļ á¡¬
á¢ĺ á¡ªá¡«
Ġá¡¸á¡ªá¡±á¡± á¡Ńá¢ļá¡¬á¡§
á¢Ļ á¡ªá¡ªá¡ªá¡³
Ġá¢ĭá¡Ńá¡¬á¢ŀ á¡³
á¡ªá¡³ á¢ļá¡«
Ġá¡¥á¡¬á¢ĳ á¡±á¡±
Ġá¡¯á¡Ńá¡¬á¢ĭ á¡Ńá¢ļá¡ªá¢Ĳ
Ġá¡¬á¡Ńá¡¬á¡³ á¢Ķ
Ġá¢Ĭá¡ªá¡± á¡ªá¡Ńá¡ªá¢Ļá¡§
á¡¥ á¡Ńá¢Ļ
á¢Ķ á¡¬á¢ĳ
á¡Ńá¡¬á¢Ĭ á¡ªá¡¨
Ġá¡¥ á¡ªá¢ļá¡«
á¡ªá¡ªá¡ªá¢Ļ á¡ªá¢Ļá¡ªá¢ĩ
á¡Ńá¢ļ á¡Ńá¡Ńá¡§
Ġá¡³á¡¬á¢ļ á¡¬á¢Ĭ
Ġá¡¸á¡ªá¡±á¡± á¡ªá¢ĵ
Ġá¡³á¡¬á¢ļ á¡¬á¢ĭá¡Ń
Ġá¢Ĭ á¡ªá¢Ľá¡ªá¡«
Ġá¡¸á¡Ńá¡¬ á¡¬á¢Ļá¡³
á¢ľ á¡ªá¡´
Ġá¡¥á¡Ńá¡¬á¢Ľ á¡ªá¡³á¡ªá¢Ĳ
Ġá¢ļá¡¬á¡±á¡³ á¡¨
Ġá¡¥á¡¬á¡ªá¢Ĭá¢Ĭ á¡¬á¢Ĭá¡ªá¡Ńá¡§
á¡ªá¡¬ á¡¬á¢Ľá¡³
á¡ªá¢ĺ á¢Łá¢ŀ
Ġá¢ĺá¡Ńá¢ĳ á¡Ńá¡±á¡±á¡ªá¡§
Ġá¢ļá¡ªá¢ļ á¡ªá¢ŀá¢ĳá¡¬á¡¬á¡¨
Ġá¡³á¡ªá¡¬ á¡¬á¢ĳá¢Ļ
Ġá¡´á¡Ńá¢ŀ á¡³
Ġá¢Į á¡ª
Ġá¡¸á¡Ńá¡± á¡Ńá¢ĩ
á¢Ł á¡«
Ġá¢ĭá¡Ńá¡¬á¡³ á¡ªá¢ĭá¡Ńá¡§
á¡ªá¡ª á¡ªá¡Ńá¡§
Ġá¢ĺ á¡ªá¡ªá¢Ĭá¢Ĭ
á¡Ńá¡ª á¡ªá¢Ķá¡«
Ġáł £
Ġá¢ĺá¡ªá¢Ļ á¡¦
Ġá¡¸á¡ªá¡¬á¡¬á¢ŀ á¡ªá¢Ļá¡ªá¡«
á¡Ńá¢ĭ á¡Ńá¡³
Ġáł² áłłáł¢
Ġá¡¥á¡Ńá¢ļ á¡¬á¢Ľá¡³
á¡ªá¢ Ĺ
Ġá¡¥á¡ªá¢ŀ á¡¬á¡±á¡±á¡Ńá¡§
á¡ªá¡±á¡±á¡Ńá¢ĳ á¢īá¡¨
Ġá¡¥á¡¬á¢ĳ á¡ªá¡Ńá¡ªá¢Ĭ
Ġá¢Ķá¡Ńá¡¬á¢ĳ á¢Ľá¡¬á¢ľá¡ªá¡§
á¡¬á¢ ĺ
Ġá¡¥á¢Ĭ á¡¬á¡¦
á¡¬ á¡«
Ð°Ð ½
Ġá¢¥á¡Ńá¢İ á¡¶
Ġá¢Ķá¡ªá¡± á¡ªá¢Ĳ
Ġá¡¯ á¡Ńá¢ĭá¡Ńá¡Ńá¡§
Ġá¡¥á¡ªá¢İ á¢Łá¢ŀá¡¬á¢¤á¡ªá¡¨
Ġá¡¯ á¡¬á¢Ķ
á¡ªá¢ĳ á¡ªá¢ĳá¢Ļá¡§
ĠÑ ħ
Ġá¡¥á¡ªá¡´á¡Ńá¢ŀ á¡±á¡±á¡³
Ġá¢ĺá¡ªá¢Ļ á¡ªá¢Ĭá¡ªá¢Ŀ
á¡Ńá¡³ á¡¨
Ġá¢ľá¡ªá¡ªá¢Ĭ á¢Ľá¡³
Ġá¢Ķ á¡ªá¡ªá¡¬á¡¨
Ġá¢Ķá¡ªá¢ĳ á¢Ĭá¡¬á¡§
Ġá¢Ī á¡ªá¡³
Ġá¡¬á¡¬á¡ªá¢Ĭá¢Ĭ á¡¬á¡±á¡«
Ġ 20
á¡Ńá¡¬á¡ªá¢Ĭ á¡±
Ġá¡´á¡Ńá¢Ļ á¡ªá¢ĵ
Ġá¢Ĭá¡ªá¢ŀ á¢Ĭá¡¬á¡§
Ġá¡¸á¡ªá¢Ļ á¡Ńá¡§
á¡ªá¢ŀ á¢Ļá¡³
Ġáł¦áłŃ áł¡áł¢
Ġá¡¬á¡ªá¢ŀ á¢ĳ
á¡ªá¢ĳ á¡ªá¢ĩ
Ġá¡¥á¡ªá¢İá¡¬á¢Ļá¡Ńá¢ŀ á¡ªá¢Ľá¡³
Ġá¡¥á¡ªá¢ĳ á¡¬á¡³á¡ªá¡¨
Ġá¡¬á¡¬á¡±á¡± á¡ªá¡ªá¡ªá¡ªá¡§
Ġá¢Ĭ á¡¬á¡±
Ġá¡¥á¡¬á¢ŀ á¡ªá¢Ĭá¡ªá¢Ļá¡Ńá¡«
á¢Ī á¡ªá¢ŀ
Ġá¢Ī á¡Ńá¡±
Ġá¡¬ á¡ªá¢Ļ
Ġá¡¬á¡Ńá¢Ĭ á¡¬á¢ľá¡ªá¢ĳá¢ļá¡«
Ġá¡³á¡ªá¢Ļ á¡Ńá¢ĳ
Ġá¢ĭá¡Ńá¡¬ á¡ªá¢Ĭá¢Ĭ
Ġá¡¥á¢ŀá¢Ĭ á¡¬á¢į
Ġá¡¬á¡¬á¢ŀá¡±á¡± á¡Ńá¡±á¡±á¡ªá¡§
á¡Ńá¢İ á¡ªá¢Ŀ
á¢ĺ á¡Ńá¢İ
Ġá¢Īá¡Ńá¢ŀá¡³ á¡ªá¢Ļá¡Ńá¡±á¡±á¡ªá¢Ŀ
Ġá¡¬ á¡ªá¢İ
á¡Ńá¡±á¡±á¡Ńá¢ĳ á¡Ńá¡ªá¡ªá¢Ķá¡ªá¡§
Ġá¡¬ á¡ªá¢ĭá¡Ńá¢Ļ
á¢Ĭ á¡¬á¢ŀ
Ġá¢ļá¡¬á¢Ļ á¡ªá¡ªá¡ªá¢Ķá¡ªá¡§
Ġá¢ĺá¡ªá¢Ķ á¡Ńá¢ŀ
Ġá¢Ķ á¡Ń
Ġá¡¸á¡Ńá¡³ á¡¬á¢Ķ
Ġá¢Ķá¡ªá¢ŀ á¢ĭ
Ġá¢Ķá¡ªá¢Ļ á¡Ńá¡²
á¡¬á¢ĭ á¡Ńá¡«
Ġá¡¯á¡ªá¡¬ á¡¬á¢ĳ
Ġá¢Ķá¡ªá¡Ń á¡ªá¢ĭá¡Ńá¢Ĳ
Ġá¡´á¡Ńá¡±á¡± á¡Ńá¢ŀ
Ġá¢Įá¡ªá¢Ļ á¡ªá¢Ľá¡³
Ġá¡¥á¢Ĭ á¡¬á¡§
Ġá¢ĺá¡ªá¢ĳá¡³ á¡¬á¢Ľá¡³
Ġá¢ĭá¡Ńá¡¬á¢ŀ á¡¬á¡«á¡¨
Ġá¡¥á¢ĭ á¡Ńá¢Ļá¡§
Ġá¢Ĭá¡ªá¢ĳ á¡ªá¢ĳá¢ļ
Ġá¡¥á¡Ńá¡¬á¢Ľ á¡ªá¢Ĭá¢Ķá¡ªá¡§
Ġá¢ĺá¡ªá¢ĳ á¡ªá¡³á¡ªá¡«
á¡ªá¡ªá¢Ĭ á¢īá¡¨
á¡¬á¡ªá¡ªá¢Ļ á¡ªá¡«
áłłáł µáł¤
Ġá¢ļ á¡¬á¢Ķá¡³
Ġá¡¥á¡Ńá¡¬á¡± á¡Ńá¢Ŀ
Ġá¡¬á¡Ńá¢Ĭ á¡¬á¢ļ
á¡¬á¡ ²
á¡ªá¡¬á¡¬á¢ļ á¡Ńá¡Ńá¡§
Ġá¡¥á¢ĭ á¡Ńá¢Ļá¡ªá¡§
Ġá¢Ĺá¡ªá¡±á¡±á¡ªá¢ŀá¢Ļ á¡ªá¢ĳá¢īá¡¨
á¢ĺ á¡Ńá¢ŀ
Ġá¢Ķá¡¬á¢ĳá¡±á¡± á¡ªá¢ĳá¢Ļá¡§
Ġá¡¥á¡ªá¢İá¡¬á¢Ļ á¡³
Ġá¡¥á¡Ńá¢ĳ á¡ªá¢ŀá¡¬á¢Ĳ
Ġá¢Ķá¡ªá¡¬ á¡¬á¡Ńá¡§
Ġá¡¥á¡Ńá¡¬á¡¬á¢ĳ á¡ªá¢Ļá¡Ńá¢Ĳ
Ġá¢Ĭá¡ªá¢Ľ á¡¬á¡«á¡¨
Ġá¡¥á¡ªá¡±á¡±á¡Ńá¢ĳ á¡ªá¡§
Ġá¢ĺá¡ªá¢Ĭ á¡ªá¡³á¡ªá¢Ĳ
Ġá¢ĺá¡Ńá¢ĳ á¡±á¡±
Ġá¢Ĭá¡ªá¢Ķ á¡¬á¢ĭá¡Ńá¡§
Ġá¢ĺá¡Ńá¡¬á¢ĭá¡Ńá¢ŀ á¡ªá¡ªá¡¬á¡¨
áł¡áł °
Ġá¡¬ á¡Ńá¡¬á¢ļ
Ġá¢ĭá¡Ńá¡¬á¢ŀ á¡Ńá¡ªá¢Ĭá¢Ĭá¡ªá¡¨
ä ¸
Ġá¢Ķ á¡ªá¡³
Ġá¡¬á¡Ńá¡¬á¡³ á¢ĳ
Ġá¢ĺá¡ªá¢İá¢Ļá¡ªá¢Ĭá¢ĳ á¡ªá¢Ĳ
á¡¥ á¡Ń
Ġá¡¯á¡Ńá¡¬á¢ĭ á¡Ńá¡Ńá¡§
Ġá¢Ķá¡¬á¢ĳ á¢Ľ
Ġá¢Ķá¡Ńá¢ŀ á¡Ńá¢ĳá¢īá¡¨
Ġá¡¸ á¡ªá¢ĳá¢Ļ
á¡ªá¢ĭ á¡Ńá¢Ĳá¡¨
á¡ªá¢Ļ á¡ªá¢Ľá¡³
Ġá¢ĺá¡ªá¢İ á¡Ńá¢Ŀ
á¡ªá¡ª á¡ªá¢ļá¡§
Ġá¢ĺá¡ªá¡±á¡± á¡Ńá¢Ķ
á¢ļ á¡¬á¡Ńá¡§
á¢Ļ á¡ªá¢ĭá¡Ń
á¡ªá¢ĳá¢ļ á¡¬á¡Ńá¡§
Ġá¡¥á¢ŀá¢Ļ á¡ªá¢İá¢Ļá¡ªá¡§
Ġá¢Į á¡ªá¡ªá¢Ļá¡³
Ġá¡¥á¡ªá¢Ľá¡¬á¢ĳá¢ĳ á¡ªá¢Ľá¡³
Ġá¡¥á¡ªá¡±á¡± á¡Ńá¢Ŀ
Ġá¡¸á¡ªá¢ŀá¡¬á¡±á¡±á¡Ńá¢ļ á¡ªá¢ĳá¢īá¡¨
á¡¬á¢Ķ á¢ĺ
Ġá¢Ķá¡ªá¢ŀ á¢Ĭ
Ġá¡¥á¢İ á¢ļá¡«
Ġá¡´á¡Ńá¡¬á¢ Ľ
Ġá¡¥á¡¬á¢Ļ á¡ªá¢ĭá¡Ń
Ġá¡¬á¡Ńá¡³ á¡ªá¢ĳá¡ªá¡ªá¡¬á¡¨
Ġá¡¥á¡¬á¢Ļ á¡ªá¢Ĭá¡ªá¡§
Ġá¢ĺá¡ªá¡±á¡± á¡ªá¢Ľá¡³
Ġá¡¥á¡ªá¢ŀá¡³ á¡¬á¡§
Ġá¢Ĭá¡ªá¡³ á¢ĳá¡ªá¢Ĳ
áł° áł¡áł¨
Ġá¡¯ á¡Ńá¢ŀ
Ġá¢Įá¡ªá¢Ļ á¡ªá¢ŀ
Ġá¡¯ á¡Ńá¡¬
Ġá¢Īá¡Ńá¢ľ á¡³
á¡ªá¢ŀ á¡«
á¡¬á¢ĭá¡Ńá¢ĳ á¡Ńá¡§
Ġá¡¥á¡ªá¢ŀ á¡±á¡±
á¡ªá¢ĳ á¡±á¡±
Ġá¢Įá¡Ńá¡¬á¢ŀ á¡Ńá¢Ĭ
Ġá¢ĺá¡ªá¢Ĭ á¡¬á¢ĳá¢īá¡¨
Ġá¡³á¡ªá¡¬ á¡¬á¢ŀ
Ġá¢Ĭá¡ªá¢İ á¢Ľá¡¬á¢ľá¡ªá¡§
á¢Łá¢ĳ á¢Ł
Ġá¢ĺá¡Ńá¡¬á¢ĳ á¡Ńá¡³
Ġá¢Ĭá¡ªá¢ŀ á¡ªá¢Ĭá¢Ľ
á¢Ķ á¡ªá¡Ńá¡ªá¢Ĭ
Ġá¢ĺá¡ªá¢ĳá¢Ĭ á¡ªá¢ĭá¡Ńá¢Ŀ
Ġáłª áłłáł¢
Ġá¢ĺá¡Ńá¢Ķ á¡§
Ġá¡¥á¡Ńá¡¬á¢Ľ á¡ªá¢ĳá¢Ļá¡§
á¢Ĭ á¡¬á¢ĳ
Ġá¡´á¡Ńá¢Ļ á¡ªá¢Ļá¡³
á¡ªá¡ª á¡ªá¡ªá¡ªá¢Ķá¡ªá¡§
âĢ Ķ
Ġá¡¥á¡Ńá¡¬á¢ŀá¢ĭá¡Ńá¢ĳ á¢Ľá¡«
áł¢áł ´
á¡¬á¡¬ á¡ªá¡§
á¢ļá¡¬á¢ĳ á¡ªá¡ªá¡¬á¡¨
á¡Ń á¡Ńá¢Ŀ
á¡ªá¢ĳ á¡ªá¡°á¡¨
Ġá¡¬á¡ªá¢ľ á¡ªá¢īá¡¨
á¡ªá¢ŀ á¡ªá¡ªá¡ªá¡§
Ġá¡¥á¢Ĭ á¡¬á¢ĳá¡ªá¡§
Ġá¢Ķá¡Ńá¢Ļá¡Ńá¢ĳ á¡±á¡±á¡ªá¡§
Ġá¡¥á¡ªá¡³ á¡ªá¢īá¡¨
Ġá¡¬á¡¬á¢Ĺ á¡¬á¡«á¡¨
Ġá¢ļá¡¬á¢Ļ á¡ªá¢Ĳ
Ġá¢ĺ á¡ªá¢ľ
á¡¬á¢ľá¡ªá¢ĳ á¡ªá¡ªá¡¬á¡¨
á¡¬á¢Ľ á¡«
á¡¸á¡Ńá¢ľ á¡ªá¢Ŀ
á¡Ńá¢ŀ á¢Ľá¡«
á¢Į á¡¬á¡±á¡³
á¢Ļ á¡ªá¢Ĭá¢Ķá¡ªá¡§
á¡¬á¢ĭ á¡Ńá¢Ŀ
Ġá¡¸ á¡ªá¡¬á¡¬á¢ĳ
Ġá¡¸ á¡ªá¡³
á¡¥ á¢Ļ
Ġá¢Įá¡ª á¡ªá¢Ľá¡³
Ġá¢ĭá¡Ńá¡¬á¢ ĭ
Ġá¡¬ á¡ªá¡ªá¢Ĭá¢Ķ
á¡¸ á¡Ńá¡³
á¢Ł á¡³
Ġá¡¥á¢İ á¡ªá¢Ĭá¡ªá¡¨
Ġá¡¥á¡ªá¢ĳá¢Ļ á¡ªá¢Ŀ
Ġá¡³á¡ªá¡¬á¡¬á¡±á¡±á¡Ńá¢ĳ á¡Ńá¢ĳá¢Ļá¡§
á¢Ł á¡±
Ġá¢Ķá¡Ńá¡¬á¢ĳ á¢Ļá¡§
Ġá¢Ķ á¡¬á¢İ
á¡Ńá¢ĭ á¡Ńá¢Ŀ
á¡Ńá¢ĳ á¢Ĭá¡ªá¡¨
Ġá¢ĺá¡Ńá¡¬á¢ŀ á¢Ķ
áł¡áł µáł¦
á¢Ī á¡Ńá¢ŀ
Ġá¢ĺá¡ªá¡¬ á¡¬á¢ļ
Ġáłłáł ·
Ġá¢Į á¡Ńá¢Ľá¡«
á¡¥á¡Ńá¡¬ á¡ªá¢Ļ
Ġá¢Ķá¡ªá¢ĭá¡Ńá¢Ļ á¡ªá¢Ŀ
Ġá¢ļ á¡ªá¡³
á¢ĺ á¢Ŀ
Ġá¡³á¡ªá¢ŀ á¡ªá¡ªá¡ªá¡³
Ð°Ð ¼
Ġá¡³á¡ªá¢Ĭ á¡ªá¢Ľá¡¬á¡ªá¡¬á¡¨
áł¡áł ¶
á¡ªá¢ ¤
Ġá¡¥á¡Ńá¢ĳ á¡ªá¡ªá¢Ĭá¢Ĭá¡¬á¡¦
Ġá¡¥á¡Ńá¡ªá¢Ĭá¢Ķ á¡¬á¡ªá¡ªá¡³
á¡ªá¡ª á¡Ńá¢ĳ
Ġá¢Ķ á¡ªá¡ªá¢Ļ
Ġá¢Ķá¡¬ á¡ªá¢Ľá¡«
á¢ĭá¡Ńá¢ĳ á¡ªá¡ªá¡¬á¡¨
Ġá¡¬á¡Ńá¢ŀ á¡¬á¢ĳá¢īá¡¨
Ġá¡¸á¡Ńá¢ŀ á¢Ļá¡Ńá¡§
á¡ªá¡Ń á¡ªá¢ļá¡³
Ġá¡¬á¡Ńá¡¬á¢Ĭ á¡ªá¢ĳá¡ªá¡§
Ġá¢ļá¡¬á¢ĳ á¡Ńá¢Ĭ
Ġá¢Ĭá¡ªá¢ĳ á¡ªá¢Ļá¡ªá¡¬á¡¨
Ġá¡³ á¡ªá¡«
á¢Łá¢ į
Ġá¢ĭá¡Ńá¡¬á¢ Ľ
Ġá¡¥á¡Ńá¡´ á¡Ńá¢ĩ
Ġá¢ļá¡¬á¢Ļ á¡ªá¢Ļá¡ªá¢ĩ
á¡¬á¢ľ á¡ªá¢Ļá¡§
á¡Ńá¡± á¡³
á¡¬ á¡Ńá¡¬
- -
Ġá¡¬ á¡¬á¢İ
Ġá¡¥á¡ªá¡±á¡± á¡Ńá¢Ļ
Ġá¡¥á¢Ķá¡ªá¢ŀ á¢ĭ
Ġá¡´á¡Ńá¡ª á¡ªá¢Ļá¡§
á¡Ńá¡±á¡± á¡Ńá¢ŀ
Ġá¢ĺá¡Ńá¢Ķ á¡ªá¡ªá¡Ńá¡§
á¡ªá¢Ļ á¡Ńá¢Ĭá¡ªá¢Ŀ
Ġá¢Ķá¡ªá¡±á¡± á¡Ńá¡ªá¡ªá¢Ķá¡ªá¡§
Ġá¢ĺá¡ªá¢Ĭá¡ªá¢Ļ á¡Ńá¢ĵ
á¡ªá¢Ĭ á¡ªá¢Ĳ
Ġá¢Īá¡ªá¢ŀ á¡±á¡±á¡ªá¡ªá¡ªá¡³
Ġá¡¸á¡ªá¢ľ á¡§
Ġá¡³á¡¬á¢ļ á¡¬á¢ĳá¢Ĭá¡ªá¡¨
Ġá¢ĺá¡ªá¡³ á¢ļ
Ġá¢ĭá¡Ńá¡¬á¡¬á¢ļ á¡ªá¡Ńá¡ªá¢Ĭ
Ġá¡¬á¡Ńá¡¬á¡³á¢Ķ á¡¬á¢ľá¡ªá¢ŀ
Ġá¡¥á¡¬ á¡¬á¢İá¡Ńá¢ŀ
á¡Ńá¡±á¡± á¡ªá¢ŀ
ĠÑ ģ
Ġá¢ĭá¡Ńá¡¬á¢ŀ á¡Ńá¢Ĭá¢Ķá¡ªá¡§
Ġá¢Ķá¡ªá¢ŀ á¡ªá¡§
Ġá¢ĺá¡ªá¢ŀ á¡ªá¡ªá¡ªá¡§
Ġá¢ĺá¡Ńá¢Ĭ á¡¬á¢ľá¡ªá¢ĳá¢Ļ
á¡³ á¡ªá¢ľ
Ġá¢ĭá¡Ńá¡¬á¢Ļá¡ªá¢ĳá¢İ á¡Ńá¢ŀá¡«
á¢Ķ á¡ªá¡±
Ġá¢Ĺ á¡ªá¢Ļá¡Ńá¡§
Ġá¡¥á¡Ńá¡¬á¢Ļ á¡§
á¡ªá¢ĺá¢Łá¢ŀ á¡¬á¢ľá¡ªá¢Ĳ
Ġá¡¥á¡Ńá¡¬á¢Ľ á¡ªá¢Ĭá¢Ļá¡ªá¢Ĳ
Ġá¡¬á¡¬á¢ŀ á¡Ńá¢į
á¢Łá¢ĳá¢Ł á¡¬á¢ĵ
Ġá¡¸á¡Ńá¢ļ á¡Ńá¢ŀ
Ġá¢ĺá¡ªá¢İ á¢Ļá¡ªá¡¬á¡¨
á¢ľ á¡ªá¢ŀ
á¡¥á¡Ńá¡¬ á¡¬á¢ĳ
Ġá¡¯á¡ªá¢Ķ á¡Ńá¢Ļá¡ªá¡§
Ġá¡¯ á¡ªá¢Ļ
Ġá¢ľ á¡¬á¢Ķá¡Ńá¡§
á¡±á¡± á¡Ńá¡«
Ġá¡³á¡ªá¡¬á¡¬á¡±á¡±á¡Ńá¢ĳ á¢Ľá¡³
á¡ªá¢Ľ á¡§
Ġá¢ļá¡Ńá¡¬á¢ į
á¢Ķ á¡¬á¢ŀ
á¡¥ á¡¬
á¡ªá¡´ á¡Ń
Ġá¡¯á¡ªá¢Ĭ á¡ªá¢Ĭ
Ġá¢ľá¡ªá¡´ á¡Ńá¡°á¡¨
Ġá¡´á¡Ńá¢Ļ á¡ªá¢īá¡¨
Ġá¡¯á¡ªá¡¬á¡¬á¢ŀ á¡ªá¡±á¡±á¡Ńá¢ĳ
Ġá¡³á¡¬á¢Ļ á¡ªá¢Ĭá¡ªá¡«
Ġáł¡ áł·
á¡³á¡ªá¡¬ á¡¬á¡°á¡¨
ĠãĢī ãĢī
Ġá¢ĺ á¡ªá¢ĭá¡Ń
Ġá¢ĺá¡ªá¡±á¡± á¡ªá¡±á¡±
Ġá¡¥á¡Ńá¡¬á¡ªá¢Ļ á¡Ńá¢Ķá¡³
Ġá¢ĭá¡Ńá¡¬á¢Ĭá¢Ľ á¡¬á¢į
Ġá¢Ļ á¡Ńá¢Ŀ
Ġá¡¥á¡ªá¢Ľ á¡«
á¡Ńá¡¬ á¡¬á¢ļ
á¡ªá¡±á¡± á¡Ńá¡Ńá¡§
Ġá¡¬ á¡ªá¡±á¡±á¡³
á¡ªá¡ªá¡ªá¡³ á¡ªá¡¨
Ġá¢ĺá¡Ńá¢İ á¡Ńá¢ĩ
Ġá¢ĺá¡ªá¢İ á¡ªá¡«
áł¡áł ª
Ġá¡¥á¡Ńá¢ŀá¢ļ á¡¬á¢į
Ġá¢Įá¡ªá¢ŀá¡±á¡± á¡ªá¢Ķá¡«
Ġá¢Īá¡Ń á¡Ńá¢ĳá¢Ļ
Ġá¡¥á¡¬á¢ŀ á¢Ĭá¡ªá¡Ńá¡§
Ġá¢Ĭ á¡¬á¢İ
Ġá¡³á¡¬á¢ļ á¡¬á¡ªá¡ªá¡ªá¡§
Ġá¡´á¡Ńá¢Ļ á¡ªá¢Ļá¡ªá¡«
Ġá¢ļá¡¬á¡ªá¢Ĭ á¡±á¡±
Ġá¡¬á¡ªá¡ªá¢Ĭá¢Ķ á¡¬á¢Ĳ
á¡Ńá¢İ á¡ªá¡§
Ġá¡¬ á¡¬á¢ľ
áł¦áł °
Ġá¡¥á¡ªá¢Ľ á¡§
Ġá¢Īá¡Ńá¡³ á¡¨
Ġá¢Īá¡ªá¢ŀá¡±á¡± á¡ªá¡ªá¡ªá¢Ķá¡ªá¡§
Ð ¹
Ġá¡¯á¡ªá¢Ķ á¡Ńá¢Ļá¡ªá¡«
á¡ªá¡±á¡± á¡ªá¢ĳá¢Ļá¡§
Ġá¢Ķá¡Ńá¢ŀá¡±á¡± á¡ªá¢ĳá¢Ļá¡§
á¡¥á¡Ńá¢ĳ á¡Ńá¢ĵ
á¡¯ á¡ªá¡¬
Ġáłª áł¤áł¯
Ġá¡³á¡ªá¢ľ á¡ªá¢ĳá¡¬á¢ĩ
Ġá¡¥á¡¬á¢ŀ á¡ªá¢Ĳá¡¨
Ġ á¡¬á¢Ł
Ġá¢Į á¡ªá¢ľ
áł¤ áł¢
áł Ħ
Ġá¢Į á¡ªá¢ĺá¢Łá¢ŀá¡¬á¢ľá¡ªá¢Ĳ
áł¦áł ³
Ġá¡¥á¡Ńá¡¬á¢Ľ á¡ªá¢ĭá¡Ńá¢ĳ
Ġá¢ĺá¡Ńá¡³á¢ļ á¡¬á¢ľá¡ªá¡§
Ġá¢ĭá¡Ńá¡¬á¢Ĭá¢Ľ á¡¬á¢Ĳ
Ġá¡³ á¡ªá¡±á¡±á¡Ńá¢ĳ
á¡Ńá¡±á¡± á¡Ńá¢Ĳ
Ġá¡¸á¡ªá¢ŀ á¡ªá¡±á¡±á¡ªá¡Ńá¡§
á¡¥ á¡Ńá¡¬á¢ĳ
Ġá¡¥á¡¬á¢Ļ á¡ªá¢Ľá¡³
Ġá¢ļ á¡Ńá¢ĳá¡§
Ġá¡¬á¡ªá¢ŀ á¢Ĭ
Ġá¡³á¡ªá¡¬á¡¬á¡±á¡±á¡Ńá¢ĳ á¡ªá¡ªá¡³
á¡Ńá¡ªá¢Ĭ á¡±
Ġá¡³á¡ªá¡ªá¡ª á¡ªá¢ŀ
Ġá¢Ĭá¡¬á¢Ļ á¡ªá¡¬á¡¨
Ġá¢Ķá¡ªá¡± á¡ªá¡±á¡±
Ġá¢Įá¡ªá¢Ļ á¡ªá¢Ļá¡ªá¡¬á¡¨
á¢Ķ á¡ªá¢Ĭá¡ªá¢Ŀ
Ġá¢ĭá¡Ńá¡¬á¢ŀ á¡Ńá¡§
á¡¥ á¡ªá¢Ķ
Ġá¢Į á¡ªá¡±á¡±á¡ªá¡Ńá¡§
Ñ ĭ
á¡Ńá¡¬á¡¬á¡³ á¡ªá¢Ŀ
á¡Ńá¡¬á¢ ĺ
Ġá¢ĺá¡Ńá¡¬á¢ĳ á¡Ńá¢Ĭá¡ªá¢ĳ
Ġá¡´á¡Ńá¢ĳá¡±á¡± á¡ªá¡ªá¡ªá¢Ķá¡ªá¡§
Ġá¢ľá¡Ńá¢Ķ á¡Ńá¡±á¡±á¡ªá¢Ŀ
á¡ªá¡±á¡±á¡Ńá¢ĳ á¡Ńá¡°á¡¨
Ġá¢ĺ á¢Łá¢ĳá¢Łá¡¬á¢ĵ
á¡Ńá¡ªá¡ª á¡ªá¡ª
Ġá¡¥á¢İá¡Ńá¡± á¡ªá¢Ĭá¡¬á¡¦
Ġá¢Ĭá¡ªá¢ļ á¡ªá¢ĭá¡Ńá¡³
Ġá¢ľá¡ªá¢Ļ á¡ªá¡±á¡±á¡³
Ġá¡¥á¡ªá¢İ á¢Ļ
á¡³ á¡ªá¢īá¡¨
Ġá¡¸ á¡Ńá¢Ļá¡ªá¢Ĳ
Ġá¢ĺá¡ªá¢Ĭá¡ªá¢Ĭá¢Ķ á¡¬á¢ĳ
Ġá¡¸á¡ªá¢ŀá¡¬á¡±á¡± á¡³
´ áłł
Ġá¡¥á¡¬á¢ĳ á¡ªá¢ŀá¢Ĭ
Ġá¢ļá¡¬á¢ĳ á¡Ńá¢Ĭá¡ªá¡¨
Ġá¢ĭá¡Ńá¡¬á¢Ĭá¡ªá¢ŀ á¡Ńá¢ĭá¡Ńá¡«
Ġá¢ĭá¡Ńá¡¬á¢ŀ á¡¬á¢ľá¡ªá¡§
á¡ªá¢ĳá¢Ļ á¡Ńá¢Ľá¡³
Ġá¢Ĭá¡ªá¢Ľ á¡¬á¢ľá¡ªá¢Ļá¡§
Ġá¢Ĭá¡¬á¢Ľ á¡ªá¡±á¡±á¡ªá¢Ŀ
Ġá¡´á¡Ńá¢ĳá¡³á¡ªá¢Ķ á¡Ńá¢ŀ
Ġá¡¸ á¡ªá¡³á¢Ķ
á¡ªá¢ĳ á¡ªá¢Ļá¡ªá¢ĩ
Ġá¢ĺ á¡Ńá¡±á¡±á¡Ńá¢ĳ
Ġá¡¥á¡Ńá¡¬á¢Ľ á¡ªá¢Ĭá¡ªá¡Ńá¡§
á¢Į á¡ªá¢Ļ
áł¢áł °
á¢Ĭ á¡ªá¢Ŀ
á¡¬á¢Ľ á¡¬á¢ŀ
Ġá¡¥á¡Ńá¡¬á¢ŀ á¡±
Ġá¢ĺá¡ªá¢İá¢Ľ á¡¬á¡§
á¡ªá¡ª á¡ªá¢ĩ
á¡ªá¡ªá¢Ĭ á¢Ļ
Ġá¡¥á¡Ńá¢ĳá¡ªá¢İá¢Ľá¡¬á¢ĳ á¡ªá¢ĳá¢Ļá¡³
á¡ªá¡ª á¡ªá¢Ļá¡§
Ġá¡¥á¡Ńá¢ŀ á¢įá¡¨
Ġá¡¥á¡ªá¢İá¡¬á¢Ļá¡Ńá¢ŀ á¡ªá¡ªá¡ªá¡³
Ġá¢ĺ á¡Ńá¡±á¡±á¡ªá¡§
Ġá¡¥ á¡ªá¢ļ
á¢ ¨
Ġá¡¯á¡ªá¡¬á¡¬á¢Ļ á¡ªá¢ĳ
Ġá¡¯á¡ªá¢Ļ á¡ªá¢Ļá¡³
á¡ªá¡±á¡±á¡Ńá¢ĳ á¢Ļá¡ªá¢ĩ
Ġá¢Įá¡Ńá¡¬ á¡ªá¢Ĭá¢Ĭ
á¡ªá¢İ á¡Ńá¢Ŀ
Ġá¡´á¡Ńá¢ĳ á¢Ľ
Ġá¡¥á¡ªá¢Ķ á¡ªá¢Ŀ
Ġá¢Ķá¡Ńá¢Ļ á¡Ńá¢Ŀ
Ġá¢Ĭá¡ªá¢ŀá¡ªá¢Ĭá¢ĳ á¡ªá¢Ľá¡³
Ġá¡¬á¡¬ á¡±á¡±á¡ªá¢Ľá¡³
Ġá¢ļá¡¬á¢Ļ á¡ªá¡°á¡¨
Ġá¢Īá¡ªá¢ļ á¡ªá¡±á¡±á¡ªá¡§
Ġá¢ľá¡ªá¡±á¡± á¡ªá¢ŀ
Ġá¢Ķá¡Ńá¢ŀá¡´á¡Ńá¢ĳ á¢Ľá¡¬á¢ĳ
á¡ªá¢Ķ á¡¬á¡¬á¡¨
Ġá¡³á¡ªá¢ŀá¡¬á¢İ á¢Ļ
á¡¬á¡ª á¡ªá¢Ļá¡³
Ġá¡¥á¢ĳ á¢Ļ
á¡Ńá¡ªá¢Ĭ á¡ªá¡ªá¡³
á¡¥ á¡¬á¢ĳ
á¡ªá¡Ń á¡ªá¡ªá¡ªá¡³
Ġá¡¥á¡ªá¢Ļ á¡Ńá¡±á¡±á¡³
Ġá¡¸á¡ªá¢ŀ á¡¬á¡±á¡±á¡Ńá¢ĳ
Ġá¢ı á¡ªá¡³á¢Ļ
Ġá¢Ķá¡¬á¢ŀ á¡±á¡±
ĠãĢĪ ãĢĪ
Ġá¢Įá¡Ńá¡¬á¢ŀ á¡ªá¡§
á¡¥á¡ªá¢İ á¡¬á¢Ļ
á¢ĳ á¡ªá¢Ĭá¡ªá¡¨
Ġáł¬ áłłáł·
Ġá¡¥á¡ªá¡³ á¡¬á¢ľ
Ġá¡¥á¢Ĭá¡¬á¢ĳ á¡ªá¢Ĭá¢Ķá¡ªá¡§
Ġá¡¥á¢Ľ á¡ªá¢İá¢Ķ
Ġá¡¬á¡Ńá¡¬á¢Ĭ á¡ªá¢Ŀ
Ġáłłáł ®
Ġá¡¥á¡Ńá¡¬á¢Ļ á¡ªá¢Ķá¡«
Ġá¡³á¡ªá¢Ļ á¡ªá¢ŀ
Ġá¡¥á¢ŀá¢Ļ á¡ªá¡±
áłłáł ©
Ġáłª áł¤áł¯áł
Ġá¡³ á¡ªá¡ªá¡ªá¢Ļ
Ġá¢ļ á¡ªá¡³á¡ªá¢Ŀ
Ġá¡¥á¡Ńá¡¬á¢Ľ á¡ªá¢Ļá¡ªá¡¬á¡¨
áł¤áł ¶
Ġá¡¥á¡Ńá¢ŀ á¢ļá¡¬á¢ĳá¡ªá¡ªá¡¬á¡¨
Ġá¢Ķ á¡Ńá¡³
á¡¥á¡Ńá¡¬ á¡³á¡ªá¢Ŀ
Ġá¢ľá¡ªá¢ŀá¡Ńá¡ªá¢Ĭá¢Ĭ á¡ªá¡¬á¡¬á¢ĳ
á¢ĳ á¡ªá¢Ĭá¢Ķá¡ªá¡§
Ġá¢ĭá¡Ńá¡¬á¢ĳ á¡¬á¢ľá¡ªá¢Ľá¡³
Ġá¢ĺá¡ªá¡±á¡± á¡Ńá¢ŀ
Ġá¢Ĭ á¡ªá¢į
Ġá¡¥ á¡ªá¡±á¡±á¡ªá¢Ŀ
Ġá¡¬á¡¬ á¡³
Ġá¢ĺá¡ªá¢Ĭ á¡ªá¢Ľá¡³
á¢ĺ á¡Ńá¢Ļ
Ġá¡¥á¡ªá¢ĳá¡ªá¡ª á¡Ńá¢į
Ġá¡¥á¡ªá¢ľ á¡Ńá¢Ĳ
Ġá¡¥á¢Ķ á¡ªá¢ĭá¡Ńá¢Ĳá¡¨
Ġá¢ļ á¡ªá¢Ķá¡³
á¡ªá¢İá¢Ķ á¡ªá¢Ŀ
Ġá¡¥á¡Ńá¢ŀ á¢Ļ
Ġá¢ĺá¡Ńá¡¬á¢ŀ á¢Ĭá¡ªá¡§
á¢ľ á¡ªá¡±á¡±
Ð°Ð »
ÑįÐ »
Ġáł¤áł¯ áł¤áł°
á¡Ńá¡¬á¢ĭ á¡Ńá¢ŀ
Ġá¡¥á¡Ńá¡¬ á¡²
Ġá¡¥á¡ªá¢ľ á¡ªá¡§
Ġá¡¸á¡Ńá¡³á¡¬á¢Ķ á¡ªá¡ªá¡ªá¢Ĳ
Ġá¡´á¡Ńá¢ĳ á¡Ńá¢İá¢Ľá¡«
Ġá¡¥á¡ªá¢Ļá¡ªá¢ĳ á¡¬á¡ªá¡ªá¡ªá¡§
Ġá¡¯á¡ªá¢ĭ á¡Ńá¢Ļá¡ªá¢Ĳ
Ġá¢Ķá¡¬ á¡ªá¢Ľ
Ġá¡¯á¡ªá¡³á¢Ļ á¡ªá¢ŀ
Ġá¢ı á¡Ńá¡³
Ġáłª áłłáł¨
Ġá¢Ĭ á¡¬á¢ŀ
á¡¬á¢ĳ á¡¬á¡¬á¡¨
á¡¬á¢ĭá¡Ńá¢ĳ á¡Ńá¢Ĭá¢Ķá¡ªá¡§
á¡ªá¡ª á¡ªá¢ĳ
Ġá¢ĺ á¡Ńá¢ľ
Ġá¡¥á¡ªá¢ŀ á¡¬á¢ĳ
Ġá¢Ķá¡Ńá¢ŀá¡Ńá¢ĳá¢ļ á¡ªá¡ªá¡ªá¡³
Ġá¢Ķá¡¬á¢ĳ á¡«
Ġá¢Ķ á¡¬á¢ľá¡ªá¡§
Ġá¡¸á¡ªá¢ŀá¡¬á¢ĳá¢ļ á¡ªá¡§
Ġá¡¬á¡Ńá¡¬á¢ŀ á¡¬á¢ļ
Ġá¡³á¡ªá¢ŀá¡¬á¢İ á¢Ļá¡§
Ġá¡¸á¡Ńá¡³ á¡¬á¢ľ
á¢Ķá¡Ńá¢ŀ á¡±á¡±
Ġá¢ĺá¡ªá¢ŀá¢Ĭ á¡ªá¢Ļá¡§
á¡Ńá¢Ļ á¡ªá¢Ĳá¡¨
Ġá¢ĺá¡ªá¡¬á¡¬á¢ĳ á¡´á¡Ńá¢ŀ
Ġá¡¥á¡Ńá¢ŀá¡Ńá¢Ķ á¡ªá¡ªá¡ªá¢Ĳ
Ġá¢Įá¡ªá¢Ļ á¡ªá¢Ĭá¢Ķá¡ªá¡§
Ġá¡¯á¡Ńá¡¬á¢ĳ á¡Ńá¢Ĭá¡ªá¡¨
Ġá¢ĺá¡Ńá¢Ķ á¡¬á¢ľá¡ªá¢Ĳ
Ġá¢ĺá¡ªá¢Ĭ á¢Ķá¡«
Ġá¡¬ á¡ªá¡¬á¡¬á¢ĳ
Ġá¡³á¡ªá¢ĳ á¢Ĭ
Ġá¡¸á¡Ń á¡Ńá¢ĵ
Ġá¢ĺá¡Ńá¢ĳ á¡«
áł¡áł· áł¡áłŃ
Ġá¡¸á¡Ńá¢ĳá¡´ á¡Ńá¡ªá¡ªá¢Ļ
Ġá¡¸á¡ªá¢İ á¡¬á¡«á¡¨
Ġá¢Īá¡ªá¢ŀ á¡ªá¢ĩ
á¢Ķ á¡ªá¢ŀ
Ġá¡´á¡Ńá¢Ļ á¡Ńá¢Ļá¡ªá¢ĩ
á¡³ á¡¬á¢ļ
Ġá¢ĺ á¡ªá¢ĭá¡Ńá¢ĳ
Ġá¢ĺá¡ªá¡¬ á¡¬á¡´
Ñį ÑĢ
Ġá¡´á¡Ńá¢ĳ á¡ªá¢ĩ
Ġá¡¸á¡Ńá¡±á¡± á¡Ńá¢Ķá¡Ńá¡§
Ġá¡¬á¡¬á¢Ľ á¡¬á¡¬á¡¨
Ġá¢ľ á¡ªá¢Ķá¡³
Ġá¡¥ á¡ªá¡¬á¡¬á¢ĳ
á¡³á¡ªá¡¬ á¡¬á¡ªá¡ªá¢Ķá¡ªá¡§
Ġá¢ĺá¡Ńá¡¬á¢ŀ á¡³á¡ªá¡¨
Ġá¢Ķá¡Ńá¢ŀ á¢ļá¡³
Ġá¡¥á¡Ńá¡¬á¢Ĭá¡ªá¢ŀá¡ªá¢ļá¡¬á¢ĳ á¡ªá¢ĳá¢Ļá¡§
á¡ªá¡ªá¡ªá¢Ļ á¡ªá¢īá¡¨
Ġá¢Ĺ á¡Ń
á¡Ńá¡±á¡±á¡Ńá¢ĳ á¡Ńá¡§
Ġá¢Ķá¡ªá¢ļ á¡ªá¡§
Ġá¢¥á¡Ńá¢İá¡¶ á¡ªá¡±á¡«
Ġá¢Ĭá¡ªá¢Ļ á¡Ńá¡¬á¡¬á¡³á¡ªá¢Ŀ
Ġá¡¸á¡Ńá¢ŀ á¡¬á¢ľ
Ġá¡¥á¡Ńá¡¬á¢Ľ á¡Ńá¢ĭá¡Ńá¢Ŀ
Ġá¢ĺá¡ªá¢ĳá¢Ĭ á¡ªá¢ŀ
Ġá¡¥á¡ªá¢ŀ á¡ªá¡«
Ġá¢ĺá¡ªá¢Ļ á¡ªá¢Ľá¡³
Ġá¢Ķá¡ªá¢ĭá¡Ńá¢ĳ á¡ªá¢Ŀ
Ġá¢ĺ á¡Ńá¡±
Ġá¡¸á¡ªá¢ŀ á¡ªá¡ªá¡ªá¢Ķá¡ªá¡§
Ġá¡¸á¡ªá¢ŀ á¡ªá¡ªá¢Ĭá¡±á¡±á¡Ńá¡«
á¡Ńá¢ĳá¢Ĭ á¡¬á¢Ļá¡ªá¡§
Ġá¡¬á¡¬ á¡±á¡±á¡ªá¡ªá¡ªá¡³
Ġá¡¥á¡ªá¡±á¡± á¡Ńá¡³
á¢Ĭ á¡ªá¡Ńá¢Ĭ
Ġá¡¯ á¡Ńá¢Ļ
Ġá¢Ĭá¡¬á¢ļ á¡¬á¢ľá¡ªá¢ĳ
Ġá¢Ī á¡ªá¢Ķ
á¡Ńá¡¬ á¡¬á¢Ļ
Ġá¡¥á¡ªá¢Ĭá¢Ĭ á¡ªá¢Ŀ
Ġá¡¯á¡Ńá¡±á¡± á¡Ńá¢īá¡¨
Ġá¡¥á¢ŀá¢Ĭá¡¬á¢ĳ á¡ªá¢Ĭá¢ļá¡«
Ġá¢ĺá¡ªá¢ĳá¡³ á¡¬á¡ªá¡ªá¡³
Ġá¢Ķá¡Ńá¢ŀ á¢Ļ
Ġá¢ľá¡ªá¢İ á¡Ńá¡§
á¡¬ á¡Ńá¡ªá¡ªá¡ª
á¡¬ á¡Ńá¢Ĭ
Ġá¢ĺá¡Ńá¡ªá¡ªá¢Ļ á¡ªá¡±á¡±á¡ªá¢Ĳ
á¡Ńá¢ĳ á¢Ľ
Ġá¢ĺ á¡ªá¡Ń
Ġá¢ĺá¡Ńá¢Ļ á¡Ńá¢į
Ġá¢Įá¡ªá¢ŀ á¢Ĭá¡ªá¡§
Ġá¡¥á¡Ńá¡¬á¢Ĭ á¡ªá¡§
Ġá¢Ĭá¡ªá¢Ĭ á¡ªá¢Ŀá¡¨
Ġá¢ľá¡ªá¢ŀ á¡¬á¢ľá¡ªá¡§
Ġá¢ĺ á¡Ńá¢ĩ
Ġá¢ľá¡ªá¡´ á¡Ńá¡ªá¡ªá¢Ļ
Ġá¡¸á¡Ńá¡± á¡¬á¡§
Ġá¢Ķá¡ªá¡Ńá¡ªá¢Ĭ á¡¬á¢ĭá¡Ńá¡«
Ġá¢ĭá¡Ńá¡¬á¢ĳ á¡Ńá¡¬á¡¨
Ġá¡³á¡ªá¡¬ á¡¬á¢Ķ
Ġá¢ľ á¡Ńá¢Łá¡ªá¡§
á¡Ńá¡±á¡±á¡Ńá¢ĳ á¡ªá¡ªá¡¬á¡¨
Ġá¡¥á¡¬á¡¬á¢İá¡Ńá¢ŀ á¢ĭá¡Ń
Ł á¢Łá¡¦
á¡¬ á¡ªá¢Ļ
Ġá¢ļá¡¬á¡± á¡ªá¡ªá¡ªá¢Ķ
Ġá¡´á¡Ńá¡¬á¢Ļ á¡Ńá¡§
Ġá¢Ĭá¡ªá¡³ á¢ļ
á¡¯ á¡Ńá¢Ļá¡Ńá¢ĩ
Ġá¡¥á¢ŀ á¡ªá¢Ĭá¢Ļá¡ªá¡«
Ġá¡¥á¡¬á¢ŀ á¢Ĭá¡ªá¡§
á¡Ńá¢İ á¢Ļá¡§
á¢Ĭá¡ªá¡Ńá¢Ĭ á¡ªá¡Ńá¡§
á¢ľ á¡Ńá¢į
Ġá¢ĺá¡ªá¢Ĭ á¡¬á¢Ľá¡³
Ġá¡¯á¡Ńá¢ľ á¡ªá¡Ńá¡§
á¢ļ á¡¬á¢į
Ġá¡¥á¡Ńá¡ªá¢Ĭá¢Ķ á¡¬á¢Ľá¡³
á¢ĭ á¡Ńá¡¬á¢Ļ
Ġá¢ļ á¡¬á¡³
Ġá¢ļá¡ªá¡ªá¢Ĭá¢Ĭ á¡ªá¢Ŀ
Ġá¡¬ á¡ªá¡ªá¢Ĭá¢Ĭ
Ġá¢ĭ á¡Ńá¡¦
Ġá¢ľá¡ªá¢ŀ á¡¬á¡ªá¡ªá¢Ķá¡ªá¡§
Ġá¢Īá¡ªá¢ļ á¡ªá¢īá¡¨
Ġá¡¥ á¡ªá¢Ĭá¢Ĭá¡ªá¡¨
Ġá¢Ķá¡Ńá¡¬á¢ Ķ
Ġá¢Īá¡ªá¢ŀ á¡Ńá¡±á¡±á¡ªá¡Ńá¡§
Ġá¢Ĭá¡ªá¢ĳ á¡ªá¢Ĭá¡ªá¡Ńá¡§
á¡Ńá¡¬á¡¬á¢ĳ á¡ªá¡ªá¡¬á¡¨
Ġá¢Īá¡ªá¢ŀ á¢Ļá¡ªá¢ĩ
Ġá¡¬á¡¬á¢Ĺ á¡¬á¢ľá¡ªá¢ĳ
Ġá¢ĭá¡Ńá¡¬á¢ļ á¡¬á¢Ŀ
Ġá¢ĺá¡Ńá¡ªá¢Ĭá¡±á¡± á¡ªá¢ĳá¡ªá¢ĩ
Ġá¢ĭá¡Ńá¡¬á¢ĳ á¡¬á¢ľá¡ªá¡§
Ġá¡¥á¢ĳá¢Ļ á¡ªá¡²
á¡Ńá¡¬á¢Ľ á¡«
Ġá¡´á¡Ńá¡¬á¢ĳ á¢ĭ
Ġá¡¬á¡ªá¢Ķ á¡ªá¢Ĳ
á¢ĺ á¡Ńá¢ĳ
Ġáł¬ áłłáł®
Ġá¡¬á¡ªá¡±á¡± á¡Ńá¢Ŀá¡¨
á¡Ńá¢ŀ á¢īá¡¨
á¡¥ á¡Ńá¢ļ
Ġá¢ĺá¡ªá¢ĳá¡³ á¡¬á¡ªá¡ªá¢Ķá¡ªá¡§
Ġá¡¥á¡¬á¢Ļ á¡ªá¡³
á¡¬á¢İ á¡ªá¢Ĳ
Ġá¡¥á¢ Ł
á¢Ļ á¡ªá¢Ĭá¡ªá¡¨
Ġá¡¥á¡ª á¡Ńá¡ªá¡ªá¡ª
á¡¬á¡Ńá¡ªá¢Ĭ á¡ªá¢Ĳ
Ġáł¬áł¦áł ®
Ġá¢ĺá¡Ńá¡¬á¢ŀ á¡Ńá¢ĳá¢Ĭá¡¬á¢Ļá¡ªá¡§
Ġá¡¥á¡ªá¢ľá¡ªá¢ĳ á¡±á¡±á¡³
Ġá¢ĺá¡Ńá¡¬á¢ĭ á¡Ńá¢į
Ġá¡¯á¡ªá¢ŀ á¡ªá¢Ļá¡³
Ġá¡¬á¡ªá¢Ĭá¡¬á¢ŀ á¡Ńá¢Ĳ
á¡ªá¡ªá¢Ļ á¡ªá¡«
Ġá¢Ķ á¡Ńá¡ªá¡ªá¢Ļ
Ġá¢ĺá¡ªá¡¬ á¡¬á¢Ķá¡Ńá¡§
Ġá¡³á¡ªá¢Ŀ á¡¨
á¡ªá¢ļ á¡ªá¡¬á¡¨
á¡Ńá¡ªá¢Ĭá¡±á¡± á¡Ńá¢Ŀ
á¡ªá¢Ĭá¢Ļ á¡ªá¡¬á¡¬á¢ļá¡Ńá¡Ńá¡§
Ġá¢ĺ á¡Ńá¡ª
Ġá¢ĺá¡ªá¢Ĭá¡ªá¢Ĭá¢Ķ á¡«
Ġá¡´á¡Ńá¢ĳ á¡Ńá¢ĳá¢Ļá¡ªá¡«
á¡ªá¢ļá¡¬á¡ªá¡ª á¡ªá¡ªá¡ªá¢Ķá¡ªá¡§
Ġá¡¥á¢ŀ á¡¬á¢Ľá¡³
Ġá¢ĺá¡Ń á¡Ńá¡±á¡±á¡ªá¢ŀ
Ġá¡¸á¡Ńá¡±á¡±á¡Ńá¢ĳ á¡ªá¡§
Ġáł¬ áł¤áł·
Ġá¢Įá¡ªá¢Ļá¡ªá¢Ĭ á¡ªá¢ĳá¡ªá¢Ĳ
Ġá¡¥á¡Ńá¡¬á¢Ķ á¡³
Ġá¢ı á¡«
á¡Ńá¡±á¡± á¡ªá¢ŀá¡ªá¡«
Ġá¡´á¡Ńá¡¬á¢ŀ á¢ĭ
Ġá¢ĭá¡Ńá¡¬á¢Ĭ á¡ªá¢Ĭ
á¡¥ á¡ªá¡³
Ġá¡¥á¡Ńá¢ŀ á¡¬á¢Ļ
Ġá¡¬á¡ªá¢ĭ á¡Ńá¢Ļá¡³
Ġá¡¯ á¡Ńá¡¬á¢Ĭ
Ġá¢Ķ á¡¬á¢Ķá¢ĺ
Ġá¢ĺá¡ªá¡±á¡± á¡ªá¡³
Ġá¢ļá¡¬á¢ĳ á¡ªá¡±á¡±á¡Ńá¡§
áł¡áłŃ áł¡
á¡ªá¡ªá¢Ĭ á¢Ļá¡³
á¡¬á¢ĭ á¡Ńá¡³
á¡¬á¡±á¡± á¡Ńá¡Ńá¡§
á¡¬ á¡ªá¢ŀ
Ġá¢Įá¡ªá¢ĳá¢Ľ á¡¬á¡ªá¡ªá¡³
Ġá¡¥á¢ĳ á¡³
Ġá¡¯á¡ªá¡¬á¡¬á¢ŀ á¡ªá¢İá¢Ļ
Ġá¢Į á¡Ńá¡ªá¡ª
Ġá¢ĺá¡ªá¢ŀ á¡ªá¢ĭá¡Ń
Ġá¡¥á¢Ĭ á¡¬á¢ĳá¡ªá¢Ľá¡³
Ġá¡¥á¡Ńá¡¬á¢Ĭ á¡ªá¢ĵ
á¢ĭ á¡Ńá¢ŀ
áł §
Ġá¢ľá¡ªá¡±á¡±á¡ªá¢Ĭ á¡¬á¡ªá¡ªá¢Ķá¡ªá¡§
Ġá¢Ķá¡ªá¢ĭá¡Ńá¢ĳ á¢ļá¡«
Ġá¡³á¡ªá¡¬á¡¬á¡±á¡±á¡Ńá¢ĳ á¡Ńá¡ªá¡ªá¢Ķá¡ªá¡§
Ġá¡¬á¡ªá¢ĳá¡ªá¡±á¡± á¡Ńá¢ļá¡Ńá¡Ńá¡§
Ġá¡³ á¡ª
Ġá¡¸á¡Ńá¡±á¡±á¡Ńá¢ĳ á¡ªá¡«
Ġá¢ĭá¡Ńá¡¬ á¡«
Ġá¡³á¡ªá¡±á¡± á¡Ńá¢ŀ
Ġá¢ļ á¡Ńá¢ĩ
Ġá¡³á¡ªá¢ŀ á¢Ĭá¡ªá¡¨
Ġá¡¥á¡ªá¢Ľá¡¬á¢ĳá¢ĳ á¡ªá¡±á¡±á¡ªá¡§
á¢ĺ á¡ªá¢İ
Ġá¡¥á¡Ńá¡¬á¡¬á¢ĳ á¡ªá¢Ļ
Ġá¡¬á¡ªá¢ŀá¢ĳ á¡¬á¢ĩ
Ġá¢Įá¡ªá¢ľ á¡¬á¢ĩ
á¡Ńá¢ ¤
Ġá¢ļá¡ªá¡±á¡± á¡ªá¡°á¡¨
Ġá¡¸á¡ªá¢ŀá¡¬á¢ļ á¡ªá¢īá¡¨
á¡¥á¡Ńá¢ĳ á¡ªá¡§
µ áł¢áł¯
á¡¥ á¡Ńá¢ľ
á¢Ķá¡ªá¡Ńá¡ªá¢Ĭ á¡¬á¢Ĳ
Ð ±
á¡ªá¡ªá¢Ļ á¡ªá¡§
á¢Ĭ á¡ªá¢Ļá¡ªá¡¬á¡¨
á¡¬á¢Ĭ á¢Ļá¡ªá¡§
Ġá¡¥á¡ªá¢İá¡¬á¢Ķá¡ªá¡ª á¡Ńá¢Ĳ
áł£ áłŃ
á¡ªá¢ĳá¢Ľ á¡ªá¡§
á¡¬á¢ĳ á¡ªá¢Ĳ
Ġá¡¥á¡¬á¢ĳ á¡§
Ġá¢Ĭá¡ªá¡³ á¢ĳ
Ġá¡´á¡Ńá¡±á¡±á¡Ńá¢ŀ á¡Ńá¢Ĳ
Ġá¢ļ á¡ªá¡ªá¡ª
Ġá¡¸á¡ªá¢ŀ á¡ªá¢İá¢Ķ
Ġá¢Į á¡Ńá¡¬á¢ĭ
Ġá¡¥á¡Ńá¢ŀá¢ļ á¡¬á¡±á¡±á¡Ńá¢ĳ
Ġáłłáł ´áłł
Ġá¢Įá¡Ńá¡¬á¢ ļ
³ áłł
â Ĵ
Ġá¡³á¡ªá¡¬á¡¬á¡±á¡±á¡Ńá¢ĳ á¡Ńá¢ĳá¢īá¡¨
" ,"
Ġá¡¥á¡Ńá¢Ļá¡Ńá¢ŀá¡¬á¢Ļ á¡Ńá¢ĳá¢īá¡¨
á¡¥ á¡ªá¢ľ
Ġá¡¥á¡Ńá¢Ļ á¡Ńá¡§
Ġá¢Ĭá¡¬á¢ĳ á¡«
Ġá¢Ĭ á¡ªá¡«
á¡¬á¢ŀ á¡ªá¢ĩ
Ġá¡¸ á¡ªá¡±á¡«
Ġá¢ĺá¡Ńá¡±á¡± á¡ªá¢ļ
Ġá¡¬á¡Ńá¡¬ á¡¬á¢ĳ
Ġá¡¸á¡ªá¢Ļ á¡ªá¡§
Ġá¢ĺá¡Ńá¡±á¡±á¡Ńá¢ŀ á¡¬á¢ĩ
á¢Ĭ á¡ªá¢Ĳ
á¡Ńá¢ĳ á¡¬á¢ĩ
Ġá¡¥á¡ªá¡±á¡±á¡Ńá¢Ļ á¡ªá¢į
Ġá¡¥á¡¬á¢ŀ á¡ªá¡³á¡ªá¡¨
áł£ áł·
Ġá¡³á¡ªá¡±á¡± á¡Ńá¢Ľá¡³
Ġá¢Ķá¡ªá¢ĳ á¡ªá¢īá¡¨
Ġá¡´á¡Ńá¢Ļ á¡Ńá¡ªá¡ªá¢Ķá¡ªá¡§
Ġá¡¯ á¡Ńá¢ļ
Ġá¢ĭá¡Ńá¡¬á¢ŀá¡³ á¡ªá¢ĭá¡Ńá¢ĳá¡³á¡ªá¡¨
á¢Ł á¢Ķ
Ġá¡¥ á¡ªá¢ĳá¢Ļá¡§
á¡´ á¡Ńá¡¬á¢ĭ
Ġá¢ĭá¡Ńá¡¬á¢Ĭ á¢Ķá¡¬á¡§
Ġá¡¥á¡Ńá¡ªá¢Ĭá¡±á¡± á¡Ńá¡§
á¡Ńá¢ĳ á¡ªá¡«
Ġá¢Ķ á¡¬á¢įá¡¨
Ġáł¨ áł¢áłŃ
á¡±á¡± á¡ªá¡ªá¡ªá¢Ķá¡ªá¡§
Ġá¡¥á¡ªá¡ªá¢Ĭá¡ªá¡ªá¡ªá¢ŀ á¡Ńá¢Ĳ
áł¦áł ®
Ġá¡¥á¡ªá¢Ľ á¡¬á¡ª
á¡ªá¡ªá¡ª á¡Ńá¢Ļá¡§
Ġá¢ĺá¡Ńá¡±á¡± á¡Ńá¡¬á¡¬á¢ĳá¡ªá¡ªá¡¬á¡¨
Ġá¢ĺá¡ªá¡ªá¢Ĭ á¢ļ
Ġá¢ĺá¡Ńá¡¬á¢ŀá¡³ á¡ªá¢Ļá¡Ńá¢Ĭá¡ªá¢Ŀ
áłłáł µ
Ġá¢ľá¡ªá¢ŀ á¡¬á¢Ļá¡ªá¢ĩ
Ġá¡´á¡Ńá¡¬á¢İ á¡´á¡Ńá¢ŀ
Ġá¡¬á¡Ńá¡¬á¡¬á¢ĳ á¡ªá¢ĵ
Ġá¢Ķá¡Ńá¢ŀ á¢Ļá¡ªá¢Ĳ
Ġá¡¥á¢ŀá¢Ĭ á¡¬á¢İ
Ġá¡¥á¢Ļ á¡ªá¢Ĭá¡ªá¡Ńá¡§
á¡¬á¡ªá¡ªá¢Ļ á¡ªá¢Ľá¡³
á¡´ á¡Ńá¢Ķ
Ġá¢ĭá¡Ńá¡¬ á¡±
Ġá¡³á¡ªá¢ŀ á¡«
á¡ªá¡³ á¡ªá¢ļá¡³
Ġá¢ĭá¡Ńá¡¬á¢İá¡Ńá¢Ľ á¡¬á¢ĭá¡Ńá¢ĳá¢ĭá¡Ń
Ġá¡¸á¡ªá¡±á¡± á¡Ńá¢Ļ
Ġá¡¸á¡ªá¢ŀ á¡«
á¡ ·
á¢Ļ á¡Ńá¢ĳ
á¡Ńá¡ ¶
Ġá¡¬á¡Ńá¢Ĭ á¡¬á¡ªá¡ªá¡³
á¡ªá¡± á¡ªá¢į
á¡Ńá¡ªá¡ªá¢Ļ á¡ªá¡§
á¢Ķá¡Ńá¢ŀá¡±á¡± á¡ªá¡±á¡±á¡Ńá¢ĳá¡«
áł¡áł ´
Ġá¡¥á¡ªá¢İ á¡Ńá¡±á¡±á¡Ńá¢ĳá¡ªá¡ªá¡¬á¡¨
á¡¬á¡±á¡± á¡³
á¡¬á¢ĳ á¡§
áł´ áł¢
Ġá¡¥á¢Ļ á¡Ńá¢Ĭá¡ªá¡¨
Ġá¡¥á¡Ńá¢ŀ á¡¬á¢Ļá¡³
á¡´ á¡Ńá¢Ĳ
á¡¬ á¡ªá¢Ķ
Ġá¢Ķá¡Ńá¡¬á¡± á¡ªá¢Ķá¡³
Ġá¢ĺá¡ªá¢Ĭ á¡¬á¡±á¡±á¡ªá¡Ńá¡§
Ó ©
Ġá¡¥á¢İ á¢Ĭ
Ġá¢Ĭá¡¬á¢ļ á¡¬á¢ľ
Ġá¡¬á¡¬á¡Ń á¡ªá¢ĭ
á¡¥ á¢Ľá¡«
Ġá¡¥á¡Ńá¢ŀ á¡Ńá¡±á¡±á¡ªá¡Ńá¡§
Ġá¢Īá¡Ńá¡³ á¡¬á¡¦
Ġá¢ĺá¡Ńá¡¬á¢ ļ
Ġá¡¥á¡Ńá¢ļ á¡¬á¡ªá¡ªá¡³
Ġá¢ĺá¡ªá¡± á¡¬á¡ªá¡ªá¡³
á¢ĳ á¡«
Ġá¢ĺ á¡ªá¡³á¡ªá¢Ĳ
Ġá¡¸ á¡ªá¢Ļá¡§
á¢Ķ á¡ªá¡±á¡±
Ġá¡¥á¡Ńá¢ŀ á¡Ńá¢ĩ
Ġá¢ĺá¡Ńá¡¬á¢ŀ á¡Ńá¢ĭá¡Ńá¢ĳ
Ġá¡¥á¡Ńá¡± á¡Ńá¢Ĳ
á¡¥á¡ªá¢ŀ á¡³
Ġá¢ĺá¡Ńá¢ŀ á¡ªá¢Ļ
á¡ªá¢Ķ á¡Ńá¢Ļá¡ªá¡«
Ġá¡³á¡ªá¢ŀá¡¬á¢İ á¢Ľá¡¬á¡«á¡¨
Ġá¢Įá¡Ńá¡¬á¢ŀá¡Ńá¢Ĭ á¡ªá¢Ļá¡Ńá¢Ĳ
Ġá¢Ķá¡ªá¡± á¡ªá¢Ľá¡³
á¡ªá¡Ń á¡ªá¢ļá¡¬á¢ĳ
Ġá¡¥á¡¬á¢ŀ á¡ªá¢Ļá¡ªá¡¬á¡¨
Ġá¡¥ á¡§
á¡ªá¢İ á¢ĳá¡¬á¡¬á¡¨
á¡ªá¢İá¢Ķ á¡¬á¢ĩ
á¡´á¡Ńá¢ĳ á¡³
áł¤áł ª
ĠÐ ³
á¡¥ á¡³
Ġá¢ĺá¡ªá¡´ á¡Ń
á¡¥ á¡Ńá¡ªá¡ª
Ġá¢Ķá¡¬á¢ĭ á¡Ńá¢İá¢Ľá¡¬á¢ĳ
Ġá¡¥á¡ªá¢Ľá¡¬á¢ĳ á¢Ļá¡ªá¡§
Ġá¡¥ á¡ªá¡«á¡¨
Ġá¡¥á¢ĳ á¢Ķ
Ġá¢ļ á¡¬á¢Ķá¡Ńá¡§
á¢Ľ á¡ªá¡¬
Ġá¡¬á¡¬ á¡ªá¡¬á¡¨
Ġá¢ľá¡ªá¢ŀá¡Ńá¡ªá¢Ĭá¢Ĭá¡ªá¡¬á¡¬á¢ĳ á¡ªá¢Ĭá¢ļá¡«
Ġá¡¥ á¡¬á¢ļ
Ġá¡³á¡ªá¢ŀ á¡ªá¡±á¡±
Ġá¢Ķ á¡ªá¡±á¡±á¡Ńá¢ĳ
Ġá¢ĺá¡ªá¢ŀ á¡ªá¡ª
á¡ªá¡ªá¢Ĭá¢Ķ á¡«
á¡ªá¡±á¡±á¡Ńá¢ĳ á¡Ńá¡±á¡±á¡ªá¡Ńá¡§
Ġá¡¯ á¡ªá¢ĭá¡Ńá¢Ļ
Ġá¡³á¡ªá¢ĳ á¢Ĭá¡ªá¡¨
Ġá¡¥á¡Ńá¡¬á¢Ĭ á¢Ļá¡ªá¡¬á¡¨
á¡Ńá¢ ¡
Ġá¡¸á¡ªá¢ŀ á¡ªá¡±á¡±
á¡¥ á¡¬á¢Ļ
á¡¬á¡ª á¡ªá¢Ľ
Ġá¡¥á¢Ķá¡ªá¢ŀá¢ĭ á¡Ńá¢ļ
Ġá¢Ķá¡¬á¢Ķá¢ĺ á¢Łá¢į
á¡Ńá¢ŀ á¡ªá¡ªá¡ªá¡«
Ġá¢Īá¡Ń á¡Ńá¢ĳ
Ġá¡¯á¡ªá¢İ á¡ªá¢Ĭá¢Ļ
Ġá¢ĺ á¡ªá¡ªá¡¬á¡¨
Ġá¡¬á¡ªá¢Ĭ á¡ªá¢ĳá¡«
ĠÑ Ĥ
á¡Ńá¢Ľ á¡¬á¡§
Ġá¡¬á¡Ńá¡±á¡± á¡Ńá¢ĩ
á¡Ńá¢ĳ á¡ªá¢ĭá¡Ń
0 0
Ġá¡¥á¡Ńá¡¬á¡¬á¢ĳá¡ªá¡Ń á¡ªá¡´á¡Ńá¢ŀá¡¬á¢ĳ
Ġá¡¥á¢Ķ á¡§
Ġá¡¥á¡ªá¢ĳá¢Ļ á¡ªá¡ªá¡ªá¢Ķá¡ªá¡§
Ġá¢Ķá¡¬á¡³ á¡ªá¡±á¡±á¡³
á¡ªá¡ªá¡³ á¡ªá¡±á¡±á¡ªá¢Ļá¡Ńá¢Ŀ
Ġá¡¥á¡Ńá¢ŀá¡±á¡± á¡Ńá¢İá¡ªá¢Ĳ
Ġá¢ĺá¡Ńá¢Ļá¡Ńá¢ŀ á¡ªá¢Ĭá¡¬á¡¦
Ñį Ð½
Ġá¡¥á¡Ńá¡ªá¡ª á¡ªá¢İá¢Ķá¡ªá¢Ŀ
á¢Ĭ á¡ªá¢Ķ
Ġá¡¥á¡Ńá¢ŀá¡Ńá¢Ķ á¡¬á¢Ľá¡³
Ġá¡¥á¡Ńá¡´ á¡Ńá¡±á¡±á¡ªá¡§
á¡ªá¢Ķ á¡ªá¡«
Ġá¢Ķá¡Ńá¡¬á¢ Ŀ
Ġá¡¥á¡ªá¢İ á¢Ľ
Ġá¡¯ á¡ªá¡ªá¢Ļ
á¡Ńá¢ŀ á¢Ĭá¡ªá¡¨
Ġá¢Ĭá¡ªá¢ŀ á¡ªá¢Ĭá¢Ķ
áł¦áł ª
Ġá¡¸á¡Ńá¢ŀ á¢İ
Ġá¢ĺá¡Ńá¡Ńá¢ŀ á¡ªá¢Ĭá¡¬á¡¦
Ġá¢ĭá¡Ńá¡¬á¢ŀ á¡Ńá¢Ĭá¡ªá¡Ńá¡§
á¢ľ á¡ªá¢Ĭá¡ªá¡¨
Ġá¢ĭá¡Ńá¡¬ á¡ªá¢Ľ
Ġá¢ļá¡ªá¢Ĭ á¡¬á¢ĳá¡±á¡±á¡ªá¡§
Ġá¡¥á¡¬ á¡Ńá¡«
á¡ªá¢ĳá¢Ľ á¡¬á¡§
Ġá¢ĺá¡Ńá¡¬á¢İ á¡§
Ġá¢Ĭá¡ªá¢ŀ á¡ªá¢į
Ġá¢Ķ á¡¬á¢Ļá¡§
á¡Ńá¢Ļ á¡ªá¢Ľá¡³
Ġá¡¸á¡Ńá¡±á¡± á¡Ńá¢Ŀ
á¡ªá¡ªá¢Ĭá¡±á¡± á¡Ńá¡³á¡¨
Ġá¡¬á¡¬á¢Ĺá¡¬á¢ľá¡ªá¢ĳ á¡ªá¡³á¡ªá¢Ĳ
Ġá¡´á¡Ńá¡¬á¢Ļ á¡Ńá¢Ĭá¡ªá¡§
á¡±á¡± á¡Ńá¡§
á¢İ á¡ªá¡§
Ñ Ī
Ġá¡¸á¡ªá¢ŀ á¡ªá¡ªá¡ªá¢Ļá¡ªá¡ªá¡ªá¡³
Ġá¡¥á¡Ńá¡¬á¢ĳá¡ªá¢Ļ á¡ªá¢Ĭá¢Ķá¡ªá¡§
Ġá¡³á¡ªá¡¬á¡¬ á¡ªá¢Ĭ
Ġá¢Ĭá¡ªá¢ŀ á¡ªá¢Ĭá¢ļ
Ġá¢ļá¡¬á¡ªá¡ª á¡Ńá¢ĳ
á¢Łá¢ ¤
Ġá¢ĺá¡ªá¡³ á¢Ļ
á¡ªá¢ĳ á¡ªá¡±á¡±á¡ªá¡Ńá¡§
Ġá¡¥á¡Ńá¡¬á¢ŀ á¢Ļá¡ªá¡¬á¡¨
á¡ªá¢Ĭ á¡¬á¡§
á¡ªá¢ŀá¢ĳ á¡ªá¢Ľá¡³
Ġá¡¥á¢ŀá¢ĭ á¡Ńá¢Ľá¡³
Ġá¡¥á¡Ńá¡¬á¡¬á¢ĳ á¡ªá¡±á¡±á¡ªá¢Ľá¡³
Ġá¢ĺá¡ªá¡³ á¢Ļá¡ªá¢Ŀ
á¡ªá¡¬á¡¬á¢ĳ á¡ªá¢ĭá¡Ń
Ġá¢Ķá¡¬á¡¬á¡Ń á¡ªá¡´á¡Ńá¢ŀá¡¬á¢ĳ
Ġá¡¥á¢ įá¡¨
Ġá¢ľ á¡ªá¢Ĳá¡¨
Ġá¢ĺá¡Ńá¢ĳ á¡ªá¢Ļá¡§
á¡¬á¢Ļ á¡Ńá¢Ŀ
Ġá¡³á¡ªá¡¬á¡¬á¡ªá¢Ĭ á¡±á¡±á¡³
Ġá¡¸á¡ªá¢ŀ á¡ªá¢ļá¡§
Ġ âĳ
á¡ªá¢Ļ á¡ªá¢Ĭá¡¬á¡¦
á¢Ķ á¡ªá¡¬á¡¬á¡ªá¡ªá¡ªá¡§
Ġá¢ĺá¡Ńá¢Ļ á¡³
Ġá¡´á¡Ńá¡¬á¢İ á¡´
Ġá¡¥á¡ªá¢ĳ á¡ªá¢ĩ
Ġá¡¥ á¡Ńá¡³
Ġá¡¥á¡Ńá¡¬á¢ļ á¡Ńá¢Ĭá¡ªá¡§
á¡Ńá¢ŀ á¡Ńá¡§
Ġá¡¥á¡Ń á¡ªá¢ļá¡§
Ġá¡¥á¢Ķ á¡ªá¢ĭá¡Ń
Ġá¢ĺá¡Ńá¡ªá¡ªá¢Ļ á¡ªá¡±
Ġá¡¯á¡ªá¡¬á¡¬á¢ŀ á¡ªá¡ªá¡ªá¢ļá¡«
Ġá¡¥á¡ªá¢ĳá¢Ļ á¡ªá¢Ľá¡³
Ġá¢ĺá¡ªá¡±á¡± á¡Ńá¢ļá¡¬á¡§
Ġá¢Ĺ á¡Ńá¡¬á¢Ľá¡«
á¡Ńá¡ªá¢Ĭ á¢īá¡¨
Ġá¡¥á¡¬á¢ŀ á¡ªá¡°á¡¨
á¡ªá¡±á¡± á¡ªá¢ŀá¡ªá¡«
á¢Ī á¡ªá¢Ľá¡ªá¢Ŀ
á¡ªá¢ŀ á¡ªá¢Ļá¡³
á¡ªá¢Ķ á¡¬á¢ŀ
Ġá¢ĭá¡Ńá¡¬á¢ŀ á¢Ĭá¡ªá¢Ľá¡³
Ġá¢ĺá¡ªá¡³ á¡ªá¢ŀ
Ġá¢Ķá¡ªá¢ĳ á¢Ľá¡³
á¡Ńá¢ŀá¢ĳ á¡ªá¢Ľá¡³
Ġá¡¥á¡³ á¢Ļ
Ġá¡¥á¡¬á¢ŀ á¡Ńá¢Ĭá¡ªá¢Ĳ
Ġáł² áł¡áłŃ
á¡¸ á¡ªá¡¬
Ġá¡³á¡ªá¢ĳá¡±á¡± á¡ªá¢Ķá¡Ńá¡§
Ġá¡¥á¡Ńá¡ªá¢ļ á¡ªá¡±á¡±á¡ªá¡«
Ġá¢Į á¡¬á¡±
á¡¬á¡ª á¡ªá¢ļá¡«
Ġá¡¸á¡ªá¢İ á¡´á¡Ń
Ġá¢Ķá¡Ńá¢Ļá¡Ńá¢ĳ á¡Ńá¢Ĳ
á¡¬á¢ §
á¡´ á¡Ńá¡¬á¢Ļ
Ġá¢ĺá¡ªá¡³ á¢Ĭ
Ġá¡¸á¡ªá¢İ á¡ªá¢Ŀ
á¡¥ á¡ªá¢ĳá¢Ļ
Ġá¢ĺ á¡Ńá¡ªá¡ªá¢Ķ
Ġá¡¯á¡ªá¡¬á¡¬á¢Ĭ á¡ªá¢İá¢ĳá¡¬á¡¬á¡¨
Ġï¸ ½
Ġá¡¥á¡Ńá¡¬á¡¬á¢ŀ á¡ªá¢Ļ
Ġá¡¬ á¡Ńá¢Ĳ
Ġá¡¥á¡ªá¢ĳ á¡³
á¡ªá¡±á¡±á¡Ńá¢ĳ á¢Ļá¡§
Ġá¢Ĭ á¡ªá¢Ĳá¡¨
Ġá¢Įá¡ªá¡± á¡Ńá¢ĵ
Ġá¢Ķá¡¬á¢ŀ á¡ªá¢Ĭá¡ªá¡§
Ġá¢ļ á¡¬á¡±á¡±á¡Ńá¢ĳ
á¡ªá¢ĭ á¡Ńá¢ŀ
Ġáł ¥
Ġá¢Ĭ á¡ªá¢ĳá¢Ļ
Ġá¡¥á¡Ńá¢Ļ á¡Ńá¢į
Ġá¢Ķá¡ªá¡Ńá¡ªá¢Ĭ á¡¬á¢ļá¡§
á¡Ńá¡ªá¡ªá¡ª á¡ªá¢Ĳ
Ġá¢Ķ á¡«
Ġá¡¥á¡ªá¢ĳ á¡³á¡ªá¡¨
Ġá¢ĺá¡ªá¢ŀ á¡¬á¢ľ
á¢Į á¡ªá¡§
Ġá¢ĭá¡Ńá¡¬á¢ļ á¡Ńá¢ŀá¢Ĭ
Ġá¢Ķá¡Ńá¡±á¡Ńá¢Ķ á¡ªá¡ªá¡³
Ġá¡¸á¡Ńá¢ŀ á¡¬á¢į
á¡ªá¡± á¡Ńá¢ĵ
Ġá¡¥á¡ªá¡±á¡± á¡Ńá¢Ķ
Ġá¡· á¡Ńá¡³
Ġá¡´á¡Ńá¡¬ á¡¬á¢Ľ
á¡ªá¢İá¢Ľ á¡¬á¢Ļá¡ªá¡«
Ġá¢ı á¡ªá¢įá¡¨
á¢ §
Ġá¡¶ á¢ŀ
Ġá¢ĺ á¡Ńá¢Ķá¡³
á¡ªá¢ĳ á¢Ĭá¡ªá¡§
Ġá¡¸á¡Ńá¢ŀ á¡Ńá¡±á¡±á¡³
Ġá¢ŀ á¡ªá¢Ķ
á¢ĺ á¡Ńá¡¬
á¡Ńá¢ĳ á¡ªá¡ªá¡ªá¡³
Ġá¡¥á¡Ńá¢ŀ á¡Ńá¢ĳá¢īá¡¨
á¡Ńá¡¬á¡ªá¢Ĭ á¢Ĭá¡ªá¡¨
á¡¬á¢ļ á¡¬á¡ªá¡ª
á¡ªá¢ĳ á¢Ľá¡³
á¢ĺ á¡ªá¡¬
á¡¥ á¢ĳ
á¡¬á¢İ á¡ªá¢Ŀ
á¢Ł á¢İ
Ġá¡¥á¡¬á¢ŀ á¡ªá¢Ľá¡ªá¡«
á¢Ĭ á¡ªá¢Ĭá¢Ķá¡ªá¡§
Ġá¡¸á¡Ńá¡³ á¡¬á¢ĳ
Ġá¡¥á¢Ĭá¡¬á¢ĳ á¡ªá¢Ĭá¡ªá¡Ńá¡§
á¡¬á¡ªá¢Ĭ á¡±á¡±á¡ªá¡§
Ġá¢ĺá¡ªá¢ĳ á¡ªá¢ŀ
ĠãĢ Ķ
Ġá¢ľá¡Ńá¢Ķ á¡Ńá¢ĳá¡ªá¢Ĳ
á¡Ńá¢İ á¢Ľ
á¡ªá¡³ á¡ªá¢Ķá¡³
Ġá¡¥á¡ªá¡³á¡¬á¢ľ á¡ªá¢ĵ
á¡Ńá¡±á¡± á¡ªá¢ļá¡«
Ġá¢ŀ á¡ªá¢Ļ
Ġá¡¥á¢ŀá¢Ĭ á¡¬á¢Ľá¡³
Ġá¡´á¡Ńá¡¬á¢Ļ á¡Ńá¢ĭá¡Ńá¡§
Ġá¡¥á¡Ńá¢ĳá¡ªá¢İá¢Ľá¡¬á¢ĳ á¡ªá¢Ĳ
á¡ªá¢ĳ á¡¬á¡¬á¡¨
Ġ20 1
Ġá¡³á¡ªá¢ŀ á¡¬á¡±á¡±
Ġá¢ĭá¡Ńá¡¬á¢ļ á¡¬á¢ŀá¢Ļ
Ġá¡¥á¢Ĭ á¡ªá¢Ķá¡¬á¡¬á¡¨
Ġá¢Ķá¡ªá¢ŀ á¡§
Ġá¢Ĺ á¡Ńá¡±á¡±
Ġá¢Ķá¡Ńá¢ŀ á¡Ńá¡ªá¡ªá¢Ķá¡ªá¡§
Ġá¢ĺá¡Ńá¢ĳ á¡ªá¡±á¡±á¡ªá¡§
Ġáł° áł¤áł·
Ġá¡¸á¡ªá¢İá¡¬á¢ľá¡ªá¢ŀ á¡Ńá¢ĳá¢Ļá¡§
Ġá¡¬ á¡¬á¢įá¡¨
á¡ªá¢ļ á¡ªá¡§
á¡ªá¢Ĭá¢Ļ á¡ªá¡§
Ġá¡¥á¢ŀá¢Ĭ á¡¬á¢ļ
Ġá¡¥á¡Ńá¢ŀ á¡¬á¢ľ
á¢ĺ á¡Ńá¢Ķ
Ġá¡¥á¡Ńá¡¬á¡¬á¢ĳ á¡ªá¡±á¡±á¡ªá¡ªá¡ªá¡³
ä º
Ġá¡´á¡Ńá¢Ļ á¡Ńá¡³á¡ªá¢Ĳ
Ġá¢ĺá¡ªá¢Ĭ á¡¬á¡¦
á¡¥á¡ªá¢İá¡¬á¢Ļ á¡Ńá¢ŀá¡ªá¢Ĳ
Ġá¡¥á¡Ńá¡Ńá¡±á¡± á¡Ńá¡ªá¡ªá¡³
á¡¬á¢ĳ á¡¬á¢ĩ
á¡ªá¢ŀ á¡ªá¡°á¡¨
Ġá¢Ķá¡Ńá¢ŀ á¡ªá¢ĩ
Ġá¢Ķá¡ªá¢ĳ á¡´á¡Ńá¢ŀá¡«
Ġá¡´á¡Ńá¢ĳá¡³ á¡ªá¢Ķá¡Ńá¡§
á¡¥á¡Ńá¡¬á¡ªá¢Ļ á¡Ńá¢Ķ
á¡³ á¡ªá¡±á¡±
Ġá¡³á¡ªá¢ŀ á¡¬á¡ªá¡ªá¡³
Ġá¢Ķá¡ªá¡±á¡± á¡Ńá¢ŀá¡¬á¡§
Ġá¡¬á¡ªá¢Ĭ á¡¬á¢Ļá¡ªá¢Ĳ
á¡³á¡ªá¡¬ á¡¬á¢īá¡¨
Ġáł Ĭ
á¡¬á¢ŀ á¡±á¡±á¡ªá¢Ĳ
Ġá¢Ī á¡ªá¡ªá¡ªá¡ªá¡«
á¡ªá¡ªá¡ªá¡ª á¡ªá¢Ļá¡§
Ġá¢Ķá¡Ńá¡¬ á¡³
Ġá¡¯ á¡ªá¢ľ
Ġá¢ĭá¡Ńá¡¬á¢ĳ á¡Ńá¢Ķá¡³
á¡Ńá¡¬á¡¬á¢ĳ á¡§
Ġá¡¬á¡ªá¢ĭá¡Ńá¢Ļ á¡Ńá¡§
áłłáłŃ áł°áłłáł¨
Ġá¡¸á¡ªá¢ŀ á¡ªá¢īá¡¨
Ġá¡¬ á¡Ńá¡¬á¢Ļ
Ġá¢ĭá¡Ńá¡¬ á¡ªá¢Ļá¡ªá¡«
á¢ĳ á¡ªá¡ªá¡ªá¡³
Ġá¡¥á¡Ńá¡¬á¢Ĭ á¡ªá¡¬
Ġá¢Įá¡¬á¡ªá¢Ĭ á¢īá¡¨
Ġá¡¥á¡Ńá¢ŀ á¡Ńá¡±á¡±á¡Ńá¢ĳá¢Ľá¡³
Ġá¢Į á¡ªá¡ªá¡ª
Ġá¡¥á¡¬á¢Ļá¡ªá¡³ á¢Ĭ
á¡¥á¢ŀ á¢Ĭ
Ġá¢ĺá¡ªá¡³ á¡ªá¡ª
Ġá¡¸á¡ªá¢ŀ á¡´
Ġá¢Ķá¡Ńá¡±á¡Ńá¢Ķ á¢ļá¡³
Ġá¢ļ á¡Ńá¢İ
Ġá¡¥á¡Ńá¢Ļ á¡Ńá¡ªá¡ªá¡ªá¡§
á¡¬á¢İ á¡Ńá¢ŀá¡«
á¡¸ á¡ªá¢ĳ
á¡Ńá¡ªá¡ªá¡ªá¡ª á¡ªá¡ªá¡³
Ġá¡´á¡Ńá¢Ķ á¢ļá¡³
Ġá¡¸ á¡ªá¢ĵ
Ġá¢ĺá¡Ńá¢ŀ á¢Ķá¡«
Ġá¡¥á¢ŀá¢Ĭ á¡¬á¡§
á¡¥á¡ªá¢ŀ á¡ªá¡Ńá¡§
Ġá¡³á¡ªá¢ĳá¡±á¡± á¡ªá¢Ķá¡³
á¡¥ á¡ªá¢Ļ
Ġá¢ľ á¡ªá¡³
Ġá¡´á¡Ńá¢Ķ á¡Ńá¢īá¡¨
Ñĭ Ð½
á¡Ńá¢ŀ á¢Ļ
á¡¬á¢Ĭ á¢ĳ
Ġá¢ĺá¡Ńá¡ªá¡ªá¢Ļ á¡ªá¡ªá¡ªá¢Ķá¡ªá¡§
á¡¸ á¡Ńá¢ĳ
á¡± á¡ªá¢Ľá¡³
Ġá¢ĭá¡Ńá¡¬á¢Ĭ á¡ªá¡ªá¡ªá¡Ńá¢Ļá¡§
Ġá¢Ķá¡Ńá¡±á¡¬á¢ŀ á¡ªá¡ª
Ġá¢Ķá¡ªá¡¬ á¡¬á¢Ļá¡Ńá¢Ŀ
Ġá¢ĺá¡Ńá¡ªá¡ªá¢ĳ á¡ªá¢ĳá¢Ļá¡§
á¡Ńá¢ŀá¢ĳ á¡¬á¡¬á¡¨
Ġá¢Īá¡ªá¡ªá¡ªá¢ļ á¡ªá¡ªá¡ªá¡ªá¡§
á¡ªá¡Ńá¡ªá¡ªá¡ª á¡ªá¢Ĳ
á¡¥ á¡ªá¡´á¡Ń
ï¸ ¾
Ġá¡´á¡Ńá¢ĳ á¢Ļ
Ġá¡¥á¡Ńá¡¬á¡± á¡ªá¡ªá¢ļá¡«
Ġá¢Ķá¡ªá¡±á¡± á¡Ńá¢ŀ
Ġá¢ĺá¡ªá¡¬ á¡¬á¢Ľá¡«
Ð¾ Ð»
Ġá¡¥á¡Ńá¢ŀá¡Ńá¢ĳá¢ļ á¡ªá¡ªá¡ªá¢Ķá¡ªá¡§
á¢ĺ á¡ªá¢ĭá¡Ńá¡§
Ġáł¡ áł´
á¡Ńá¢ŀ á¡±á¡±á¡³
á¢ĺ á¡Ńá¡±á¡±
á¡Ńá¡¬ á¡¬á¡§
Ġá¡¸á¡ªá¢ĳ á¢ĩá¡¨
á¡ªá¢ŀ á¢İ
Ġá¢ĺá¡ªá¢Ĭ á¡ªá¢ĭá¡Ńá¢Ŀ
Ġá¡³á¡ªá¢ĳ á¡ªá¡¬á¡¨
Ġá¢Ĭá¡ªá¢İ á¡ªá¢Ŀ
Ġá¡¥ á¡Ńá¡ªá¡ªá¢Ļá¡³
á¡ªá¡ªá¢Ĭá¢Ĭ á¡¬á¡±
Ġ 2
Ġá¢Įá¡Ńá¢ŀ á¢Ļ
Ġá¡¸á¡ªá¢Ķ á¢Ĭá¡¬á¢ŀ
á¡´ á¡Ńá¡¬á¢ŀ
á¡Ńá¢Ĭ á¡ªá¢Ļá¡Ńá¢Ŀ
Ġá¢Ĭá¡ªá¢ļ á¡¬á¡±á¡ªá¡§
Ġá¢Ĭá¡ªá¢ŀ á¢Ĭ
Ġá¢Įá¡ªá¡±á¡± á¡Ńá¡ªá¡ªá¡ªá¡«
á¡ªá¡ª á¡ªá¢ļá¡¬á¡Ńá¡§
Ġá¢Īá¡ªá¡ªá¡ªá¢ļ á¡ªá¡±á¡±á¡ªá¢Ŀ
Ġá¢Ķ á¡ªá¢Ļá¡Ńá¡§
Ġá¡¥á¢İ á¢Ľ
á¡Ńá¢ŀ á¡ªá¡ªá¡ªá¢Ķá¡ªá¡§
Ġá¢Ķá¡Ńá¢ŀá¡±á¡± á¡ªá¡ªá¡ªá¡³
á¡¬á¡ª á¡ªá¢Ķ
á¡ªá¡ªá¢Ĭá¡±á¡± á¡Ńá¡«á¡¨
Ġá¢ıá¡ªá¡³á¢Ļ á¡ªá¡«
Ġá¡³á¡¬á¢Ķ á¡¬á¢ŀ
á¡ ĵ
Ġá¢ŀá¡ªá¢Ļ á¡¬á¡Ń
á¢Įá¡Ńá¡ªá¢Ĭá¡±á¡± á¡Ńá¢ĳá¢ļá¡Ńá¡Ńá¡§
Ġáłªáłłáł¶ áł¢áłŃ
á¡¬ á¡ªá¢Ĭá¢Ĭ
Ġá¢ļá¡¬á¡± á¡ªá¢ŀá¢Ļá¡ªá¡«
Ġá¢ĺá¡Ńá¡¬á¢ŀ á¢ĭá¡Ń
á¡ªá¡ªá¢Ĭ á¡ªá¡ªá¡ªá¡«
Ġá¢Ĭá¡¬á¢Ľ á¡ªá¡±á¡±
Ġá¡ Ĳ
Ġá¡¸á¡Ńá¢ŀ á¢ļá¡§
Ġá¡¬á¡Ńá¡¬á¡³ á¢ĳá¡ªá¢Ĳ
Ġá¡¥á¡Ńá¡± á¡Ńá¢īá¡¨
Ġá¡¥á¡Ńá¢Ĭ á¡¬á¢ĳ
Ġá¢ĺá¡ªá¢ŀ á¡¬á¡«á¡¨
Ġá¢Īá¡Ńá¡± á¡¬á¢ĩ
Ġá¢Ĺ á¡ªá¡§
Ġá¡³á¡ªá¡¬á¡¬á¢Ķ á¡¬á¡ªá¡¬á¡¨
Ġá¢Ĺ á¡ªá¡³
á¡Ńá¢ļ á¡¬á¡Ńá¡§
Ġá¡¥á¡Ńá¢ŀá¡Ńá¢ĳá¢ļ á¡ªá¢Ľá¡³
Ġá¢Ī á¡Ńá¢ļá¡¬á¡§
á¡ªá¢ļá¡¬á¢ĳ á¡ªá¢Ľá¡³
Ġá¡¸á¡Ń á¡Ńá¢Ŀ
áł¤áł ´
Ġá¢ļá¡Ń á¡´
á¡¥ á¡Ńá¢Ļá¡³
Ġá¢ĺá¡Ńá¡¬á¢ŀ á¡Ńá¢Ĭ
á¡ªá¡³á¢Ķ á¡«
Ġá¢Ķá¡Ńá¢ĳ á¡Ńá¡ªá¢Ĭá¡±á¡±
Ġá¢ĺá¡ªá¢İ á¡ªá¢Ĭá¡¬á¡¦
Ġáł¤áł ³
Ġá¢ĺá¡ªá¢ŀ á¡¬á¢Ĭá¡¬á¡¦
Ġá¢Ĭá¡ªá¢ĳ á¡ªá¡°á¡¨
Ġá¢Ĺá¡Ń á¡Ńá¢Ĭ
á¡¥ á¢Ĭá¡ªá¡¨
Ġá¡¸á¡ªá¡¬á¡¬á¢ŀ á¡ªá¢ĳá¡ªá¢Ľá¡³
Ġá¡¬ á¡ªá¡ªá¢Ĭá¢Ĭá¡¬á¡¦
á¡ªá¡³ á¡ªá¢ľá¡ªá¢Ŀ
á¡ªá¢ĳ á¡ªá¡«
Ġá¡¸á¡Ńá¢Ł á¡§
" "
Ġá¢ĺá¡Ńá¡¬á¢ĳ á¢Ĭ
á¡ªá¢ĳá¢Ľ á¡ªá¢Ľá¡³
Ġá¡¥á¡Ńá¢ĳ á¢Ļ
áłłáłŃ áł¤áł¯
Ġá¡¬á¡Ńá¡ªá¡ªá¢Ķ á¡Ńá¢Ľá¡³
Ġá¢ĺá¡Ńá¢ŀá¢Ķ á¡¬á¢ĳá¢īá¡¨
á¡¥ á¡ªá¡±á¡±
áłłáł³ áł¤
Ġá¢Į á¡ªá¢ĳá¢Ļ
áłłáłŃ áł¤
á¡ªá¢ĳ á¡ªá¡ªá¡ªá¢ļá¡«
á¡ªá¢ĳá¢ļ á¡ªá¢īá¡¨
Ġá¢ĺ á¡ªá¢Ķá¡«
Ġá¡¥á¡Ńá¡¬á¢Ľ á¡ªá¢ĭá¡Ńá¢ĳá¢ĭá¡Ń
Ġá¢¤ á¡ªá¢Ļ
á¡Ńá¢Ł á¡§
Ġá¢Ĭá¡ªá¡¬ á¡¬á¡Ńá¡§
Ġá¡¥á¡Ńá¡¬ á¡¬á¢İ
Ġ å
Ġá¡¸ á¡ªá¢ļ
Ġá¡¬á¡¬á¢Ĭ á¡ªá¢ĳ
Ġá¡¸ á¡Ńá¢Ŀá¡¨
áłłáł ´
á¡ªá¢ĭá¡Ńá¢ĳ á¡Ńá¡°á¡¨
Ġá¡¥á¡ªá¢ĳá¢Ļ á¡ªá¢ŀá¢Ļá¡³
Ġá¡´á¡Ńá¡¬á¢Ļ á¡Ńá¢İá¢Ľá¡«
Ġá¡´ á¡Ńá¢Ĭ
á¢Ķ á¡¬á¡°á¡¨
Ġá¡¥á¡Ńá¢ľ á¡ªá¡ªá¢Ĭá¢īá¡¨
Ġá¢Ķá¡Ńá¢Ļ á¡Ńá¡§
á¡Ń á¡´á¡Ńá¢ŀá¡«
Ġá¢ĺá¡Ńá¡¬á¢ŀ á¡¬á¢İ
Ġá¢Ĭ á¡ªá¢Ĭá¡ªá¡¨
Ġá¡¯á¡¬á¢ŀ á¡Ńá¡±á¡±á¡³
Ġá¡¯ á¡Ń
Ġá¡¥á¡Ńá¢ĳ á¢Ľ
Ġá¡´ á¡Ńá¢Ľ
Ġá¡¥ á¡ªá¢§
Ġá¢Ĭ á¡¬á¡±á¡ªá¡§
á¡³á¡ªá¡¬ á¡¬á¡ªá¡ªá¡³
Ġá¡¥á¡ªá¢Ľá¡¬á¢ĳá¢ĳ á¡ªá¡ªá¡ªá¡³
Ġá¡³á¡ªá¡¬á¡¬á¢ļ á¡ªá¡±á¡±á¡ªá¡ªá¡ªá¡³
á¡Ńá¢ĳ á¡ªá¢Ĭá¢Ķá¡ªá¡§
á¢ļ á¡Ńá¡Ńá¡§
á¡¬á¢Ļ á¡ªá¢Ĳá¡¨
á¡¬á¡ª á¡ªá¢ļá¡¬á¡Ńá¡§
Ġá¡¥á¡ªá¢İá¡ªá¢ŀ á¡ªá¡ªá¡ªá¡§
Ġá¢Ķá¡ªá¢ŀá¢ĭ á¡Ńá¢Ĭ
Ġáł¦ áł·
Ġá¡¥á¡Ńá¢ŀá¡Ńá¡±á¡±á¡Ńá¢ĳ á¡ªá¡ªá¡³
Ġá¢Ķá¡Ńá¡±á¡Ńá¢Ķ á¡Ńá¡ªá¡ªá¢Ķá¡ªá¡§
Ġá¢Īá¡ªá¢Ļ á¡ªá¡ªá¡ªá¢Ķá¡«
Ġá¡¯á¡Ńá¡¬ á¡¬á¢Ŀ
Ġá¢ĺá¡Ńá¡ªá¡ªá¢Ļ á¡Ńá¢ĳ
_ _
á¢Ķ á¡ªá¡ªá¡¬á¡¨
Ġáł² áł¦áł·
Ġá¡¥á¡ªá¢ľ á¡ªá¢īá¡¨
Ġá¢ľá¡ªá¡´ á¡Ńá¡±á¡±á¡Ńá¢ĳ
á¢ĺá¡Ńá¢İ á¢Ļ
Ġá¡¥á¡Ńá¡¬á¡³ á¡ªá¢ŀá¢Ķ
Ġá¢Ĭá¡ªá¡³ á¢Ļ
Ġá¢Ķ á¡Ńá¢ĳá¡§
Ġá¡¸á¡ªá¢Ķ á¡ªá¢Ŀ
Ġá¡¸á¡Ńá¢ĳá¡´á¡Ńá¡ªá¡ªá¢Ļ á¡ªá¢Ĳ
Ġá¢ĺ á¡Ńá¡±á¡«
Ġá¢Ĭá¡ªá¢Ķ á¡¬á¡¬á¡¨
á¡¬ á¡ªá¢ĳ
á¢Ķ á¡Ńá¡±
Ġá¡¥á¡ªá¢Ķ á¡ªá¡±á¡±á¡Ńá¢ĳá¢Ļá¡§
Ġá¡¸á¡Ń á¡ªá¢Ļ
Ġá¡¥á¡Ńá¡¬á¡¬á¢ĳá¡ªá¡Ń á¡ªá¡´á¡Ńá¢ŀá¡«
Ġá¡¥á¢İ á¡ªá¢Ĭá¢Ļá¡ªá¡¬á¡¬á¢ļá¡Ńá¡Ńá¡§
Ġá¡´á¡Ńá¢ļ á¡ªá¢Ľá¡³
á¡ªá¡ªá¡ª á¡Ńá¡«
áł¡áłŃ áł¡áł¨
Ġá¢ļ á¡Ńá¢ĳ
Ġá¢ļá¡ªá¡ªá¡ª á¡ªá¢Ŀ
Ġá¡¥á¡Ńá¡¬á¢Ľ á¡ªá¢Ķ
áł¡áł· áłŃ
Ġá¢ĺá¡ªá¢ŀá¡¬á¢ĭá¡Ńá¢ĳ á¡ªá¢Ĭá¢ļá¡«
Ġá¢ĺá¡ªá¢ŀ á¡Ńá¢Ľá¡³
Ġá¢Ķá¡Ńá¢Ļá¡Ńá¢ĳ á¡ªá¡ªá¡³
Ġá¢Į á¡ªá¡ªá¡ªá¢Ļ
Ġá¡³á¡ªá¡¬á¡¬ á¡ªá¡ªá¢Ķ
Ġá¡´á¡Ńá¢Ļ á¡Ńá¡±á¡±á¡ªá¡Ńá¡§
á¡³á¡ªá¡¬ á¡¬á¢Ļá¡ªá¢ĩ
Ġá¡³á¡ªá¡¬á¡¬á¢ļ á¡ªá¡±á¡±á¡ªá¢ĳá¢Ļá¡§
á¡Ńá¢Ĭ á¡ªá¢ļá¡¬á¡§
Ġá¡¥á¡Ńá¡¬á¡³á¡ªá¢ŀá¢Ķ á¡ªá¡Ńá¡§
Ġá¢ĺá¡Ńá¢ŀ á¡±á¡±á¡ªá¡§
á¢İ á¡ªá¢ĩ
á¢ĺá¡ªá¢Ĭ á¡ªá¢Ŀá¡¨
á¡ªá¢Ķ á¡¬á¢ĳ
Ġá¡¥á¡Ńá¡¬á¢ŀ á¢Ĭ
âĢ ¦
Ġá¢Ķá¡ªá¡¬ á¡¬á¢Ľá¡¬á¢ŀ
Ġá¢Ķá¡¬á¢ĳ á¡Ńá¡±á¡±á¡Ńá¡§
Ġá¡¥á¡ªá¢ŀ á¡³á¡ªá¡¨
á¡¬á¢ £
Ð ¼
Ġá¢Ĭá¡ªá¡¬ á¡¬á¢İá¡Ńá¢ŀá¡«
Ġ Ò¯
á¢ĺ á¡ªá¡³
Ġá¢Ķá¡ªá¢ŀ á¡ªá¡±á¡±á¡Ńá¢Ĳ
Ġá¡¥á¡ªá¢İá¡ªá¢ŀ á¡ªá¢ĩ
á¡Ńá¢ŀ á¡³
Ġá¢ĭá¡Ńá¡¬á¢Ĭá¡ªá¢ŀ á¡Ńá¢ĭá¡Ńá¡§
Ġá¢ļ á¡¬á¢Ĭá¡¬á¡¦
Ġá¡¥á¡ªá¢ĳá¢Ļ á¡ªá¢īá¡¨
Ġáł ±
Ġá¡¸ á¡Ńá¡ªá¢Ĭá¡±á¡±á¡Ńá¢Ŀ
á¡¸á¡ªá¡¬ á¡¬á¢Ŀá¡¨
ĠâĢ »
Ġá¡¥á¡Ńá¢Ļ á¡ªá¢Ĳ
© áł¬
Ġáł¢áł¶ áłłáł¨
Ġá¡¥á¡Ńá¡¬á¢ĳ á¢Ľá¡ªá¡¬
Ġá¡¬ á¡¬á¢Ķá¡³
ï¼ Į
á¢ĭ á¡Ńá¡³
Ġá¡¥á¡¬á¢ĳ á¡ªá¡ªá¢Ĭá¡±á¡±á¡Ńá¡«á¡¨
Ġáł¦ áłµ
Ġá¡¬á¡¬ á¡ªá¡ªá¢Ķ
Ġá¡¬ á¡Ńá¢ĳá¡±á¡±
á¢ļ á¡¬á¢İ
Ġá¢ĺá¡Ńá¡¬á¢ŀ á¡Ńá¢ĭá¡Ńá¡³
áł¡áł³ áł¡áłŃ
Ġá¢Ķá¡ªá¡±á¡± á¡Ńá¡±á¡±á¡ªá¡Ńá¡§
Ġá¡¥á¡ªá¢İá¡ªá¢ŀ á¡ªá¢ĳá¢Ļá¡§
Ġá¢ĺá¡Ńá¡¬á¢ Ļ
áłłáłŃ áł¤áł¯áł
Ġá¢Ĭá¡ªá¢ŀá¡ªá¢Ĭá¢ļ á¡ªá¢Ĭá¡ªá¡¨
Ġá¢ľá¡ªá¡´ á¡Ńá¡±á¡±á¡ªá¡Ńá¡§
Ġá¡¥á¡ªá¢İ á¡¬á¡§
Ġá¢Įá¡Ńá¡¬á¢ ļá¡§
Ġá¢Ĭ á¡ªá¡¨
Ġá¢ļ á¡Ńá¡¬
Ġá¡¥á¢ŀá¢Ĭ á¡ªá¡³á¢Ķá¡«
Ġáł´ áł¢áł¨
Ġá¡´á¡Ńá¢ļ á¡ªá¡ªá¡ªá¡³
Ġá¡¥á¡Ńá¢ľ á¡ªá¡ªá¢Ĭá¡±á¡±
Ġá¡¬á¡ªá¢Ķ á¡ªá¢Ľá¡³
Ġá¡¥á¢ ľ
Ġá¡¥á¡Ńá¡¬á¡± á¡Ńá¢Ķ
Ġá¢Ķá¡ªá¡± á¡ªá¡ªá¡ªá¢Ļ
ĠãĢ ķ
Ġá¢ľá¡ªá¡´ á¡Ńá¢Ĳá¡¨
Ġá¡¥á¡ªá¢ŀ á¡ªá¡Ńá¡ªá¢ļá¡¬á¢ĳ
á¡¥á¡Ńá¡¬á¡ªá¢Ļá¡Ńá¢Ķ á¡Ńá¢Ļá¡ªá¡§
á¡Ńá¡ªá¡ªá¢Ķ á¡ªá¡Ńá¡§
á¡Ńá¢Ĭ á¢Ķá¡ªá¢Ĭá¡ªá¢Ŀ
Ġá¢ĺ á¡ªá¢ĳá¢Ļá¡§
Ġá¢ı á¡Ń
Ġá¢Ĭá¡ªá¢ĳ á¡ªá¢ĳá¢Ĭá¡ªá¡¨
Ð°Ð ³
Ġá¡³ á¡ªá¢Ķ
Ġá¡¥á¡ªá¢ŀ á¡ªá¢ĳá¢Ľ
Ġá¡¥á¢ŀ á¡ªá¢ĵ
á¡Ńá¡¬á¢ŀ á¡Ńá¡ªá¡¬á¡¨
Ġá¡¬á¡¬á¢ĳá¡Ńá¡±á¡± á¡Ńá¢Ļ
á¡¬ á¡ªá¢ļ
á¡Ńá¡ªá¡ª á¡ªá¡Ńá¡§
Ġá¡¸á¡Ńá¢ĳá¡´ á¡Ńá¡±á¡±á¡ªá¡§
Ġá¡³á¡ªá¡¬á¡¬á¡ªá¡ªá¢Ķ á¡ªá¡±á¡±á¡ªá¢Ŀ
á¡ªá¢Ĭ á¡ªá¢ŀá¡ªá¡«
á¡ªá¢ļá¡¬á¢Ĭ á¡ªá¢Ĭá¢Ķá¡ªá¡§
1 0
Ġá¢ļá¡¬á¡±á¡±á¡Ńá¢ĳ á¡±á¡±á¡ªá¡§
Ġá¡³á¡ªá¢ŀá¡¬á¢ĳá¢Ļ á¡Ńá¡±á¡±á¡ªá¡§
Ġá¡¥ á¡Ńá¢Ŀá¡¨
Ġá¢ĺá¡ªá¢Ļ á¡ªá¡ªá¡ªá¡³
Ġá¢ĺá¡ªá¡Ń á¡ªá¢ĭ
Ġá¡³á¡ªá¢ŀá¡¬á¡±á¡± á¡ªá¢Ļá¡§
Ġá¡¬ á¡Ńá¢Ľ
Ġá¡¥á¡Ńá¡¬á¢ĳ á¡Ńá¢Ĭá¡ªá¡«
Ġá¡¬ á¡Ń
Ġá¡¯á¡ªá¡¬á¡¬á¢ŀá¡ªá¢İá¢Ļ á¡ªá¡ªá¡ªá¡³
Ġá¢Ķá¡Ńá¢ŀá¡Ńá¢ĳá¢ļ á¡ªá¢Ľá¡³
Ġá¡¥á¡Ńá¡¬á¢ŀ á¡³
Ġá¡¸ á¡ªá¢Ļá¡ªá¢ĩ
Ġá¢Į á¡ªá¢Ĭ
Ġá¢ĭá¡Ńá¡¬á¢ŀ á¡³á¡ªá¢Ĳ
Ġá¢ĺá¡Ńá¡¬á¢ŀá¢Ķ á¡³
Ġá¡¥á¡ªá¢ŀ á¢Ķ
Ġá¡¥á¡ªá¡³ á¡ªá¢ļ
Ġá¢ļá¡ªá¢Ĭ á¡ªá¢ŀá¢ĳ
Ġá¡¯ á¡¬á¢ļ
Ġá¢Ķá¡Ńá¡±á¡Ńá¢Ķ á¡Ńá¡±á¡±á¡ªá¡Ńá¡§
á¡ªá¡± á¡ªá¡±á¡±á¡Ńá¢Ŀ
á¡ªá¡´ á¡Ńá¡Ńá¡§
á¡¬á¡¬ á¡ªá¢Ŀ
Ġá¡¸á¡ªá¢ŀ á¡ªá¡ªá¡ªá¢Ļá¡ªá¡°á¡¨
Ġá¢Ķ á¡ªá¡³á¡ªá¡¨
Ġá¢ĺá¡ªá¡±á¡±á¡Ńá¢ĳ á¡ªá¢Ľá¡³
Ġá¢ĺá¡ªá¢İ á¡ªá¢Ĭá¡ªá¡¨
Ġá¢ĺá¡ªá¢ĭ á¡Ńá¢ĵ
á¡¯ á¡¬á¢Ĭá¡ªá¡§
Ġá¡¥á¡Ńá¢ŀá¡¬á¢Ļ á¡ªá¡³á¡ªá¢Ŀ
Ġá¢Ļ á¡Ńá¢Ĭá¡ªá¢Ŀ
Ġá¢ĺá¡Ńá¡±á¡± á¡Ńá¡«
Ġá¡¥á¡ªá¡ªá¢Ĭá¢Ĭ á¢ĳá¡«
Ġá¡¥ á¡ªá¡«
Ġá¢ļ á¡ªá¡ªá¡ªá¢Ļá¡ªá¢īá¡¨
á¡Ńá¡³ á¢ļ
Ġá¡´á¡Ńá¢ĳá¢ļá¡¬á¡ªá¡ª á¡ªá¡ªá¡ªá¢Ķá¡ªá¡§
Ġá¡¥á¡Ńá¡¬á¢Ĭá¢ĭ á¡Ńá¡°á¡¨
Ġá¢ĺá¡Ńá¢İá¢Ļ á¡ªá¡±á¡±á¡Ńá¢Ŀ
Ġá¢ļ á¡¬á¡¬á¡¨
á¡Ńá¡±á¡± á¡ªá¢Ķá¡³
Ġá¡¥á¢Ķá¡ªá¢ŀ á¢ĭá¡Ń
á¡¥á¢ŀ á¢Ļ
á¡¥á¡Ńá¡¬á¢ Ķ
Ġá¡¥á¡Ńá¡¬á¢Ĭ á¡¬á¡Ńá¡§
á¢ĺ á¡ªá¢Ĳá¡¨
á¡ªá¡±á¡± á¡ªá¢ŀ
Ġá¢ĺá¡Ńá¢Ļá¡Ńá¢ŀ á¡ªá¡ª
Ġá¢Ķá¡¬á¢Ļ á¡Ńá¢Ĭá¡ªá¡§
Ġá¡¥á¡ªá¢Ļ á¡Ńá¡±á¡±á¡Ńá¡§
á¢Ķ á¡ªá¢ĳ
Ġá¢ļá¡ªá¡±á¡± á¡ªá¢Ľá¡§
Ġá¡¸ á¡ªá¡´
á¡¬á¢Ķ á¡Ńá¢ĳá¢Ļ
Ġá¡¸á¡ªá¢ŀ á¡¬á¢Ľá¡³
Ġá¡¥á¡Ńá¢ļ á¡¬á¡±á¡±á¡ªá¡Ńá¡§
Ġá¡¸á¡Ńá¡¬ á¡¬á¢ļ
Ġá¢ļá¡¬ á¡Ń
Ġá¡¥á¢ĭ á¡Ńá¢ĳá¡§
Ġá¡´á¡Ńá¡¬á¢ĭ á¡Ńá¢ĳá¡«
á¡Ńá¢ĳ á¡ªá¢ĩ
á¢ĭ á¡Ńá¡¬á¢ĳ
á¡Ńá¢ļ á¡ªá¡§
Ġá¡¸á¡Ńá¡³á¡¬á¢ŀ á¡ªá¢ĳá¢Ļá¡§
á¡¯ á¡ªá¢ŀ
Ġá¡¸á¡ªá¡¬á¡¬á¢ŀ á¡ªá¢ĳá¡ªá¡ªá¡ªá¡³
Ġá¢Ķá¡¬á¢Ļ á¡Ńá¢ŀá¡±á¡±á¡³
á¡ªá¢ŀ á¢Ĭá¡ªá¡§
Ġá¡³ á¡ªá¡ªá¡ªá¢Ķ
Ġá¡¥á¡Ńá¡¬á¡¬á¢ĳá¡ªá¡Ńá¡ªá¡´á¡Ńá¢ŀá¡¬á¢ĳ á¡ªá¢Ĳ
Ġá¡· á¡Ń
Ġá¡¥á¡ªá¡³ á¢Ļá¡ªá¢ĩ
Ġá¡¯ á¡ªá¢Ķá¡«
Ġáłł áł¬
Ġá¢ľ á¡¬á¢Ķ
Ġá¢Ķá¡ªá¢Ĭ á¡ªá¢Ĭ
áł¤áł ©áłŃ
Ġá¢ļá¡¬á¡Ń á¡ªá¢ĭá¡Ńá¢Ŀ
Ġá¡¬á¡ªá¢ĳá¡±á¡± á¡ªá¢İá¢Ľá¡¬á¢ĳ
Ġá¢Ķá¡Ńá¢ŀá¡´á¡Ńá¢ĳ á¢Ľá¡«
Ġá¢ĺá¡Ńá¢Ļ á¡ªá¡±á¡±á¡³
á¡ªá¢İá¢Ļ á¡ªá¡Ńá¡§
Ġá¡¥á¡Ńá¢ŀá¡Ńá¢Ķ á¡¬á¡§
Ġá¢Ĭ á¡ªá¢Ŀá¡¨
Ġá¡¯á¡¬á¢ĳ á¢ĩá¡¨
á¡Ńá¡ªá¢Ĭá¡± á¡¬á¡±á¡±á¡Ńá¡Ńá¡§
á¢Ļ á¡ªá¢ĭá¡Ńá¡³
Ġá¢ľ á¡Ńá¢İ
á¡¬á¢ľ á¡§
Ġá¢Į á¡ªá¢Ļá¡§
á¡¬á¢ļ á¡¬á¡§
Ġá¡´á¡Ńá¡¬á¢Ļá¡Ńá¢Ĭ á¡ªá¢ĭá¡Ń
Ġáł¡ áł¨
Ġáł¶ áłłáłª
Ġá¢ĺá¡Ńá¡³ á¢ļá¡«
Ġá¢ĺá¡Ńá¡¬á¡³ á¢ĳ
Ġá¡¥á¢Ĭ á¡ªá¢ĳ
á¡¬á¢Ķ á¢ĳá¡ªá¢Ĳ
ç ļ
Ġá¡¯á¡ªá¡¬ á¡¬á¢ļ
Ġá¢ĺá¡ªá¢ŀ á¡¬á¢ľá¡ªá¢ĳá¡ªá¡ªá¡¬á¡¨
Ġá¡¥á¡Ńá¡Ńá¡±á¡± á¡Ńá¢Ľá¡³
á¢Ĭ á¡ªá¡¬á¡¨
Ġá¢Ļ á¡Ńá¡¬á¡ªá¢Ĭá¡±
Ġá¡³á¡ªá¡¬ á¡¬á¡§
Ġá¢ĺá¡ªá¡¬á¡¬á¡´ á¡Ńá¡ªá¡¬á¡¨
Ġá¡¯á¡ªá¡±á¡± á¡ªá¢ļá¡³
á¡ªá¡¬á¡¬á¢ŀ á¡ªá¡§
Ġá¡¬ á¡ªá¡ª
á¡ªá¢İ á¡³á¡ªá¡¨
Ġá¢Ķ á¡ª
Ġá¡¥á¡Ńá¡¬á¢Ľ á¡ªá¢İá¢Ľá¡«
á¡Ńá¡±á¡±á¡Ńá¢ĳ á¡«
Ġáł¬ áł¦áł·
á¡¬á¢ľ á¡ªá¡ªá¡ªá¢Ķá¡ªá¡§
Ġá¡¸á¡Ńá¢Ļá¡ªá¢ĳá¢Ļ á¡Ńá¡§
á¡ªá¢ĭá¡Ńá¢ĳ á¢Ļá¡ªá¡¬á¡¨
Ġá¡¥á¢İá¡Ńá¡± á¡ªá¢Ļá¡³
ÑįÐ ³
Ġá¡¥á¢ĳá¡³ á¡ªá¡¬á¡¨
á¡¬á¡ªá¡ªá¢Ķ á¡ªá¡±á¡±á¡ªá¢Ŀ
1 2
Ġá¢ļá¡¬á¢Ĭ á¢ĳá¡ªá¢Ĳ
Ġá¢ĭá¡Ńá¡¬á¢ŀ á¢Ĭá¡ªá¡§
Ġá¢ļá¡¬á¢İ á¡ªá¡¬á¡«
á¡³ á¡ªá¡ªá¡ªá¢Ķá¡«
Ġáł Ī
á¢Łá¢ Ĳ
Ġáł¡áł´ áł¡
Ġá¢ĺá¡ªá¡¬á¡¬á¢ĳ á¡´á¡Ńá¢ŀá¡«
á¢ĺá¡ªá¢Ĭ á¢ŀá¡«
Ġ î
Ð° Ð°
Ġá¡¥á¡Ńá¡¬á¢ŀá¢ĭá¡Ńá¢ĳá¢Ľá¡¬á¢ĳ á¡ªá¡§
Ġá¡¬á¡Ńá¡¬ á¡ªá¡¬á¡¨
Ġá¢ĭá¡Ńá¡¬á¡¬á¢ļ á¡ªá¡Ńá¡§
áłłáł ²
á¡¬á¡ªá¡ªá¢Ļ á¡ªá¡ªá¡ªá¢Ķá¡ªá¡§
Ġá¡¸ á¡ªá¢ļá¡¬á¡§
á¡Ńá¢ĳ á¢Ļá¡³
Ġá¡¥á¡¬á¡± á¡¬á¢ľá¡ªá¢Ļá¡³
Ġá¡¸á¡Ńá¢ŀ á¢Ķ
Ġá¢Īá¡ªá¡³ á¡¬á¡«á¡¨
Ġá¡¥á¡ªá¢İ á¢Ķ
á¢ĺ á¡Ń
Ġá¢ĺá¡ªá¢İ á¡ªá¢īá¡¨
á¡ªá¢Ĭá¢Ļ á¡³
Ġá¢ĭá¡Ńá¡¬á¢Ĭá¢Ľ á¡¬á¢ĭá¡Ńá¢ĳá¢ĭá¡Ń
Ġá¡¥á¢ŀá¢ĭ á¡Ńá¡§
Ġá¢ĺá¡Ńá¡³á¢ļ á¡¬á¡«á¡¨
Ġá¡¥á¡ªá¢Ķá¡ªá¡±á¡± á¡Ńá¡ªá¡ªá¡³
á¡ªá¢Ķ á¡Ńá¢Ļá¡³
Ġá¢ĺá¡ªá¢İá¢Ľ á¡¬á¢Ľá¡³
á¢ĺá¡Ńá¡¬á¢ŀ á¡³
á¡ªá¡±á¡± á¡ªá¢Ļá¡ªá¡§
Ġá¢ĭá¡Ńá¡¬á¢ļ á¡Ńá¢Ļá¡ªá¡«
Ġá¡¸á¡Ńá¡¬á¡¬á¢ļ á¡¬á¢ĵ
á¡¥á¢Ļ á¡Ńá¢Ŀ
Ġá¡³á¡ªá¢ŀ á¡¬á¢ĳá¢īá¡¨
á¡¥á¡Ńá¡¬ á¡ªá¢Ĭá¢Ĭ
Ġá¡³á¡ªá¢ŀ á¡ªá¡ªá¡ªá¢Ķá¡ªá¡§
Ġá¡¥á¡Ńá¢ŀá¡Ńá¢ĳá¢ļ á¡ªá¡ªá¡ªá¡³
á¡ªá¡±á¡±á¡Ńá¢ĳ á¡Ńá¢ĳá¢Ļá¡§
Ġá¢ļá¡Ńá¡ª á¡ªá¢ļ
Ð¾ Ð½
Ġá¢Įá¢Ł á¢ĺá¢Ŀ
Ġáłªáł£ áł¯áł
Ġá¢ĺá¡ªá¡ªá¢Ĭ á¢Ļá¡§
á¢Ķ á¡ªá¢Ŀá¡¨
á¡¥á¡Ńá¡¬ á¡«á¡¨
Ġá¡¥á¡Ńá¡¬á¢ŀ á¡Ńá¢Ĭá¡ªá¡§
Ġá¢ĺá¡ªá¡´ á¡Ńá¢Ļá¡Ńá¡±á¡±á¡ªá¢Ŀ
Ġá¡³á¡ªá¢ĳá¡ªá¡Ńá¡ªá¢Ĭ á¡ªá¢Ĳ
á¡ªá¢Ĭ á¡±
Ġá¡¸á¡ªá¡³á¢Ķ á¡Ńá¢ŀ
Ġá¡¥á¡Ńá¢ŀ á¡Ńá¡ªá¡ªá¢Ķ
Ġá¡¯á¡Ńá¡¬á¢ĳ á¡Ńá¢Ĭ
Ġá¡³ á¡ªá¢Ļá¡ªá¢ĩ
áł¢áł µ
Ġá¢ĺá¡ªá¡³á¢ļ á¡ªá¡ªá¡¬á¡¨
áł¤áł® áł³
Ġá¢ĺá¡ªá¡±á¡±á¡ªá¢ŀ á¡ªá¡°á¡¨
Ġáł¶ áł¤áł®
Ġá¡¥á¡ªá¡±á¡± á¡ªá¢Ľ
Ġá¢Įá¡ªá¢ĳ á¡ªá¡±á¡±á¡ªá¡«
Ġá¡¥á¡Ńá¢İ á¡ªá¢ŀá¡ªá¢Ļá¡³
á¡ªá¢ŀ á¡ªá¡±á¡±á¡Ńá¢ĳá¡ªá¡ªá¡³
Ġá¡¬á¡Ńá¡±á¡± á¡ªá¢ļ
Ġá¡¬á¡Ńá¢Ĭá¡¬á¢ľ á¡ªá¡ªá¡ªá¢ļá¡«
á¡ Ĵ
á¡Ńá¢ŀ á¢Ľá¡¬á¡§
Ġá¡¥á¢ĳ á¡¬á¢Ĭá¡ªá¡¨
ĠáłŃ áłłáł·
á¢ļ á¡ªá¡¬á¡¨
Ġá¡¥á¡ªá¢Ļ á¡Ńá¡±á¡±
á¡ªá¢ĳ á¡ªá¡³á¡ªá¡¨
á¡¬á¢ŀ á¡¬á¢Ĳ
Ġá¡¥á¡ªá¢§ á¡¬á¡«á¡¨
á¡ªá¢ŀ á¢Ľ
á¡ªá¡ªá¢Ĭá¢Ľ á¡Ńá¡§
á¡ªá¢ĳ á¡±á¡±á¡ªá¡§
á¡Ńá¢Ļ á¡ªá¢Ĭá¡ªá¢Ŀ
² áłł
Ġá¢Įá¡ªá¡ªá¡ª á¡ªá¡´á¡Ńá¡Ńá¡§
Ġáł ¯
á¢ĺá¡Ńá¢İá¢Ļ á¡ªá¢Ļá¡³
á¡¸á¡ªá¢İ á¡Ńá¢ĩ
Ġáłª áł¦áł¬
Ġá¢ļá¡ªá¢ĳ á¡¬á¡ªá¡¬á¡¨
áł ©áłŃ
á¡¥ á¡Ńá¡±
á¡ªá¢Ļ á¡ªá¡ªá¡ªá¡³
Ġá¢Įá¡Ńá¡¬á¢ļ á¡¬á¢Ŀ
á¡Ńá¢ļ á¡¬á¢ĳá¡ªá¡§
Ġá¢Ķ á¡Ńá¢Ŀ
á¡¥á¡Ńá¡¬ á¡´á¡Ńá¢Ŀ
á¡ªá¡ªá¡ªá¢Ļ á¡ªá¢Ĳ
Ġá¡¥á¡ªá¢ŀ á¡¬á¢Ĭá¡¬á¡§
á¢Ķ á¡Ńá¢ľ
á¡³ á¡ªá¡«
Ġá¢Ķá¡Ńá¡±á¡¬á¢ŀ á¡ªá¡ªá¡ªá¢Ĳ
Ġá¢ĺ á¡ªá¢ĳá¢Ļ
áł¢áł ¬áł¤
áł¡áłŃ áł°áł¡áł¨
á¡ªá¢ĳ á¡Ńá¡§
Ñ Į
Ġá¡¬á¡Ńá¡¬á¢ļ á¡Ńá¢Ĭá¡ªá¡¨
á¢Ķ á¡¬á¢ĩ
Ġá¢Ķá¡¬á¡ªá¢Ľá¡¬á¢ĳ á¡ªá¢Ĭá¡ªá¡§
á¢ĺá¡ªá¢ĳ á¡ªá¢Ĭá¡ªá¡«
á¢ļ á¡¬á¢Ļ
Ġá¢ĺá¡Ńá¡¬á¢ŀ á¡Ńá¢Ľá¡³
Ġá¡¥á¢Ķ á¡ªá¡³á¡ªá¢Ĳ
Ġá¢Ķá¡ªá¢ŀ á¡ªá¢Ĳ
Ġá¡¥á¡Ńá¢ŀá¢Ĭ á¡¬á¢Ĳ
Ġáł° áł¢áł¨
á¡¯ á¡¬á¢Ĭ
Ġá¡³ á¡¬á¢Ŀ
Ġá¡¥á¡Ńá¡ªá¡ªá¢Ķ á¡ªá¢īá¡¨
Ġá¡³á¡ªá¢ŀ á¢ĵ
Ġá¢ı á¡ªá¡²
Ġá¢Ķá¡ªá¢ľ á¡¬á¡ªá¡ªá¡ªá¡§
Ġá¡¥á¡Ńá¡¬á¢Ľ á¡ªá¢ĭá¡Ńá¢ĳá¢Ľá¡³
Ġá¢Ķá¡ªá¡±á¡± á¡Ńá¢Ļá¡ªá¢Ĳ
Ġá¢ĺá¡ªá¢İá¡ªá¢ļ á¡ªá¢Ĳ
á¡Ńá¢ŀ á¢Ķ
Ġá¡¥á¡Ńá¢ŀá¡Ńá¢Ķ á¡¬á¡ªá¡ªá¡³
á¡ªá¡ªá¢Ĭ á¢ĭá¡Ńá¡«
Ġá¢Ķá¡Ńá¢ĳ á¡¬á¢ĳá¢ļ
á¡± á¡«
á¢ľá¡ªá¡±á¡± á¡ªá¢Ĭ
Ġá¡¥á¢ĳ á¢ĭ
á¢ĭá¡Ńá¡¬ á¡³
á¢ĺ á¡Ńá¡¬á¢ĳ
Ġá¢ĺá¡Ńá¡ªá¡ªá¢Ļ á¡ªá¡±á¡±
á¡¥á¡ªá¢ŀ á¡³á¡ªá¡§
Ġá¡´á¡Ńá¢ĳá¡³ á¡ªá¢Ĳ
Ġá¡¥á¢Ĭá¡¬á¢ĳ á¡ªá¢ĭá¡Ń
Ġá¢Į á¡ªá¡¬
Ġá¢Īá¡ªá¢ŀ á¡±á¡±á¡ªá¡§
çļ Ħ
Ġá¢ļ á¡ªá¡¬á¡¬á¢ĳ
Ġá¡¬á¡Ńá¢Ĭá¡¬á¢ľ á¡ªá¢ĳá¢ļá¡¬á¡Ńá¡§
Ġá¡¥á¡Ńá¢ľ á¡Ńá¢Ļá¡ªá¡§
Ġá¡¥á¡Ńá¡ªá¢Ļ á¡Ńá¡³
á¡¬á¢ĭ á¡Ńá¢Ĳ
Ġá¢ĺá¡ªá¡±á¡± á¡ªá¡±á¡±á¡Ńá¢ĳá¢Ľá¡³
áł¦áł¯áł ¬
á¡ªá¢ĳ á¢ļá¡«
Ġá¡´á¡Ńá¡¬á¢Ķ á¡§
Ġá¡¸á¡Ń á¡Ńá¢ŀ
Ġá¢ĺá¡Ńá¢ĳ á¡Ńá¢īá¡¨
Ġá¡¸á¡ªá¡±á¡±á¡Ńá¢Ļ á¡ªá¢Ķá¡³
Ġá¡¥á¡Ńá¢ŀ á¡Ńá¡±á¡±á¡Ńá¢Ĳ
Ġá¡¥á¢ŀá¢Ļ á¡ªá¢İá¢Ļá¡ªá¡Ńá¡§
Ġá¡¬á¡ªá¡³á¢Ķ á¡ªá¡¬á¡¨
á¡¬á¡¬ á¡ªá¢ĭá¡Ń
á¡¥á¡Ńá¡¬á¢Ĭ á¡ªá¡¨
ÑįÐ ´
á¡³ á¡¬á¢Ļá¡§
Ġá¡¯ á¡ªá¡³á¢ļá¡«
á¡ªá¢ĭá¡Ńá¢ĳ á¡ªá¢Ŀ
Ġ) ,
á¡Ńá¡¶ á¡ªá¡¨
Ġá¡³á¡ªá¡¬á¡¬á¡±á¡±á¡Ńá¢ĳ á¢īá¡¨
á¡Ńá¢ĳá¢Ļ á¡Ńá¡±á¡±á¡ªá¡§
Ġá¡¬á¡ªá¢ĳá¡ªá¡±á¡± á¡Ńá¢ĵ
Ġá¢Ķá¡ªá¡¬ á¡¬á¢Ļá¡ªá¡«
Ġá¡¥á¡Ńá¡¬á¢ŀ á¡¬á¢Ķá¡Ńá¢ĳá¢Ļ
Ġá¢Įá¡ªá¢Ļá¡ªá¢Ĭ á¡ªá¢Ľá¡«
á¢Ł á¢ĺá¢Ŀ
Ġá¢Ī á¡ªá¡ªá¡¬á¡¨
Ġá¢ĺá¡ªá¢İá¡ªá¢ļ á¡ªá¢Ĭá¡ªá¡§
Ġá¡¯á¡¬á¢Ĭá¡ªá¢Ļ á¡Ńá¢Ĳ
á¡Ńá¢Ļ á¡ªá¡ªá¡ªá¡³
á¢Į á¡Ńá¡¬á¢ŀ
Ġá¢Īá¡ªá¢ŀ á¡Ńá¡§
Ġá¢Įá¡ªá¡± á¡ªá¡¬
Ġá¢ı á¡ªá¡³
Ġá¡¥á¡ªá¢Ĭ á¡±
Ġá¢Ķá¡¬á¡³ á¡ªá¡±á¡±á¡Ńá¡Ńá¡§
Ġá¡¥á¢ĳ á¡¬á¢Ĭá¡ªá¡§
Ġá¢ļá¡¬á¢ŀá¢İ á¡ªá¡¬
Ġá¡¥á¡ªá¡³á¢ļá¡¬á¢ŀ á¡ªá¢Ľá¡³
Ġá¡¥á¡³ á¡ªá¢Ķá¡Ńá¡§
Ġá¡¥á¡Ńá¡´ á¡Ńá¡ªá¡ªá¢Ļá¡³
Ġá¡¥á¡ªá¡±á¡±á¡Ńá¢ĳ á¡ªá¢ĵ
Ġá¡¬á¡Ńá¡ªá¡ªá¢Ķ á¡Ńá¡±á¡±
Ġá¡¸á¡ªá¢ŀá¡¬á¢ĳá¢ļ á¡ªá¢īá¡¨
á¡ªá¢ĭá¡Ńá¢ĳ á¢Ĭá¡ªá¡¨
Ġá¡´á¡Ńá¢ŀ á¡Ńá¡±á¡±
Ġá¢ĭá¡Ńá¡¬ á¡ªá¡¬á¡¨
Ġá¢ĺá¡Ńá¢ŀ á¡ªá¢ĳá¡ªá¢Ĳ
Ġá¢ĺá¡Ńá¡¬á¢ĳ á¡Ńá¢Ĭ
Ġá¡¥á¡Ńá¡¬á¢ĭá¡Ńá¢ĳ á¡ªá¢Ĳ
á¡¬á¢ĳ á¢Ļá¡³
Ġá¡¯ á¡Ńá¡¬á¢İ
Ġá¢ľá¡Ńá¢İ á¢Ķá¡ªá¡§
Ġá¢Ĭ á¡¬á¡°á¡¨
Ġá¡¥á¢Ĭ á¡ªá¢Ĳ
Ġá¡¥á¡Ńá¢ļ á¡¬á¡ªá¡ªá¢Ķá¡ªá¡§
á¡´ á¡Ńá¡³
Ġá¢ľá¡ªá¡´ á¡Ńá¢ļá¡¬á¡ªá¡ª
Ġá¢Įá¡ªá¢ĳá¢Ľ á¡¬á¢Ĳ
á¡Ńá¡ªá¢Ļ á¡Ńá¢ĩ
Ġá¡´á¡Ńá¢ĳ á¡ªá¡«
Ġá¢¤ á¡¬á¢ĳ
Ġá¢ľá¡ªá¢Ĭ á¡ªá¢Ļá¡§
á¡³ á¡ªá¢Ļ
Ġ /
á¢Ķ á¡ªá¡¬á¡¬á¡§
Ġá¡¸á¡ªá¢ŀ á¡±á¡±
Ġá¡¸ á¡ªá¡ªá¢Ĭ
Ġá¡¸á¡Ńá¢ŀ á¡¬á¡ª
Ġáł¡ áł¬
Ġá¢ĺá¡ªá¡± á¡ªá¡¬á¡¨
Ġáł¬ áł¡áł·áł¡áłŃ
Ġá¢Ķ á¡ªá¡ªá¢Ĭ
á¡ª á¡ªá¢İ
Ġá¢ĺá¡ª á¡Ńá¡ªá¡ªá¡ªá¡ªá¢Ĳ
á¡ªá¢ĳ á¡ªá¢Ļá¡ªá¡¬á¡¨
á¡ªá¡±á¡± á¡ªá¢ŀá¢Ļ
Ġá¡¸á¡Ń á¡´á¡Ńá¢Ŀ
á¡Ńá¢Ķ á¡¬á¢Ļá¡ªá¡«
Ġá¢ĺá¡ªá¢Ķ á¡Ńá¢ĳ
Ġá¡¬á¡Ńá¢ŀ á¡¬á¡ªá¡ªá¢Ľ
á¡ªá¢Ĭ á¢ļá¡§
á¡ªá¡±á¡± á¡Ńá¢ŀá¡«
Ġá¢ļ á¡ªá¢Ķá¡Ńá¡§
Ġá¡³á¡ªá¡±á¡± á¡Ńá¢Ļá¡ªá¢Ĳ
å ı
á¡´á¡Ńá¢ĳ á¡Ńá¡ªá¡ªá¢Ķá¡ªá¡§
Ġá¡¯á¡ªá¡¬ á¡¬á¢Ķá¢ĳá¡ªá¢Ĳ
Ġá¢Įá¡ªá¢ŀá¢Ĭ á¡ªá¡Ńá¡§
Ġá¡¬ á¡ªá¢ĭá¡Ń
Ġá¢ļá¡Ń á¡Ńá¢ŀ
Ġá¢ĺá¡ªá¡³ á¡ªá¢īá¡¨
Ġá¡¥á¡ªá¡±á¡± á¡Ńá¢Ľ
Ġá¡¥á¡Ńá¢ĳá¡ªá¡±á¡± á¡ªá¡ªá¡ªá¡ªá¡ªá¢Ļá¡§
Ġá¡³á¡ªá¢ĳ á¡§
á¡Ńá¢İá¢Ľ á¡¬á¢Ļá¡ªá¡«
Ġá¡³ á¡ªá¢ļ
Ġá¢Ĭá¡ªá¢ŀ á¡ªá¢ĳá¢Ļ
Ġá¡¬ á¡ªá¡ªá¢Ĭá¢Ľá¡Ńá¡§
Ġá¢ĺá¡ªá¡± á¡ªá¢Ŀ
Ġá¡¬á¡¬á¢ŀ á¡Ńá¢İ
á¢Ķ á¡Ńá¡¬
Ġá¢ĺá¡ª á¡Ńá¢ĳá¡ªá¡«
Ġá¢ĺá¡Ńá¢Ķ á¢ļá¡³
Ġá¡¬á¡Ńá¡ªá¡ªá¢Ķ á¡Ńá¡ªá¡ªá¡³
Ġ 3
á¡Ńá¢ŀ á¡ªá¢ĩ
á¡ªá¢İ á¡ªá¡±á¡±á¡ªá¡«
Ġá¡¥á¡¬á¢Ļá¡ªá¢Ĭ á¡ªá¢ĳá¢Ļá¡³
Ġá¡³á¡ªá¢ŀ á¡¬á¡ªá¡ªá¢Ķá¡ªá¡§
á¢Ķ á¡¬á¢Ĳ
Ġá¡¸á¡ªá¢ŀ á¡¬á¢ľá¡ªá¢Ļá¡³
á¡ªá¢ŀ á¡±á¡±á¡Ńá¡«
á¡ªá¢Ĭá¢Ļ á¡ªá¢ĭá¡Ńá¡§
á¡ªá¡±á¡± á¡ªá¡¬á¡¬á¢ĳá¡ªá¡§
á¢ĭ á¡Ńá¡¬á¢Ķ
á¡Ńá¡¬á¡¬á¢ĳ á¡ªá¢Ĳ
á¡¥ á¡ªá¡¬
Ġá¡´á¡Ńá¢ŀ á¡Ńá¢ĳ
á¡¬á¢Ķá¢Ĭ á¡ªá¢Ŀ
Ġá¡´á¡Ńá¡¬á¢Ľ á¡¬á¡¬á¡¨
á¡´ á¡Ńá¡¬á¢Ĭ
Ġá¡¬á¡¬á¢İ á¡¬á¢ĵ
á¡ªá¡±á¡±á¡Ńá¢ĳ á¡³á¡ªá¡¨
Ġá¢Ķá¡ªá¡±á¡± á¡Ńá¢Ļá¡ªá¢ĩ
á¢ £
Ġá¡´á¡Ńá¡¬á¢ĭ á¡Ńá¡¬á¡¬á¢ĳá¡§
á¢ĳ á¡ªá¡ªá¡ªá¢Ķá¡ªá¡§
Ġá¡¯á¡¬á¢Ĭ á¡ªá¢ļá¡§
ÑįÐ ¹
Ġá¢ľá¡ªá¢İ á¡ªá¢ŀ
Ġá¢Ĭá¡ªá¢İ á¢Ľ
Ġáł¢áł¶ áłłáł·
Ġá¢Īá¡Ńá¡Ńá¢ĳá¢Ļ á¡ªá¡±á¡±á¡³
Ġá¢ĺá¡ªá¡³ á¡ªá¡ªá¡Ńá¢Ŀ
Ġáłª áłłáłŃ
á¡ªá¡±á¡± á¡ªá¢į
ĠÐ ¼
Ġá¡³á¡ªá¡¬á¡¬á¢ĳ á¢ĭá¡Ńá¡«
Ġá¡¬á¡¬á¢ĳá¡Ńá¡±á¡± á¡Ńá¡Ń
Ġáłª áł¡áł·
Ġáł³ áł¦
Ġá¢ĺá¡Ńá¡±á¡± á¡Ńá¢Ķá¡³
Ġá¡¥á¡Ńá¡¬á¡³ á¡ªá¢ŀá¢İ
Ġá¡³á¡ªá¡±á¡± á¡ªá¢ļá¡Ńá¡Ńá¡§
áł¢áł¶ áłłáł¨
á¡³ á¡ªá¡±á¡±á¡ªá¢Ļá¡Ńá¢Ŀ
á¡Ńá¢Ļ á¡ªá¡Ńá¡§
Ġá¡³ á¡ªá¢ĩ
Ġáł¡ áł³
Ġá¢ļá¡Ńá¡ªá¡ªá¢ĳ á¡ªá¡±á¡±á¡ªá¡§
Ġá¢Ķ á¡Ńá¡¬á¢İ
Ġá¡¥á¡Ńá¡¬á¢ŀ á¢ĭ
Ġá¡¬á¡ªá¡ª á¡ªá¡´á¡Ńá¢Ŀ
á¢ĺ á¡Ńá¢ĵ
á¡¥ á¡ªá¡ªá¢Ĭ
Ġá¡´á¡Ńá¡¬á¢ĭ á¡Ńá¢Ļá¡ªá¢Ĭá¡ªá¢Ŀ
Ġá¡¬á¡Ńá¡¬á¡³á¢ĳ á¡ªá¢ĳá¢Ļá¡³
Ġá¢ĺá¡ªá¢İ á¡Ńá¢Ľá¡¬á¡§
á¡Ńá¡¬ á¡¬á¢Ľá¡³
Ġáł² áł¤
Ġá¡¥á¡Ńá¡¬á¢ŀ á¡Ńá¢Ĭá¡ªá¡¨
áł£ áł¨
á¡ªá¢ĳ á¡ªá¢İá¢Ľá¡«
Ġá¢ļá¡Ńá¡ª á¡ªá¢ļá¡§
á¡¸ á¡ªá¡±á¡±
Ġá¡¸ á¡Ńá¢Ĭ
Ġá¡¥á¡ªá¢ĳá¢Ļ á¡ªá¡ªá¡ªá¡³
á¡´á¡Ńá¢ŀ á¡ªá¡ªá¡ªá¡§
Ġá¡³ á¡ªá¡ªá¢Ĭá¢Ĭá¡¬á¡¦
Ġá¢Ķ á¡¬á¢Ļá¡³
á¡Ńá¡¬á¢ĺ á¡¦
Ġá¢Ĭá¡ªá¢Ļ á¡Ńá¢ŀ
Ġá¡¸á¡ªá¢ŀ á¡ªá¢ĳá¢Ļá¡§
á¡Ńá¢ĭá¡Ńá¢ĳ á¢Ľá¡³
Ġá¢Ķá¡¬á¢Ĭ á¡¬á¢Ŀ
á¡¬ á¡ªá¡ªá¡ªá¡³á¡ªá¡¨
Ġáłł áłŃ
Ġá¡¥á¡Ńá¢Ļ á¡ªá¢Ķá¡Ńá¡§
Ġá¢ĺá¡ªá¢İ á¡ª
á¡¬á¢ŀ á¢īá¡¨
Ġá¡¥á¡Ńá¡ªá¢Ĭá¢Ķ á¡¬á¢ĳá¢īá¡¨
Ġá¡³á¡ªá¢ŀ á¢Ļ
Ġá¡¯á¡ªá¡ªá¢Ļ á¡¬á¡§
á¡ªá¡³ á¡ªá¡±á¡±á¡ªá¢Ļá¡Ńá¢Ŀ
Ġáł² áł¤áłŃ
á¢ĺ á¡³
ĠÑ ĥ
Ñĥ ÑĢ
Ġá¡¥á¡Ńá¡¬á¡³á¡ªá¢ŀá¢İ á¡¬á¢ļá¡§
Ġá¡´á¡Ńá¡¬á¢İá¡´ á¡Ńá¢Ĭá¡ªá¡¨
Ġá¡¥á¡Ńá¢İ á¢Ļ
Ġá¡¥á¡³á¡ªá¡Ń á¡ªá¢ļ
á¡¬á¢ĭ á¡Ńá¡Ńá¡§
Ġá¡¥á¡Ńá¡¬á¢Ĭ á¡ªá¢Ļ
á¡¥ á¡ªá¢Ľá¡¬á¢Ĳ
Ġá¢ĺá¡ªá¢Ķ á¡ªá¡ªá¡ªá¢Ĳ
á¡¥ á¢ĭ
Ġá¡¥á¡Ńá¡± á¡ªá¡ªá¡ªá¢Ķá¡ªá¡§
ĠâĢ Ķ
á¢ĺ á¡Ńá¡¬á¢İ
Ġá¢ĺá¡Ńá¡±á¡± á¡Ńá¢Ĳ
á¢ ¥
Ġá¡´á¡Ńá¡¬á¢Ļá¡Ńá¢Ĭ á¡ªá¢Ĭá¢Ķá¡ªá¡§
Ġá¢ļá¡¬á¡³ á¡ªá¢īá¡¨
Ġá¡¸ á¡Ńá¢İ
á¡¬á¢İ á¡ªá¡§
Ġá¢Ķá¡¬á¢ŀ á¡ªá¢Ĭá¡ªá¡¨
Ġá¡¯ á¡ªá¡³
Ġá¡¥á¡Ńá¢Ļ á¡Ńá¢īá¡¨
á¡ªá¢ĭ á¡Ńá¢Ĭá¡ªá¡§
Ġá¡³ á¡ªá¢ĩá¡¨
Ġá¡¥á¡ªá¢ŀ á¡ªá¢Ķá¡³
á¡¸ á¡ªá¡¬á¡¬á¢ŀ
á¡ªá¡Ńá¡ªá¡ªá¡ª á¡ªá¢Ľá¡³
Ġá¡¥á¡Ńá¡¬á¢ļ á¡Ńá¢Ĭá¡ªá¢Ļá¡Ńá¢Ŀ
á¡Ńá¢ŀá¢Ĭ á¡ªá¡«
á¡ªá¢ŀ á¡ªá¡±á¡±á¡Ńá¢ĳá¢Ľá¡³
Ġá¡¸á¡ªá¡³ á¡¬á¡¦
Ġá¡³ á¡ªá¡ªá¡ªá¡ªá¡§
Ġá¢Ķá¡ªá¡± á¡ªá¡ªá¡ªá¢Ķá¡ªá¡§
Ġá¢Ķ á¡ªá¡ªá¡ª
Ġá¢ĺá¡Ńá¢Ķ á¡Ńá¡§
Ġá¡¥á¢ĭ á¡Ńá¢Ŀ
Ġá¢Ĭá¡ªá¢Ľ á¡¬á¢Ĭá¡ªá¡¨
Ġá¡¥á¡ªá¢ŀá¢Ķ á¢ĳá¡ªá¡§
Ġáł¨ áłłáł®
Ġá¡³ á¢ĳ
Ġá¡¥á¡ªá¢İ á¢Ļá¡§
Ġá¡¯á¡¬á¢Ĭá¡ªá¢Ļ á¡Ńá¢Ĭá¢Ķá¡ªá¡§
Ġá¢ĭá¡Ńá¡¬á¡ªá¢Ĭá¢Ĭ á¡ªá¡§
á¡ªá¡ªá¡ªá¢Ķ á¡ªá¡Ńá¡§
Ġáł¬áł¦áł® áł¦áł¨
Ġá¢Į á¡Ń
á¡ªá¡ªá¡ªá¡³ á¡ªá¢Ĳ
á¡Ńá¢İ á¡ªá¡ªá¡ªá¢ļá¡§
Ġá¡¥á¡Ńá¢ŀá¢Ļ á¡Ńá¢ĵ
á¡´ á¡Ńá¢ĵ
á¡¥á¡Ńá¢ŀ á¡Ńá¡§
Ġá¡´á¡Ńá¢ĳ á¡Ńá¡ªá¡¬á¡¨
áł¤áłŃ áł°áłłáł¨
Ġá¡¶ á¡¬á¡ªá¡¬á¡¨
Ġá¡¥á¡¬á¢ĳ á¡ªá¢ŀá¡ªá¢Ĳ
á¡ªá¢Ķ á¡Ńá¢Ļá¡ªá¡§
Ġá¡¥á¡Ń á¡´á¡Ńá¢Ŀ
Ġá¡¸á¡ª á¡Ńá¡ªá¡ªá¡ª
áł¤áł¯áł Ń
Ġá¡´á¡Ńá¢Ļ á¡Ńá¢ĳá¢Ĭ
áł¡áł µ
Ġáł¦ áł¢áł¯
Ġá¢Į á¡Ńá¢Ļ
á¡ªá¢ĳá¢ļ á¡¬á¡§
Ġá¢ĺá¡Ńá¡ªá¡ª á¡ªá¡¬á¡¬á¢ĳ
á¡¬á¢ľá¡ªá¢ŀ á¡«
á¡¥á¡Ńá¡¬á¡± á¡ªá¡§
Ġá¢ĺá¡ªá¢ŀ á¡¬á¢ľá¡ªá¡§
á¡ªá¢ĭ á¡Ńá¡¬á¡¬á¢ļ
Ġá¡¥á¡Ńá¢ŀ á¡¬á¡Ńá¡§
Ġáł¡ áł®
á¡Ńá¢ŀ á¡ªá¡ªá¡ªá¡³
á¡ªá¡¬ á¡¬á¢Ķ
Ġá¢ĺá¡ªá¡³ á¡¬á¢Ķá¢Ĭá¡ªá¢Ŀ
á¢ĭá¡Ńá¡¬á¢İ á¡Ńá¢ĵ
á¡ªá¢ŀá¢ĳ á¡ªá¡§
Ġá¢ļá¡ªá¢Ĭ á¡ªá¢Ľá¡«
Ġá¢ĺá¡Ń á¡Ńá¢Ŀ
á¡ªá¡±á¡± á¡ªá¢ļá¡«
Ġá¡¯ á¡¬á¢İ
Ġáł¬ áł¥
Ġá¢ĭá¡Ńá¡¬á¢Ķ á¡ªá¢Ľá¡³
Ġá¢ĺá¡Ńá¡ªá¡ªá¢Ļ á¡ªá¡±á¡±á¡ªá¡ªá¡ªá¢Ķá¡ªá¡§
Ġá¡¸ á¡ªá¡³á¢ļ
á¢Ķ á¡¬á¢ĭ
á¢ĭ á¡Ńá¡¬á¢ļ
á¡¯ á¡ªá¢İ
á¡¥ á¢Ĭ
Ġá¢ĺá¡Ńá¡¬á¢ Ŀ
Ġá¡³á¡ªá¢ľá¡ªá¢ŀá¢ĳ á¡ªá¢Ľá¡³
á¡Ńá¡¬á¢ŀ á¡Ńá¡¶á¡ªá¡¨
á¢ļ á¡ªá¡±á¡±á¡ªá¡§
á¡¬á¢ĳ á¡ªá¢īá¡¨
Ġá¢Ķá¡¬á¢ĳ á¡Ńá¢Ĭá¢ļá¡«
Ġá¡¥á¡Ńá¢ľ á¡ªá¢ĳá¢Ļ
Ġá¡¥á¡Ńá¢ĳ á¡§
Ġá¡¬á¡Ńá¢Ĭ á¡¬á¡°á¡¨
Ġá¢Ĺ á¡ªá¢Ļá¡³
á¡Ńá¡ªá¢Ĭ á¡ªá¡ªá¡Ńá¡§
Ġá¡¥á¡ªá¡´ á¡Ńá¡±á¡±á¡ªá¡«
Ġá¡¬ á¡Ńá¢Ļ
Ġá¢Ķ á¡Ńá¢ļ
á¡¬á¢ľá¡ªá¢ĳ á¡ªá¡ªá¡ªá¡³
á¡¬á¡± á¡ªá¢į
Ġá¡¥ á¡¬á¡¬á¡ªá¢ĭá¡Ń
á¢Ī á¡ªá¢Ļ
Ġáł¦ áłª
Ġá¡³á¡¬á¢Ķ á¡¬á¡³
Ġ) ,"
á¡¬ á¡¬á¡±á¡±
á¡¥ á¡Ńá¡¬á¢ĭ
Ġá¢Ĭá¡ªá¢Ļ á¡ªá¢Ķá¡³
Ġá¢ĺ á¡ªá¡ªá¢Ĭá¡±á¡±
Ġá¢Ī á¡ªá¡ªá¢Ĭá¡±á¡±
Ġá¢Į á¡¬á¡ªá¡¬á¡¨
Ġá¢ĺá¡ªá¡± á¡¬á¢Ľá¡³
Ġá¢ĺ á¡Ńá¡ªá¢Ĭ
Ġá¢ĭá¡Ńá¡¬á¢ľ á¡Ńá¢Ľá¡³
Ġá¢Ĭ á¡¬á¢Ķá¢Ĭ
áł¢áł ª
á¢Ķ á¡Ńá¢Ŀ
Ġá¢Īá¡Ńá¢Ļ á¡Ńá¢Ĳ
Ġá¡¥á¢Ľ á¡ªá¡ªá¢Ĭá¡±
Ġá¢Į á¡Ńá¡ªá¢Ĭ
Ġá¢Ļ á¢Łá¡ªá¡¬á¡¨
Ġá¢ĭá¡Ńá¡¬á¢ŀ á¢Ĭá¡ªá¢ĭá¡Ń
Ġá¢ĺá¡ªá¢Ĭ á¡ªá¢Ĭ
Ġáłª áłł
á¡ªá¢Ļ á¡ªá¢Ĳ
Ġá¢ľá¡ªá¢ŀ á¡Ńá¡±á¡«
Ġá¡¯á¡ªá¢ŀ á¡ªá¡¬á¡¬á¢Ļ
Ġáł° áłłáł¶
-- --
á¡¥ á¢Ľ
Ġá¡¸á¡ªá¢İá¡ªá¡±á¡± á¡ªá¢ĳá¡ªá¢Ľá¡³
Ġá¡¥á¡¬á¢Ľ á¡ªá¡±á¡±á¡Ńá¢Ŀ
Ġá¡¯ á¡¬á¢Ķá¢Ĭ
Ġá¡¸á¡Ńá¢ŀ á¡Ńá¢Ķ
Ġá¡¸á¡ªá¡ªá¢Ĭá¡±á¡± á¡ªá¡«
Ġá¢Ĭá¡ªá¢ŀá¡ªá¢Ĭá¢Ķ á¡ªá¢Ĳ
á¡¬á¡± á¡ªá¢Ŀ
Ġá¡¥á¡¬á¢ĳá¡ªá¢ŀá¢Ĭ á¡ªá¡¬á¡¬á¢ĳ
Ġá¡¥á¡ªá¡³ á¢Ļ
Ġá¢ĺá¡ªá¢ĳ á¡ªá¡§
Ġá¡¸á¡ªá¡±á¡± á¡ªá¢ĳá¢īá¡¨
Ġá¡¥á¢ĭá¡Ńá¢ŀ á¡¬á¢Ļá¡§
á¡ªá¢Ļ á¡ªá¡Ńá¡§
Ġáłłáł ª
Ġá¢ĺá¡ªá¡ªá¢Ĭá¢Ķ á¡Ńá¢ĩ
á¡Ńá¡¬á¡ªá¢Ĭá¡± á¡³
á¢Ķ á¡¬
áłłáł¯áł Ń
á¡¥ á¢
Ġá¡¥á¡¬á¢Ļá¡ªá¡³á¢Ĭ á¡¬á¢Ļá¡ªá¡«
Ġá¢ĺá¡Ńá¡±á¡± á¡Ńá¡±á¡³
Ġá¢¡ á¢ŀ
á¢Ĭ á¡¬á¢Ļ
Ġá¡¸á¡ªá¢ŀá¡¬á¡±á¡±á¡Ńá¢ĳ á¢Ļá¡§
Ð¸ Ð³
Ġá¡¬á¡ªá¢ŀ á¡Ńá¢Ļá¡ªá¢Ĳ
Ġá¡¥á¢ŀá¢Ĭá¡¬á¢ĳ á¡ªá¢ĭá¡Ń
á¡¬á¡Ń á¡ªá¡ªá¡ªá¡³
á¡ªá¢İá¢Ķ á¡Ńá¢Ĭ
Ġá¢ĺá¡Ńá¡ªá¡ªá¢ĳ á¡ªá¡±á¡±á¡ªá¢į
Ġá¡¥á¢ŀ á¡ªá¢İ
á¡¯ á¡ªá¡¬á¡¬á¢ŀ
Ġá¡¥á¡Ńá¡¬á¢Ķ á¡Ńá¢Ĭá¢Ķá¡ªá¡§
Ġá¡¥ á¡Ńá¡ªá¢Ĭá¡±á¡¬á¡±á¡±á¡Ńá¡Ńá¡§
Ġáł¡ áłŃ
á¢Ĭ á¡ªá¢İ
á¡ªá¡ªá¢Ļ á¡ªá¡±á¡±á¡ªá¡§
å ħ
Ġá¡¸á¡ªá¢ŀ á¡ªá¡ªá¡ªá¢Ļá¡ªá¢Ľá¡³
Ġá¡¥á¡ªá¢ŀ á¢ļ
Ġá¡¸á¡ªá¡±á¡±á¡Ńá¢ŀ á¢İá¡ªá¢ĩ
Ġá¢Ĭá¡ªá¡¬ á¡¬á¢Ķ
Ġá¢ĭá¡Ńá¡¬ á¡ªá¢Ĭ
á¡¸ á¡ªá¢Ļ
á¢Ł á¢ĺá¡¦
á¡Ńá¡ªá¡ªá¢Ļ á¡ªá¡«
Ġá¢ŀá¡ªá¢Ķ á¡¬á¢ľá¡ªá¡§
Ġá¡¯ á¡ªá¡³á¢ļ
Ġá¢ĺá¡Ńá¢Ļ á¡Ńá¡±á¡³
á¡ªá¢ĳá¢ļ á¡ªá¢Ľá¡³
Ġá¢ĭá¡Ńá¡¬á¢ŀ á¡¬á¢ľá¡ªá¢ĳá¡ªá¡ªá¡¬á¡¨
ĠÐ ¥
Ġá¢Ķá¡¬á¡ªá¡ª á¡ªá¢į
Ġá¡¥á¢ŀá¢Ĭ á¡¬á¡¦
Ġá¡¥á¢ĳ á¡ªá¢Ķá¡Ńá¡§
áłĬ áłĬ
Ġá¡¥á¢İ á¢ļá¡¬á¢ĳ
Ġá¢Įá¡ªá¡ªá¢Ĭ á¡ªá¡ªá¡ªá¡§
Ġá¡¥á¡Ńá¡¬á¢ĭ á¡Ńá¢ĭá¡Ń
Ġá¢Į á¡Ńá¢ŀá¡ªá¢Ĳ
Ġá¢ĺ á¡Ńá¢Ŀ
Ġá¡¥á¡¬á¢ĳá¡±á¡± á¡ªá¢īá¡¨
Ġá¢ı á¡ªá¡«
Ġá¡³á¡ªá¡¬á¡¬á¡±á¡±á¡Ńá¢ĳ á¡Ńá¡ªá¡ªá¢Ļá¡ªá¡ªá¡ªá¢Ķá¡ªá¡§
Ġá¢Ķá¡¬á¢ĭ á¡Ńá¢ĭá¡Ń
Ġá¢Ĭá¡ªá¢ĳ á¡ªá¡³á¡ªá¡¨
á¡ªá¢ļ á¡ªá¡«
Ġá¢ĺ á¡ªá¡ªá¢Ĭá¡±
Ġá¡¸á¡Ńá¢ŀ á¢Ļ
Ġá¡¸á¡Ńá¢ĳ á¡ªá¡±á¡±
á¢Ķ á¡¬á¡³
Ġá¢ĭá¡Ńá¡¬á¢ŀ á¡Ńá¢ĳá¢ļ
Ġá¡¥á¡Ńá¡¬á¢ĭ á¡Ńá¢Ĭá¢Ķá¡ªá¡§
á¢ĺ á¡§
á¢ŀ á¡ªá¢į
Ġá¡¬á¡¬á¢ŀ á¢Ĭ
á¢Ķá¡Ńá¢ľ á¡Ńá¢Ĳ
Ġá¢ľ á¡ªá¢ĳ
Ġá¢ļ á¡Ńá¡ªá¢Ĭá¡ªá¡ªá¡³
Ġá¢ļ á¡ªá¢Ķá¡«
Ġá¡¬ á¡Ńá¢ĳá¡§
Ġá¡¸á¡ªá¡ªá¢Ļ á¡Ńá¢Ľá¡³
á¡Ń á¡ªá¢Ķá¡«
Ġá¡¸ á¡Ńá¢ĩ
á¡´á¡Ńá¢ĳ á¡ªá¡ªá¡³
Ġá¢Ķá¡ªá¡± á¡ªá¡ªá¡ªá¡³
Ġáłµ áłłáł°
Ġá¡¸á¡ªá¢ľ á¡ªá¢Ľá¡³
á¡¬á¢ľ á¡ªá¢Ŀ
á¡ªá¡ªá¢Ļ á¡ªá¢Ĭá¡ªá¡§
áł£ áł¯
á¡ªá¡ªá¡ªá¢Ļ á¡ªá¢ĩ
Ġá¢ĺá¡ªá¢ľ á¡ªá¡±á¡±á¡ªá¢Ŀ
Ġá¢Ķá¡¬á¢ŀ á¡Ńá¢ĭá¡Ńá¡§
Ġá¡¥á¡ªá¡± á¡³
Ġá¢Ĭá¡ªá¡³á¢ļ á¡¬á¢ľá¡ªá¡§
Ġá¢Į á¡¬á¡ªá¡ªá¡ªá¡§
á¡¬á¡ªá¡ª á¡Ńá¡²
Ġá¢ĺá¡ªá¢ŀá¡¬á¢ľ á¡ªá¢ļá¡¬á¡§
Ġá¢Ĺá¡ªá¡³ á¡¬á¡¦
á¢Ł á¢Ĭ
Ġá¡¯á¡ªá¢Ĭá¡ªá¢Ĭ á¡ªá¢ĳá¢Ļá¡§
Ġá¡³á¡ªá¡±á¡± á¡Ńá¡ªá¡ªá¡³
á¡ªá¢Ĭá¢Ļ á¡ªá¢Ļá¡ªá¡¬á¡¨
Ġá¡¥á¢Ĭá¡¬á¢ĳ á¡ªá¡³á¡ªá¡¨
Ġá¢Ķ á¡Ńá¡¬á¡§
Ġá¡¬ á¡ªá¡²
á¡Ńá¡±á¡± á¡ªá¡°á¡¨
á¢Ĭ á¡¬á¢ĵ
Ġá¡¸á¡Ńá¡±á¡±á¡Ńá¢ŀ á¡Ńá¡ªá¢Ļ
á¡ªá¢Ĭ á¡ªá¢Ļá¡³
á¡¥á¡Ńá¡¬á¢ Ļ
á¢Ļ á¡ªá¡°á¡¨
á¡¬á¢ĳ á¡ªá¡ªá¡¬á¡¨
Ġá¡¥ á¡¬á¢Ļá¡§
Ġá¢ĺá¡ªá¢ŀ á¡¬á¢Ĭá¡¬á¡§
Ġá¢ĺá¡ªá¡³ á¡ªá¢Ľá¡³
Ġá¢ĺá¡Ńá¡ªá¡ªá¢Ķ á¡¬á¡§
Ġá¢ļ á¡ªá¢İ
Ġá¢ĭá¡Ńá¡¬á¢Ĭá¡ªá¢Ĭ á¡ªá¢ļ
Ġá¡³á¢ĳ á¡ªá¢įá¡¨
Ġá¡¥á¡ªá¢ľ á¡ªá¢ĵ
Ġá¢Ī á¡ªá¡ªá¢Ĭ
á¢Ľ á¡¬á¢Ĭá¡¬á¡§
á¡¬á¢ŀá¢Ļ á¡ªá¡«
á¡Ńá¢ŀá¢ĳ á¡¬á¢ĩ
Ġá¢ĺá¡ªá¢İ á¢Ľá¡¬á¢ĳ
Ġá¡¥á¢Ļ á¡Ńá¡«
Ġá¢ĺá¡Ńá¡¬ á¡ªá¢Ĭá¢Ĭ
Ġá¢Ķá¡ªá¡± á¡ªá¡ªá¡ªá¢Ļá¡ªá¡°á¡¨
Ġá¡¥á¡Ńá¡¬á¡± á¡Ńá¢Ĭá¡¬á¡¦
Ġá¡¬á¡¬á¢ŀá¡±á¡± á¡Ńá¢Ļá¡Ńá¡±á¡±á¡ªá¢Ŀ
á¡Ń á¡Ńá¡ªá¡ªá¡ª
Ġá¡¥á¡Ńá¡ªá¡ªá¢Ļ á¡ªá¢ŀá¡±á¡±á¡Ńá¡«
á¢Ĭ á¡¬á¢ļ
Ġá¡¬á¢Ł á¡³
á¡ªá¡± á¡ªá¢Ĭá¡¬á¡¦
Ð¸ Ð½
Ġá¢ĺá¡Ńá¢ľ á¡ªá¢īá¡¨
Ġá¢Ķá¡¬á¡¬á¡Ńá¡ªá¡´á¡Ńá¢ŀá¡¬á¢ĳ á¡ªá¢ĭá¡Ń
Ġá¢ĺá¡ªá¡± á¡¬á¢ĳá¢Ļá¡§
á¡ªá¡ª á¡ªá¢ĳá¡ªá¢Ľá¡³
æ ľ
Ġá¡¥á¡Ńá¡¬á¢ĳ á¢Ľá¡ªá¡«
Ġá¢Ķá¡¬á¢Ļ á¡«
Ġá¢Įá¡ªá¢Ļá¡ªá¢ŀ á¡ªá¢İá¢Ľá¡«
á¡Ńá¢ĳ á¢Ĭá¡¬á¡¦
Ġá¢Ķ á¡Ńá¡¬á¢Ĭ
Ġá¢Ķá¡ªá¡±á¡± á¡Ńá¢īá¡¨
á¡ªá¢ŀ á¡ªá¢ĩ
á¡¬á¢ĳ á¡ªá¢ĳá¢Ļá¡§
Ġáł° áłłáł¨
á¡¸ á¡Ńá¢Ķá¡¬á¡±á¡±
Ġá¢ĺá¡Ńá¢Ķ á¡ªá¡±á¡±á¡ªá¢Ŀ
ĠÐ ´
Ġá¢ľá¡ªá¡´ á¡Ń
Ġá¢Ī á¡ªá¡ªá¢Ľ
Ġáł® áł¢áł¨
1 1
á¡Ńá¡¬á¢ įá¡¨
Ġá¡¥á¢ŀ á¡¬á¢ľá¡ªá¡§
á¡ªá¢İ á¡Ńá¡«
Ġá¢ĺá¡Ńá¡¬á¢ĳá¡Ńá¢Ĭá¡ªá¢ĳ á¡ªá¢Ĭá¢ļá¡¬á¡Ńá¡§
á¡¬á¢ľ á¡ªá¢Ļá¡ªá¡§
Ġá¢Īá¡ªá¢ŀ á¡Ńá¢Ĳ
á¢ĺ á¡Ńá¢Ŀ
Ġá¡¥á¡Ńá¡¬á¢ĭá¡Ńá¢ĳ á¡ªá¡´á¡Ńá¢ŀá¡«
Ġá¡¸á¡Ńá¢ŀá¢İ á¡Ńá¡«
Ġá¡¥á¡Ńá¡¬á¢Ľ á¡ªá¢ĭá¡Ńá¢ĳá¡Ńá¢Ĭá¢Ķá¡ªá¡§
Ġá¡´á¡Ńá¢ĳá¢Ļ á¡Ńá¡±á¡±á¡ªá¡«
Ġá¡¥á¡ªá¡±á¡±á¡ªá¢Ľ á¡¬á¢į
á¡Ńá¢ľ á¡³
Ġáł¢ áł·
Ġá¡¥ á¡«á¡¨
Ġá¢ĺá¡Ńá¡¬á¢ĳá¡Ńá¢Ĭá¡ªá¢ĳ á¡ªá¢Ĭá¢ļá¡«
Ġá¡´á¡Ńá¢Ļ á¡«
Ġá¢Įá¡ªá¢Ļ á¡ªá¢Ĳ
Ġáł¦ áł¬
áł¢áł ²
Ġá¢ĺá¡ªá¡±á¡± á¡ªá¡±á¡±á¡Ńá¢ĳá¡Ńá¡§
á¡ªá¢ŀ á¢ĭá¡Ń
á¡Ńá¡ª á¡ªá¢Ľ
á¡ªá¢Ĭá¢ĳ á¡ªá¢Ĳ
á¡¬á¡ªá¡ªá¢Ļ á¡ªá¡ªá¡ªá¡³
Ġá¢ĺá¡ªá¢ĳá¢Ĭ á¡ªá¢Ŀ
Ġá¢ļá¡¬á¡±á¡ªá¡ªá¡ªá¢Ķ á¡¬á¢ĳ
á¡ªá¢İá¢Ľ á¡¬á¢Ļá¡³
Ġá¡´á¡Ńá¡¬á¢ĳá¢ĭ á¡Ńá¢İ
Ġá¡¸á¡Ńá¢ŀ á¡±á¡±
Ġá¡¸á¡ªá¢İá¢Ļ á¡Ńá¢ŀá¡ªá¡§
Ġá¢Įá¡¬á¡± á¡Ńá¡¬á¢ĺá¡¦
Ġá¢ĺá¡ªá¢ĳ á¡ªá¡´á¡Ńá¢Ŀ
Ġá¡¬á¡ªá¡³á¢Ķ á¡¬á¢ľá¡ªá¡§
á¡Ńá¢ĳ á¡ªá¡ªá¡¬á¡¨
Ġá¡¥á¡³á¡ªá¡Ńá¡ªá¢ļ á¡¬á¢Ļá¡ªá¡§
á¡ªá¢ĭá¡Ńá¢ĳ á¡Ńá¢Ĳ
Ġá¡¥á¡ªá¢İ á¡³
Ġá¡¬á¡Ńá¢Ľ á¡ªá¡±á¡±á¡ªá¡§
Ġá¡´á¡Ńá¡¬á¢İá¡´á¡Ńá¢ŀ á¢ļá¡ªá¡¬á¡¨
á¡Ńá¢ĳ á¡Ńá¡§
Ġá¡¯á¡¬á¢Ĭ á¡ªá¡Ńá¡ªá¢Ĭ
Ġá¡¬á¡Ńá¢Ĭ á¡¬á¢Ķ
Ġáł² áłłáł¯
Ġá¢ĺá¡ªá¡³ á¡¬á¡§
á¡ªá¢İ á¡³
á¡¬ á¡Ńá¢ŀ
Ġá¡¥á¡ªá¢ľ á¡ªá¡ªá¢Ļá¡ªá¡±á¡±á¡ªá¡§
Ġá¢ĺá¡Ńá¡ªá¡ªá¢Ļ á¡ªá¡±á¡±á¡ªá¡ªá¡ªá¡³
Ġá¡¸á¡Ń á¡Ńá¡ªá¢Ļá¡Ńá¢ĩ
Ġá¢Įá¡Ńá¡¬á¢Ķ á¡³
á¢ĳ á¡ªá¡«
á¢ĺ á¢ŀ
Ġá¢ĺá¡Ńá¢Ĭ á¡¬á¢ľá¡ªá¢Ĳ
á¡¥ á¡ªá¢Ľá¡¬á¢ĳ
Ġá¢Ķá¡Ńá¡ªá¢Ĭá¡±á¡± á¡Ńá¡±á¡±á¡Ńá¢ĳá¡«
Ġá¢ĺ á¡ªá¢Ķá¡³
Ġá¡¸á¡ªá¢ŀ á¡ªá¢İ
Ġá¢ĺá¡ªá¢ŀá¡ªá¡±á¡± á¡ªá¢Ĭá¡¬á¡¦
á¡¸á¡ªá¢ŀ á¡¬á¡§
Ġá¡¥á¡Ńá¡¬á¢Ķ á¡Ńá¡§
Ġá¢ĺá¡ªá¡± á¡¬á¢Ĳ
Ġá¡¬á¡¬á¢Ľ á¡¬á¢Ĭ
Ġá¡¸á¡ªá¢ŀ á¡ªá¡ªá¡ªá¢Ļ
Ġá¡¥á¡ªá¢ŀ á¡¬á¡±á¡±
Ġáłµ áł¢áł·
ï¼ ī
Ġá¢Ķá¡ªá¢ŀá¢Ĭ á¡ªá¡¬á¡¬á¢ĳá¡ªá¢ĭá¡Ń
á¡Ńá¢ļ á¡¬á¢Ĭ
Ġá¡¥á¡ªá¡±á¡± á¡Ńá¢ŀá¡ªá¡ªá¡ªá¡«
Ġá¡¬á¡ªá¡³á¢Ķ á¡ªá¢Ŀ
Ġá¢ĭá¡Ńá¡¬á¢ŀ á¢Ļá¡ªá¢Ľá¡³
Ġá¡¸á¡ªá¢ŀá¡¬á¢ĳá¢ļ á¡ªá¡±á¡±á¡ªá¡§
áł¢áł¯áł Ń
Ġáł£ áł·
Ġá¡¥á¡Ńá¡¬á¡ªá¢Ĭá¢Ĭá¡ªá¢ŀ á¡ªá¢ĭá¡Ń
Ġá¡¥á¡¬á¡± á¡ªá¢ĩ
Ġá¡¸ á¡ªá¡«
ĠÐ ½
Ġá¡¯á¡ªá¢Ĭ á¡ªá¢Ĭá¡ªá¢Ľá¡³
Ġá¢Ķ á¡¬á¢ľ
Ġá¡¯á¡ªá¡¬á¡¬á¢ŀá¡ªá¡±á¡±á¡Ńá¢ĳ á¡Ńá¡ªá¡ªá¢ļá¡«
Ġá¡¬á¡ªá¢ŀ á¢Ĭá¡ªá¢ĳ
Ġá¢ĺá¡ªá¢İá¢Ļá¡ªá¢Ĭá¢ĳ á¡ªá¢Ľá¡³
á¡ªá¢ĭá¡Ńá¢ĳ á¡Ńá¢Ĭá¡ªá¡Ńá¡§
Ġá¡¥á¡Ńá¡¬á¢ŀ á¡«
Ġáłł áł°
Ġá¡¥á¢Ł á¡Ńá¡¬á¢ŀá¡Ńá¡¶á¡ªá¡¨
á¡ªá¡¬ á¡¬á¡Ńá¡§
Ġá¢Ĭ á¢Łá¢ŀ
á¡¬á¢ĳá¢Ļ á¡ªá¡«
á¡¥ á¡ªá¢ĳá¢Ļá¡ªá¡§
Ġá¢ĺá¡ªá¡±á¡± á¡ªá¢ĳá¢Ļá¡Ńá¡§
á¡Ńá¡ªá¡ª á¡Ńá¡«
Ġá¢ĺá¡ªá¡ªá¢Ĭá¢Ĭ á¡¬á¢į
Ġá¡¸á¡ªá¢ļ á¡ªá¢Ŀ
á¡³ á¡ªá¢Ķá¡§
Ġá¡¥á¡¬ á¡ªá¢Ľ
Ġá¡¥á¢Ķ á¡«
Ġá¢ĺá¡Ńá¡¬á¢Ĭ á¡ªá¢ŀ
á¢ĺ á¡ªá¡±
Ġá¡¥á¡ªá¡³ á¡¬á¡«á¡¨
Ġá¡¥á¢ŀ á¡ªá¡§
Ġá¡¥á¢ĳ á¢Ľ
Ġá¢ļá¡ªá¢Ĭ á¡ªá¢Ľá¡¬á¡§
Ġáł® áł¡áł³
Ġá¢ĺá¡ªá¢ĭá¡Ńá¢ĳ á¢Ļá¡ªá¢Ŀ
Ġá¢Ķ á¡¬á¢ľá¡Ńá¡³
Ð°Ð ´
áłµ áł¢
Ġá¡¬ á¡ªá¡³á¢Ļ
áł¢áł µáł¤
á¡´ á¡Ńá¢īá¡¨
Ġá¡¥á¡ªá¡±á¡± á¡Ńá¢ŀá¢ĳ
Ġá¡¥á¡ªá¢Ķá¡¬á¡ª á¡ªá¢ĳá¡ªá¢Ľá¡³
Ġá¢Ī á¡ªá¢Ľ
á¡ªá¢ĭá¡Ńá¡¬á¡¬á¢ļ á¡Ńá¡Ńá¡§
á¡¥ á¢ĭá¡Ńá¡§
Ġá¡¥á¡Ńá¢İ á¡Ńá¢ĩ
á¡ªá¢ļá¡¬á¡ªá¡ª á¡ªá¡±á¡±á¡ªá¡Ńá¡§
á¡Ńá¡ªá¡ª á¡Ńá¢Ŀ
Ġá¢ĺ á¡¬á¢ľ
á¢ĺ á¡Ńá¡ªá¡ªá¢Ļ
á¢ļ á¡¬á¢Ŀ
Ġá¢Ķ á¡¬á¢Ĳ
Ġáł² áł¤áł°
Ġá¡¥á¡ªá¡ªá¢Ĭ á¡ªá¡ªá¡ªá¢Ļ
Ġá¢Ķ á¡ªá¢Ľ
Ġá¢Ĭá¡¬á¢Ľ á¡¬á¡¬á¡¨
Ġá¢ĺá¡Ńá¢ŀá¡ªá¢Ķ á¡ªá¡ªá¡ªá¢Ĳ
Ġá¡¥á¡ªá¢ľ á¡ªá¢ĳá¡ªá¢Ĳ
Ġá¡¥á¡Ńá¡¬á¢ĭ á¡Ńá¢Ĳ
Ġá¢ĺá¡Ńá¢Ķ á¡Ńá¢Ĳ
Ñĥ Ñĥ
Ġá¡¥á¢ŀá¢Ĭ á¡ªá¢Ļá¡ªá¡§
Ġáł² áłłáł·
Ġá¡¸á¡ªá¡±á¡±á¡Ńá¢ŀ á¡ªá¡«
Ġá¡¬ á¡Ńá¢ļá¡¬á¡§
Ġá¢ľá¡ªá¢Ĭ á¡ªá¡³á¡ªá¢Ŀ
Ġá¢ĭá¡Ńá¡¬á¡ªá¢Ľ á¡ªá¢Ĭá¡ªá¡«
Ġá¡¥á¡Ńá¡¬á¢Ľá¡ªá¢Ķ á¢ĭá¡Ńá¢ĳá¡ªá¡ªá¡¬á¡¨
Ġá¢ĺá¡Ńá¡¬á¢ŀ á¡Ńá¢ĭá¡Ń
Ġá¡¯á¡¬á¢ŀ á¡Ńá¡±á¡±á¡Ńá¡§
Ġá¢Ķá¡Ńá¡¬ á¡¬á¡Ńá¡ªá¢Ĭá¡ªá¢Ĳ
Ġá¡¬á¡¬á¡Ń á¡ªá¢ĭá¡Ńá¢Ĳ
Ġá¡¬á¡¬á¢Ĭá¡ªá¢ĳ á¡ªá¢ĳá¢Ĭá¡ªá¡¨
Ġá¢ĺá¡ªá¢Ļ á¡ªá¡ªá¡ªá¢Ķá¡ªá¡§
Ġá¡¬ á¡ªá¡³
Ġá¢Ĺ á¡«
á¡¬á¢ĭá¡Ńá¢ĳ á¡Ńá¡°á¡¨
á¢ļá¡¬ á¡ªá¢Ĭá¢Ĭá¡¬á¢ĵ
Ġá¡¥á¡Ńá¡¬á¢Ļ á¡ªá¢ĳ
Ġá¡¯ á¡¬á¢ĭá¡Ńá¢Ĳ
Ġá¢Ĭ á¡¬á¡ªá¢Ĭá¡±á¡±á¡ªá¡§
Ġá¢ļá¡¬á¢Ļ á¡ªá¢īá¡¨
Ġá¡¸á¡Ń á¡ªá¡¬á¡¨
Ġá¡´á¡Ńá¢Ļ á¡Ńá¡ªá¡ªá¢Ļ
Ġáł¦áł¨ áł³
Ġá¢ľ á¡ªá¡ªá¡¬á¡¨
Ġá¡¬á¡Ńá¡¬á¢ļ á¡Ńá¢Ĭá¡ªá¢ļá¡¬á¡§
Ġá¢Īá¡ªá¢ŀ á¡Ńá¢Ĳá¡¨
Ġá¡´á¡Ńá¢ŀ á¡±á¡±
Ġá¢ľá¡ªá¡±á¡± á¡Ńá¢İá¡ªá¡§
á¡ªá¡ª á¡ªá¢Ļá¡³
á¢ļ á¡¬á¢ĳá¡ªá¢Ľá¡³
Ġá¢Ķá¡Ńá¢ĳá¡Ńá¡ªá¢Ĭá¡±á¡± á¡Ńá¢ĵ
Ġá¢Ĺá¡Ńá¡±á¡± á¡Ńá¢į
Ġáł¡áł¨ áł¡
ĠÐ Ń
Ġá¡¥á¡ªá¢ŀ á¡±á¡±á¡ªá¢Ĳ
Ġá¡¥á¡Ńá¡¬á¡¬á¢ĳá¡ªá¡±á¡± á¡ªá¢ĳá¢Ļá¡§
á¡ªá¢Ĺ á¡§
Ġá¡³á¡ªá¡±á¡± á¡ªá¢Ļ
áł¦ áł¢
Ġá¡¥á¡Ńá¡¬á¡± á¡ªá¢İ
Ġá¢Į á¡Ńá¡±á¡±á¡ªá¡«
á¡¬á¢ľ á¡ªá¢Ķ
Ð± Ð°
Ġá¡¬á¡ªá¢ŀ á¢ļá¡¬á¢į
Ġá¢Į á¡ªá¡³
ï¼ Ī
Ġá¢ļá¡¬á¢ĳá¡Ńá¢Ĭ á¡ªá¢Ļá¡ªá¡«
áł¬ áłłáł¨
á¡Ńá¡¬á¢ĳ á¢ĭ
á¡¬á¢ĳ á¡ªá¢ĭá¡Ń
Ġá¡¥á¡ª á¡ªá¢Ļá¡§
Ġáł¬ áł¤áłª
Ġá¢ļá¡¬á¢Ĭ á¡¬á¡§
á¡¯ á¡Ńá¡¬á¢ĭ
Ġá¡¥á¡Ńá¢ŀá¡Ńá¡±á¡±á¡Ńá¢ĳ á¡Ńá¡ªá¡ªá¢Ķá¡ªá¡§
ĠÐ± Ð¾Ð»
o n
Ġá¢Ĭá¡ªá¢ŀ á¡ªá¢ĳá¢Ļá¡³
á¡· á¡Ńá¢ŀ
Ġá¡¥á¡Ńá¢ŀ á¡Ńá¡ªá¡ªá¢Ķá¡«
Ġá¢Ĭá¡ªá¢Ļ á¡Ńá¢ŀá¢Ĭá¡ªá¡«
Ġá¢ľá¡ªá¡±á¡±á¡ªá¢Ĭ á¡¬á¡ªá¡ªá¡Ńá¡²
Ġá¡¸á¡ªá¢ŀ á¡ªá¡±á¡±á¡Ńá¢ĳá¢Ľá¡³
Ġá¢ĺá¡ªá¢ĭá¡Ńá¢Ķ á¡Ńá¢Ĭá¢Ķá¡ªá¡§
Ġá¢ĺá¡ªá¡ªá¢Ĭá¢Ķ á¡§
Ġá¢ĺ á¡ªá¢į
Ġá¢Īá¡Ńá¢ĳ á¡Ńá¢İá¢Ļá¡§
Ġá¡¸á¡Ńá¡¬ á¡¬á¢Ķ
á¡Ńá¢Ļ á¡ªá¡ªá¡ªá¢Ķá¡ªá¡§
Ġá¡¥á¡Ńá¢ļ á¡ªá¢ŀ
Ġá¢ĺá¡ªá¡±á¡± á¡ªá¡±á¡±á¡ªá¡Ńá¡§
Ġáłªáł¤áł¯ áł¤áł¨
Ġá¡¥á¡ªá¡´ á¡Ńá¡°á¡¨
Ġá¡¸á¡Ńá¢Ļ á¡Ńá¡ªá¡ªá¢Ļá¡³
Ġá¡¥á¡ªá¢ľ á¡Ńá¢Ľá¡³
á¡Ńá¢ĭá¡Ńá¢ĳ á¢ĭá¡Ń
Ġáłµ áł¢áł¯
Ġá¢ĺá¡ªá¢İá¢Ľá¡¬á¢ĳ á¢Ĭá¡ªá¡¨
Ġá¡³á¡ªá¡¬á¡¬á¡±á¡±á¡Ńá¢ĳ á¡Ńá¢İá¢Ľá¡«
Ġá¡¥á¡Ńá¡¬á¢Ĭá¢ĭ á¡Ńá¡«á¡¨
Ġá¡¯á¡ªá¡¬á¡¬á¢ŀá¡ªá¡±á¡±á¡Ńá¢ĳ á¡Ńá¢Ĳ
Ġá¡¥ á¡ªá¡ªá¡¬á¡¨
Ġá¢ĭá¡Ńá¡¬á¢ŀá¢Ļ á¡ªá¢Ĭá¢Ķá¡ªá¡§
á¡ªá¢ļá¡¬á¢ĳ á¡ªá¢Ĳ
á¡¬á¢Ĭ á¡¬á¡±
Ġá¢ĺá¡Ńá¡ªá¡ªá¢Ļ á¡ªá¡±á¡±á¡ªá¢Ľá¡³
Ġá¡¥á¡¬á¢İ á¡ªá¢īá¡¨
Ġá¡¥á¡Ńá¡¬á¢Ĭá¢ĭ á¡Ńá¢Ĭá¡ªá¡Ńá¡§
Ġá¡¬á¡¬á¡±á¡± á¡ªá¢Ķá¡³
Ġá¡¥á¡¬á¡±á¡¬á¢ľ á¡ªá¢İá¢Ķá¡Ńá¢Ĭ
Ġá¡¯á¡ªá¢İ á¡ªá¢Ľá¡³
Ġá¡¥á¢¨ á¡Ńá¡¬á¡ªá¢Ĭá¡±á¡³
Ġá¡¸á¡ªá¢ŀ á¡ªá¡ªá¡ªá¢Ļá¡ªá¢Ļá¡ªá¢ĩ
Ġá¢Ĺ á¡Ńá¡³
áł¬ áł¤
á¡¯ á¡Ńá¢į
Ġá¢ĺá¡ªá¢Ľá¡¬á¢Ĭ á¡ªá¢Ĳ
Ġá¡¬ á¡ªá¡¬á¡¬á¢Ļ
á¢Ĭ á¡¬á¡«á¡¨
áł¥ áł·
á¡ªá¢ļ á¡Ńá¡Ńá¢Ĳ
Ġá¢ĺá¡Ńá¢Ĭá¡¬á¢ľá¡ªá¢ĳá¢Ļ á¡Ńá¢Ĳ
Ġá¢Īá¡ªá¢ŀ á¡Ńá¡°á¡¨
Ġá¡¥á¡Ńá¡ªá¢Ļ á¡ªá¢Ľá¡³
á¢Ĭ á¡ªá¢Ķá¡ªá¡§
Ġá¡¥á¡Ńá¢Ļ á¡§
Ġá¡³á¡ªá¡±á¡± á¡ªá¢Ķ
á¡Ńá¡¬á¡ªá¢Ĭ á¢Ķ
á¡ªá¢Ĭá¢Ļ á¡ªá¡°á¡¨
á¡¬á¢ŀ á¡ªá¡§
Ġá¡´á¡Ńá¡¬á¢Ļá¡Ńá¢Ĭ á¡ªá¢Ĭá¢Ļá¡ªá¢ĭá¡Ńá¡§
áł¡áł¯áł Ń
áł° áł¢
Ġá¡¬ á¡¬á¢Ķ
Ġá¢ĭá¡Ńá¡¬á¢ Ŀ
Ġá¢ĺá¡ªá¡³ á¡¬á¢ĳá¡ªá¡ªá¡¬á¡¨
Ġá¢ļá¡¬á¢ŀá¢İ á¡ªá¡¬á¡¬á¢ĳ
Ġ á¡ª
á¢Ľ á¡¬á¢Ĳ
Ġá¢ļá¡¬á¢İ á¡ªá¡¬á¡¨
Ġá¢ľá¡ªá¡´ á¡Ńá¡«á¡¨
á¡¯ á¡ªá¢İá¡Ńá¢Ŀ
áł£ áł¯áł
Ġá¡¥á¢ŀá¢Ĭ á¡¬á¢ĳá¢Ļ
Ġá¡¬á¡Ńá¢Ĭá¡¬á¢Ķ á¢Ļá¡ªá¡«
áł ģ
Ġáł° áł¡áł³
Ġá¡¥á¡Ńá¢ŀá¡±á¡± á¡Ńá¡ªá¡ªá¢Ķá¡ªá¡§
á¢Īá¡Ńá¢ŀ á¡³á¡ªá¡¨
Ġá¢ĭá¡Ńá¡¬á¢Ľ á¡Ńá¢ĭá¡Ńá¡³
Ġá¢ĺá¡ªá¡¬á¡¬á¢ĳ á¡Ńá¢İá¢Ľá¡«
Ġá¡¸á¡Ńá¢ĳá¡´ á¡Ńá¡±á¡±
Ġá¢ĺá¡Ńá¢Ļá¡Ńá¢ŀá¡ªá¡ª á¡ªá¡¬á¡¬á¢ĳ
á¡ªá¢ ¦
á¡¥ á¡´
Ġá¢ĺá¡ªá¡±á¡±á¡Ńá¢ĳ á¡ªá¡ªá¡ªá¡³
Ġá¡´á¡Ńá¡¬á¢Ļá¡Ńá¢Ĭ á¡ªá¢Ľá¡³
Ġá¡¥á¡Ńá¢ĳá¡ªá¡±á¡± á¡ªá¡ªá¡³á¡ªá¡±á¡±á¡ªá¢Ļá¡Ńá¢Ŀ
á¢İ á¡ªá¡«
Ġáł® áł¤áł©áłŃ
Ġá¢ĭá¡Ńá¡¬á¢ŀ á¡Ńá¢Ĭ
Ġá¡¬á¡¬á¢ŀ á¡ªá¡§
Ġá¡³á¡¬á¢ļ á¡¬á¢Ļá¡ªá¡¬á¡¨
Ġá¢Ķá¡¬á¡³ á¡ªá¢Ŀ
Ġá¡¸á¡Ńá¢Ł á¡ªá¢Ŀ
á¡¸ á¡Ńá¡¬
Ġá¢ĺá¡Ńá¢İá¢Ļ á¡ªá¢Ĭá¡¬á¡¦
á¢Ķ á¡Ńá¡§
á¡ªá¡ªá¡Ńá¢ĳ á¡ªá¡ªá¡¬á¡¨
Ġá¡¬á¡¬á¢ŀá¡±á¡± á¡Ńá¢īá¡¨
Ġá¢ĺá¡Ńá¢ŀá¢Ķ á¡¬á¢ĳá¢Ļá¡§
Ġá¡³á¡ªá¡¬á¡¬á¢ĳá¢Ļ á¡Ńá¡±á¡±á¡ªá¡§
Ġá¡¥á¡ªá¢ŀá¡³ á¡ªá¡±á¡±á¡ªá¡Ńá¡§
Ġá¡³á¡ªá¢ŀ á¡ªá¢īá¡¨
á¡³ á¡ªá¡«á¡¨
Ġá¡´á¡Ńá¡¬á¢Ļ á¡Ńá¢ļá¡§
á¡ªá¢Ĭá¢ĳ á¡ªá¢Ľá¡³
á¡ªá¡ª á¡ªá¢ļá¡¬á¡§
Ġá¡¥á¡Ńá¡¬á¡± á¡Ńá¢ļá¡¬á¡§
Ġá¢ĺá¡ªá¢ĳá¡³ á¡¬á¡±á¡±á¡ªá¡Ńá¡§
Ġá¢ĭá¡Ńá¡¬á¢Ļá¡ªá¢ĳá¢İ á¡Ńá¢ŀ
á¡Ńá¢ĺ á¡¦
á¢Łá¢Ķ á¢Ķá¡Ńá¢Ŀ
Ġá¢Ķ á¡Ńá¡¬á¢ĭ
Ġá¡¸á¡ªá¢Ļ á¡ªá¢į
Ġá¡¥á¡Ńá¡¬á¡ªá¢Ļ á¡Ńá¢ŀá¢ĳá¡¬á¡¬á¡¨
Ġá¡´ á¡Ń
Ġá¢Ķá¡¬á¡³ á¡ªá¡±
á¡Ńá¢İá¢Ķ á¡¬á¢ĩ
Ġáł´ áł¤
Ġá¢¤ á¡¬á¢ŀá¡¬á¢Ĳ
Ġá¡¬á¡Ńá¡¬á¢ŀ á¡¬á¡«á¡¨
Ġá¢Ķá¡ªá¡±á¡±á¡Ńá¢ŀ á¡¬á¢Ķ
á¢Ĭ á¡ªá¢Ļ
Ġá¢ĺá¡Ńá¡¬á¢ĳá¡Ńá¡³ á¢ĳá¡ªá¢Ĭá¡ªá¡¨
Ġá¡¥á¡Ńá¢İ á¢Ļá¡ªá¡±á¡±á¡ªá¡§
Ġá¡¬á¡ªá¢Ĭá¡¬á¢ŀ á¡±á¡±á¡ªá¡§
Ġá¡¸ á¡ªá¡ªá¢Ĭá¢Ĭá¡¬á¡±
á¡ªá¢Ļ á¡ªá¡ªá¡ªá¢Ķá¡ªá¡§
Ġá¡´á¡Ńá¡¬á¢ŀ á¡¬á¢Ļ
á¡ªá¡ªá¢Ĭá¢Ĭ á¡ªá¢ŀ
á¡¬ á¡ªá¢ļá¡¬á¡§
Ġá¡´á¡Ńá¢ĳ á¡Ńá¢ĳá¢ļ
Ġá¡¥á¡Ńá¢ĳá¡±á¡± á¡Ńá¡ªá¡ªá¡³
á¢ĺ á¡ª
á¡Ńá¢ĳ á¡ªá¡³á¡ªá¢Ĳ
¢ á¡Ńá¡¦
á¡± á¡ªá¡§
á¡Ńá¢ĳ á¡¬á¡¬á¡¨
Ġá¢ĺá¡ªá¢ĭá¡Ń á¡´á¡Ńá¢ŀá¡«
Ġá¢Ķ á¡ªá¡«á¡¨
Ġá¡¥á¡¬á¢ĳ á¡ªá¢ĳá¢Ļá¡§
Ġá¢ĺá¡ªá¢ŀ á¡³
Ġá¡¯á¡¬á¢Ķá¢Ĭ á¡ªá¢Ĳ
Ġá¢Ķá¡ªá¢ŀ á¢ĭá¡Ńá¢ĳá¡ªá¡ªá¡¬á¡¨
Ġá¢ĺá¡Ńá¢ŀ á¡Ńá¡ªá¡ªá¢Ķá¡«
Ġá¡¥á¡ªá¡ªá¡ª á¡Ńá¡¬á¡¬á¢ĳá¡ªá¢Ĳ
Ġá¡¸á¡Ńá¡±á¡±á¡Ńá¢ŀá¡Ńá¡ªá¢Ļ á¡Ńá¢Ĭá¡¬á¡¦
áłłáłŃ áłłáł·
Ġá¡´á¡Ńá¢ĳá¡³ á¡ªá¡³
Ġá¢Ķá¡Ńá¢ŀá¢Ļ á¡ªá¡ªá¡ªá¡Ńá¡§
Ġá¡¥á¡ªá¢Ĭ á¢ĭá¡Ńá¢ŀ
Ġá¡¥á¡Ńá¡¬á¡± á¡ªá¡ªá¢Ļá¡ªá¢Ĭá¡ªá¡§
á¡¬á¡ª á¡ªá¢Ļá¡§
Ġá¡´á¡Ńá¡¬á¢ĳá¢ĭ á¡Ńá¢į
i n
á¡Ńá¢ŀ á¢Ľ
Ð ¶
Ġá¢ļ á¡ªá¡¬á¡¨
Ġá¢ĺá¡Ńá¢Ķ á¡ªá¡ª
á¢ĺ á¡ªá¡´
Ġáł¬ áł¦áłŃ
Ġá¡¸á¡ªá¡±á¡± á¡ªá¡ªá¢Ļá¡³
Ġáłª áł¡áł¨
á¢ļá¡¬á¢ĳ á¡ªá¢Ĳ
Ġá¡¬ á¡Ńá¢Ķ
Ġá¢Ķ á¢Ł
å ¤
Ġá¡¥á¢ĳá¢Ķ á¡ªá¢ĭá¡Ń
Ġá¢ĺá¡Ńá¢ĳ á¡ªá¡±á¡±
Ġá¢Į á¡ªá¡ªá¢Ĭá¡±
Ġá¡³á¡ªá¢ĳ á¡ªá¡§
Ġá¡³á¡ªá¡±á¡± á¡ªá¢Ľá¡«
Ġá¢ĺá¡Ńá¡¬á¢ļ á¡¬á¡§
áłłáł¯áł ³
Ġá¡¥á¡Ńá¡¬á¡¬á¢ŀ á¡ªá¡Ńá¡§
Ġá¡¬ á¡¬á¢ĭá¡Ńá¢Ŀ
Ġá¢ĺá¡ªá¢Ĭ á¡¬á¡«á¡¨
Ġá¢ļá¡¬á¢ĳ á¡ªá¡±á¡±
Ġá¡¥á¢ŀ á¡ªá¢ļá¡Ńá¡Ńá¡§
á¡¸ á¡ªá¢ľ
á¡ª á¡ªá¡´
Ġá¢ĺ á¡ªá¢Ł
ĠÐ Ľ
á¡¬ á¡¬á¢Ĳ
á¡ªá¢ŀ á¡ªá¢Ķá¡«
Ġá¢ĺá¡ªá¢İ á¡³
Ġá¢ĺ á¡ªá¡Ńá¢Ĭ
Ġá¢Ī á¡ªá¢ĳá¢Ļá¡³
Ġá¡¥á¡ªá¡³á¢ļá¡¬á¢ŀ á¡ªá¡ªá¡ªá¢Ķá¡ªá¡§
á¡ªá¢Ĭ á¡ªá¡°á¡¨
Ġá¡¥á¡Ńá¢ŀ á¡Ńá¢Ļá¡ªá¢ĩ
á¡ªá¢ŀá¢Ĭ á¡ªá¡«
Ġá¡´á¡Ńá¢ĳá¡±á¡± á¡ªá¢Ļá¡ªá¢ĩ
á¡ª á¡ªá¢Ķá¡¬á¡§
Ġá¢ı á¡¬á¡³
Ġá¢ľá¡ªá¡±á¡±á¡ªá¢Ĭ á¡¬á¡°á¡¨
Ġá¢ļá¡¬á¢ĳá¡Ńá¢Ĭ á¡ªá¢Ļá¡³
á¢ļ á¡¬á¢ĳá¡ªá¡§
á¢Ļ á¡Ńá¢Ŀ
á¡Ńá¢ĳ á¢Ľá¡³
á¡Ńá¡ª á¡ªá¢ĳá¡ªá¢Ľá¡³
Ġá¡¥á¢İ á¡ªá¢Ĭá¡ªá¢Ĳ
Ġá¡¥á¡Ńá¡ªá¢Ļ á¡ªá¡ªá¡ªá¡³
Ġá¢Ķ á¡ªá¢ĭ
Ġá¢Ķá¡ªá¡±á¡± á¡Ńá¡°á¡¨
Ġá¡³á¡¬á¢Ķ á¡¬á¢ŀá¡ªá¢Ĳ
Ġá¡¸á¡ªá¢ŀ á¡ªá¡ªá¡ªá¡ªá¡§
Ġá¡¥á¡Ńá¡ªá¡ª á¡Ńá¢ŀ
Ġá¡¥á¡Ńá¡¬á¢ĳá¡ªá¢Ļ á¡ªá¢Ĭá¡ªá¢Ĭá¢Ķá¡ªá¡§
á¢ĭ á¡Ńá¡¬á¢
Ġá¢Ķ á¡ªá¢Ľá¡¬á¢Ĭ
Ġá¡´á¡Ńá¢ŀ á¢Ļ
Ġá¢ĺá¡ªá¡¬ á¡¬á¢Ķ
Ġá¢Ĭá¡¬á¢ĳ á¡ªá¢ĳá¢Ľ
Ġá¡¥á¡¬á¢Ľ á¡¬á¢ĳ
á¡ªá¢Ĭ á¡ªá¢ĳá¢Ļá¡§
áł³ áłłáł¯
á¢Īá¡Ńá¢ŀ á¡³á¡ªá¡§
Ġá¢ĭá¡Ńá¡¬á¡³ á¡ªá¢Ĭá¡ªá¡¨
Ġá¢ĺá¡Ńá¡±á¡± á¡ªá¢Ļá¡³
á¢ĺ á¡ªá¢Ķ
á¢ı á¡§
Ġá¢ļ á¡¬á¡§
á¡¬á¢ļ á¡ªá¢ĺá¡¦
ÑįÐ ¶
á¡ªá¡±á¡±á¡Ńá¢ĳ á¡Ńá¡ªá¡ªá¢ļá¡«
Ġá¢ĭá¡Ńá¡¬á¢ŀ á¡ªá¡ªá¡¬á¡¨
Ġá¡¬á¡ªá¢ŀá¢Ĭ á¡ªá¢ļ
Ġá¢Ķá¡ªá¡¬ á¡¬á¢ĳ
á¡´á¡Ńá¢ĳ á¢Ľ
Ġá¡¬ á¡ªá¡¬
á¢Ķ á¡Ńá¡¬á¢ĳ
Ġá¡¥á¡´ á¡Ńá¢Ŀ
Ġáłªáł£ áł¯
Ġá¢Ķá¡¬ á¡Ńá¡ªá¢Ĭ
Ġá¡¥á¢ĳ á¡ªá¢Ķá¡³
Ġá¡¸á¡ªá¡¬á¡¬á¢ŀ á¡ªá¢Ļá¡³
Ġá¢ļá¡ªá¡±á¡± á¡ªá¢Ķá¡³
Ġá¢Ĺ á¡Ńá¢ĩ
Ġáł¦ áł¶
áł¦áł¯áł¬ áł¦
Ġá¢Ĭá¡ªá¢Ļ á¡Ńá¢Ĭá¡ªá¡§
Ġá¡¸á¡ªá¢ĳ á¡ªá¡±á¡±
á¡Ńá¢ §
Ġá¡¥á¡Ńá¡± á¡ªá¢Ľá¡³
Ġá¢Ķá¡¬á¢ŀ á¡±á¡±á¡ªá¢Ĳ
Ġá¡¥ á¡ªá¡ªá¡ªá¢Ļá¡§
Ġá¡¸á¡Ńá¢ĳá¡´ á¡Ńá¡±á¡±á¡ªá¢Ļá¡³
Ġá¢Įá¡Ńá¡¬ á¡ªá¢ļá¡³
Ġá¢ĺá¡Ńá¡¬á¢ŀ á¡Ńá¢ĳá¢Ĭá¡¬á¡¦
Ġá¢Ĭá¡ªá¢ĳá¢Ļ á¡ªá¢ĵ
Ġá¡¥á¢ŀ á¡¬á¡§
á¡ªá¡Ńá¡ªá¢Ĭ á¡ªá¡¬á¡¨
Ġá¡¥á¡Ńá¡¬á¢Ķ á¢ļá¡³
Ġá¡¥á¢ŀá¢ĭ á¡Ńá¢İá¢Ľá¡¬á¢ĳ
Ġá¡¸ á¡ªá¡ªá¢Ĭá¢Ķá¡«
á¡Ńá¢ľ á¡ªá¢īá¡¨
á¡Ńá¡ªá¢Ĭá¡±á¡± á¡Ńá¡«
Ġá¢Ķá¡Ń á¡´á¡Ńá¢ŀ
á¡ª á¡Ńá¡ªá¡ªá¡ªá¡ªá¡ªá¡ªá¡³
Ġá¡¥á¡Ńá¢Ļ á¡Ńá¢Ĭá¡¬á¡¦
á¢Łá¢Ĭ á¡±
á¡¸ á¡ªá¢Ŀá¡¨
Ġá¡¥á¡Ńá¡± á¡ªá¡ªá¡ªá¡³
Ġá¢Ķá¡Ńá¢ŀá¡´á¡Ńá¢ĳá¢Ľá¡¬á¢ĳ á¡ªá¡ªá¡ªá¢ļá¡«
Ġá¢ļá¡ªá¢Ĭ á¡ªá¢Ľá¡¬á¢ĳ
Ġá¢Ķá¡Ńá¡ªá¢Ĭá¡±á¡± á¡Ńá¢Ľá¡³
Ġá¡¬ á¡ªá¢ĳá¡ªá¢Ľá¡³
Ġá¢ľá¡ªá¡´ á¡Ńá¡±á¡±á¡Ńá¢ĳá¢Ľá¡³
Ð³ Ð°
á¡ªá¡ªá¡ªá¢Ļ á¡ªá¡ªá¡ªá¡Ńá¡§
Ġá¢Ĺ á¡ªá¢ĳ
Ġá¡¥á¡Ńá¡¬á¡¬á¢ĳ á¡±á¡±
á¡¬á¢ľá¡ªá¢ĳ á¡ªá¢Ĳ
Ġá¢ļá¡¬á¢Ĭ á¢ĳ
Ġá¡¸á¡ªá¡¬á¡¬á¢ŀ á¡ªá¡ªá¡ªá¡§
Ġá¢Į á¡ªá¢İá¡§
Ġáł¡ áłª
Ġá¢ĺá¡ªá¢Ĭ á¢Ķ
Ġá¢ĭá¡Ńá¡¬á¡ªá¢Ļá¡Ńá¡Ńá¡ªá¢Ĭ á¡ªá¡§
Ġá¢ĺá¡Ńá¡Ńá¢ŀ á¡ªá¢Ļá¡³
Ġá¡´á¡Ńá¡¬ á¡¬á¢Ŀ
á¡´á¡Ńá¢ĳ á¡Ńá¡°á¡¨
Ġá¡´á¡Ńá¡¬á¢Ķ á¡ªá¢ĭá¡Ńá¡¬á¡¬á¢ļá¡Ńá¡Ńá¡§
Ġá¡¥á¡Ńá¡¬á¢ŀ á¡Ńá¢Ķ
Ġá¢ĺá¡ªá¡ªá¢Ĭ á¢Ļá¡ªá¢ĭá¡Ńá¡³
Ġá¡¥á¢Ļ á¡Ńá¢ŀá¢Ľá¡¬á¡§
Ġá¡¥á¡Ńá¡ªá¢ļ á¡ªá¡±á¡±á¡ªá¡¬á¡¬á¢ĳá¡ªá¡§
á¡ªá¢ĳá¢Ļ á¡Ńá¡ªá¡ªá¢Ķá¡ªá¡§
Ġá¡¯á¡¬á¢Ĭ á¡ªá¢ĳá¡§
Ġá¢ĭá¡Ńá¡¬á¢ĳ á¡Ńá¡§
Ġá¡¥á¡ªá¢İ á¡ªá¢Ŀ
Ġá¡¥á¡ªá¢ĳ á¢ļ
Ġá¢Īá¡ªá¡¬á¡¬á¡ªá¡ª á¡ªá¢İá¢Ķá¡¬á¢ĩ
Ġá¡¥á¡Ńá¢ŀ á¡¬á¡Ń
Ġá¢ĺá¡ªá¢İ á¡¬á¢ŀ
á¡¥á¡¬ á¡¬á¢İá¡³
Ġá¢ĺá¡Ńá¡³ á¢Ļá¡Ńá¢ĳ
á¡ªá¢ļá¡¬á¢Ĭ á¡ªá¢Ĭá¡ªá¡Ńá¡§
á¡ªá¡±á¡±á¡Ńá¢ĳ á¢Ľá¡ªá¡«
ĠÐ± Ð°Ð¹
Ġá¡¥á¡Ńá¢Ĭ á¡¬á¢ĳá¡ªá¢Ľá¡³
ĠÐĽ Ð°Ð¼
1 6
Ġá¡¯á¡¬á¢Ĭá¡ªá¢Ļ á¡Ńá¢ĳá¢Ļá¡ªá¡«
Ġá¢ľá¡ªá¡±á¡±á¡ªá¢ŀ á¡ªá¡³
Ġá¡¯ á¡¬á¡ªá¡ªá¢Ļ
Ġá¢ĭá¡Ńá¡¬á¢ļá¡Ńá¢ŀá¢Ĭ á¡ªá¡¬á¡¨
1 8
Ġá¡¬á¡Ńá¡¬ á¡ªá¢Ĭá¡±
Ġá¡¸á¡Ńá¡³ á¡¬á¢Ķá¡ªá¡ª
Ġáł² áł¡áł·
Ġáł¤áł ¬
á¡¥á¡Ńá¢ļ á¡¬á¢Ŀ
á¡¬á¡ªá¢Ĭá¢Ĭ á¡¬á¢į
Ġá¢Ķ á¡¬á¢Ľ
áł¡áł µáł¤
Ġá¡¯á¡Ńá¡¬á¢ĳ á¡Ńá¢Ĭá¡ªá¢ĳ
Ġá¢ľá¡ªá¢ŀá¡¬á¢ĳá¢ļ á¡ªá¡ªá¡ªá¡³
Ġá¡¥á¢ŀá¢Ĭ á¡¬á¢ĳá¡ªá¢Ľá¡³
Ġá¡³á¡ªá¢ľá¡ªá¢ĳ á¡ªá¢ĭá¡Ńá¢ĳá¢ĭá¡Ń
Ġáł®áł¤áł©áłŃ áł¤áł¯
á¢Ĭ á¡ªá¡°á¡¨
Ġá¢ĺá¡Ńá¡±á¡± á¡Ńá¢īá¡¨
Ġá¢Īá¡ªá¡³ á¡¬á¢ľá¡ªá¢Ļá¡³
á¡¬á¡Ńá¡¬ á¡³
Ġá¡¥á¡ªá¡¬ á¡¬á¢ŀá¡ªá¢ĩ
Ġá¡¥á¡Ńá¡ªá¢Ļ á¡Ńá¢ŀ
Ð°Ð¼ Ð±Ð°
Ġáł¬áł¦áł ´
á¡¬á¡¬á¢ŀ á¡±á¡±
á¡ªá¡´á¡Ńá¢ŀ á¡¬á¢ĳá¡ªá¢Ľá¡³
Ġá¢ĺá¡ªá¢Ķá¡Ńá¢ŀ á¡ªá¢ĳá¢Ļá¡§
Ġá¡´á¡Ńá¢ŀ á¡Ńá¢īá¡¨
á¡³ á¡ªá¢ļá¡³
Ġ âĴ
áł¢áłŃ áł¤áł¯áł
Ġá¡¥á¡¬á¢Ļá¡ªá¢Ĭ á¡ªá¢Ľá¡³
áłłáł³ áłłáłŃ
Ġá¢Įá¡Ńá¢ŀ á¡¬á¡Ńá¡§
Ġá¢Ĭá¡ªá¢ŀá¡ªá¢Ĭá¢Ľ á¡¬á¢ĭá¡Ńá¢ĳá¢ĭá¡Ń
á¢ĺá¡ªá¡¬ á¡¬á¢İá¡³
Ġá¡¥á¡Ńá¢ŀ á¡ªá¡ªá¢Ĭá¡±á¡±á¡Ńá¡³á¡¨
á¡¸ á¡Ńá¢Ļ
Ġá¢ĺá¡ªá¢Ļ á¡ªá¡±á¡ªá¢Ŀ
á¡Ńá¡¬á¢ŀ á¡ªá¡§
Ġáłłáł µáł¢áł¯
Ġá¡¥á¡ªá¢Ļ á¡ªá¢Ĳá¡¨
Ġá¢ĭá¡Ńá¡¬á¢Ĭá¢Ľ á¡¬á¢Ľá¡³
Ġá¢ĭá¡Ńá¡¬á¢Ĭ á¡ªá¢Ĭá¡ªá¢Ľá¡³
Ġá¡¥á¢ĭá¡Ńá¢Ķ á¡Ńá¢Ĭá¢Ķá¡ªá¡§
Ġî į
Ġá¡¥á¡Ńá¡ªá¡ªá¢Ķ á¡ªá¡±á¡±á¡ªá¢Ļá¡ªá¡§
Ġá¢ĺá¡Ńá¡¬á¢ŀá¡³ á¡ªá¢ĳá¢Ľá¡¬á¡§
á¡Ńá¡± á¡ªá¢į
á¡Ńá¡³ á¡ªá¢Ŀ
Ġá¢Ķá¡Ńá¡¬á¢Ķ á¡³
Ġá¡¸á¡ªá¡¬á¡¬á¢ŀ á¡ªá¢ĳ
Ġá¡´á¡Ńá¢ĳá¢ļá¡¬á¡ªá¡ª á¡ªá¡°á¡¨
áł Į
Ġá¡¬á¡ªá¢ľ á¡ªá¡±á¡±á¡ªá¡§
Ġá¢ĺá¡Ńá¡ª á¡ªá¢ĳá¡ªá¢Ľá¡³
Ġá¡¥á¡Ńá¢ļ á¡¬á¢ŀá¢Ļá¡ªá¡«
á¡¥á¡¬ á¡ªá¢Ĭá¢Ĭ
å ®
á¢ļ á¡ªá¢īá¡¨
á¢ĺá¡Ńá¡¬á¢İ á¡ªá¡§
Ġáłłáł µ
Ġá¡¥á¡Ńá¡¬á¡¬á¢ĳá¡ªá¢Ļ á¡Ńá¢ĳá¢Ĭá¡ªá¡¨
áł¤áł³ áłłáł¯
Ġá¡³á¡ªá¡±á¡± á¡Ńá¡ªá¡ªá¢Ķá¡ªá¡§
Ġáłłáł ¯áł
áł³ áłłáłŃ
Ġá¡³ á¡ªá¡ªá¢Ļ
Ġá¡¥ á¡ªá¡ªá¢Ļ
Ġá¡¯ á¡¬á¡ªá¡ªá¢Ļá¡§
áłµ áł¢áł¯
Ġá¡¸á¡Ńá¢ŀ á¡Ńá¡«
Ġá¢Īá¡ªá¢ŀ á¡³á¡ªá¡¨
á¡¬á¢ĳ á¢Ľ
Ġá¡¥á¡ªá¢ŀ á¡ªá¡ªá¢Ķá¡¬á¡§
Ġá¡¥á¢İá¡Ńá¢Ķ á¢ļá¡³
á¡± á¡ªá¡ªá¡ªá¡³
a n
á¢ĺ á¡Ńá¡ªá¡ªá¡ªá¡«
Ġá¢ĺá¡ªá¢Ļ á¡ªá¡±á¡Ńá¢ĵ
Ġá¡¸ á¡ªá¡°á¡¨
Ġá¢Ī á¡Ńá¢ļ
Ġá¢ĺá¡Ń á¡´
á¢Ĭá¡¬á¢Ļ á¡ªá¡Ńá¡§
á¢ļ á¡¬á¡±á¡³
Ġ ,
Ġá¡¬á¡¬á¢ĳ á¡Ńá¡±á¡±á¡³
1 5
á¡¥ á¡ªá¡´
Ġá¢ĭá¡Ńá¡¬á¡ªá¢Ļá¡Ńá¡Ńá¡ªá¢Ĭ á¡ªá¢Ĳ
Ġá¡¸á¡ªá¢İ á¡¬á¡±á¡±
Ġá¢Īá¡ªá¡¬á¡¬á¡ªá¡ª á¡ªá¢İá¢Ķ
Ġá¡¥á¡ªá¢ĳá¢Ļ á¡ªá¢ŀá¢Ķ
á¡Ńá¡¬á¢ ĵ
Ġá¢Į á¡¬á¢Ķ
Ġá¢ļá¡¬á¡± á¡ªá¢Ĭá¡ªá¡¨
Ò¯ Ð½
Ġá¡¬á¡Ńá¢Ĭá¡¬á¢ľ á¡ªá¡ªá¡ªá¢Ķá¡ªá¡§
á¢Ķ á¡ªá¡Ńá¡§
Ġá¢ĺá¡Ńá¡ªá¡ª á¡Ńá¡«
Ġá¡¸ á¡ªá¡³á¢Ļ
Ġá¡¥á¡Ńá¡¬ á¡¬á¡Ńá¡ªá¡ªá¡ª
Ġá¡¥á¡Ńá¢ĳ á¡Ńá¡±á¡±á¡ªá¡Ńá¡§
Ġá¢Ĭá¢Łá¢ŀ á¢İá¡ªá¡§
á¡Ńá¢Ļ á¡Ńá¢Ĭá¡ªá¢Ŀ
Ġá¢ĭá¡Ńá¡¬á¢ŀ á¡Ńá¢Ķá¡³
Ġá¢Ĭá¡ªá¢ŀá¡ªá¢Ĭá¢ĳ á¡ªá¢Ļá¡ªá¡¬á¡¨
Ġá¢Įá¡ªá¡ªá¡ªá¢Ļ á¡ªá¡±á¡±á¡ªá¢Ĳ
Ġá¢ŀ á¡Ńá¢İá¡ªá¡§
Ġá¡¥á¡Ńá¢İ á¡Ńá¡ªá¡ªá¢Ķ
e r
Ġá¡¥á¡Ńá¢Ļá¡Ńá¢ŀ á¡¬á¡Ńá¡ªá¡ªá¡ªá¡³
á¢ĺ á¡ªá¡§
Ġá¢ĺá¡ªá¢ĳá¡³ á¡¬á¡§
á¡¬á¢Ĭ á¢Ļ
Ġá¢ļá¡ªá¡ªá¢Ĭá¢Ĭ á¡ªá¢Ĳ
á¡´á¡Ńá¢ĳ á¢Ľá¡³
Ġá¢Ĭá¡¬á¡± á¡ªá¢ĳá¢Ļá¡§
Ġ 5
Ġá¡¸ á¡Ńá¢Ĺ
ĠÐ ·
Ġá¡¬á¡¬á¢ĳá¡Ńá¡±á¡± á¡Ńá¢ļá¡«
Ġáłłáł· áłłáł³
á¡¥á¡Ńá¢ŀ á¡Ńá¢Ķ
Ġá¡¥á¡Ńá¡¬á¢ŀ á¢Ļá¡ªá¢Ĭá¡ªá¡¨
á¡Ń á¡´á¡Ńá¢ŀ
Ġá¢ľá¡ªá¡´ á¡Ńá¡ªá¡ªá¢Ļá¡ªá¢Ľá¡³
Ġáłª áł¤áł³
Ġá¡³á¡ªá¢ŀá¡ªá¡±á¡± á¡Ńá¡ªá¢Ķá¡«
á¡Ńá¡¬á¢İ á¡³
Ġáł¨áł¢áłŃ áł¡
á¡Ńá¢¡ á¢Łá¢Ķá¢Ķá¡Ńá¢Ŀ
Ġá¡¥á¡Ńá¡ªá¢Ĭá¢Ķ á¡¬á¡ªá¡ªá¢Ķá¡ªá¡§
Ġá¡¥ á¡Ńá¡¦
á¡ªá¡±á¡± á¡ªá¢Ļá¡ªá¢ĩ
á¢ļ á¡ªá¢Ĭ
Ġá¡¯á¡ªá¡¬á¡¬á¢Ļ á¡ªá¢ĳá¡ªá¢Ĳ
Ġá¢Įá¡ªá¡± á¡ªá¡§
á¡ªá¢ļá¡¬á¢ĳ á¡ªá¢ĳá¢Ļá¡§
Ġá¢Ķá¡Ńá¢ŀá¡±á¡± á¡Ńá¢ĩ
Ġá¢ĺá¡Ńá¡¬á¢Ķ á¡Ńá¢Ĳ
Ġá¢ĺá¡Ńá¡¬á¢Ķ á¡Ńá¢Ĭ
Ġáł¤áł· áł¤áł¨
á¡ªá¢ĳá¢ļ á¡ªá¡ªá¡ªá¡³
á¡³ á¡ªá¢ĳ
Ġá¡¥á¡Ńá¡¬á¢Ľ á¡§
ĠÐ¥ Ð°Ð¼Ð±Ð°
Ġá¡¸ á¡§
á¢ļ á¡¬á¢įá¡¨
á¡³á¡ªá¡¬ á¡¬á¢Ľá¡³
áł¢áł ©
Ġá¡¸á¡ªá¢İá¡¬á¢ľá¡ªá¢ŀ á¡ªá¡ªá¡³
Ġá¢Ī á¡ª
á¡ªá¢ĭ á¡Ńá¢ĵ
Ġá¢ľá¡ªá¢ŀ á¡¬á¡±á¡±á¡ªá¡Ńá¡§
á¡Ńá¡¬á¢ Ŀ
á¢ĺ á¡ªá¡¬á¡¬á¢ĳ
Ġá¡¥á¡Ńá¡¬á¢Ĭ á¢ļá¡ªá¡«
Ġá¢ĺ á¢Łá¢Ĭá¡±
Ġá¡¥á¢ŀ á¢ļá¡«
Ġ æ
Ġá¡¬á¡¬á¡±á¡± á¡ªá¡ªá¡ªá¢Ķá¡ªá¡§
Ġá¢ĺá¡ªá¡¬á¡¬á¢ĳ á¡Ńá¡°á¡¨
Ġá¡¥á¡Ńá¡ªá¢Ĭá¡±á¡± á¡Ńá¡Ńá¡§
Ġá¢ľ á¡¬á¢Ķá¡³
Ġá¢ĺ á¡¬á¡ªá¢Ĭá¢Ĭá¡¬á¢į
á¢ĺ á¡ªá¢Ļ
Ġá¡¥á¡¬á¢İ á¡ªá¡ªá¡ªá¢Ļá¡§
Ġá¢Į á¡Ńá¢Ķ
á¢Ķá¡ªá¡± á¡ªá¢īá¡¨
Ġá¡¥á¡Ńá¡¬á¡± á¡«
á¡¯ á¡ªá¡±á¡±
á¡ªá¡ªá¢Ľ á¡¬á¡§
Ġá¢Įá¡ªá¡¬ á¡¬á¢İ
á¡Ńá¢ĳ á¡ªá¡ªá¡ªá¢Ķá¡ªá¡§
á¡Ńá¢Ĭ á¡ªá¢ŀ
á¡Ńá¢İ á¢Łá¢ĺá¢Ŀ
á¡ªá¢Ĭá¢Ļ á¡ªá¢Ĭá¡ªá¡§
Ġá¡¥á¡Ńá¢ŀá¢ļá¡¬á¡±á¡±á¡Ńá¢ĳ á¢īá¡¨
Ġá¢ĺá¡Ńá¢ĳ á¡Ńá¡±á¡±
Ġá¢Ĭá¡ªá¢Ķ á¡¬á¢ĭá¡Ńá¡Ńá¡§
á¡ªá¢ĳ á¡ªá¡³á¡ªá¢Ĳ
Ġá¢Į á¡§
Ġá¡¥á¡Ńá¢ľ á¡ªá¢ŀ
Ġá¢Ķá¡¬á¢ĳ á¡Ńá¢Ĭ
á¡Ńá¢ļá¡¬á¡ªá¡ª á¡ªá¡ªá¡ªá¢Ķá¡ªá¡§
Ġá¢Īá¡ªá¢ĳ á¡ªá¡±á¡±á¡³
Ġá¡¥á¡Ńá¢Ļ á¡ªá¡ªá¡ªá¢Ķá¡ªá¡§
Ġá¡¯á¡ªá¡³á¢Ļá¡ªá¢ŀ á¡ªá¢ĭá¡Ńá¢ĳá¢Ĭá¡ªá¡¨
Ġá¡¯á¡ªá¢ŀ á¡¬á¢ĳá¡¬á¢ĩ
á¡ªá¢Ľá¡¬á¢ĳ á¢Ļá¡ªá¡§
Ġá¡¯á¡ªá¡¬á¡¬á¢Ļ á¡ªá¢į
Ġá¡¯á¡Ńá¢İ á¡Ńá¡ªá¡ªá¡ªá¡§
Ġá¡¥á¡Ńá¡Ńá¡±á¡± á¡ªá¢Ĳ
Ġá¡¸á¡Ńá¢ŀ á¡Ńá¢į
Ġá¡¥á¡Ńá¡¬á¢ĭá¡Ńá¢ĳ á¡ªá¢ĭá¡Ń
á¡¬á¢ľ á¡ªá¢Ķá¡³
Ġá¡¥á¢Ľ á¡ªá¢ĳá¡ªá¢Ľá¡³
Ġá¢Į á¡¬á¢ĳ
á¡¥á¡Ńá¡ªá¡ª á¡ªá¡±á¡±á¡ªá¡§
á¡¸ á¡Ń
á¡ªá¢İá¢Ķ á¡³
Ġá¡¸á¡Ńá¡³ á¡¬á¢ĳá¡±á¡±á¡ªá¡§
Ġáł¢áł¶ áł¡áł¨
Ġá¡¸á¡Ńá¢ŀ á¡Ńá¡ªá¡ªá¡ªá¡«
Ġá¢ĺ á¡¬á¡²
á¡ªá¢İ á¡ªá¢Ĭá¢ļá¡§
Ġá¢Ķá¡Ńá¢Ļá¡Ńá¢ĳ á¢Ľá¡³
Ġá¡¥á¡ªá¡ªá¢Ĭá¢Ĭ á¡¬á¢ĳ
Ġá¡´ á¡Ńá¢Ĺ
Ġá¢Īá¡ªá¢Ļ á¡ªá¡±á¡ªá¢Ĭá¡¬á¡¦
á¡Ńá¢ļ á¡¬á¢ĳá¡ªá¢Ľá¡³
Ġá¢Ĭá¡ªá¡³á¢ļ á¡¬á¡«á¡¨
á¡Ńá¡ª á¡ªá¢ļ
á¡¸ á¡ªá¢Ķ
Ġá¡¯á¡¬á¢ļ á¡Ńá¢ĭá¡Ńá¡§
Ġá¢ľá¡ªá¡´ á¡Ńá¡³á¡ªá¢Ĳ
Ġá¢¤á¡ªá¢Ļ á¢Ŀ
Ġá¡¥á¢ŀá¢Ĭá¡¬á¢ĳ á¡ªá¢Ĭá¢Ķá¡ªá¡§
á¡±á¡± á¡ªá¡°á¡¨
Ġá¢ĺá¡ªá¢İá¢Ļá¡ªá¢Ĭá¢ĳ á¡ªá¢Ĭá¢Ķá¡ªá¡§
Ġá¡¸á¡Ńá¢ŀ á¡«
Ġá¢ĺá¡Ńá¡±á¡± á¡Ńá¡±á¡±á¡ªá¡§
Ġá¢Įá¡Ńá¡¬á¢ŀ á¡³
Ġáł´ áłłáłŃ
Ġá¡´á¡Ńá¢ĳá¡±á¡± á¡ªá¡°á¡¨
Ġá¡¬á¡ªá¢ŀ á¡Ńá¢ļ
Ġá¡¥á¡ªá¢ľ á¡Ńá¡ªá¡ªá¡³
Ġá¡¥á¢İá¡Ńá¡± á¡ªá¢Ķá¡«
áł¤áł¯ áłł
á¡¬á¡ªá¡ªá¢Ļ á¡ªá¡§
Ġá¢Ķá¡Ńá¡¬á¡± á¡¬á¡Ńá¡§
á¡Ńá¢ĳá¢Ļ á¡Ńá¢Ľá¡³
Ġá¢ĺá¡ªá¡± á¡Ńá¢ĵ
Ġá¡¥á¡Ńá¢Ļ á¡Ńá¡Ńá¡§
Ġá¡¥á¡ªá¢Ľ á¡¬á¢ŀá¢īá¡¨
Ġá¢¤ á¡ªá¢ŀ
Ġá¡¬á¡ªá¢ĳ á¡ªá¡ª
á¡¬á¢ĺ á¡¦
Ġá¡´á¡Ńá¢ĳ á¡Ńá¢Ŀ
Ġá¡¥á¡Ńá¡¬á¡ªá¢Ļ á¡ªá¢Ĭá¡ªá¡¨
Ġá¡¸á¡Ńá¢Ļá¡ªá¢ĳá¢Ļ á¡Ńá¢Ľá¡³
Ġá¡¬ á¡¬á¢Ŀ
áł³ áł¤
á¡Ńá¡³á¢ļ á¡¬á¢Ļá¡ªá¡«
Ġá¡¥á¡Ńá¢ŀ á¡Ńá¡³á¡ªá¡¨
1 3
Ġá¢ľ á¡ªá¢Ļá¡ªá¡§
Ġá¡¸á¡Ńá¢ĳ á¡Ńá¡±á¡±á¡ªá¡°á¡¨
Ġá¡¸á¡ªá¡±á¡± á¡ªá¢ĳ
Ġá¡¥á¡Ńá¢ŀ á¡Ńá¡°á¡¨
Ġá¢Īá¡ªá¢ŀ á¢Ļ
Ġá¢Ĭá¡¬á¢Ľá¡ªá¡±á¡± á¡ªá¢ŀá¢ĳ
Ġá¡¬á¡ªá¢ŀ á¡Ńá¡Ńá¡§
Ġáł¬ áł¡áł¯
Ġá¡¥á¡Ńá¢ľ á¡Ń
Ġáł ī
á¡ªá¢ĭá¡Ń á¡Ńá¡§
Ġá¡¸ á¡Ńá¡§
Ġáł´ áł¢áł³
Ġá¡¥á¡Ńá¡¬á¢ĭá¡Ńá¢ĳ á¡ªá¢ĳá¢Ĭá¡ªá¡¨
Ġá¡¸á¡Ńá¡ªá¢Ļ á¡ªá¢īá¡¨
Ġá¡¥á¡Ńá¡¬ á¡¬á¢ļ
Ġá¡´á¡Ńá¢ĳ á¡Ńá¢Ķá¡«
Ġá¢ĺá¡ªá¢ŀá¡ªá¡±á¡± á¡ªá¢ĳá¡ªá¡§
Ġá¡´ á¡Ńá¢ĩá¡¨
Ġá¡¥á¡¬á¡± á¡¬á¢ľá¡ªá¢Ľá¡³
Ġá¡¥á¡ªá¢ĳ á¡ªá¡±á¡±á¡ªá¡§
á¡Ńá¢ĳá¢ļ á¡ªá¢Ľá¡³
Ġá¡¬ á¡Ńá¡¬á¢Ķ
Ġá¢ĺá¡Ńá¢ĳ á¢īá¡¨
Ġá¡¸á¡Ńá¡³ á¡¬á¡§
á¡¯á¡ªá¡¬ á¡¬á¢Ĭ
ä »
Ġá¢Į á¡³
Ġá¢ľá¡ªá¡´ á¡Ńá¡±á¡±á¡Ńá¢ĳá¡ªá¡ªá¡³
Ġá¡´á¡Ńá¢Ļ á¡Ńá¢ĩ
á¡¸ á¡Ńá¢Ļá¡§
á¡ªá¢ĳá¢Ľ á¡ªá¢Ĳ
Ġá¢ĺá¡ªá¡±á¡±á¡Ńá¢Ļ á¡ªá¢Ľá¡³
Ġá¡´á¡Ńá¡¬á¢ŀá¡¬á¢ĳá¢Ļ á¡Ńá¢ĭá¡Ńá¡§
Ġá¢ļá¡ªá¡³ á¡ªá¢ŀá¢ĳ
Ġá¢Ĺ á¡ªá¡ªá¡¬á¡¨
Ġá¢ĺá¡Ńá¢ĳ á¡Ńá¢Ļá¡Ńá¡±á¡±á¡ªá¢Ŀ
á¢Ķá¡¬á¢ĳ á¡Ńá¡¬á¡¨
Ġá¢Ķá¡ªá¡± á¡ªá¡ªá¡ªá¢Ļá¡ªá¢Ľá¡³
Ġá¡³á¡ªá¢ŀ á¡¬á¡³
Ġá¢Ķá¡¬á¡¬á¡Ń á¡ªá¡´á¡Ńá¢ŀá¡«
Ġá¢ļ á¡ªá¡¬
Ġá¡¸á¡ªá¢Ļá¡ªá¡±á¡± á¡ªá¢ĳá¡ªá¢Ľá¡³
Ġá¡¥á¡ªá¢Ķá¡ªá¡±á¡± á¡Ńá¢Ľá¡³
Ġá¢ĺá¡ªá¢İ á¡ªá¢Ĭá¡ªá¡§
Ġá¢Ķá¡¬á¡±á¡± á¡Ńá¡«
á¡Ńá¡¬á¢ Łá¢Łá¡¦
Ġá¡¥á¡Ńá¢ŀ á¢İ
á¡¬á¢İ á¢Ļ
Ġá¢ĺá¡ªá¢Ĭá¡ªá¢Ĭá¢Ķá¡¬á¢ĳ á¡ªá¢ĭá¡Ńá¢ĳá¢ĭá¡Ń
Ġá¡¥á¡ªá¢ĳá¢Ļ á¡ªá¡«
Ġá¢Ĭá¡¬á¢ļá¡¬á¢ľá¡ªá¢ĳ á¢ĳá¡ªá¢Ĭá¡ªá¡¨
Ġá¢ĺá¡Ńá¢Ķ á¡ªá¢ĳá¡ªá¡ªá¡ªá¡³
Ġá¡¬á¡¬á¡³ á¡ªá¡ª
áł¤áł®áł³ áłłáł³áł¤
á¡¥ á¡ªá¡±á¡±á¡Ńá¢ĳ
á¢ļ á¡ªá¡±á¡±
Ġá¢Ĺ á¡ªá¡ªá¡ªá¡ªá¡«
Ġá¢Įá¡ªá¡±á¡ªá¡¬ á¡¬á¢Ĭá¡¬á¡§
Ġá¡¸á¡ªá¢İá¡ªá¡±á¡± á¡ªá¢ĳá¡ªá¢ĳá¢Ļá¡§
á¢Łá¢ŀ á¢Ĭá¡¬á¡¦
Ġá¡¥á¡ªá¢Ļ á¡ªá¢Ĳ
Ġá¡¥á¡Ńá¡¬á¡¬á¢ĳ á¡ªá¡±á¡±á¡ªá¡ªá¡ªá¢Ķá¡ªá¡§
Ġáłłáł ¶
Ġá¡¥á¡ªá¢ĳ á¡±á¡±
Ġá¢ĺá¡Ńá¢Ķ á¡Ńá¢į
Ġá¢Īá¡ªá¡¬á¡¬á¡ªá¡ª á¡ªá¢ĳá¢Ļá¡ªá¡«
á¢ļá¡¬á¡ªá¡ª á¡ªá¡ªá¡ªá¢Ķá¡ªá¡§
Ġá¢ļá¡ªá¡±á¡± á¡ªá¢Ķá¡Ńá¡§
á¡´ á¡Ńá¡¬á¢Ķ
áł´ áł¤
á¡ªá¡¬ á¡¬á¢Ļá¡³
á¡ªá¡ª á¡ªá¢Ľ
Ġá¡´á¡Ńá¢ĳ á¡Ńá¢īá¡¨
Ġ +
Ġáłª áł¤áł·
á¡ªá¢Ľ á¡¬á¢ĳá¡ªá¢Ľá¡³
Ġá¡¯á¡ªá¡±á¡± á¡ªá¢Ļá¡³
áł³ áł¡áłŃ
Ġá¢Ķá¡Ńá¡¬á¢ŀ á¢Ļ
á¡ªá¡±á¡±á¡Ńá¢ĳ á¡³á¡ªá¢Ĳ
ãĢ Ĥ
Ġá¢ĭá¡Ńá¡¬á¡³ á¡ªá¢Ĭá¡ªá¡§
ÑįÐ¶ Ñį
Ġá¢ı á¡Ńá¢īá¡¨
á¡¥ á¡¬á¡±
Ġá¢ĺá¡Ńá¢ŀá¡ªá¢Ļ á¡Ńá¡ªá¡ªá¢Ķá¡ªá¡§
á¡Ńá¢İ á¡³
Ġá¡¥á¡± á¡ªá¡Ńá¡ªá¢Ĭá¡ªá¡¬á¡¨
Ġá¡¬á¡Ńá¢ŀ á¡´á¡Ńá¢ĵ
á¡¥ á¢ļ
á¡Ńá¡³ á¢ļá¡«
Ġá¢ĭá¡Ńá¡¬á¢Ķ á¡ªá¢Ĭá¢Ķá¡ªá¡§
á¡¸á¡Ńá¡³ á¡¬á¡¦
Ġá¡¯ á¡Ńá¡ªá¡ª
Ġá¡¥á¡ªá¢Ķ á¡¬á¡ªá¡ªá¢Ļá¡ªá¡«
Ġá¢Ĭ á¡ªá¡«á¡¨
Ġá¢Ĺ á¡Ńá¡¬á¢ĳ
Ġá¢Ķá¡Ńá¡ªá¢Ĭá¡±á¡± á¡Ńá¢ĳá¢Ļá¡§
Ġá¡¥á¡Ńá¡± á¡Ńá¢Ľá¡³
Ġá¢Īá¡ªá¢Ķ á¡¬á¡±á¡±á¡Ńá¡§
Ġá¢Į á¡ªá¢Ķ
Ġá¢Ķ á¡ªá¡±á¡±á¡ªá¡Ńá¡§
á¡¬á¡±á¡±á¡Ńá¢ĳ á¡Ńá¡°á¡¨
Ġá¡¥á¡¬á¢Ļ á¡ªá¢Ĭá¢Ķá¡ªá¡§
á¡ªá¢ļá¡¬á¡ªá¡ª á¡ªá¢Ĳá¡¨
Ġá¢ĺá¡Ńá¡¬á¢Ķ á¡¬á¡¬á¡¨
Ġá¡¬á¡¬á¢ľ á¡Ńá¡¬á¡§
Ġá¢ĭá¡Ńá¡¬ á¡¬á¡¨
Ġá¡³á¡ªá¢ľá¡ªá¢Ķ á¡Ńá¢Ĳ
Ġá¢Ĭ á¡ªá¢Ĭá¡ªá¢Ŀ
á¡Ńá¢İ á¡Ńá¡«
Ġá¢ĺá¡Ńá¢ŀ á¡Ńá¡«
Ġá¡³á¡ªá¢ľ á¡ªá¡ªá¡ªá¡ª
Ġá¡¥á¡Ńá¡¬á¢ĳ á¡Ńá¢Ķ
Ġá¢ĺá¡ªá¡±á¡±á¡ªá¢ŀ á¡ªá¡ªá¡ªá¡³
Ġá¡¯á¡ªá¡¬á¢İ á¡ªá¢Ļá¡Ńá¡±á¡±á¡ªá¢Ŀ
ÑĤ Ð¸Ð³
á¡ªá¢Ĭá¢ĳ á¡¬á¢ľá¡Ńá¡³
Ġá¡¥á¡¬á¢Ļ á¡ªá¢Ĭá¡ªá¡¨
Ġ) "
Ġá¢Ķá¡Ńá¢ŀá¡Ńá¢ĳá¢ļ á¡ªá¢ĳá¢īá¡¨
Ġá¡¸á¡ªá¢İ á¢Ľá¡¬á¢ĳ
á¡¯ á¡ª
Ġ 4
Ġá¡¥á¡Ńá¡ªá¡ª á¡Ńá¢Ŀ
Ġá¡¥á¡ªá¢ŀ á¡ªá¢Ĳ
Ġá¢ĺá¡Ńá¡ªá¡ªá¡ªá¡¬á¡¬á¢ĳ á¡ªá¡³á¡ªá¢Ĳ
áł¢áł¯áł ³
Ġá¡¥á¡´ á¡Ńá¢Ĭá¡ªá¡Ńá¡§
á¡¬á¢İ á¡ªá¡Ńá¡§
á¡¬á¢ľ á¡ªá¢ĳá¡ªá¢Ľá¡³
Ġá¢ĺá¡Ńá¡±á¡± á¡Ńá¢Ķ
Ġá¡³ á¡ªá¡Ń
Ġá¢Ļ á¡Ńá¢¤
Ġá¢Ķá¡ªá¡¬ á¡¬á¢Ķ
Ġá¡¥á¡Ńá¡¬á¢ŀá¢ĭá¡Ńá¢ĳá¢Ľá¡¬á¢ĳ á¡ªá¢Ĳ
á¡ªá¢Ĭ á¡ªá¡¬á¡¬á¢ŀ
Ġá¢Ĺ á¡Ńá¢ŀ
Ġá¡¥á¢ĭ á¡Ńá¡Ń
Ġá¢ĺá¡ªá¢ŀ á¡Ńá¡±á¡±á¡ªá¢Ķá¡³
e n
á¡ªá¡± á¡ªá¡§
Ġá¡¥á¡Ńá¢ĳ á¢Ļá¡ªá¢ĩ
Ġá¢ı á¢¨
á¡Ńá¡¬ á¡«
Ġá¡¬á¡ªá¢ĳ á¡³á¡ªá¢ŀ
Ġá¢Įá¡Ńá¡¬á¢ŀ á¡Ńá¡¬á¡¬á¢ļ
Ġá¡¥á¡Ńá¡¬á¢Ĭ á¡³á¡ªá¡¨
Ġá¡¥á¡¬á¢Ļ á¡ªá¢Ļá¡ªá¡¬á¡¨
Ġá¡¸á¡Ńá¢ŀ á¡ªá¢ĳá¢Ļ
Ġá¢ļá¡¬á¢Ļ á¡ªá¡´á¡Ńá¢ŀ
Ġá¡´á¡Ńá¢Ļ á¡§
Ġá¡¥á¡³ á¡ªá¢Ŀ
á¡·á¡Ńá¢ŀ á¢ĺá¡¦
Ġá¡¥á¡Ńá¡ªá¢Ĭá¢Ķ á¡¬á¡ªá¡ªá¢ļá¡«
Ġá¡¬á¡¬á¢Ľá¡¬á¢Ĭ á¢Ĭá¡ªá¡§
Ġá¡³á¡ªá¡¬á¡¬á¡±á¡± á¡ªá¢ŀá¡ªá¡«
Ġá¢Ī á¡ªá¡«
Ġá¢Įá¡ªá¡ªá¢Ĭ á¢ĩá¡¨
Ġá¢Ĭá¡¬á¢Ļ á¡Ńá¢īá¡¨
á¡¬á¢ľ á¡ªá¢Ļ
Ġá¡¥á¡ªá¡±á¡± á¡Ńá¡«
ãĢ ķ
Ġá¡¯á¡ªá¢İ á¢Ļá¡ªá¢Ŀ
Ġáł¢ áł¯
Ġá¡¥á¡¬á¢Ļá¡ªá¢Ĭ á¡ªá¢ĭá¡Ń
Ġá¡¥á¡Ńá¡¬á¢Ľ á¡ªá¡§
á¡ªá¢ĭá¡Ńá¢ĳ á¢Ľá¡ªá¡«
Ġá¢Ķá¡ªá¡±á¡± á¡Ńá¢ļá¡§
ÑĤÐ¸Ð³ ÑįÐ»
Ġá¡¯á¡ªá¢ŀá¡ªá¡¬á¡¬á¢Ļ á¡Ńá¢Ĳ
Ġá¡¥á¡ªá¡±á¡±á¡Ńá¢ĳá¢Ľ á¡ªá¡ªá¡ªá¡³
Ġá¡¥á¢¨ á¢Łá¡¦
Ġá¢Įá¡ªá¡ªá¢Ĭ á¢ĳá¡ªá¡«
Ġá¢ľá¡ªá¡´ á¡Ńá¡ªá¡ªá¢Ķá¡ªá¡±á¡±á¡ªá¢Ŀ
Ġá¡¸á¡Ńá¢ŀ á¡ªá¢īá¡¨
á¡ªá¡ª á¡ªá¢ļ
á¡¥á¡Ńá¡¬á¢ Ŀá¡¨
á¢Ķ á¡§
Ñħ Ñį
á¡ªá¡±á¡±á¡Ńá¢ĳ á¡Ńá¢Ĳ
Ġá¢Įá¡ªá¢ŀá¢Ĭ á¡ªá¢Ľá¡¬á¢ĳá¢Ļá¡ªá¡§
Ġá¢ĺá¡Ńá¡¬á¢Ķ á¡¬á¢İá¡ªá¢Ĳ
Ġá¡¥á¡Ńá¡ªá¢Ĭá¢Ķ á¡¬á¡ªá¡ªá¢ļá¡¬á¡Ńá¡§
á¡Ńá¢ŀ á¢Ļá¡ªá¡§
Ġá¢ĺá¡ªá¡±á¡± á¡ªá¢ĳ
Ġá¢Ķá¡Ńá¢ľ á¡Ńá¢ŀ
Ġá¢Ī á¡ªá¢İá¢Ķá¡¬á¢ĩ
á¡¥á¡Ńá¡¬ á¡ªá¢Ļá¡Ńá¢Ŀ
Ġá¡¥á¡ªá¢İá¡¬á¢Ļá¡Ńá¢ŀ á¡ªá¢Ļá¡ªá¢ĩ
Ð µ
Ġá¢Įá¡ªá¢Ļ á¡ªá¢ĭá¡Ńá¢ĳá¢ĭá¡Ń
Ġáł¡áł· áł¬
áł¤áł ²
áłłáł¯áł ³áłł
á¡¥ á¡ªá¡±á¡±á¡Ńá¢ĳá¡§
Ġá¡¥á¡Ńá¢ĳ á¢Ļá¡ªá¡ªá¡ªá¡³
á¡¸ á¡Ńá¡±á¡±
áłłáłŃ áłłáł³
Ġá¡¥á¡Ńá¡¬á¢Ľ á¡ªá¡°á¡¨
á¡ªá¢ ¡
Ġá¡¬á¡¬á¡±á¡± á¡Ńá¢ĳá¢ļ
Ġá¢ļ á¡Ńá¡¬á¢ĳ
á¢Ķ á¡Ńá¢Ļ
Ġá¢ĺá¡Ńá¡±á¡± á¡ªá¢ĳá¡ªá¢Ĳ
Ġá¡¥á¡Ńá¡¬á¡± á¡¬á¢Ŀ
Ġá¢Ĭá¡ªá¢ŀ á¡ªá¢ļá¡«
áł¦áł¯ áł¦áłŃ
Ġá¡¥á¡Ńá¡¬á¢ŀ á¡Ńá¢Ĭá¡ªá¢Ĳ
Ġá¡¯á¡Ńá¡¬á¢ĭ á¡Ńá¡´á¡Ńá¢ŀá¡«
Ġá¡´á¡Ńá¢Ļ á¡Ńá¡°á¡¨
Ġá¢ĭá¡Ńá¡¬á¢ŀ á¢Ļá¡ªá¡¬á¡¨
Ġ C
Ġá¡¥á¡ªá¢ĳ á¡ªá¢Ľá¡³
Ġá¢Ķ á¡¬á¢ľá¡ªá¡ªá¡¬á¡¨
Ġá¡¬ á¡ªá¢Ŀ
Ġá¡¥á¡ªá¡³ á¢ļ
Ġá¢ļá¡¬á¢Ĭ á¡¬á¢ŀá¡ªá¢ĩ
ĠÐ ¾
á¡ªá¡±á¡±á¡Ńá¢ĳ á¡¬á¢ĩ
Ġá¢Ķá¡Ńá¢ŀá¢Ļ á¡ªá¢ĳá¢ļ
Ġá¢ ¦
á¡´ á¡Ńá¡«
Ġá¡´á¡Ńá¡¬á¢Ļá¡Ńá¢Ĭ á¡ªá¢ĳá¢ļá¡«
Ġá¢Īá¡Ńá¢İ á¡Ńá¢Ļ
Ġá¡¯á¡Ńá¢ŀ á¢įá¡¨
Ġá¡¥á¡Ńá¡± á¡Ńá¡³á¢ļá¡¬á¢Ļá¡ªá¡«
Ġá¡¥á¡ªá¡ªá¢Ĭá¡ªá¡ªá¡ªá¢ŀ á¡ªá¡ªá¡³
á¡Ńá¢ŀ á¡±
á¡ªá¢ĭá¡Ńá¢ĳ á¡Ńá¢ĳá¢Ļá¡§
Ġá¢Ķá¡ªá¢Ĭ á¡¬á¡±á¡±
Ġá¡´á¡Ńá¢ĳ á¡Ńá¡ªá¡ªá¢Ķá¡ªá¡Ńá¡§
Ġá¢Įá¡ªá¢ŀá¢Ļ á¡ªá¢Ľá¡³
Ġá¢ĭá¡Ńá¡¬á¢Ĭá¡ªá¢Ĭá¡ªá¢ļ á¡ªá¢ĳá¢Ļ
Ġá¢ĺá¡ªá¢Ĭá¡ªá¢ŀ á¡ªá¢į
Ġá¡¯á¡ªá¢ŀ á¡ªá¢ĵ
Ġáłª áł¦áł·
ĠÐŃ ÑĤÐ¸Ð³ÑįÐ»
á¡ªá¡ªá¢Ĭ á¡ªá¡ªá¡ªá¡§
Ġá¡¬á¡Ńá¢ŀ á¡¬á¢ĳá¢Ļá¡§
Ġá¢ĭá¡Ńá¡¬á¢ĳá¡¬á¢ľ á¡ªá¢ĭá¡Ń
á¡¬á¢ŀ á¡ªá¡ªá¡ªá¢Ķá¡ªá¡§
Ġá¡¬á¡Ńá¡¬ á¡ªá¢Ĭá¢Ļá¡ªá¢Ĭá¡ªá¡§
Ġá¡¥ á¡ªá¢ĵ
Ġá¢ĺá¡Ńá¡¬á¢ŀ á¡Ńá¢Ĭá¡ªá¡¨
Ġáł³ áł¡áłŃ
Ġáłłáł® áł¢áł³
áł¢áł ©áłŃ
á¡Ńá¡ªá¢Ĭ á¡ªá¡ªá¡Ńá¢Ŀ
á¡¥á¡Ńá¡¬á¡± á¡Ńá¢Ļá¡Ńá¢Ŀ
Ġá¡¥á¡ªá¢İá¡¬á¢Ķá¡ªá¡ª á¡Ńá¢īá¡¨
Ġá¡¯á¡ªá¢İ á¡ªá¢ŀá¡«
Ġá¢ĭá¡Ńá¡¬á¡ªá¢Ļ á¡ªá¢ĳá¡ªá¡§
Ġá¡¥á¡ªá¢Ķá¡¬á¡ª á¡ªá¢ĳá¡ªá¡§
Ġá¢ĺá¡Ńá¡¬á¢ĳ á¡Ńá¡²
á¡Ńá¡±á¡± á¡ªá¢Ľá¡³
Ġá¡¸á¡ªá¢ŀ á¡¬á¢ľ
Ġá¡¥ á¡ªá¡ªá¡ªá¢Ķá¡ªá¡§
Ġá¢Ī á¡Ńá¡¬
á¡ªá¢Ľ á¡ªá¡±á¡±á¡ªá¡«
Ġá¡¬á¡Ńá¡ªá¡ªá¢Ķ á¡Ńá¡ªá¡ªá¢Ķá¡ªá¡§
á¡Ńá¢ĭ á¡Ńá¢ĳá¡§
á¡´ á¡Ńá¡Ńá¡§
Ġá¢Ĭ á¡¬á¡³á¡ªá¡¨
á¡¥á¡ªá¢Ķ á¡ªá¡±á¡±
á¡ªá¡ªá¢Ļ á¡ªá¢Ĳá¡¨
Ġá¡¥á¡Ńá¡¬á¢Ľ á¡ªá¡«á¡¨
Ġá¢ĺá¡ªá¢ĳá¡³ á¡¬á¢Ļá¡ªá¢ĩ
áł£ áł°
á¢ĭá¡Ńá¡¬á¢Ĭ á¡ªá¡¨
Ġá¢ĺá¡Ńá¢ŀ á¡±á¡±
á¡ªá¢ŀ á¡¬á¢ĩ
Ġá¡¬á¡Ńá¡¬á¢ŀá¡¬á¢ļ á¡ªá¢Ĳ
Ġá¢ĭá¡Ńá¡¬á¡± á¡ªá¢Ķá¡³
Ġá¢ ¢á¡Ńá¡¦
Ġá¡¬ á¡Ńá¢ļá¡¬á¡Ńá¡§
Ġá¡³á¡ªá¢ŀ á¡¬á¡±á¡±á¡ªá¡Ńá¡§
Ġá¢ĭá¡Ńá¡¬á¢Ĭ á¢Ķ
Ġá¢Ķá¡¬á¡ªá¢Ľ á¡¬á¢ľá¡ªá¡ªá¡¬á¡¨
á¢Ĭ á¡ªá¢ĳá¡§
Ġá¢Ķá¡ªá¢Ļ á¡Ńá¡³
á¡´á¡Ńá¢Ķ á¡Ńá¡Ńá¡§
æ ĸ
Ġá¡¬á¡Ńá¢Ĭ á¡¬á¢ľá¡ªá¢Ľá¡³
Ġá¡¥á¡Ńá¡´ á¡Ńá¡ªá¡ªá¢Ļá¡ªá¡§
Ġá¢ļá¡ªá¡±á¡± á¡ªá¢Ķá¡«
á¢ļ á¡ªá¢ļá¡ªá¡¬á¡¨
á¡¥á¡ªá¢ŀ á¢īá¡¨
Ġá¢Ĭ á¡ªá¢Ľá¡«
ĠáłŃ áł¡áłµáł¦
á¡ªá¢Ĭá¢ļ á¡¬á¢ĳá¡ªá¡§
Ġá¡¸á¡ªá¢ŀ á¡¬á¡±á¡±á¡Ńá¢ĳá¡ªá¡ªá¡³
Ġá¢ĺá¡ªá¡³ á¡ªá¡±á¡±á¡ªá¡§
Ġá¡¥á¢ŀá¢ĭ á¡Ńá¢ĭá¡Ń
Ġá¡³á¡ªá¢Ļá¡Ńá¢ĳ á¡ªá¡ªá¡ªá¡³
Ġá¢ĺá¡ªá¡¬á¡¬á¢ĳ á¡Ńá¢Ĭá¢Ķá¡ªá¡§
Ġá¡¯ á¡Ńá¡¬á¢Ĭá¡ªá¡¨
Ġá¡¯á¡¬á¢Ķ á¢ĭá¡Ń
Ġá¢ĺá¡Ńá¡¬á¢ŀá¡Ńá¢Ĭ á¢Ļá¡ªá¢Ĳ
Ġá¢¤á¡¬á¢ĳ á¡Ńá¢İá¢Łá¢ĺá¢Ŀ
Ġá¡¥á¡ªá¢Ķá¡¬á¡ª á¡ªá¢ĳá¡ªá¡ªá¡ªá¡³
Ġá¡¥ á¡¬á¢Ŀá¡¨
á¢Ī á¡ªá¢Ŀ
á¡Ńá¢Ľ á¡¬á¢Ĳ
á¢Ĺ á¡ªá¡§
á¢ĭá¡Ńá¡¬á¢Ļ á¡ªá¢ĳ
á¡Ńá¡¬á¡ªá¢Ĭá¢Ķ á¡¬á¡±á¡±á¡Ńá¢Ŀ
Ġá¡¥á¡Ńá¡¬á¡ªá¢Ļá¡Ńá¢Ķ á¡Ńá¢ĳá¡ªá¡³á¡ªá¢Ĳ
Ġá¡¥á¡³ á¢ĳá¡ªá¢Ĳ
á¡¸ á¡ªá¡±á¡±á¡ªá¡§
Ġáł¬áł¦áłŃ áłµ
Ġá¢Ķá¡Ńá¡±á¡¬á¢ŀá¡ªá¡ª á¡ªá¢ĳá¢Ļá¡ªá¡«
á¢Ĭ á¡ªá¢Ĭ
Ġá¡¸á¡ªá¢Ļá¡ªá¡±á¡± á¡ªá¢ĳ
Ġá¢Īá¡Ńá¢ĳ á¡¬á¢Ŀ
Ġá¡¬á¡¬á¡Ńá¡ªá¢ĭ á¡Ńá¢Ľá¡³
Ġá¢ĺá¡ªá¡±á¡± á¡ªá¡´á¡Ńá¢ŀá¡«
Ġá¡³á¡ªá¡¬á¡¬á¢Ļ á¡Ńá¡±á¡±á¡ªá¡«
Ġá¡¥á¢ŀ á¡¬á¢ĭá¡Ń
Ġá¡¸á¡Ńá¢ĳá¡´ á¡Ńá¡ªá¡ªá¢Ļá¡ªá¡ªá¡ªá¡³
ĠáłŃ áłłáłµ
Ġá¡¥á¢ŀá¢ĭ á¡Ńá¢Ĭá¢Ķá¡ªá¡§
Ġá¡¸á¡Ńá¢ŀ á¡ªá¢İá¢Ļ
á¡ªá¢ľ á¡ªá¢īá¡¨
áł¤áł ¬áł¤
Ġá¢Ĭá¡¬á¢ĳ á¡³á¡ªá¢Ŀ
Ġá¡¯á¡ªá¡¬á¢İ á¡§
Ġá¡¥á¡ªá¢ŀ á¡ªá¢Ķá¡Ńá¡§
á¡ªá¢İ á¡ªá¢ĩ
Ġá¡¥á¡± á¢Łá¢ŀá¢Ĭá¡¬á¡¦
á¡ªá¡´á¡Ńá¢ŀ á¡¬á¢Ľ
á¡¯ á¡Ńá¡±á¡±
á¢ľ á¡ªá¢İá¡ªá¢Ŀ
Ġá¡¶á¢ŀ á¡Ńá¢¡á¢Łá¢Ķá¢Ķá¡Ńá¢Ŀ
Ġá¢ļá¡¬ á¡Ńá¡ªá¡ªá¡ª
Ġá¢Ķá¡ªá¢ĳ á¡ªá¡ªá¡³
Ġáł¤áł¯ áłłáł¨
á¡¬á¡ªá¢ŀ á¢Ĭá¡ªá¡¨
áł¦áł ²
Ġá¡¥á¢ĭ á¡Ńá¢ĳ
Ġá¡³á¡ªá¡±á¡± á¡Ńá¢ŀá¡«
Ġá¡¥ á¡ªá¢Ļá¡ªá¢ĩ
á¡Ńá¢Ĭ á¡ªá¢Ľá¡³
Ġá¡¬á¡ªá¢Ĭ á¡¬á¡«á¡¨
1 7
Ġá¡¸á¡ªá¢Ķ á¡¬á¢ĳá¡§
á¡¥á¢ŀ á¢Ĭá¡ªá¡¨
Ġá¡¸á¡ªá¢İá¢Ļ á¡Ńá¢ĳá¡¬á¢ĩ
Ġá¡¥á¡¬á¢ĳ á¢ļá¡«
á¢İ á¡ªá¡¬á¡¨
Ġá¢Įá¡ªá¡ªá¢Ĭá¡± á¡ªá¡«
á¡¬á¢Ĭ á¢Ķá¡ªá¢Ĭá¡ªá¢Ŀ
Ġá¢ĭá¡Ńá¡¬á¢Ĭá¢Ľ á¡¬á¢Ĭá¢Ķá¡ªá¡§
á¡ª á¡ªá¢ļá¡Ńá¡Ńá¡§
Ġá¢ĺá¡Ńá¢İá¢Ļ á¡ªá¢ļá¡«
Ġ â
Ġá¡¥á¢ĭá¡Ńá¢Ķ á¢ļá¡³
á¡¬á¢Ļ á¡Ńá¡§
á¢ľ á¡ªá¡±á¡±á¡³
Ġá¡¥á¢ŀ á¡ªá¢Ĭ
Ġáł¶ áłłáłŃ
Ġá¢Ĭá¡ªá¢Ķ á¡¬á¢Ĭá¢Ļá¡ªá¡§
Ġáł® áłłáł¨
á¢ĳ á¡ªá¢Ļá¡ªá¡¬á¡¨
Ñħ Ð°
á¡ª á¡ªá¢§
Ġá¢ĺá¡ªá¢ŀ á¢Ļá¡ªá¢Ĭá¡ªá¡¨
Ġá¡¸á¡Ńá¡³ á¡¬á¢ľá¡ªá¢Ľá¡³
Ġá¡³á¡ªá¢ľ á¡ªá¢ŀá¢Ļá¡ªá¡«
á¡ªá¢Ķ á¡¬á¢ľá¡ªá¢Ĳ
á¢ļ á¡¬á¡ªá¡¬á¡¨
Ġá¢ı á¡³
Ġá¢ĺá¡Ńá¡ªá¡ªá¢Ļ á¡ªá¡±á¡±á¡Ńá¡§
Ġá¡¯á¡ªá¡±á¡± á¡ªá¢Ķá¡«
á¡¸ á¡ªá¡´á¡Ńá¢Ŀ
Ġá¢ĭá¡Ńá¡¬á¡¬á¢ļá¡ªá¡Ńá¡ªá¢Ĭ á¡ªá¢ĭá¡Ń
Ġá¡¥á¡Ńá¢Ļ á¡Ńá¢ĩ
âĢ¦ âĢ¦
Ġá¡¥á¡ªá¡±á¡± á¡ªá¢Ķá¡«
Ġá¢ĺá¡ªá¢Ĭ á¡ªá¢Ľá¡«
Ġá¡¥á¡¬á¢ĳ á¡³
Ġá¡¥ á¡ªá¡ªá¡ªá¢Ķ
Ġá¢ĺá¡ªá¢ŀ á¡±á¡±á¡Ńá¡§
á¡ªá¢Ĭá¢Ļ á¡ªá¡³á¡ªá¡¨
Ġáł¶ áł¡áłŃáł¡
á¢ĺ á¡Ńá¢Ĭ
Ġá¡¥á¡ªá¢Ļ á¡ªá¢Ĭá¡¬á¡¦
Ġá¡¸á¡Ń á¡Ńá¢ŀá¢ĳ
__ __
á¡ªá¡³ á¡ªá¢Ļá¡³
á¡¥ á¡Ńá¡ªá¢Ĭá¢Ķ
Ġá¢ĺá¡ªá¢ŀ á¡Ńá¢ĳá¢Ļá¡§
á¢ĳ á¡¬á¢ĩ
Ġá¡¥á¡Ńá¡¬á¡± á¡¬á¡«á¡¨
å Ĳ
Ġá¡³á¡ªá¢ľ á¡ªá¢Ľ
Ġá¡¥á¡Ńá¢ŀá¡±á¡± á¡Ńá¢Ľá¡³
Ġá¢Ĭá¡ªá¢ŀá¢Ĭ á¡ªá¡«
Ġá¡¥á¡Ńá¢ŀá¡¬á¡Ń á¡ªá¢ļá¡¬á¢ĳá¡ªá¡§
Ġáł¨ áł¡áł¶
á¡ªá¢ĳá¢Ļ á¡Ńá¡ªá¡ªá¡³
Ġá¢ĺá¡ªá¡±á¡±á¡Ńá¢Ļ á¡ªá¢ĳá¢īá¡¨
Ġá¡¥á¡Ńá¡¬á¢ŀ á¡Ńá¢Ĭ
å Ń
Ġá¢ĺ á¡ªá¢ĩ
Ġá¡¬á¡ªá¢Ļ á¡ªá¢ĳ
á¢Ĭ á¡ªá¢Ļá¡Ńá¡§
á¡¥á¢ Ŀá¡¨
Ġá¡¥á¡ªá¢ĳ á¡ªá¢Ĺá¡§
ä ¹
Ġá¢Ķá¡ªá¢Ĭ á¡¬á¢ĳá¢īá¡¨
á¡¸ á¡Ńá¢ĳá¡§
á¡ªá¡±á¡± á¡ªá¡³á¡ªá¡¨
Ġá¡´á¡Ńá¢ĳ á¢ļá¡¬
Ġá¢Ķá¡Ńá¡ªá¢Ĭá¡±á¡± á¡Ńá¡ªá¡ªá¡³
áłłáłŃ áł¤áł·
Ġá¡¥á¡¬á¢Ķ á¡ªá¢Ĭá¡ªá¡«
á¡¬ á¡Ńá¡±á¡±
Ġá¢Ķá¡¬ á¡Ńá¡ªá¡ªá¡ªá¡§
Ġá¡¬á¡Ńá¡³ á¡ªá¢Ľá¡³
Ġá¡¸á¡Ńá¡³á¡¬á¢ĳ á¡ªá¡«
Ġá¢ľ á¡ªá¡§
Ġá¢ĺá¡Ńá¡¬á¢ŀ á¢Ĭ
Ġá¢ļ á¡ªá¡ªá¡¬á¡¨
áł¢áł µáł¦
Ġá¢Į á¡ªá¡¬á¡¬á¢ŀá¡ªá¡§
Ġá¡¥á¡¬á¢Ľ á¡¬á¢Ĳ
á¡¯ á¡ªá¢ŀá¡ªá¡§
Ġáł° áłłáł·
Ġá¡¥á¡¬á¢ŀ á¡ªá¡³á¡ªá¢Ĳ
Ġáłª áł¡áł¶
á¢ĭá¡Ńá¡¬ á¡ªá¢Ļ
Ġá¡¯á¡ªá¢ĭ á¡Ńá¢ŀ
Ġá¡³á¡ªá¡¬á¡¬á¢ŀ á¡¬á¡§
Ġá¢Ķá¡¬á¡±á¡± á¡Ńá¢ŀá¢īá¡¨
Ġá¡¥á¡Ńá¡ªá¢Ĭá¡±á¡± á¡Ńá¢ļá¡§
Ġá¢Ĭá¡ªá¡³ á¢Ļá¡ªá¢Ľá¡³
Ġá¢ļá¡ªá¢ļ á¡ªá¢Ĭ
Ġá¢Ĭá¡ªá¢ŀá¡ªá¢Ĭá¢ĳ á¡ªá¢Ĭá¢Ķá¡ªá¡§
Ġá¡¸á¡ªá¡ªá¢Ļ á¡Ńá¡ªá¡ªá¡³
á¡³ á¡ªá¢Ĭ
Ġá¢Īá¡ªá¢ŀ á¡³á¡ªá¢Ĳ
Ġá¢ĺá¡Ńá¢ŀá¡ªá¢Ķ á¡Ńá¢İá¢Ľá¡«
Ġá¡¥á¡ªá¢ĳ á¡¬á¡§
Ġá¡¥á¢İ á¡ªá¢Ĭá¡ªá¡§
Ġá¡¸á¡Ń á¡Ńá¢Ķ
ĠÑ Ī
Ġá¡¥á¡Ńá¡¬á¡±á¡ªá¢İ á¢ĳá¡ªá¢Ĳ
á¢Ķá¡Ńá¢ŀ á¡Ńá¡ªá¡ªá¢ļá¡«
Ġá¢ľá¡¬á¢Ķ á¡Ńá¢Ļá¡Ńá¢Ĭá¡ªá¢Ŀ
Ġá¢Į á¡Ńá¡¬á¢İá¡³
á¡¬á¢İ á¡Ńá¢Ķá¡Ńá¡§
Ġá¢ĺá¡ªá¢ĳ á¢Ĭá¡ªá¡§
áł¡áł ©
á¢Łá¢ ĵ
Ġá¡¬á¡ªá¢ĳá¡±á¡± á¡ªá¡±á¡±á¡ªá¡Ńá¡§
Ġá¡¬ á¡ªá¡ªá¢Ĭá¡±
Ġá¢Į á¡ªá¢Ĭá¡ªá¡¨
Ġáłª áł¢
Ġá¢Īá¡Ńá¡Ńá¢ĳá¢Ļ á¡ªá¢ĳá¢īá¡¨
á¡¬á¢Ķ á¢ĺá¡¦
Ġá¡ ¨
Ġá¡´á¡Ńá¢Ļ á¡Ńá¢ĳ
Ġá¢ĭá¡Ńá¡¬ á¡¬á¢ĳ
Ġá¡´á¡Ńá¡¬á¢Ĭ á¡ªá¢ļá¡Ńá¡Ńá¡§
Ġá¡´á¡Ńá¢ŀ á¢Ľá¡¬á¢Ĭá¡¬á¡§
Ġá¢ĭá¡Ńá¡¬á¢Ĭá¢Ľ á¡¬á¢ĭá¡Ń
Ġá¡¬á¡Ńá¢ĳ á¢Ľ
á¡³á¡ªá¡¬ á¡¬á¡±á¡±á¡Ńá¢ĳ
Ġá¢ĺá¡Ńá¡ªá¡ªá¢Ļá¡ªá¡± á¡¬á¢Ĳ
Ġá¢Ķ á¡Ńá¡ªá¡ªá¡Ńá¢Ŀ
Ġáł¬ áł¤áł¶
á¡¬á¡Ń á¡ªá¢ļá¡³
Ġá¡³á¡ªá¡ªá¡ªá¡ªá¢ŀ á¡ªá¡ªá¡ªá¢Ĳ
Ġá¢ļá¡¬á¡ªá¡ªá¡Ńá¢ĳ á¡ªá¢Ļá¡ªá¡«
á¢ĺá¡ªá¢ĳ á¡³
Ġá¢ľá¡ªá¢Ĭ á¡ªá¡ªá¢Ĭá¢Ĭá¡¬á¡¦
Ġá¡¥á¢ĭ á¡Ńá¢Ļ
Ġá¢ļá¡Ńá¢İ á¡³
á¢Ĭ á¡ªá¡³
Ġá¢ľá¡ªá¢Ĭ á¡ªá¢Ĭá¡ªá¡§
áł£ áł¬
Ġá¢Ĭ á¡¬á¡³á¡ªá¢Ĳ
Ġá¡¥á¡Ńá¡¬á¢Ľ á¡ªá¢Ĭá¡ªá¡¨
ĠáłŃáłłáłµ áłłáł·
Ġá¢ĭá¡Ńá¡¬á¢Ļá¡ªá¢ĳ á¢ĭá¡Ń
á¡Ńá¢ļ á¡ªá¡±á¡±á¡ªá¡§
á¡³á¡ªá¢ŀ á¡ªá¡±á¡±á¡Ńá¡§
Ġá¢ĺá¡ªá¢Ķ á¡Ńá¢ĩ
Ġá¡¬á¡¬á¡±á¡± á¡ªá¢Ĳ
Ġá¡¬ á¡ªá¡±á¡±á¡ªá¡§
Ġá¢Īá¡ªá¢ŀ á¢ļá¡ªá¡«
Ġá¢Ķá¡ªá¡±á¡± á¡ªá¢Ļ
á¡¬á¡ªá¢Ĭ á¡±á¡±
á¢ĺ á¡Ńá¡¬á¢ĭá¡Ńá¢ŀ
Ġá¡¯á¡¬á¢Ĭ á¡ªá¢Ļá¡ªá¡«
Ġá¢ľá¡ªá¢ŀ á¡¬á¡°á¡¨
Ġá¡¥á¡¬á¢ĳ á¢Ľ
Ġá¢ľá¡ªá¢Ĭ á¡ªá¢Ļá¡ªá¡«
Ġá¢¥á¡Ńá¢İá¡¶ á¡¬
Ġá¢ľ á¡ªá¢Ķá¡Ńá¢Ļá¡ªá¡§
á¡³á¡¬á¢ļ á¡¬á¡¬á¡¨
Ġá¢Ķá¡¬á¢Ļ á¡Ńá¢ĳá¢Ĭá¡ªá¡¨
Ġá¡¸á¡Ńá¢ŀ á¡¬á¢ľá¡ªá¡ªá¡ªá¡³
á¢Ľ á¡¬á¢Ľá¡³
Ġá¢ľá¡ªá¡´ á¡Ńá¢Ľá¡ªá¡«
á¢Į á¡Ńá¡¬á¡ªá¢Ĭ
Ġá¢ĺá¡Ńá¢Ķ á¡ªá¡ªá¡³
á¡ªá¡¬ á¡¬á¡ªá¡ªá¢Ķá¡ªá¡§
Ġá¢Īá¡ªá¢Ļ á¡ªá¡±á¡±á¡Ńá¢Ŀ
Ġá¢ĺá¡ªá¢İá¢Ļá¡ªá¢Ĭá¢ĳ á¡ªá¢ĭá¡Ń
Ġáł°áł¤áł· áłŃ
á¡ªá¢ĭ á¡Ńá¢ŀá¡«
á¡¬á¢Ĭ á¢Ļá¡³
á¡¥á¡Ńá¢ŀ á¡ªá¡§
Ġá¡´á¡Ńá¡¬á¢ĳ á¡Ńá¢Ĭá¡ªá¡¨
á¡ªá¢Ĭ á¡ªá¢Ļá¡ªá¡¬á¡¨
Ġá¢Į á¡ªá¢Ķá¡§
Ġá¢Ī á¡Ńá¡±á¡±
Ġá¡³á¡ªá¢ŀ á¡¬á¡§
Ġá¢ĺá¡Ńá¢İ á¡Ńá¡ªá¡ªá¡ªá¡§
á¡Ńá¡ªá¢Ĭ á¡ªá¡ª
Ġá¢Īá¡Ńá¢ľ á¡Ńá¢Ľá¡³
á¡ªá¢ĳ á¡ªá¢Ľá¡ªá¡«
ãĢ ģ
á¢Ķ á¡ªá¢ĩ
Ġá¡¥á¡ªá¢ŀá¡ªá¡Ńá¡ªá¢ļá¡¬á¢ĳ á¡ªá¡ªá¡ªá¢Ķá¡ªá¡§
ĠáłĦ ãĢĬ
Ġá¢ĺá¡ªá¡³ á¢Ļá¡ªá¡§
Ġá¡¯á¡ªá¢ĭ á¡Ńá¢Ľá¡³
Ġá¢Ĭá¡ªá¢ŀ á¡ªá¢ĭá¡Ńá¢Ĳ
á¡¬á¢ļ á¡¬á¢Ĭ
Ġá¡¥á¡Ńá¡¬á¡± á¡ªá¢ĳá¡ªá¢ĳá¢Ļá¡§
Ġá¢ļá¡¬ á¡ªá¢Ĭá¢Ĭ
Ġá¡¥á¡ªá¢ĳá¢ļ á¡¬á¡±á¡±á¡Ńá¢Ŀ
Ġá¡¬á¡¬á¡Ń á¡ªá¢ĭá¡Ńá¢ĳ
Ġá¡¬á¡¬á¢ĳá¡Ńá¡±á¡±á¡Ńá¡Ń á¡ªá¡ªá¡ªá¡³
Ġá¡¯á¡¬á¢Ĭ á¡ªá¡´á¡Ńá¢ŀá¡«
Ġá¡¥á¢ĭ á¡Ńá¢ĳá¡ªá¡§
Ġá¢ĭá¡Ńá¡¬á¢Ļá¡ªá¢ĳ á¢Ľá¡³
Ġá¢Ķá¡Ńá¡¬á¢ Ľ
Ġá¡¬ á¡¬á¢ľá¡ªá¡ªá¡¬á¡¨
Ġá¢ľ á¡ªá¢Ķá¡Ńá¡§
áł¢áł¶ áłłáł¯
á¡ªá¢§ á¡ªá¢Ŀ
á¡Ńá¢ĳ á¢ĳ
á¡ªá¢ŀ á¡ªá¡ªá¡ªá¡«
Ġá¢ĭá¡Ńá¡¬á¡³ á¡ªá¢ĭá¡Ńá¡Ńá¡§
á¡ªá¡¬á¡¬á¢ĳ á¡«
Ġá¡¯á¡ªá¢ĭá¡Ńá¢Ļ á¡ªá¢ĳ
Ġá¢ĭá¡Ńá¡¬á¡ªá¢Ĭ á¢Ľá¡³
Ġá¢Į á¡Ńá¢ĺ
Ġá¢Ķá¡ªá¡± á¡ªá¡ªá¡ªá¢Ļá¡ªá¢Ļá¡ªá¢ĩ
Ġá¡¥ á¡ªá¡ªá¢Ĭá¡±á¡±
Ġá¢ļ á¡ªá¡°á¡¨
Ġá¡´á¡Ńá¢ĳá¡³ á¡ªá¢Ķá¡³
Ġá¢Īá¡ªá¢Ļ á¡ªá¢Ŀ
Ð´ Ð°
á¡¯ á¡ªá¢Ŀá¡¨
Ġá¡´á¡Ńá¢ŀ á¡¬á¢ľá¡ªá¡Ńá¡§
Ġáłłáł¬ áł¤áł¢
á¡¬ á¡¬á¢ĳ
á¢Ķ á¡Ńá¢ĳ
á¡Ńá¢Ķá¡¬á¡±á¡± á¡³
Ġá¢Ĭá¡ªá¢ŀá¡ªá¢Ĭá¢ĳ á¡ªá¢Ĭá¡ªá¡§
Ġáł² áł¤áł¬
Ġá¡¥á¡Ńá¡¬á¡¬á¢ĳá¡ªá¢ļá¡¬á¢ĳ á¡ªá¢Ĭá¡ªá¡¨
Ġá¡¥á¡¬á¢Ļ á¡ªá¡¬á¡¨
Ġá¡¸á¡Ńá¡³á¡¬á¢Ķá¡ªá¡ª á¡ªá¢ĳá¢Ļá¡³
á¡Ńá¢Ĭ á¢ŀá¡ªá¢į
Ġáł¬ áł¤áłŃ
Ġá¢Ķá¡Ńá¢Ļá¡Ńá¢ĳ á¡Ńá¡§
Ġá¢ľá¡ªá¢İá¡ªá¢ŀ á¢ļá¡³
á¡¬á¢ľ á¡ªá¢ĭá¡Ń
Ġá¢Ł á¡¬á¢ļá¡ªá¢ĺá¡¦
Ġá¢ļá¡¬á¢ŀá¢İá¡ªá¡¬á¡¬á¢ĳ á¢īá¡¨
á¡ªá¡¬ á¡¬á¢ļá¡«
Ġá¢Įá¡ªá¡±á¡± á¡Ńá¢Ļá¡ªá¡«
æ Ĺ
á¡Ńá¢ŀ á¡±á¡±á¡ªá¡§
á¡¬á¢ĳ á¡ªá¡°á¡¨
Ġá¢Ķá¡¬á¡ªá¢Ĭá¢Ĭ á¡ªá¡§
Ġá¡³ á¡Ńá¢ĳ
Ġá¢ĺá¡Ńá¡¬ á¡ªá¢Ĭá¢ĳá¡¬á¢ľá¡Ńá¡³
Ġá¡¥á¡ªá¡´ á¡Ńá¡³á¡ªá¡¨
Ġá¢ľá¡ªá¢Ĭ á¡ªá¢Ĳá¡¨
Ġá¡´á¡Ńá¡¬á¢ŀá¢ĭ á¡Ńá¡Ńá¡§
Ġá¢Ĭ á¢Ĭ
á¡¬á¢ŀ á¡ªá¡ªá¡ªá¡³
Ġá¡¥á¡´ á¡Ńá¢Ļ
Ġá¢Ķá¡ªá¡±á¡ªá¡±á¡± á¡ªá¢ļá¡¬á¢ĳ
Ġá¡¸á¡Ńá¢ĳ á¡ªá¡±á¡±á¡ªá¡«
á¡¯á¡ªá¡¬á¡¬á¢Ĭ á¡ªá¢į
Ġá¢ĺá¡ªá¡±á¡± á¡ªá¡±á¡±á¡ªá¢Ľá¡³
á¡ªá¢Ĭá¢ĳ á¡ªá¢ĭá¡Ń
Ġá¡¸á¡Ńá¡±á¡±á¡Ńá¢ŀ á¢ļá¡«
á¡¬á¡±á¡± á¡Ńá¢Ļá¡§
Ġá¡¥á¢ĳá¢Ľ á¡¬á¢Ĭá¡ªá¡¨
Ġá¢ĺá¡ªá¢ŀ á¡ªá¡³á¡ªá¢Ŀ
Ġá¢ĺá¡ªá¢Ĭ á¡¬á¡ªá¡ªá¡³
Ġáł° áł¢áłŃ
á¡¥á¡Ńá¡¬á¢ŀ á¢ĭá¡Ńá¢ĳ
Ġá¢ļá¡ªá¡¬á¡¬á¢ĳ á¡±á¡±á¡ªá¡§
Ġá¢ĺá¡Ńá¡ªá¡ªá¢Ļ á¡ªá¡ªá¡ªá¡³
áłł áłł
Ġáłª áł¢áł´
á¢Ī á¡Ńá¡Ńá¢Ĳ
Ġá¢ĺá¡ªá¡ªá¢Ĭ á¢ļá¡³
á¡Ńá¢Ĭ á¢Ļá¡ªá¡§
Ġá¢ĺá¡ªá¢ŀ á¡¬á¢ĭ
Ġá¡¥á¡Ńá¡¬á¢ĳ á¡ªá¢İá¢Ľá¡«
Ġá¡¥á¡ªá¢ľ á¡Ńá¢ĳ
á¡¬á¡ªá¡ª á¡Ńá¡«
á¡ªá¢ŀ á¡ªá¡ªá¡¬á¡¨
Ġá¢ĭá¡Ńá¡¬á¢Ķ á¡ªá¢ĳá¡ªá¡ªá¡¬á¡¨
á¡¬á¢Ĭ á¢Ļá¡ªá¢Ĳ
Ġá¢ĺá¡Ńá¡±á¡±á¡Ńá¢ŀ á¡¬á¢Ľá¡³
Ġá¢ĭá¡Ńá¡¬á¢ŀ á¡Ńá¡¬á¡¨
á¡¥á¡Ńá¢ĳ á¡ªá¡±á¡±
Ġá¢Ķá¡ªá¡ªá¢Ļ á¡Ńá¢ŀ
Ġá¡¸á¡ªá¢Ķ á¡¬á¡«á¡¨
1 4
Ġ A
Ġá¡¥á¢ŀ á¡¬á¢Ĳ
á¡Ńá¢ĳ á¡ªá¡°á¡¨
Ġá¢Ĭá¡ªá¡³ á¡ªá¢ĳá¡«
Ġá¡¥á¢ŀá¢Ĭ á¡¬á¢ĳá¢Ļá¡§
á¡ªá¢ŀ á¡±á¡±
á¡ªá¡ª á¡ªá¢ĳá¡ªá¡§
á¡¬á¢ľ á¡ªá¡°á¡¨
Ġá¢Ķ á¡ªá¡ªá¢Ķ
Ġá¢Ķá¡ªá¡± á¡ªá¡ªá¡ªá¢Ļá¡ªá¡ªá¡ªá¡³
Ġá¡¥á¡Ńá¢ĳá¢Ľ á¡§
Ġá¡¥á¡ªá¢ĳ á¡ªá¡ªá¡ªá¡³
Ġá¢Įá¡ªá¢Ļ á¡ªá¢Ĭá¡ªá¡Ńá¡§
Ġá¡¥á¡¬ á¡¬á¡§
Ġá¢¡ á¢Łá¡ªá¡¬á¡¨
Ġá¡´á¡Ńá¢Ĭ á¡¬á¢ŀá¢Ļ
Ġá¡¸á¡Ńá¡¬ á¡¬á¢ļá¡«
Ġá¢ĺá¡ªá¢ĭá¡Ńá¢Ķ á¢Ĭá¡ªá¢Ĳ
Ġá¡´á¡Ńá¢ĳ á¡Ńá¢ĩ
Ġá¢ĺá¡Ń á¡Ńá¢ĳá¡«
Ġá¡¯á¡ªá¡³á¢ļ á¡¬á¢ĵ
Ġá¢ĭá¡Ńá¡¬á¡ªá¢Ļ á¡Ńá¢Ļá¡³
Ġá¡´á¡Ńá¡¬á¢ŀ á¡¬á¡Ńá¡ªá¢Ĭ
Ġáł¶ áłłáł·
Ġá¢Ļ á¡Ńá¡¬á¡ªá¢Ĭá¢Ķá¡¬á¡±á¡±á¡Ńá¢Ŀ
Ġá¡´á¡Ńá¡±á¡± á¡Ńá¢İá¢Ļá¡§
Ġá¡¸ á¡Ńá¢Ķ
Ġá¢Ķá¡¬á¢ŀ á¢ĩá¡¨
Ġá¢ĺá¡ªá¢ŀ á¡Ńá¡ªá¡ªá¡³
Ġáł¦áłª áł¡áł·
Ġá¡¥á¡Ńá¢ļ á¡ªá¢ŀá¡ªá¢Ĳ
á¡ªá¢Ĭá¢ĳ á¡ªá¡§
Ġá¢ļá¡¬á¢Ļ á¡ªá¡³
Ġá¢ĺá¡ªá¡±á¡± á¡ªá¢ŀá¡ªá¢Ľá¡³
Ġá¢ļ á¡ªá¢Ļ
Ġá¡¸á¡ªá¢ŀ á¢Ķá¡«
á¡¸á¡Ńá¢Ķá¡¬á¡±á¡± á¡Ńá¡§
Ġá¡¸á¡Ńá¢ŀ á¡¬á¢ľá¡ªá¢Ľá¡³
Ġá¢ĺá¡Ńá¡±á¡±á¡Ńá¢ŀ á¡³
á¡¬á¡ªá¢ŀ á¡¬á¢į
Ġá¡¸á¡ªá¡ªá¢Ĭá¡±á¡± á¡ªá¢Ľá¡³
Ġá¢ĭá¡Ńá¡¬á¢ŀá¢Ĭ á¡ªá¢Ĭá¢Ķá¡ªá¡§
Ġá¢ľá¡ªá¡´ á¡Ńá¡±á¡±á¡Ńá¢ĳá¡Ńá¡ªá¡ªá¢Ķá¡ªá¡§
Ġá¢Ķá¡Ńá¡ªá¢Ĭá¡±á¡± á¡Ńá¡§
Ġá¡³á¡ªá¢ľá¡ªá¢ĳ á¡ªá¢ĭá¡Ńá¢ĳá¢Ľá¡³
Ġá¢Ķá¡¬á¢ŀ á¢īá¡¨
á¢Į á¡Ńá¡¬á¡§
áłłáłŃ áł¤áł¨
á¡ªá¢ļá¡¬á¡ªá¡ª á¡ªá¡ªá¡ªá¡³
Ġá¡³á¡ªá¡¬á¡¬ á¡³á¡ªá¢ļá¡³
Ġáł´ áł¢áł¬
Ġá¡´á¡Ńá¡±á¡± á¡Ńá¡±á¡«
Ġá¡¬á¡ªá¢ĭá¡Ń á¡ªá¢Ķá¡«
á¡Ńá¢ĭá¡Ńá¢ĳ á¡Ńá¢Ĭá¢Ķá¡ªá¡§
áł¤áł· áłłáł¯
Ġáł² áł¦áł®
á¡ªá¡´á¡Ńá¢ŀ á¡¬á¢Ļá¡³
Ġá¡¥á¡ªá¢ĳá¡ªá¡ª á¡Ńá¢Ľá¡³
Ġá¢ĭá¡Ńá¡¬á¢Ķ á¡ªá¡§
Ġá¢ľ á¡Ń
á¢ĺá¡Ńá¡¬ á¡³
á¡¥ á¡Ńá¢İ
Ġá¡¥á¡± á¡ªá¢ŀ
Ġá¢ĭá¡Ńá¡¬á¢Ļá¡Ńá¢ĳ á¡Ńá¢Ĭá¢ļá¡«
á¡ªá¢ŀá¢Ĭ á¡ªá¡¬á¡¨
Ġá¡¬á¡¬ á¡³á¡ªá¢Ŀ
á¢Ľ á¡§
Ġá¡³á¡ªá¢ĳá¢Ĭ á¡ªá¢Ļá¡ªá¢Ĳ
Ġá¡¸ á¡³
á¡¬á¡ªá¡ª á¡ªá¡«
áł£ áł©áłŃ
Ġá¢Ķá¡Ńá¢ĳ á¡Ńá¡ªá¢Ĭá¢īá¡¨
Ġá¡¥á¢Ķá¡ªá¢ŀá¢ĭá¡Ńá¢ļ á¡ªá¢ĭá¡Ń
Ġá¡¯ á¡Ńá¡±á¡±á¡Ńá¢ĳ
Ġá¡¥á¢Ļ á¡ªá¢Ĭ
Ġá¡¥á¡ªá¢ĳ á¢İ
Ġá¢Ķá¡¬ á¡ªá¢Ļ
Ġá¢Ļá¡Ńá¢¤ á¢ĺá¡Ńá¢Ŀ
Ġá¡¥á¡Ńá¡± á¡ªá¡±á¡±á¡ªá¡§
Ġá¢ĺá¡ªá¢ĭ á¡Ńá¢Ľá¡³
Ġá¢Ķ á¡Ńá¢Ļá¡ªá¢Ĳ
á¢Ĭ á¡¬á¢ľá¡ªá¡§
Ġá¡¸á¡ªá¢ŀ á¡¬á¡±á¡±á¡Ńá¢ĳá¢Ľá¡³
á¡¥á¡Ńá¢ĳ á¡ªá¡±á¡±á¡ªá¡§
Ġá¢ĭá¡Ńá¡¬á¢ŀ á¡Ńá¡°á¡¨
Ġá¡¥á¡ªá¡ªá¢Ĭá¡ªá¡ªá¡ªá¢ŀ á¢ļá¡³
Ġá¡¥á¡ªá¢Ĭá¡± á¡ªá¢Ĭá¡ªá¡¨
Ġá¢Ĭ á¡ªá¢Ĭá¢Ķá¡ªá¢Ĭá¡ªá¢Ŀ
Ġá¡¸ á¡Ńá¢Ļá¡ªá¡§
Ġá¢Ķá¡Ńá¡¬á¢ŀ á¡ªá¢Ĭá¡ªá¡«
áł¢áł¯áł ´
Ġáł¦áł¨áł³ áł¦áł°
Ġá¡¥á¡¬á¢Ļ á¡ªá¢Ŀ
á¡ªá¢ĳá¢Ľ á¡ªá¡ªá¡ªá¡³
Ġá¡¥á¡Ńá¡¬á¢ŀá¢Ĭ á¡ªá¡Ńá¡ªá¢Ĭ
Ġá¡¥á¢ ĵ
Ġá¡¥á¡Ńá¢ŀ á¡Ńá¢ĳ
á¡Ńá¢ŀá¢ĳ á¡ªá¡§
Ġá¡¬ á¡¬á¢į
Ġá¢Ĭá¡ªá¢ŀá¡ªá¢Ĭá¢Ľ á¡¬á¢ĭá¡Ńá¢ĳá¢Ľá¡³
Ġá¡¸á¡Ńá¢Ļ á¡Ńá¡±á¡±
Ġá¡´á¡Ńá¡±á¡± á¡Ńá¢Ĳ
Ġá¡¥á¡ªá¡±á¡±á¡Ńá¢ĳá¢Ľ á¡ªá¢Ľá¡³
Ġá¢Ķá¡ªá¢ŀ á¡¬á¢ĭá¡Ńá¡§
áłłáłª áł¤áł·
Ġá¡¥á¡¬á¢ĳá¡ªá¡Ńá¡ªá¢Ĭ á¡ªá¢Ĳ
Ġá¡´á¡Ńá¢Ķ á¡ªá¡ªá¡ªá¢Ľá¡³
Ġá¡¸á¡ªá¡±á¡± á¡ªá¢ļ
á¡ªá¢Ĭá¢Ķ á¡ªá¡Ńá¡§
á¡´á¡Ńá¢Ļ á¡Ńá¢Ĳ
a r
Ġá¢Į á¡Ńá¡¬á¢ĳ
Ġá¢Įá¡ªá¢Ļ á¡ªá¢ŀá¡ªá¢Ľá¡³
Ġá¢ĺá¡Ńá¢Ļ á¡Ńá¢Ŀ
Ġá¢Ķá¡¬á¢ĭ á¡Ńá¢İá¢Ľá¡«
á¡ªá¢ĳá¢ļ á¡ªá¡§
á¡ªá¡ªá¡ªá¢Ļ á¡ªá¡±á¡±á¡ªá¡Ńá¡§
Ġá¢Įá¡ªá¡ªá¢Ļ á¡Ńá¡ªá¡ªá¡³
Ġá¢Įá¡Ńá¡ªá¡ª á¡Ńá¢Ŀ
Ġá¢Ķá¡Ńá¡¬á¡³ á¡ªá¢Ĭ
Ġá¢ĺá¡ªá¡±á¡± á¡ªá¡Ńá¡ªá¡ªá¡ªá¡ªá¢Ĳ
Ġá¡¥á¡ªá¡Ńá¡ªá¡ªá¡ª á¡Ńá¢Ľá¡³
Ġá¢ĺ á¡Ńá¡±á¡±á¡Ńá¢ĳá¢Ľá¡³
å Ľ
ĠâĢ į
á¡ªá¡¬ á¡¬á¡ªá¡ª
Ġá¡¥á¡ªá¢Ľá¡¬á¢ĳ á¢ļá¡¬á¡§
á¡ªá¡ªá¢Ĭ á¢ļ
Ġá¢ļá¡¬ á¡ªá¢Ļ
Ġá¡³á¡ªá¡¬á¡¬á¢ļ á¡ªá¡±á¡±á¡ªá¡§
á¡¸á¡ªá¢ĳ á¡ªá¡±á¡±á¡Ńá¡§
á¡¸ á¡Ńá¡±
Ġá¢ĭá¡Ńá¡¬á¢Ķ á¡¬á¡«á¡¨
Ġá¡³á¡¬á¢Ķ á¡¬á¢ĳ
á¡Ńá¡±á¡± á¡Ńá¡ªá¡ªá¡ªá¡§
Ġá¡¯á¡ªá¢ľ á¡ªá¡§
Ġá¡¥á¡Ńá¡¬á¡ªá¢Ĭá¢Ĭ á¡ªá¢ŀá¡ªá¢Ľá¡³
Ġá¢Ĭá¡¬á¢Ļ á¡ªá¢Ĳ
á¡¥á¡ªá¡¬ á¡¬á¢Ĳ
á¡Ńá¡±á¡± á¡ªá¢Ķá¡ªá¡«
Ġá¢ĺá¡ªá¢Ĭ á¢Ļ
Ġá¡¬á¡Ńá¡±á¡±á¡ªá¢ļ á¡ªá¢Ĳ
Ġá¢ļá¡¬á¢ĳ á¡Ńá¢Ĭá¡ªá¡§
Ġá¢Ĭá¡ªá¢Ļ á¡Ńá¢ĭá¡Ńá¢ĳá¡§
Ġá¡¥á¡Ńá¡¬á¢ĳá¡ªá¢Ļ á¡ªá¢Ĭá¡ªá¢Ľá¡³
Ġá¢Į á¡Ńá¡¬á¢Ĭ
á¢ĭá¡Ńá¡¬á¢Ļ á¡ªá¢Ĭá¡ªá¡¨
Ġá¡¥á¡Ńá¡¬á¢ Ŀ
Ġá¡³á¡ªá¡¬á¡¬ á¡«á¡¨
Ġáł° áł¢
Ġ *
áł¤áłŃ áłłáł¨
Ġá¢ĺá¡ªá¡±á¡±á¡Ńá¢Ļ á¡ªá¡ªá¡ªá¡³
Ġá¡¯á¡Ńá¢ļ á¡¬á¢Ļá¡ªá¡«
Ġá¡¥á¡ªá¡³ á¢ļá¡ªá¡«
Ġá¢ľá¡ªá¢ŀá¡¬á¢ĳá¢ļ á¡ªá¢Ľá¡³
Ġá¡³ á¡ªá¢Ĳ
ç Ķ
Ġá¢ļ á¡ªá¡³á¢ļ
Ð¾ ÑĢ
Ġá¢Īá¡ªá¢ŀá¡±á¡± á¡ªá¡±á¡±á¡ªá¡Ńá¡§
Ġá¡¥á¡ªá¢ĳá¡³ á¡ªá¢Ļá¡ªá¡§
á¡Ń á¡ªá¢ļ
Ġ 0
á¡¬á¢ĳ á¡ªá¢Ļá¡ªá¢ĩ
Ġá¢Ķá¡Ńá¡ªá¢Ĭá¡±á¡± á¡Ńá¢Ļá¡ªá¢ĩ
áł¤áł¯áł ´
Ġá¡³á¡¬á¢Ļ á¡ªá¢ĭá¡Ńá¡³
Ġá¢ĺá¡ªá¡´ á¡Ńá¢Ķá¡³
a l
Ġ B
Ġá¢ļ á¡ªá¢Ĭá¡ªá¢Ŀ
Ġá¡´á¡Ńá¢ĳá¡Ńá¢ĳá¢ļ á¡ªá¢īá¡¨
á¢ļ á¡ªá¢ŀ
Ġá¡¸á¡Ńá¡±á¡± á¡Ńá¢Ķ
Ġá¢ĭá¡Ńá¡¬á¢ŀ á¡Ńá¢Ķá¡Ńá¡§
Ġá¡¯á¡ªá¡¬ á¡¬á¢Ľá¡«
Ġá¡¯á¡¬á¡±á¡± á¡Ńá¢ļ
Ġá¢Į á¡Ńá¢ĳá¢Ļ
á¡¬á¢Ĭ á¢ĳá¡ªá¢Ľá¡³
Ġá¢Ķá¡Ń á¡´á¡Ńá¡Ńá¡§
á¡Ńá¡¬ á¡ªá¢Ļá¡Ńá¢Ŀ
á¡ªá¡ª á¡ªá¢ĳá¡ªá¢Ĳ
Ġá¡¥á¡Ńá¡± á¡ªá¢īá¡¨
Ġá¢ĺ á¡¬á¢ľá¡ªá¡§
á¡Ńá¢ļá¡¬á¢ĳ á¡ªá¢Ĳ
Ġá¡³á¡ªá¢Ļá¡Ńá¢ĳ á¡ªá¢īá¡¨
Ġáł®áł¢áł¨ áł¢
Ġá¡¥á¡¬á¢ŀ á¡ªá¢ĳá¢Ļá¡§
Ġá¢Īá¡Ńá¡Ńá¢ĳ á¢ļá¡«
Ġá¢Ī á¡ªá¡¬á¡¬á¢ĳá¡«
Ġá¡¥á¡Ńá¡¬á¡¬á¢ŀ á¡ªá¡ªá¡ªá¡ªá¡§
á¡¬á¡Ńá¡¬ á¡¬á¢Ĳ
Ġá¡´á¡Ńá¢ĳ á¡¬á¢ľá¡ªá¢ĳá¢Ļ
Ġá¢ľá¡ªá¡³ á¡ªá¡±á¡±á¡ªá¡§
á¡±á¡± á¡ªá¡±á¡±á¡ªá¡Ńá¡§
á¢Ļ á¡ªá¡Ńá¡§
á¢ĭá¡Ńá¡¬á¢Ĭ á¡ªá¢ŀ
á¡ª á¡ªá¡±
Ġá¡´ á¡Ńá¡±á¡±á¡³
Ġá¡¬á¡ªá¢ĳ á¢Ĭ
Ġá¡¥á¡ªá¢Ľá¡¬á¢ĳá¢ĳ á¡ªá¡ªá¡ªá¢Ķá¡ªá¡§
á¡Ńá¡¬ á¡¬á¡ªá¡ªá¡ªá¡§
Ġá¡´á¡Ńá¡¬á¢ĳá¢ĭá¡Ńá¢İ á¢Ļá¡ªá¢Ĳ
Ġá¢ĺá¡Ńá¡¬á¡³á¢ĳ á¡ªá¢ŀ
Ġá¢ı á¡¬á¢Ĭá¢Ļá¡ªá¡§
Ġá¢ĺá¡Ńá¢Ķ á¡ªá¡ªá¡ªá¢Ĳ
Ġá¢ļá¡¬á¢ŀá¢İ á¡ªá¡¬á¡¬á¢Ľá¡³
Ġá¢ĭá¡Ńá¡¬ á¡Ńá¢ŀá¡±
á¡¬á¢ĭá¡Ńá¢ĳ á¡³á¡ªá¡¨
Ġá¡´á¡Ńá¢Ķ á¡ªá¡ªá¡³
Ġá¡¥á¡¬á¡ªá¢Ĭá¢Ĭ á¡¬á¢ĭá¡Ń
Ġá¡¸á¡ªá¢Ķ á¡¬á¢ľá¡ªá¡§
Ġá¢ĺá¡ªá¢ĳá¢Ĭ á¡ªá¢ŀá¡ªá¢Ĭá¢Ķá¡ªá¡§
á¡ªá¢Ķ á¡¬á¢ŀá¡ªá¢Ľá¡³
Ġá¡³á¡¬á¢ļ á¡¬á¢Ĭá¡ªá¡Ńá¡§
á¢Į á¡Ńá¡¬á¡ªá¢Ĭá¢Ĭá¡ªá¡¨
Ġá¡¥á¡Ńá¡¬á¢ĳá¡ªá¢Ļ á¡ªá¢Ľá¡³
Ġá¢ĭá¡Ńá¡¬ á¡´
Ġá¢ĺá¡Ńá¡ª á¡ªá¢ĳá¡ªá¡ªá¡ªá¡³
Ġá¡¸á¡ªá¢ŀá¡ªá¢İá¢Ķ á¡ªá¢ĳá¢Ļá¡ªá¡«
Ġá¡¥á¡ªá¢ŀá¡ªá¡Ńá¡ªá¢ļá¡¬á¢ĳ á¡ªá¢Ĳ
Ġá¡¥á¡¬á¢ĳ á¡ªá¢ŀá¡ªá¢Ľá¡³
Ġá¡³á¡ªá¡¬á¡¬á¢ĳ á¡±á¡±á¡ªá¡ªá¡ªá¡³
áł¦áł ´
á¡Ńá¢Ļ á¡¦
á¡¥á¢İ á¡Ńá¡°á¡¨
Ġá¢ĺ á¡ªá¢ļ
áłłáłŃ áłłáł¯
Ġá¡´á¡Ńá¡¬á¢ŀ á¡¬á¢İá¡Ńá¢Ķá¡Ńá¡§
Ġá¡¥á¡Ńá¡¬á¢Ķ á¡Ńá¢ŀ
Ġá¢Ł á¢Łá¡«
á¡Ńá¢ľ á¡ªá¡§
Ġá¢ĭá¡Ńá¡¬á¢Ķ á¡ªá¢ĭá¡Ń
á¡¬á¡± á¡ªá¢Ĭá¡ªá¡§
Ġá¢Įá¡ªá¢Ļ á¡ªá¢Ĭá¢Ļá¡ªá¢Ĳ
Ġá¡¸á¡Ńá¢Ļá¡ªá¢ĳá¢Ļ á¡Ńá¢īá¡¨
Ġá¡¥á¡´á¡Ńá¢Ļ á¡Ńá¡¬á¡¨
Ġá¢Īá¡ªá¡ªá¡ªá¢ļ á¡ªá¡±á¡±á¡ªá¢ŀá¢Ļ
Ġá¢Ī á¡ªá¢ĳá¢Ľ
Ġá¢ı á¡¬á¡§
á¡ªá¢Ĭá¢Ķ á¡«
Ġá¢ĺ á¡ªá¢īá¡¨
Ġá¢Ĭ á¢ŀ
á¡Ńá¡¬ á¡¬á¢ĳá¡ªá¡§
Ġá¡¯á¡¬á¡±á¡± á¡Ńá¢Ľá¡³
Ġá¡¥á¡ª á¡Ńá¢īá¡¨
Ġá¡¥ á¡ªá¡§
á¡¯á¡ªá¢ŀ á¡§
Ġá¢Ĭá¡ªá¢İ á¡ªá¢Ĭá¢ļá¡«
Ġá¡´á¡Ńá¢ĳ á¡Ńá¡Ńá¡§
Ġá¢ĺá¡Ńá¢ŀ á¡Ńá¢İá¢Ľá¡¬á¢ĳ
Ġá¢ĺá¡Ńá¢Ķ á¡ªá¢ĳá¡ªá¢İá¢Ľá¡«
Ġá¢Ķá¡¬á¢ŀ á¡ªá¡ªá¡ªá¢Ļ
Ġá¡¬á¡Ńá¢ŀ á¡¬á¡ªá¡ªá¢Ķá¡ªá¡§
á¢Ļ á¡ªá¢ŀá¢Ľ
Ġá¢Į á¡Ńá¡Ńá¢Ŀ
Ġá¡¬á¡¬á¢ŀ á¡Ńá¢īá¡¨
Ġá¡³á¡ªá¡¬á¡¬á¢ŀ á¡¬á¢Ķ
Ġá¡´ á¡Ńá¢İ
Ġá¡¥á¢ĳ á¢ļá¡«
Ġá¡¥á¡Ńá¡¬á¢Ĭá¢ĭ á¡Ńá¢Ĭ
Ġá¢ĺá¡Ńá¡¬á¢Ķ á¡Ńá¡²
á¡³ á¡ªá¢Ļá¡³
á¡ªá¢ŀ á¡ªá¡±á¡±á¡ªá¡Ńá¡§
Ġá¢Įá¡ªá¢Ļ á¡ªá¢ŀá¡ªá¢Ĳ
Ġá¢Ļá¡Ńá¡¬á¡ªá¢Ĭá¡± á¡ªá¢ĳá¢Ļá¡§
Ġá¡¥á¡Ńá¢ŀ á¡ªá¢ĳ
Ġá¡³á¡ªá¢ĳá¡ªá¡Ńá¡ªá¢Ĭ á¡ªá¢Ľá¡³
Ġá¡¥á¡ªá¡³ á¡ªá¡¨
Ġá¡¬á¡Ńá¢ŀ á¡¬á¡ªá¡ªá¢Ļá¡ªá¡«
Ġá¢ĺá¡ªá¢İá¢Ľ á¡¬á¡±á¡±á¡Ńá¢ĳá¡Ńá¡§
á¡ªá¡±á¡± á¡ªá¡±á¡±á¡ªá¡Ńá¡§
ĠáłŃ áł¤
Ġá¢ļá¡¬á¡±á¡ªá¡ªá¡ªá¢Ķ á¡¬á¢Ļá¡§
å Ī
Ġá¢Įá¢Ł á¡«
Ġá¡¥á¡¬á¢ĳá¡ªá¡Ńá¡ªá¢Ĭ á¡ªá¢ĭá¡Ń
á¢ į
áł¦ áł¢áł¯
á¡¬á¢İá¡³ á¡ªá¡«
á¡ªá¡¬á¡¬á¢ĳ á¡ªá¡ªá¡ªá¢Ķá¡ªá¡§
Ġá¡¯á¡Ńá¢ľ á¡ªá¢ŀ
á¡ªá¢Ĭá¢Ļ á¡ªá¢Ĭá¡ªá¡Ńá¡§
Ġá¢ļá¡¬á¢Ļá¡ªá¡´á¡Ńá¢ŀ á¡¬á¢Ļá¡ªá¡§
Ġá¢Ĭ á¡ª
Ġá¢Į á¡ªá¡ªá¢Ĭá¡±á¡±
áł¡áł¯áł ³
á¡¸á¡ªá¢İ á¢Ļá¡³
Ġá¢Įá¡Ńá¡¬á¢ŀá¡Ńá¡¬á¡¬á¢ļ á¡ªá¢Ĭá¡ªá¡§
Ġá¡¥á¢ĭ á¡Ńá¢Ļá¡Ńá¡§
Ġá¡¥á¡ªá¢Ķ á¡Ńá¢ŀá¡³
Ġá¡´á¡Ńá¡¬á¢ ĵ
Ġá¢Ķá¡Ńá¡´á¡Ńá¢ŀ á¢īá¡¨
á¢Ĭ á¡ªá¢Ľ
Ġá¢ĺá¡Ńá¡¬á¢ŀ á¡Ńá¢ĭ
áłłáł° áł¤
Ġá¡¸á¡ªá¢ŀá¡¬á¡±á¡±á¡Ńá¢ļ á¡ªá¢ĳá¡±á¡±
Ġá¡¥á¡ªá¢ŀá¡ªá¢ĳá¢Ľ á¡¬á¡«á¡¨
Ġá¢Ķá¡Ńá¡¬ á¡ªá¡¬á¡¨
Ġá¡¸á¡ªá¡¬á¡¬á¢ŀ á¢ļá¡ªá¢ĩ
Ġá¢Ķá¡Ńá¡¬á¢ŀ á¢ĳá¡¬á¡¬á¡¨
á¡ªá¢ŀ á¡ªá¢Ļá¡ªá¢Ĳá¡¨
á¡ªá¡ª á¡ªá¡°á¡¨
á¢Ĭá¡ªá¢ŀ á¡ªá¡¬á¡¨
âĢ »
Ġá¡³á¡ªá¢ŀ á¡¬á¢Ĳ
Ġá¢Ķá¡Ńá¡¬ á¡ªá¢Ļ
Ġá¡¸á¡ªá¢ľ á¡ªá¡ªá¡ªá¢Ķá¡ªá¡§
á¡¥á¡Ńá¡¬á¢ŀ á¢ĳ
Ġá¢Īá¡ªá¢ŀ á¡Ńá¢īá¡¨
á¡Ńá¢ĳá¢ļ á¡ªá¡ªá¡ªá¡³
á¡Ńá¢Ł á¡ªá¢Ŀ
Ġá¢ĺá¡Ńá¡¬á¢ĭ á¡Ńá¢Ĭá¡ªá¢ŀ
Ġá¡¸á¡ªá¡ªá¢Ĭá¡±á¡± á¡ªá¡ªá¡ªá¡³
áłłáł ©áłŃ
Ð´ Ñį
Ġá¢ĺá¡Ńá¢ĳ á¢Ľá¡³
Ġá¢Įá¡Ńá¡ªá¢Ĭ á¡ªá¡ªá¡ªá¢ĩ
á¡ª á¡ªá¢ĭá¡Ńá¡³
á¢Ķá¡Ńá¡± á¡Ńá¢Ķ
á¡ªá¡±á¡± á¡ªá¢ĳ
á¢Ķá¡Ńá¢ŀ á¡´á¡Ńá¢ĳ
Ġá¡¥ á¡¬á¡§
á¡ªá¢ļá¡¬á¡ªá¡ª á¡ªá¢Ļá¡ªá¢ĩ
á¢Ĭ á¡¬á¢ľ
Ġá¢ĺá¡ªá¡³á¢Ķ á¡¬á¢ĳá¢Ļá¡§
á¡ªá¢ĳ á¡ªá¢Ĭá¡ªá¡Ńá¡§
Ġá¡¥á¡ªá¡´ á¡Ńá¢Ĳá¡¨
Ġá¡¯á¡Ńá¢İ á¡³
Ġá¡¥á¢ŀá¢Ĭ á¡¬á¢Ĭá¡ªá¡Ńá¡§
Ġá¢Įá¡ªá¢ŀá¢Ļ á¡ªá¡ªá¡ªá¡³
á¡Ńá¢ĭ á¡Ńá¢ŀ
á¡¬ á¡ªá¡ªá¡ªá¡³á¡ªá¢Ĳ
á¢ĺá¡ªá¢ŀ á¡ªá¢īá¡¨
Ġá¡¸á¡Ńá¢Ĭ á¡¬á¢ŀá¡ªá¢Ĳ
Ġá¡´ á¡Ńá¡Ń
á¡¬á¢İ á¡ªá¡¬á¡¨
Ġá¢ĭá¡Ńá¡¬á¢ŀá¢Ļ á¡ªá¢ĭá¡Ń
á¡¥ á¡Ńá¢Ķá¡Ńá¡§
Ġá¡¯á¡Ńá¡¬á¢ĭ á¡Ńá¡´á¡Ńá¢ŀ
Ġá¡¯á¡ªá¡¬ á¡¬á¢ĳá¡ªá¢Ľá¡³
Ġá¡¥á¡Ńá¡¬á¢Ľ á¡ªá¢Ĭá¢ļá¡¬á¡Ńá¡§
Ġá¡¥á¡Ńá¢Ļ á¡ªá¡ªá¡ªá¡³
Ġá¢ĺá¡Ńá¡¬á¢Ķ á¡¬á¢Ľá¡³
Ġá¢ĺ á¡ªá¢Ĳ
áłłáł ¤
Ġáł¨ áłłáł·
Ġá¡¸á¡Ńá¢ĳ á¡ªá¢Ļ
Ġá¡¸á¡ªá¢ĳ á¡ªá¢İá¢Ľá¡¬á¢ĳ
á¡Ńá¡± á¡ªá¢Ļá¡³
á¡ªá¢ĳ á¡ªá¢Ĭá¡¬á¡¦
Ġá¡³ á¡ªá¢Ľ
Ġá¡¥á¡¬á¢ĳ á¡±á¡±á¡ªá¢Ĳ
Ġá¢ĺá¡ªá¡³ á¡ªá¡ªá¡ªá¢Ķá¡ªá¡§
á¡ªá¡¬ á¡¬á¡ªá¡ªá¡³
Ġá¡¸á¡ªá¢ŀ á¢Ĭá¡¬á¢ĵ
Ġá¡¸á¡ªá¡¬á¡¬á¢ŀ á¡ªá¢ĳá¡ªá¡§
Ġá¢ļ á¡Ńá¢ļ
á¢ĳ á¡ªá¡°á¡¨
Ġá¢ĺá¡Ńá¢Ķ á¡Ńá¡ªá¡ªá¢Ķá¡ªá¡§
Ġá¡¥á¡³á¡ªá¡Ń á¡ªá¢ĭá¡Ń
Ġá¢Ĭá¡ªá¢ŀ á¡ªá¢ļá¡¬á¢ĳ
Ġá¢Ķ á¡Ńá¡¬á¢Ĭá¡ªá¡¨
Ġá¡¥á¡ªá¡³á¢Ļ á¡ªá¢Ŀá¡¨
è ¯
Ġá¡¥á¡¬á¢ŀ á¡ªá¡§
á¢Ł á¢ĺ
Ġá¡¥á¡Ńá¢ŀá¢Ĭ á¡¬á¡±á¡±á¡ªá¡Ńá¡§
Ġá¡³á¡ªá¡±á¡±á¡Ńá¢ŀ á¡ªá¡«
ĠáłŃ áł¡áł·
Ġá¡¯á¡Ńá¡¬á¢Ĭ á¢ļ
Ġá¢ľá¡ªá¡´ á¡Ńá¡±á¡±á¡ªá¢ŀá¡ªá¡«
Ġá¢ĺá¡ªá¢İá¡ªá¢ļ á¡ªá¢ĭá¡Ń
á¡´á¡Ńá¡¬á¢ĭ á¡Ń
á¢ĺá¡ª á¡Ńá¢Ĭá¡ªá¡¨
Ġ ""
Ġá¡¥á¡Ńá¡¬á¢ĭá¡Ńá¢ĳ á¡ªá¢Ĭá¢Ķá¡ªá¡§
Ġá¡¥á¡Ńá¡±á¡± á¡Ńá¢Ļá¡§
Ġá¡¸á¡ªá¢ŀ á¡ªá¡±á¡±á¡ªá¡§
á¡¯ á¡ªá¢Ķá¡Ńá¡§
á¢ļá¡¬á¢Ĭ á¡¬á¡±
á¡ªá¡ª á¡ªá¢ĳá¡ªá¡ªá¡ªá¡³
á¢Ķ á¡¬á¢Ľá¡³
á¡Ńá¢ĭ á¡Ńá¢Ĳ
Ġá¡¥á¡ªá¢Ķá¡ªá¡±á¡± á¡Ńá¡ªá¡ªá¢Ķá¡ªá¡§
Ġá¢Įá¡¬á¢Ķ á¢ĵ
Ġá¡³á¡ªá¡±á¡±á¡Ńá¢ĳ á¡±á¡±á¡ªá¢Ľá¡³
Ġá¡¯á¡Ńá¡¬ á¡¬á¢ŀ
Ġá¡¥á¡Ńá¡¬ á¡Ńá¢Ŀ
Ġá¡¬á¡¬á¢ŀ á¡¬á¢į
áł´ áł¢áł¨
Ġá¢ĺá¡Ń á¡Ńá¢ĳ
Ġá¢ĺá¡ªá¡ªá¢Ĭá¢Ĭ á¡ªá¢Ĭá¡ªá¡¨
Ġá¢Ķ á¡ªá¢ĭá¡Ńá¢ŀ
á¡ªá¢ĳ á¢Ĭá¡ªá¡¬á¡¨
Ġá¡¥á¡ªá¢Ļ á¡ªá¢Ŀ
Ġá¡¥á¢ŀá¢Ĭ á¡¬á¢ĳá¡ªá¡§
Ġá¡¸á¡Ńá¡³ á¡¬á¢ľá¡ªá¡§
Ġá¡¥á¡Ńá¢ĳá¡ªá¢İá¢Ľá¡¬á¢ĳ á¡ªá¡§
á¡ªá¡±á¡± á¡ªá¡«á¡¨
á¡¬á¢İ á¡Ńá¢Ŀ
Ġá¡¸á¡ªá¢ĳ á¡§
á¡ªá¡Ńá¡ªá¡ªá¡ª á¡ªá¡§
Ġá¡¥á¢ĭá¡Ńá¢ĳ á¡ªá¢ĵ
Ġá¢ĺá¡ªá¢ŀ á¡¬á¢Ľá¡³
Ġá¢ĺá¡ªá¢Ļ á¡ªá¡±á¡±
Ġá¢ĺá¡ªá¢ŀ á¢ĳá¡¬á¡¬á¡¨
Ġáłªáłłáł¶ áł¢áł¨
Ġá¢ĺá¡ªá¢ŀ á¡±á¡«
Ġá¢ĺá¡Ńá¢ŀ á¡Ńá¡¬á¡¬á¢Ļ
Ġá¡¸á¡ªá¡¬á¡¬á¢ŀ á¡ªá¢ĳá¡ªá¡ªá¡ªá¢Ķá¡ªá¡§
áłłáł µáł¦
á¡ªá¡±á¡±á¡Ńá¢ĳ á¡Ńá¡«á¡¨
Ġá¢ĺá¡ªá¡±á¡± á¡ªá¢Ļá¡ªá¡«
áł¡áł·áłŃ áł¡
Ġá¢Ĭ á¡¬
Ġá¡¸á¡ªá¢ŀ á¡ªá¡³á¡ªá¢Ĳ
Ġá¡¸ á¡ªá¡±á¡±á¡ªá¡Ńá¡§
Ġá¡¸á¡ªá¢ŀá¡¬á¢ĳá¢ļ á¡ªá¡ªá¡ªá¡³
á¢Ĭ á¡¬á¢ĭá¡Ń
Ġá¡¥á¢ĭá¡Ńá¢ŀ á¢Ĭ
Ġá¡¥á¡ªá¢ŀ á¡¬á¢ľá¡ªá¢Ļá¡ªá¡§
Ġá¡¬á¡¬á¡³á¡ªá¡ª á¡Ńá¢īá¡¨
ä ½
å °
Ġá¢ĺá¡ªá¡±á¡±á¡Ńá¢ŀ á¡¬á¢ľá¡ªá¢Ĳ
Ġá¡¥á¡Ńá¡¬á¢ŀ á¢Ļ
Ġá¡¸á¡ªá¢ľ á¡ªá¡ªá¡ªá¡³
Ġá¢ĺá¡ªá¡³á¡ªá¡ª á¡Ńá¢ŀá¢īá¡¨
Ġáł² áłłáłª
áł¤áłŃ áłłáł·
áł ¸
á¡Ńá¢Ļ á¡«
Ġá¢Īá¡ªá¡¬á¡¬á¡ªá¡ªá¡ªá¢İá¢Ķ á¡¬á¡ªá¡ªá¢Ļá¡³
Ġá¡´á¡Ńá¡Ń á¡´á¡Ń
á¡¬á¡ ¶
Ġá¡³á¡ªá¢ŀ á¡ªá¡±á¡±á¡ªá¡§
Ġá¢ĭá¡Ńá¡¬á¢ŀ á¢Ķá¡«
Ġá¡´á¡Ńá¡¬á¢Ĭ á¡ªá¢į
áł¬ áł¦
Ġáł°áłłáł¨ áłłáłŃ
Ġá¡¥á¡ªá¢Ĭ á¡¬á¡±á¡±á¡Ńá¢ĳá¡ªá¡ªá¡³
Ġá¡¥á¡Ńá¢ĳá¡±á¡± á¡Ńá¢Ľá¡³
Ġá¡¬ á¡ªá¢ĭá¡Ńá¡³
Ġá¢ı á¡Ńá¡ªá¢Ĭá¡ªá¡ªá¡³
á¢Ķ á¡¬á¢Ļ
á¡¥á¡³ á¡ªá¡Ń
á¡³ á¡ªá¡¬á¡¬á¢ĳ
Ġá¡³á¡ªá¡¬ á¡¬á¡±á¡ªá¢į
Ġá¡¸á¡Ńá¡³ á¡¬á¢ľá¡ªá¢ŀ
Ġá¢ĺá¡Ńá¡¬á¢ Ĳ
á¡ªá¢ĭá¡Ńá¢ĳ á¡Ńá¢Ĭá¢ļá¡«
Ġá¡¥ á¡ªá¡ª
Ġá¢Ķá¡¬á¢ŀ á¢Ĭá¡ªá¡¬á¡¨
Ð ²
Ġá¡¯á¡ªá¡¬á¡¬á¢Ļ á¡ªá¢ĳá¡ªá¢Ľá¡³
Ġá¡¥á¡ªá¢Ķ á¡ªá¢ŀ
Ġá¡¥á¡Ńá¡ªá¡ªá¡ªá¡±á¡± á¡ªá¡ªá¢ļá¡«
Ġá¢Ĺá¡Ńá¡¬á¢ĳ á¡³
ãĢ Ķ
Ġá¡¥á¡Ń á¡Ńá¡ªá¡ª
á¡ªá¡ªá¡ªá¢Ļ á¡ªá¢Ķá¡«
Ġá¢Ĺ á¡ªá¢Ķ
á¡ªá¢Ľá¡¬á¢ĳ á¡§
Ġá¢ĺá¡ªá¢ĭá¡Ńá¢Ķ á¢ĭá¡Ń
Ð¸ Ð¹
Ġá¢Ĺ á¡Ńá¡¬á¢ĭ
Ġá¡¯á¡ªá¢ŀ á¡ªá¢İá¢Ľá¡¬á¢Ļá¡³
Ġá¢ĺá¡ªá¡±á¡±á¡Ńá¢ĳ á¡ªá¡ªá¡ªá¢Ķá¡ªá¡§
á¢Łá¢¤ á¢ĵ
Ġá¡¸á¡ªá¢ŀ á¡¬á¡ªá¡ªá¡³
Ġá¢Ķá¡ªá¢Ĭ á¡¬á¡±á¡±á¡Ńá¢ĳ
á¡ªá¡±á¡± á¡ªá¢ĳá¡ªá¢Ľá¡³
Ġá¡¸á¡Ńá¢ĳá¡´ á¡Ńá¢Ľá¡³
Ġá¡¥á¡ªá¡¬á¡¬á¢ĳ á¡ªá¢Ļ
Ġá¡¥á¢Ĭá¡¬á¢ĳ á¡ªá¢Ĳá¡¨
Ġá¡¯á¡ªá¢Ĭ á¡ªá¢Ĭá¡ªá¢ĭá¡Ń
á¡Ńá¢ļ á¡¬á¢ĳá¡ªá¡ªá¡ªá¡³
Ġá¡¥á¡Ńá¡¬á¡¬á¢İ á¡ªá¢Ĭá¡ªá¡§
Ġá¡¥ á¡¬á¡±á¡³
Ġá¢Ķá¡ªá¢ŀ á¡ªá¢Ľá¡³
Ġá¡¸á¡ªá¢ŀ á¡¬á¢ľá¡ªá¢Ĳ
Ġá¢Ķ á¡ªá¢īá¡¨
Ġá¡³á¡ªá¢ŀ á¢Ĭá¡ªá¢Ķ
Ġá¡¯á¡ªá¡¬á¡¬á¢Ļ á¡ªá¢ĳá¡ªá¢Ĭá¢Ķá¡ªá¡§
Ġá¢ĺá¡ªá¢İá¢Ľ á¡¬á¢ĭá¡Ń
Ġá¡¯ á¡ªá¢ļá¡¬á¡§
Ġá¢ļá¡¬á¢ŀá¢İ á¡ªá¡¬á¡¬á¡§
á¡¬ á¡ªá¢ĭá¡Ńá¡§
á¡Ńá¢Ĭ á¡ªá¢ĭá¡Ń
Ġá¡´á¡Ńá¢ĳ á¡¬á¢ľ
Ġá¢ĺá¡ªá¢Ĭ á¡ªá¢Ĭá¢Ķá¡ªá¡§
Ġá¡¥á¡ªá¡± á¡ªá¡±á¡±á¡ªá¡ªá¡ªá¡³
Ġá¡¸á¡ªá¢ŀ á¡ªá¡§
á¡ªá¢ŀ á¡¬á¢Ľá¡³
á¡¬á¡±á¡± á¡Ńá¡«
áł¢áł¬ áł¦
Ġ 6
Ġá¡¥á¡Ńá¡¬á¢ĳá¡ªá¢Ļ á¡ªá¢Ĭá¡ªá¢ĭá¡Ń
á¡ªá¢ĳ á¢Ľá¡«
á¡Ńá¢ĳá¢Ļ á¡ªá¢ĩ
Ġï¸ µ
áł¡áł´ áł¢áł¯
Ġ 19
Ġá¡¥á¡Ńá¡Ńá¡±á¡± á¡Ńá¡ªá¡ªá¢Ķá¡ªá¡§
Ġá¢Ķá¡¬ á¡¬á¢Ļ
Ġá¢Ķá¡¬á¢Ļ á¡Ńá¡§
Ġáł¬ áł¦
Ġá¢Ķá¡ªá¢ļ á¡Ńá¢ŀ
á¡ªá¡¬á¡¬á¢Ļ á¡ªá¢Ĳá¡¨
á¡¥á¡¬á¢ŀ á¡ªá¡±á¡±á¡³
Ġá¢ĺá¡ªá¢Ľá¡¬á¢Ĭ á¡ªá¢ĭá¡Ń
á¡Ńá¡¬á¢ĺ á¢Łá¢Ŀ
Ġá¡¥á¡Ńá¡¬á¡¬á¡Ńá¡ªá¡ªá¡ª á¡ªá¢Ŀ
ç ī
Ġá¢ĺá¡ªá¢ĳá¢Ĭ á¡ªá¢ŀá¡ªá¢Ľá¡³
Ġá¡¬á¡¬á¢ľ á¡§
Ġ é
á¡¬á¢Ĭ á¢ļá¡«
á¢ĺá¡Ńá¡¬á¢ŀ á¡³á¡ªá¡¨
Ġáłªáł¦áł¬ áł¦
Ġá¡¥á¡Ńá¡¬á¡¬á¢ŀ á¡ªá¢ĳá¢ļá¡ªá¢īá¡¨
á¡ªá¢Ľ á¡¬á¢ŀá¡±á¡±á¡ªá¢Ĳ
Ġá¡³á¡ªá¢Ļ á¡Ńá¢Ľ
Ġá¡¬á¡Ńá¢ĳá¢Ľ á¡ªá¢īá¡¨
á¡¬á¡ªá¢ĳ á¡ªá¡±á¡±á¡³
Ġá¡¥á¡Ńá¢ŀá¢Ĭ á¡¬á¢ĳ
Ġá¢ĺ á¡ªá¡ªá¢Ļ
á¡Ńá¢Ļ á¡ªá¢ŀá¡«
á¢Ī á¡ªá¢Ĳ
Ġá¢ľ á¡§
Ġá¢Įá¡ªá¢Ļ á¡ªá¡§
Ġá¢ĺá¡ªá¢ĭá¡Ńá¢ĳ á¢Ļá¡ªá¢ŀá¢Ľ
Ġáłªáłłáł¶áł¢áłŃ áł¤áł¯
Ġá¡³á¡ªá¢ŀá¡¬á¢İá¢Ļ á¡ªá¢ĳá¡ªá¢Ľá¡³
Ġá¡¥á¡Ńá¡¬ á¡¬á¡¨
á¡ªá¢Ľ á¡¬á¢Ľá¡³
Ġá¡¥á¡Ńá¡¬á¢ŀ á¡ªá¢ĵ
Ġá¡¥á¡ªá¡³á¡ªá¢ļ á¡¬á¢Ľá¡³
á¡¬ á¡ªá¢Ļá¡§
Ġá¡¥á¡Ńá¢İ á¡´á¡Ńá¢ĳá¡³
Ġá¡¸á¡ªá¢ŀ á¡ªá¢Ļá¡ªá¢ĩ
Ġá¢ĺá¡ªá¢ŀá¢Ĭ á¡ªá¢Ĳ
á¡ªá¡ªá¡´ á¡Ńá¢ĳá¡ªá¢ĩ
Ġá¡¬á¡ªá¢ŀ á¢ĳá¡¬á¡¬á¡¨
Ġá¡¯á¡ªá¡±á¡± á¡ªá¡Ńá¡ªá¡ªá¡ªá¡³
Ġá¡¯á¡¬á¢İ á¢Ĭá¡ªá¡§
Ġá¡¬á¡Ńá¡¬ á¡¬á¢ŀ
á¡¬á¡±á¡±á¡Ńá¢ĳ á¢Ļá¡ªá¢ĩ
Ġá¢ĭá¡Ńá¡¬á¢ĳá¡¬á¢ľ á¡ªá¢Ĭá¢Ķá¡ªá¡§
Ġáł°áł¡áł³ áł¬
Ġá¡¬ á¡Ńá¡Ńá¡§
á¡Ńá¡± á¡Ńá¡§
á¢ĺá¡Ńá¡¬á¢ŀ á¡³á¡ªá¡§
á¢ĺá¡ªá¢Ĭ á¡ªá¢Ĭá¡ªá¡Ńá¡§
Ġá¡³ á¡ªá¢ĳá¢Ľ
Ġá¢Īá¡ªá¢ŀ á¢ļá¡ªá¢ĩ
Ġá¡³á¡ªá¡¬á¡¬á¡±á¡±á¡Ńá¢ĳ á¡Ńá¡§
Ġá¢Įá¡Ńá¡¬á¢Ķ á¡Ńá¡§
Ġá¡¬ á¡ªá¡ªá¢Ĭá¡±á¡±
Ġ201 7
Ġá¢Ķá¡ªá¡ªá¡ª á¡ªá¢Ĳ
á¡¯ á¡ªá¢Ļá¡§
á¢ĭá¡Ńá¡¬á¢Ĭ á¢Ľ
Ġá¡¥á¡Ńá¢Ķ á¡Ńá¢Ĳ
á¡Ńá¡ªá¢Ĭ á¢ĭá¡Ńá¡«
Ġá¡¥á¡ªá¡´ á¡Ńá¡§
á¡Ńá¡ªá¡ªá¡ªá¡ª á¡ªá¡ªá¢Ķá¡ªá¡§
Ġá¡¥á¡ªá¢İá¡¬á¢Ļ á¡ªá¡Ńá¡§
Ġá¢ĺá¡Ńá¢ŀ á¡ªá¡Ńá¡ªá¡ªá¡ªá¡ªá¢Ĳ
Ġá¡³ á¡ªá¢Ĭá¡¬á¡¦
á¡¬á¢Ľ á¡¬á¡§
á¢ļ á¡¬á¡±
Ġá¢ļá¡¬á¢Ļ á¡ªá¡³á¡ªá¢Ĳ
Ġá¡¬á¡Ńá¡³ á¡ªá¡ªá¡ªá¡³
Ġá¢Ķá¡ªá¢Ĭá¡¬á¡±á¡± á¡Ńá¢Ķá¡³
Ġá¢Ĭá¡ªá¢ĳ á¡ªá¡«á¡¨
á¡¬á¡Ńá¢Ĭ á¡¬á¢ľá¡ªá¢Ĳ
Ġáł¬ áł¢áł¨
á¡ª á¡ªá¢ĺá¡¦
Ġá¡³ á¡¬á¢ŀ
á¡ªá¡±á¡± á¡Ńá¡ªá¡ªá¡ªá¡§
á¡ªá¢ĳ á¢Ĭá¡ªá¢Ŀ
Ġá¡¥á¡Ńá¢ļ á¡ªá¢ŀá¡ªá¡ªá¡ªá¢Ķá¡ªá¡§
á¡Ńá¢ļá¡¬á¢ĳ á¡ªá¡±á¡±á¡Ńá¢Ŀ
Ġá¡¥ á¡ªá¡²
Ġá¢Ķ á¡ªá¡ªá¢Ĭá¢Ĭá¡ªá¢ŀ
Ġá¢Ķá¡¬á¡± á¡Ńá¢Ĳ
Ġá¡¥á¢ŀá¢Ĭ á¡ªá¢Ļá¡³
Ġá¡¥á¢ĭá¡Ńá¢Ķ á¡Ńá¢Ĳ
Ġá¡´á¡Ńá¡¬á¢ŀ á¡Ńá¡«
á¡ªá¢Ļ á¡Ńá¢į
Ġá¢ĺá¡ªá¡³ á¡ªá¡±á¡±á¡Ńá¢ĳá¡¬á¢ĩ
Ġá¡¥á¡Ńá¢ľ á¡Ńá¢Ļá¡ªá¡Ńá¡§
Ġá¢ĺá¡Ńá¢Ĭ á¡¬á¡«á¡¨
Ġá¢ĭá¡Ńá¡¬á¢ŀ á¡ªá¢Ĳ
Ġá¡¥á¢İá¢Ĭ á¡¬á¡Ńá¡ªá¢Ĭ
Ġá¢¥ á¡Ńá¢ŀ
Ġá¡¥á¡ªá¢ŀá¡±á¡± á¡ªá¢ļ
Ġá¢Ķá¡ªá¡±á¡± á¡Ńá¡³á¡ªá¡¨
Ġá¡¥á¢ŀá¢Ļá¡ªá¡± á¡¬á¡³
å į
Ġá¡¥á¢ŀ á¡ªá¢ĭá¡Ńá¡³
Ġá¡³á¡ªá¢Ļ á¡Ńá¢ĳá¡ªá¢Ľá¡³
Ġá¡¸á¡Ńá¢Ļá¡ªá¢ĳá¢Ļ á¡Ńá¡±á¡±á¡ªá¡§
Ġá¡¸á¡Ńá¢ŀ á¡¬á¢İ
Ġá¡¸á¡ªá¢İá¡¬á¡±á¡± á¡ªá¢Ķá¡«
Ġá¡¥á¢Ľ á¡ªá¡Ńá¡§
á¡¬ á¡Ńá¡³
Ġá¡¥á¡ªá¢Ĭ á¡¬á¡§
á¡Ńá¡ªá¡ªá¢Ļ á¡ªá¢Ĳ
Ġá¡¥á¡Ńá¡¬á¡ªá¢Ļá¡Ńá¢Ķ á¡Ńá¢ĳá¡ªá¡§
á¡Ńá¢ĳ á¢Ľá¡¬á¡§
á¢Ĭ á¡ªá¢Ĭá¡ªá¡Ńá¡§
áłŃ áł¡
Ġá¡¥á¡Ńá¢Ĭ á¡¬á¢ĳá¡ªá¡ªá¡ªá¡³
Ġá¢Į á¡¬á¢ŀ
á¡Ńá¢ĳ á¡ªá¢Ļá¡ªá¡¬á¡¨
Ġá¢Ķ á¡Ńá¡±á¡±
Ġá¡¥á¡Ńá¡¬á¢Ľ á¡ªá¢Ĭá¢Ļá¡ªá¢ĭá¡Ń
Ġá¡³á¡ªá¢ļ á¡¬á¢į
Ġá¢ļá¡¬á¡±á¡ªá¡ªá¡ªá¢Ķá¡¬á¢ĳ á¡ªá¡³á¡ªá¢Ĳ
á¡¥á¡Ńá¡¬ á¡³
á¢ļá¡¬á¢ĳ á¡ªá¢ĭá¡Ń
Ġá¡´á¡Ńá¢ĳá¢ļá¡¬á¡ªá¡ª á¡ªá¢Ĳá¡¨
á¡´á¡Ńá¡¬á¢Ĭ á¡ªá¡Ńá¡§
á¢ĺá¡ªá¡´ á¡Ńá¡§
Ġá¢Ķá¡ªá¡Ńá¡ªá¢Ĭ á¡¬á¢Ľá¡³
Ġá¢ľá¡ªá¢Ļ á¡ªá¢Ľá¡³
Ġá¡³á¡ªá¡¬á¡¬á¢ĳá¢Ļ á¡Ńá¡ªá¡ªá¡³
Ġá¢ĺá¡ªá¡¬á¡¬á¢ĳ á¢Ľá¡³
á¢Ķá¡Ńá¢ŀ á¡Ńá¡ªá¡ªá¢ļá¡¬á¡Ńá¡§
á¡¬ á¡ªá¢į
á¡ªá¡ªá¢Ļ á¡¦
Ġá¡¥á¡¬á¢ĳ á¡ªá¢Ľá¡³
Ġá¡³á¡ªá¢ŀ á¡ªá¡±á¡±á¡ªá¡Ńá¡§
Ġá¡³á¡¬á¢ĳ á¡¬á¡³
Ġá¡¸á¡Ńá¢ĳá¡´ á¡Ńá¡§
á¡ªá¢ĳá¢Ľ á¡ªá¢ĭá¡Ń
Ñ ı
Ġá¢Ķá¡¬á¡ªá¢Ĭá¢Ĭ á¡ªá¢Ĭá¡ªá¢ĳá¢Ļá¡§
á¡ªá¢Ĭ á¡ªá¢ļá¡«
Ġá¢Ķá¡¬á¢Ļ á¡Ńá¢Ľá¡³
á¡¬á¢ľ á¡ªá¢ĳá¡ªá¡§
Ġá¢ĺá¡Ńá¡¬á¢ŀ á¡Ńá¢ĭá¡Ńá¡§
á¡Ńá¡¬ á¡¬á¢ĳá¡ªá¢Ľá¡³
á¡ªá¢ŀá¢Ļ á¡ªá¢ĩ
Ġá¡¬á¡Ńá¢ŀ á¡¬á¡±á¡±á¡Ńá¢ĳá¡Ńá¡ªá¡ªá¢Ķá¡ªá¡§
Ġá¢ĺá¡Ńá¢ŀ á¢Ľá¡«
Ġá¢ĺá¡ªá¢ĳá¢Ĭ á¡ªá¢ŀá¡ªá¢ĭá¡Ń
Ġá¢Īá¡ªá¢ŀá¡±á¡± á¡ªá¢Ļá¡ªá¢ĩ
Ġá¢ĺá¡ªá¢ŀ á¡Ńá¡ªá¡ªá¢Ķá¡ªá¡§
á¡ªá¡Ń á¡ªá¢ļá¡Ńá¡Ńá¡§
Ġá¡¬á¡Ńá¢ŀ á¢Ķá¡¬á¢Ĳ
á¡ªá¢ŀ á¡ªá¢Ļá¡ªá¢ĩ
Ġá¡¬á¡Ńá¡¬á¡³á¢Ķá¡¬á¢ľá¡ªá¢ŀ á¡ªá¢Ĳ
Ġ è
Ġá¡¥á¡Ńá¢ľ á¡ªá¡ªá¡ªá¡ªá¡§
Ġá¢ĭá¡Ńá¡¬á¢Ķ á¡ªá¢Ļá¡ªá¡¬á¡¨
Ġá¡¬á¡¬á¢ŀ á¡Ńá¢Ľá¡³
Ġáłłáł ¯
á¢ĺ á¡ªá¢İá¢Ļ
á¡¸ á¡ª
á¡ª á¡ªá¢ĭá¡Ń
á¡¯ á¡¬á¡±á¡±
Ġá¢Īá¡Ńá¢İ á¡Ńá¢Ļá¡ªá¢Ĳ
Ġá¢Ķá¡Ńá¢ŀá¡±á¡± á¡ªá¢Ľá¡³
Ġá¡¥á¡Ńá¢ŀá¢Ĭ á¡¬á¢Ľá¡³
Ġá¡¥á¡Ńá¡¬á¡± á¡¬á¢Ļá¡§
Ġá¡¯á¡ªá¡±á¡± á¡ªá¡Ńá¡ªá¢ļá¡³
Ġá¡¥á¡ªá¡± á¡ªá¡«
Ġá¢Ķ á¡·á¡Ńá¢ŀá¢ĺá¡¦
Ġá¢ĭá¡Ńá¡¬á¢İá¡Ńá¢Ľ á¡¬á¢ĭá¡Ńá¢ĳá¢Ľá¡³
Ġá¢ĺá¡Ńá¡±á¡±á¡Ńá¢ŀ á¡ªá¡«
Ġá¡¥á¡ªá¢ĳ á¡ªá¡ªá¡ªá¢Ķá¡ªá¡§
Ġáł³ áłłáł·
Ġá¡¬á¡¬á¢ŀá¡±á¡± á¡ªá¢ĳá¢Ļá¡ªá¡«
Ġá¢ĺá¡Ńá¢Ļ á¡ªá¡ªá¡ªá¢Ļá¡ªá¢Ĳ
Ġá¡³á¡ªá¢ľá¡ªá¢ŀá¢ĳ á¡ªá¡§
Ġá¢ļá¡ªá¢ļá¡ªá¢Ĭ á¡ªá¢ĵ
Ġá¡¥á¡ªá¢İá¢Ļ á¡ªá¢Ļá¡ªá¡«
á¡¥ á¢Ĭá¡¬á¢ĳ
Ġá¢ĺá¡ªá¢Ķ á¡Ńá¢ĳá¢īá¡¨
Ġá¢Įá¡ªá¢Ļ á¡ªá¢ŀá¡ªá¢ĭá¡Ń
Ġá¡¬á¡ªá¡±á¡± á¡ªá¢ĳá¢Ļ
Ġá¢ļá¡¬á¢ĳ á¡Ńá¢Ĭá¡ªá¢ĳ
Ġá¡´á¡Ńá¢Ķ á¡Ńá¡±á¡±á¡ªá¡Ńá¡§
áł¢áł¬ áłłáł¨
á¡¥á¡¬á¢ŀ á¡ªá¢Ĭá¢Ķá¡ªá¡§
Ġá¡¥á¡Ńá¢Ļ á¡Ńá¡ªá¡ªá¢Ķá¡ªá¡§
Ġ ç
Ġáłµ áł¢áłŃ
Ġá¡¥á¡ªá¢Ķá¡ªá¡±á¡± á¡Ńá¡³á¡ªá¡¨
á¡¥á¡Ńá¡¬á¢Ĭ á¢ĭ
Ġá¡¥á¡Ńá¢ŀá¢Ĭ á¡¬á¡ªá¡ªá¢Ķá¡ªá¡§
á¡¬á¢ĳ á¡ªá¡±á¡±á¡ªá¡Ńá¡§
Ġá¡¥á¡Ńá¢ĳ á¡ªá¢Ķá¡¬á¢ŀ
á¢İ á¡Ńá¡§
á¡¸á¡Ńá¢ĳ á¡´
á¢ ¡
á¢ĺ á¡Ńá¡¬á¢Ķ
Ġá¡¥á¢Ĭ á¡ªá¢Ķ
Ġá¡´á¡Ńá¡¬á¢Ļá¡Ńá¢Ĭ á¡ªá¢ĳá¢ļá¡¬á¡Ńá¡§
Ġáł¦áł¬ áł¡áł¢
Ġá¡¬ á¡³
Ġá¡¬á¡ªá¡±á¡± á¡ªá¢ĩ
Ġá¡¥ á¡¬á¢Ĭ
Ġá¢Ķá¡Ńá¡¬ á¡¬á¡Ńá¡ªá¢Ĭ
Ġá¡¥á¡³ á¡ªá¢Ļ
á¡ªá¡¬á¡¬á¢ŀ á¡ªá¢Ľá¡³
Ġá¢ĭá¡Ńá¡¬á¢ľ á¡Ńá¢ĭá¡Ń
Ġá¢Ķá¡Ńá¡ªá¡ªá¢Ļ á¡Ńá¡±á¡±á¡³
Ġá¡¸á¡ªá¡´ á¡Ńá¢Ļá¡³
á¢Ķá¡Ńá¢ŀá¡´á¡Ńá¢ĳ á¢Ľá¡¬á¢ĳ
á¡ªá¡ªá¡ªá¢Ļ á¡ªá¡³á¡ªá¡¨
á¡Ńá¡ª á¡ªá¢ļá¡¬á¡§
Ġá¢ĺá¡ªá¢Ķ á¡¬á¡±á¡±á¡Ńá¢Ŀ
Ġá¢ĺá¡Ńá¢ĳá¡±á¡± á¡ªá¡±á¡±á¡Ńá¢ŀá¡«
Ġá¡¥á¡Ńá¡¬á¡± á¡ªá¢Ĭá¡ªá¡¨
á¡¯ á¡ªá¢į
Ġá¡³á¡ªá¢ŀá¢Ļ á¡ªá¢į
Ġá¢ĺ á¡ªá¡±á¡«
á¡ªá¡Ń á¡ªá¢ĭá¡Ń
áł¤áł µáł¤
Ġá¢Īá¡ªá¡ªá¢Ĭá¡±á¡± á¡ªá¡ªá¡¬á¡¨
Ġá¢ĭá¡Ńá¡¬á¡¬á¢ļá¡ªá¡Ńá¡ªá¢Ĭ á¡ªá¢Ľá¡³
Ġá¢ĭá¡Ńá¡¬á¢ Łá¢Łá¡¦
Ġá¢Ĺ á¡¬á¢ŀ
Ġá¡¥á¢Ļ á¢ĳá¡ªá¢Ľá¡³
Ġá¡¬á¡ªá¢ĳ á¡±á¡±á¡ªá¢Ľá¡³
Ġá¢Ķá¡ªá¢Ĭá¡ªá¢Ĭ á¡ªá¢Ļá¡ªá¡§
á¡Ńá¡³ á¡¬á¡¦
Ġá¡¬á¡¬á¢ŀá¡Ńá¢İ á¢Ļá¡³
Ġá¡¬á¡ªá¡¬ á¡¬á¢Ļá¡ªá¡«
Ġáł²áł¦áł® áł¡áł¨
Ġá¡´á¡Ńá¡¬á¢Ĭ á¡ªá¢Ŀá¡¨
Ġá¢Ķá¡ªá¡¬ á¡¬á¡ªá¡ª
á¡Ńá¡ªá¡ªá¢Ľ á¡¬á¡±á¡±á¡Ńá¡§
Ġá¢ĭá¡Ńá¡¬á¡ªá¢Ļá¡Ńá¡Ńá¡ªá¢Ĭ á¡ªá¢ĭá¡Ń
á¡ªá¢İá¢Ķ á¡Ńá¡¬á¡¨
á¡Ńá¢ĳá¡±á¡± á¡ªá¢Ļá¡ªá¡§
Ġá¡¯á¡ªá¢ŀ á¡³
Ġá¡¬á¡¬á¢ĳá¡Ńá¡±á¡±á¡Ńá¢Ļ á¡Ńá¢ĳá¢īá¡¨
Ġá¡³á¡ªá¢ŀ á¡±á¡±á¡³
Ġá¡¬á¡Ńá¢ŀ á¡¬á¡±á¡±á¡Ńá¢Ļá¡§
Ġá¢ļá¡ªá¢Ĭ á¡ªá¢Ľá¡¬á¢ĳá¡ªá¢Ľá¡³
á¡Ńá¢ĳ á¡Ńá¢Ĭá¡¬á¡¦
Ġá¡¸á¡Ńá¡³ á¢Ļ
Ġá¡¥á¡Ńá¢ŀá¡Ńá¢Ķ á¡¬á¢Ļá¡ªá¢ĩ
Ġá¢ļ á¡Ńá¡¬á¢ĭá¡Ńá¢ŀ
Ġá¢Ķá¡Ńá¢ĳ á¡¬á¢Ľá¡³
Ġá¢Įá¡Ńá¢ĺ á¡Ńá¢Ŀ
ĠÐ ĳ
Ġá¢ĺá¢Łá¢Ĭá¡± á¡¬á¡¬á¡¨
Ġá¡¥á¡± á¡ªá¢ŀá¡¬á¢Ĳ
Ġá¢Ķá¡Ńá¡± á¡Ńá¢Ŀ
Ġá¢§ á¢Łá¡¦
Ġá¢Įá¡ªá¢Ļ á¡ªá¢ĭá¡Ńá¢ĳá¢Ľá¡³
á¡¥á¡Ńá¢ŀ á¡Ńá¢ĳá¢Ļá¡Ńá¡±á¡±á¡ªá¡§
Ġá¡¥á¡Ńá¢ŀ á¡Ńá¡±á¡±
Ġá¢Ķá¡ªá¡ªá¢Ļ á¡ªá¢ĳá¡«
á¡¬á¡ªá¢Ķ á¡ªá¢ĩ
Ġá¡¥á¡Ńá¡¬á¢Ĭá¡ªá¡¬ á¡¬á¢Ķá¢Ĭ
Ġá¢ĺá¡Ńá¡±á¡± á¡Ńá¢Ľá¡«
Ġá¡´á¡Ńá¢ŀá¡±á¡± á¡ªá¢Ķá¡³
á¡ªá¢ĭ á¡Ńá¡¬
Ġá¢Ĺ á¡ªá¢Ĳ
Ġá¡¬á¡¬á¢ŀ á¡±á¡±á¡ªá¡ªá¡ªá¡³
á¡ªá¢ĺ á¡ªá¢Ŀ
Ġá¢Įá¡ªá¡ªá¢Ļ á¡Ńá¢ĳá¡ªá¢Ĭá¢Ķá¡ªá¡§
Ġá¢ĺá¡ªá¢İá¡ªá¢ļ á¡ªá¢Ľá¡³
Ġá¢ĭá¡Ńá¡¬á¡ªá¢Ľ á¡ªá¢Ĭá¡ªá¡¬á¡¬á¢ŀ
Ġá¢Ķ á¡¬á¡§
Ġá¡¥á¡Ńá¢Ĭ á¡¬á¢ľá¡ªá¢Ľá¡³
Ġá¢Ķá¡¬á¢ĳá¡±á¡± á¡ªá¢ŀ
Ġá¡¥á¡Ńá¢ŀ á¡¬á¢Ľá¡³
Ġá¢Ĺá¡Ńá¢ŀ á¡Ńá¡ªá¡¬á¡¨
Ġá¡¥á¡¬á¢ĳ á¡ªá¢ĭá¡Ńá¢Ĭá¡ªá¡§
Ġá¢ĺá¡Ńá¡¬á¢Ķ á¡¬á¢ľá¡ªá¢Ļá¡³
Ġá¢Įá¡ªá¡¬á¡¬á¢İ á¡ªá¡«
Ġá¢Ķá¡ªá¡¬ á¡¬á¢ŀ
Ġá¡¥á¢İá¡Ńá¢Ķ á¢ĭá¡Ń
Ġá¡¥á¡Ńá¡¬á¢ŀá¢ĭ á¡Ńá¢Ĭá¡ªá¡¨
á¡¸ á¡Ńá¡±á¡±á¡Ńá¢ĳ
Ġá¡¸á¡ªá¢İá¡ªá¡±á¡± á¡ªá¢ĳá¡ªá¢Ĳ
Ġá¢ĺá¡ªá¢ĭá¡Ń á¡ªá¢ļá¡¬á¢ĳá¡ªá¡§
á¡ªá¢Ĭá¢ĳ á¡ªá¢Ĭá¢Ķá¡ªá¡§
Ġá¡¥á¡Ńá¡¬á¡¬á¢ĳá¡ªá¡Ń á¡ªá¢ĭá¡Ń
á¡¬á¢İ á¡¶
á¢ľ á¡Ńá¢Ķ
á¢ļá¡¬á¢ĳ á¡ªá¡ªá¡ªá¡³
ĠÐ³ ÑįÐ¶Ñį
Ġá¢Ĭ á¡ªá¢ĭá¡Ńá¢Ŀ
á¡ªá¢ļ á¡Ńá¡¬á¡¨
á¡ªá¢ļá¡¬á¢ĳ á¡ªá¡ªá¡ªá¢Ķá¡ªá¡§
Ġá¢ĺá¡ªá¡ªá¢Ĭá¢Ĭ á¡¬á¢ĵ
á¡Ńá¡ª á¡ªá¢ĳá¡ªá¡ªá¡ªá¡³
Ġá¡¥á¡³ á¢ĳ
áł£ áł³
Ġá¢Įá¡Ńá¢Ļ á¡Ńá¡Ńá¡§
Ġá¡¥á¢İ á¢Ĭá¡¬á¡¦
Ġá¡¥á¡Ńá¡¬á¢ĭ á¡Ńá¢Ľá¡³
Ġá¡³á¡ªá¢ľá¡ªá¢ŀá¢ĳ á¡ªá¢Ĳá¡¨
Ġá¢ĺá¡ªá¢ŀá¡¬á¢ĭá¡Ńá¢ĳ á¡ªá¢Ľá¡³
Ġá¡¬á¡ªá¢Ļ á¡ªá¡±á¡±á¡ªá¡«
Ġá¡¥á¡ªá¡ªá¢Ĭá¡ªá¡ªá¡ªá¢Ļ á¡Ńá¡±á¡±á¡ªá¢Ŀ
Ġá¢Ķ á¡ªá¢į
á¢Ĭ á¡ªá¢Ļá¡ªá¢Ĳá¡¨
Ġá¡³á¡ªá¢ŀ á¢Ĭá¡¬á¢ŀ
Ġáł² áłłáł¨
Ġá¢ļá¡¬á¡± á¡ªá¡ªá¡ªá¢Ķá¡«
Ó© Ó©
Ġá¢Ķá¡¬á¢ĳ á¡±á¡±á¡ªá¡ªá¡ªá¡³
á¡ªá¢İ á¡Ńá¢Ķá¡Ńá¡§
Ġá¡¥á¡Ńá¢ŀ á¡Ńá¢Ĳá¡¨
Ġá¢ĺá¡Ńá¡¬á¢ĳ á¡Ńá¡´á¡Ńá¢ŀá¡«
á¡±á¡± á¡ªá¢Ļá¡ªá¢ĩ
Ġá¢Ķá¡¬á¡³ á¡ªá¡±á¡±á¡Ńá¡§
Ġáłģ "
áł¢áłŃ áł¡áł®
á¡¸á¡ªá¢ŀ á¡¬á¢ĳá¢ļ
Ġ 7
Ġá¢Įá¡ªá¢Ļ á¡ªá¢Ĭá¢Ļ
á¡¬á¢ĭá¡Ńá¢ĳ á¡Ńá¢Ĭá¢ļá¡«
Ġá¢ĺá¡Ńá¢Ĭá¡¬á¢ŀ á¡ªá¡±á¡±á¡Ńá¢ĳá¢Ľá¡³
Ġá¢Ļ á¡«
Ġá¢ĺá¡Ńá¡¬á¢Ĭ á¢Ķá¡¬á¢ĭ
ĠáłĤ ãĢĬ
Ġá¢Ĭá¡ªá¢İ á¢Ļ
á¡ª á¡ªá¡±á¡ªá¡±á¡±á¡Ńá¢Ŀ
Ġá¡¥á¡Ńá¢ĳá¡±á¡± á¡Ńá¡ªá¡ªá¢Ķá¡ªá¡§
Ġá¡¯á¡¬á¢Ķ á¢ļá¡³
Ġá¢ĺá¡Ńá¡ªá¡ªá¢Ļ á¡ªá¢ĳá¢ļá¡ªá¢īá¡¨
á¡¥ á¡Ńá¢Ķá¡³
á¡¬á¡ªá¢Ĭ á¢īá¡¨
Ġá¡¸á¡Ńá¡¬á¡¬á¢Ķ á¡¬á¢Ļá¡§
Ġá¡¥ á¡¬á¢Ķá¢Ĭ
Ġá¢¡ á¢Ł
Ġá¢¤á¡ªá¢ŀ á¢ĺá¡¦
å ľ
á¡ªá¡ª á¡ªá¡±á¡±á¡ªá¡Ńá¡§
Ġá¢Įá¡Ńá¡¬á¢ŀá¢ĭ á¡Ńá¢Ĳ
Ġá¡¥á¡Ńá¢Ļ á¡Ńá¢Ĭ
Ġá¢ĺá¡Ńá¢Ķ á¡¬á¢ľ
Ġá¢Ķá¡¬á¡± á¡ªá¢ĳ
Ġá¢ĺá¡ªá¢ĭ á¡Ńá¢Ľ
Ġá¡´á¡Ńá¡ª á¡ªá¢ļá¡³
Ġá¡´á¡Ńá¡¬á¢ŀá¡¬á¢ĳá¢Ļ á¡Ńá¢Ĭá¢Ķá¡ªá¡§
á¢Ĭ á¡ªá¡³á¡ªá¢ļá¡³
á¢ľá¡ªá¢ŀ á¡Ńá¡ªá¢Ĭá¢Ĭ
Ġá¡¸á¡Ńá¢ŀá¢Ļ á¡Ńá¢ļá¡§
Ġá¢Ļ á¡Ńá¢ĳá¢ĳ
Ġá¢ľá¡ªá¡±á¡±á¡ªá¢Ĭ á¡¬á¢Ļá¡ªá¢ĩ
Ġá¡¥á¡Ńá¡¬á¢ĳá¡ªá¢Ļ á¡ªá¢Ĭ
Ġá¡¯á¡ªá¢Ĭ á¡ªá¢ŀá¡ªá¡§
á¡Ńá¢ĭá¡Ńá¢ĳ á¡¬á¡¬á¡¨
Ġá¡³á¡ªá¢ŀá¡¬á¢ĳá¢Ļ á¡Ńá¢Ľá¡³
á¡¯ á¡¬á¢ĳ
Ġá¢ĺá¡ªá¡¬ á¡¬á¢Ķá¡«
Ġá¢ĭá¡Ńá¡¬á¢ļ á¡Ńá¢Ļá¡³
Ġá¡¯á¡Ńá¢İ á¢Łá¢Ŀ
Ġá¢Ļá¡Ńá¢ĳá¢ĳ á¡ªá¢Ŀ
á¡Ńá¢ŀ á¢Ļá¡³
Ġá¡¥á¡ªá¢ľ á¡ª
Ġá¢ĺá¡Ńá¡¬á¢Ĭ á¡ªá¢İá¡ªá¢Ĳ
Ġá¡¥á¡Ńá¡¬á¡± á¡ªá¢ĳá¡ªá¢ĭá¡Ń
Ġá¡¥á¡³ á¢ļ
Ġáł¬ áł¡áł®
Ġá¢ļá¡¬á¡± á¡ªá¢Ĭ
á¡ªá¢¦ á¡«
Ġá¢ļ á¡Ńá¢ĳá¡±á¡±
Ġá¡¥á¡Ńá¡¬á¡± á¡ªá¢ĳ
áł¡áł· áł¬
á¡¬á¢Ķ á¡Ńá¢Ĳ
Ġá¡¥á¡Ńá¡¬á¡± á¡ªá¢Ļá¡³
á¡¥ á¡ªá¢Ļá¡§
Ġá¡¥á¡Ńá¡ªá¡ª á¡ªá¡ªá¡ªá¢Ļá¡ªá¡ªá¡ªá¡Ńá¡§
á¡Ńá¢ŀ á¡ªá¡ªá¡ªá¡§
Ġá¢Ķá¡¬á¡± á¡ªá¢Ĭá¡ªá¡§
Ġá¢ĺá¡ªá¡±á¡±á¡ªá¢ŀ á¡ªá¡ªá¡ªá¢Ķá¡ªá¡§
Ġá¡¥á¡ªá¢ĳá¢Ļ á¡ªá¢ŀá¢Ļá¡ªá¡«
á¡³á¡ªá¡¬ á¡¬á¡±á¡±
á¡³á¡ªá¡¬ á¡¬á¢Ĳá¡¨
ĠÑģ ÑĥÑĢ
á¡³ á¡ªá¢Ĭá¡ªá¡«
á¡ªá¡¬ á¡¬á¢Ĭá¡ªá¡§
Ñģ Ð°Ð½
Ġá¢Ĭá¡ªá¢ŀ á¢ļ
Ġá¢ĺá¡ªá¢ĳá¢Ĭ á¡ªá¢Ľá¡³
á¡Ńá¢İ á¡Ńá¢Ŀ
Ġá¡¬á¡Ńá¡¬á¡³ á¢Ļ
Ġá¡¥á¡Ńá¡¬á¢Ľá¡ªá¢ĭá¡Ńá¢ĳ á¡Ńá¢ĳá¢Ĭá¡ªá¡¨
á¡¬á¢ĳá¢Ļ á¡Ńá¡§
Ġá¢ļ á¢Łá¡ªá¡¬á¡¨
á¡Ńá¢Ł á¡ªá¡«
Ġá¢Įá¡ªá¡±á¡± á¡ªá¡Ń
Ġá¢Ķá¡Ńá¢ŀá¡´á¡Ńá¢ĳá¢Ľá¡¬á¢ĳ á¡ªá¢īá¡¨
á¢Ĭá¡¬á¢ļ á¡¬á¢ľá¡ªá¢Ĳ
Ġá¡¥á¡¬á¢Ļ á¡ªá¢Ĭá¡ªá¡Ńá¡§
áł¡áł¬ áł¡
Ġá¢ļá¡Ńá¡ªá¡ªá¢ĳ á¡ªá¡±á¡±á¡Ńá¢ĳá¢Ľá¡³
Ġá¡¥á¡Ńá¡±á¡± á¡Ńá¢ŀá¡ªá¢ĩ
Ġáłłáł· áłŃ
á¡³á¡ªá¡¬ á¡¬á¢Ļá¡ªá¢Ĳ
Ġá¡¥á¢Ĭá¡¬á¢ĳ á¡ªá¢Ľá¡ªá¡«
Ġá¢ĺá¡Ńá¢Ĭá¡¬á¢ŀ á¡ªá¡ªá¡ªá¢Ķá¡ªá¡§
Ġá¡¬á¡ªá¡ªá¢Ĭá¢Ĭ á¡¬á¢ĳá¡ªá¢īá¡¨
áł¤ áł¤
Ġá¢ĺ á¡Ńá¡²
Ġá¡´á¡Ńá¡¬á¢ĳ á¡Ńá¢Ĭ
á¡¥á¡Ńá¡¬á¢ ļ
Ġá¡´á¡Ńá¢ĳá¢ļá¡¬á¡ªá¡ª á¡ªá¢Ľá¡ªá¡«
Ġá¢ľá¡ªá¡±á¡± á¡Ńá¢Ļá¡ªá¡«
Ġá¡¥á¡Ńá¡¬á¡¬á¢ĳá¡ªá¢ļá¡¬á¢ĳ á¡ªá¢Ĭá¡ªá¡§
å Ĭ
Ġá¢ĺá¡ªá¢Ĭ á¡¬á¡ªá¢Ļá¡§
Ġá¡ ±
Ġá¡´á¡Ńá¡¬á¢ŀ á¡¬á¢ĳ
á¡ªá¡ªá¢Ĭ á¢Ĭá¡ªá¡¨
á¡ªá¢ĭá¡Ńá¢ĳ á¢ļá¡«
Ġá¢ĺá¡Ńá¢Ķá¡ªá¡ª á¡ªá¡¬á¡¬á¢ĳá¡ªá¡§
Ġá¡¥á¢ŀá¢Ĭ á¡¬á¢ĭá¡Ń
Ġáł¡ áł¯
á¢Ķ á¡Ńá¡¬á¢ŀ
áł¥ áł¨
Ġ201 8
á¢Ķá¡Ńá¢Ļ á¡Ńá¢ĳ
á¡¥ á¡Ńá¡ªá¢Ļ
Ġá¢ĺá¡ªá¢ŀ á¡ªá¢Ķá¡³
á¡´á¡Ńá¡¬á¢Ķ á¡ªá¢ĭá¡Ńá¡«
Ġá¡¥á¡¬á¢ŀ á¢Ĭ
á¡ªá¡ªá¡ªá¢ĳ á¡ªá¢īá¡¨
Ġá¡¥á¡ªá¢Ļá¡Ńá¡±á¡± á¡Ńá¢ļá¡¬á¡§
á¢Ķ á¡Ńá¡ªá¢Ĭá¡±á¡±
Ġá¡¥á¡ªá¡¬ á¡¬á¢Ľ
á¡ªá¡±á¡±á¡Ńá¢ŀ á¡ªá¢Ľá¡³
Ġá¢ĭá¡Ńá¡¬ á¡ªá¢Ľá¡¬á¢ĳá¡§
á¡ªá¡¬á¡¬á¢Ļ á¡ªá¢į
Ġá¢Ķá¡¬á¡ªá¢Ĭá¢Ĭ á¡ªá¢Ĭá¢Ķá¡ªá¡§
Ġáł² áł¡áł®
á¡ªá¢ŀ á¡Ńá¡§
áł° áł¢áł¯
Ġá¢Ĺá¡ªá¡ªá¢Ĭá¡± á¡ªá¢ĳá¢Ļá¡³
á¡¬á¢Ļ á¡ªá¢Ľá¡³
á¡ªá¢ļá¡¬á¢Ĭ á¡ªá¢Ĳá¡¨
Ġá¢ĭá¡Ńá¡¬á¢Ĭá¢Ľ á¡¬á¢Ĭ
Ġá¡¥ á¡ªá¢¤
Ġá¡´á¡Ńá¢ĳ á¡Ńá¡«á¡¨
Ġá¢Ĺ á¡ªá¡ªá¡ªá¢Ķ
Ġá¡¸á¡Ńá¢ļá¡Ńá¢ŀ á¡Ńá¡ªá¡ªá¢Ķá¡ªá¡§
Ġá¡¬á¡ªá¢ŀ á¡Ńá¢Ľá¡³
Ġá¡¥á¢Ľ á¡ªá¢İá¢Ļ
Ġá¢ļá¡ªá¢Ĭ á¡¬á¢į
Ġá¢ĺá¡ªá¡¬á¡¬á¢ļ á¡¬á¡§
áł¡áłŃ áł³
áłłáłª áłł
Ġá¢Īá¡Ńá¢ŀá¡³ á¡ªá¡±á¡±á¡Ńá¢ĳá¡§
Ġá¡¸á¡ªá¢Ķ á¡ªá¢ĩ
Ð¾ Ñħ
Ġá¡¥á¡ªá¢ľ á¡Ńá¢İá¢Ķ
Ġá¢Įá¡¬á¡ªá¢Ĭ á¡±á¡±
Ġá¢Ĭ á¢Ĺá¡ªá¡§
Ġá¢Ī á¡ªá¢İ
Ġá¢Ĺ á¡Ńá¢ĳ
Ġá¡´á¡Ńá¡¬á¢ŀ á¡¬á¡Ńá¡ªá¢Ĭá¡ªá¢Ĳ
Ġá¡´á¡Ńá¢Ķ á¡ªá¡ªá¡ªá¡ªá¡ªá¢Ķá¡ªá¡§
Ġá¡¸á¡ªá¢ľ á¡¬á¢ĩ
Ġá¢ĭá¡Ńá¡¬á¢Ĭ á¡ªá¡±á¡ªá¡±á¡±á¡Ńá¢Ŀ
á¡Ńá¢ĳá¢Ļ á¡ªá¢Ŀ
Ġá¡´á¡Ńá¡¬á¢ŀ á¢Ĭá¡ªá¡¨
Ġá¡¸á¡ªá¢ĳá¢Ļ á¡ªá¢Ŀ
áł ©
á¡¬á¢Ĭ á¢ĳá¡ªá¡§
Ġá¡¸á¡Ńá¢ŀ á¡¬á¡±á¡±á¡ªá¡Ńá¡§
á¡¬á¡±á¡±á¡Ńá¢ĳ á¡³á¡ªá¡¨
á¢ľá¡ªá¡´ á¡Ńá¢Ļá¡ªá¢Ĳ
á¡ªá¢ĳ á¡ªá¢īá¡¨
Ġá¡¥á¡ªá¡±á¡± á¡ªá¢Ķ
Ġá¡¬á¡¬á¡Ńá¡ªá¢ĭá¡Ńá¢ĳ á¢Ļá¡ªá¡§
Ġá¢Ī á¡Ńá¢ļá¡«
Ġá¢ĭá¡Ńá¡¬á¢ĭ á¡Ń
á¡¬ á¡Ńá¡¬á¢Ĭ
Ġáł² áł¦áłª
á¢ļ á¡ªá¡±á¡±á¡ªá¡«
á¡¥á¡Ńá¢ŀ á¢Ļá¡³
á¡ªá¢İ á¡Ńá¡±á¡«
Ġá¡¥á¡Ńá¡¬ á¡Ńá¡ªá¢Ĭ
Ġá¡¥á¢Ĭá¡ªá¢ĳ á¢Ľá¡«
Ġá¡¥á¡Ńá¡¬á¢Ĭ á¡ªá¢ĭá¡Ń
Ġá¡³á¡ªá¢ĳá¢ļ á¡¬á¢Ŀ
áł´ áł¢áł³
Ġá¡¥á¡¬á¢ĳá¡ªá¡Ńá¡ªá¢Ĭ á¡ªá¢Ľá¡³
Ġá¢Ķ á¢Łá¢ŀ
Ġá¡¸á¡Ńá¢ŀá¡Ńá¢Ķ á¡Ńá¢Ĳ
Ġá¡¬ á¡ªá¢ĭá¡Ńá¢ĳ
á¢Į á¡ªá¢ŀá¢Ĭ
á¡ªá¢Ĭ á¡¬á¢Ŀ
á¡Ńá¢Ľ á¡§
Ġá¡¥á¢ĭá¡Ńá¢Ķ á¢ĭá¡Ń
Ġá¢ľá¡ªá¡´ á¡Ńá¡³á¡ªá¡¨
á¡ªá¡´á¡Ńá¢ŀ á¡¬á¢Ļá¡ªá¡«
Ġá¡¥á¢Ĭá¡ªá¢ĳ á¢Ľá¡¬á¢ĳ
á¡Ńá¢ĳ á¡ªá¢Ŀ
Ġáłłáł µáł¤
Ġá¡¥á¡Ńá¡ªá¢Ĭá¢Ķ á¡¬á¢Ļá¡ªá¢ĩ
Ġáł¬áł¦áł ³
Ġá¡¯á¡ªá¡ªá¢Ļ á¡¬á¡ªá¢Ĭ
Ġá¡¸á¡Ńá¢ľ á¡ªá¢ŀá¡ªá¡ªá¡ªá¡§
Ġá¡¥á¡Ńá¡¬á¢Ĭá¢ĭ á¡Ńá¢Ĳá¡¨
áł¤áł¯áł ³
Ġá¢Ļ á¡ªá¢Ĭá¡¬á¡§
Ġá¢ĺá¡Ńá¡¬á¢ĳ á¢Ĭá¡¬á¡§
Ġá¡¸á¡Ńá¡± á¡ªá¢Ŀ
á¡¥á¢Ľ á¡ªá¡§
Ġáłª áł¤áł°
áł£ áł®
Ġá¡¥á¡¬á¢ĳ á¡ªá¢ŀá¡ªá¢Ĭá¢Ķá¡ªá¡§
Ġ 9
á¡Ńá¢Ļ á¡ªá¢Ķá¡³
Ġá¡¥á¡Ńá¡¬á¢Ĭá¡ªá¢ŀá¡ªá¢ļá¡¬á¢ĳ á¡ªá¢ĭá¡Ń
Ġá¢Ķá¡ªá¡±á¡± á¡ªá¢ĳá¡«
á¡Ńá¡±á¡± á¡ªá¢ĳá¡«
Ġáłªáłłáł¶ áł¢áł³
Ġáł¡áł³ áł¦áł·
Ġá¡¥á¢ŀ á¢ļá¡¬á¢į
áłµ áł¢áłŃ
Ġá¡´á¡Ńá¢Ľ á¡ªá¢Ŀ
á¡ªá¢ļá¡¬á¢ĳ á¡ªá¡ªá¡ªá¡³
á¡ªá¢İ á¢Ļá¡³
á¡Ńá¡ªá¡ªá¢ĳ á¡ªá¡ªá¡ªá¢Ķá¡ªá¡§
Ġ 8
á¡³ á¡¬á¢Ķá¡«
á¡Ńá¢ĳá¢ļ á¡ªá¡§
Ġáł¨ áłłáł¶
Ġá¡¸á¡ªá¢ľ á¡ªá¢īá¡¨
Ġá¡¥á¡Ńá¡¬á¢ĳá¡ªá¢Ļ á¡ªá¢ĭá¡Ń
a t
á¢Ł á¢Ļ
Ġá¡¸á¡ªá¡¬ á¡¬á¢Ľá¡³
Ġá¢ļá¡Ńá¢Ĭ á¡¬á¢Ľá¡³
Ġá¡´á¡Ńá¢Ļ á¡Ńá¡§
Ġá¡¬á¡¬á¢ŀ á¢İ
Ġá¢ļá¡ªá¢Ĭ á¢ļ
Ġá¢Įá¡Ń á¡ªá¢Ļá¡ªá¢ĩ
Ñ ĩ
Ġá¢Įá¡ªá¢ĳ á¢İ
Ġáł «
á¡´ á¡Ńá¡¬á¢Ĭá¡ªá¡¨
Ġá¡¥á¡ªá¡´á¡Ńá¢ŀ á¡ªá¡ªá¡ªá¡³
á¡´ á¡Ńá¢ļ
Ġá¢ĺá¡Ńá¡¬á¢ŀ á¡¬á¢ľá¡ªá¢Ķ
áłª áł¦áł·
Ġá¢Īá¡ªá¡¬á¡¬á¡ªá¡ª á¡ªá¢Ľá¡³
á¢Ĭá¡ªá¢ŀ á¡ªá¢Ĭá¢Ļá¡ªá¡«
Ġá¢Įá¡ªá¢ŀá¡±á¡± á¡Ńá¡±á¡±á¡ªá¡§
á¢ľá¡ªá¡±á¡± á¡Ńá¢įá¡¨
Ġá¡¥á¡Ńá¡¬ á¡ªá¢ļá¡Ńá¡¬á¡¨
Ġáł° áłłáł¢
áł´ áł¢áł¯
Ġá¡¸á¡ªá¡¬á¡¬á¢ĳ á¡ªá¢Ķá¡³
á¡¬á¢ľ á¡ªá¢Ķá¡Ńá¡§
Ġá¢Ĭá¡ªá¢ĳ á¡ªá¢ĳá¢Ĭá¡ªá¡§
Ġá¡´á¡Ńá¢ŀ á¡Ńá¡ªá¡ªá¢Ľá¡¬á¡±á¡±á¡Ńá¡§
Ġá¢Ķá¡ªá¢ĭá¡Ńá¢Ļ á¡ªá¢ŀá¢ĳ
Ġá¢ĺá¡ªá¢ŀá¡¬á¢ľ á¡ªá¢ļá¡¬á¡Ńá¡§
Ġá¢Ķá¡ªá¡± á¡ªá¡°á¡¨
Ġá¡¸á¡Ńá¢Ļá¡ªá¢ĳá¢Ļ á¡Ńá¡ªá¡ªá¡³
Ġá¡¸ á¡ªá¢Ķá¡³
Ġá¡¥á¡Ńá¡¬á¡± á¡ªá¡ªá¢ĭá¡Ń
Ġáłµ áłłáł®
á¢ĭá¡Ńá¡¬á¢Ķ á¡ªá¢Ĳ
Ġá¢ĺ á¡¬á¡¬á¡¨
Ġá¡¯ á¡Ńá¡³
Ġá¡¥á¡ªá¢Ķ á¡ªá¡ªá¡ªá¢ŀ
Ð¾ Ð¹
Ġá¡¥á¡Ńá¢Ĭ á¡¬á¢ľá¡ªá¡ªá¡ªá¡³
á¡³ á¡ªá¢ľá¡ªá¢Ŀ
áł¡áł ²
Ġá¢ı á¡Ńá¡¬á¡ªá¡¬á¡¨
Ġá¡¥á¡Ńá¡ªá¡ªá¡ªá¡±á¡± á¡ªá¡ªá¢Ļá¡ªá¡§
Ġá¢Ĭá¡ªá¢Ļ á¡Ńá¡¬á¡¬á¡§
Ġá¡´á¡Ńá¡¬á¢Ļ á¡Ńá¢ŀ
Ġá¡´á¡Ńá¢ļ á¡ªá¡§
Ġá¢ĭá¡Ńá¡¬á¢ŀ á¢Ļá¡³
Ġá¡¥á¡ªá¡±á¡±á¡Ńá¢Ľ á¡¬á¢į
á¡¥ á¡ª
Ġáł²áł¡áł· áł¡
á¡ªá¢Ķ á¡Ńá¡¬á¢įá¡¨
á¡ªá¢ļá¡¬á¡ªá¡ª á¡ªá¢Ľá¡ªá¡«
Ġá¡³á¡ªá¢ŀá¢Ĭá¡ªá¢Ķ á¡¬á¢ľá¡ªá¢Ĳ
Ġá¡¸á¡Ńá¢ľ á¡ªá¢Ļá¡ªá¢Ĭá¡¬á¡¦
Ġá¢Ł á¢Łá¡§
Ġá¢ĭá¡Ńá¡¬á¢Ĭá¢Ľ á¡¬á¢ĭá¡Ńá¢ĳá¢Ľá¡³
æ °
Ġá¢ĺá¡ªá¡¬á¡¬á¢ĳá¡´á¡Ńá¢ŀ á¡¬á¢ĳá¡ªá¢Ľá¡³
æ Ŀ
Ġá¢ĺá¡Ń á¡´á¡Ń
Ġá¢ĺá¡Ńá¡¬á¢ĭ á¡Ńá¢İ
Ġá¡¥á¡ªá¡± á¡¬á¢Ŀ
á¢Īá¡Ńá¢ŀ á¡³
áłłáłŃáł¤áł¯áł ¬áł¤
Ġá¢Ķá¡ªá¡ªá¢Ķ á¡ªá¢Ŀ
á¡¥ á¡´á¡Ńá¢Ĳ
Ġá¡¥á¡Ńá¡¬á¢Ľ á¡ªá¢Ĳá¡¨
Ġá¡¥á¡Ńá¡± á¡¬á¢Ķ
Ġá¡¸ á¡Ńá¡ªá¢Ĭá¢Ĭ
á¡Ńá¢Ĭ á¢Ļá¡ªá¢Ĭá¢Ķá¡ªá¡§
Ġá¡¸á¡Ńá¢ŀ á¢Ļá¡³
Ġá¡¥á¡Ńá¢ŀá¢İ á¡ªá¢Ķ
á¢ļá¡ªá¢ŀ á¡¬á¡¬á¡¨
á¢ļ á¡¬á¡±á¡«
Ġá¡³ á¢ŀ
Ġá¢ĺá¡Ńá¢ĳ á¡Ńá¡±á¡±á¡ªá¡Ńá¡§
Ġáł² áł¤áł·
Ġá¡¥á¡¬á¢Ķ á¡¬á¢Ĭá¡ªá¡¨
á¢Ĭ á¡¬á¡±
äº º
Ġá¢ľá¡ªá¡±á¡± á¡ªá¢ŀá¡ªá¢Ľá¡³
á¡³ á¡¬á¢Ļá¡ªá¡§
Ġá¡¥á¡Ńá¡¬á¢İ á¡Ńá¢Ļá¡³
Ġá¢Įá¡ªá¢Ļ á¡ªá¢Ĭá¡ªá¡§
á¡Ńá¢Ķ á¡¬á¡§
Ġá¡¸á¡ªá¢ŀ á¡¬á¢ľá¡ªá¢ĳ
Ġá¡¸á¡Ńá¡¬ á¡¬á¢İá¡Ńá¢Ŀ
Ġá¢Ķá¡¬á¢ĳá¡±á¡± á¡ªá¢ŀá¡ªá¡±á¡±á¡Ńá¢ĳá¡ªá¡ªá¡³
Ġá¢Ĭá¡¬á¢ļá¡¬á¢ľá¡ªá¢ĳ á¢ĳá¡ªá¢ĭá¡Ń
Ġá¢Ķá¡ªá¢Ĭá¡¬á¡±á¡±á¡Ńá¢ĳ á¢Ķá¡Ńá¡§
Ġá¢Ķ á¡¬á¢Ķá¡«
Ġá¡¯á¡¬á¢Ĭ á¡ªá¢ļá¡«
Ġá¡¥á¡ªá¢İá¡ªá¢ŀ á¡ªá¡ªá¡ªá¡³
Ġá¢Ĭá¡ªá¡± á¡ªá¡§
Ġáł´áł¢áł¨ áłłáł·
Ġá¢ļ á¡ªá¡²
á¢Į á¡ªá¢Ĳ
á¢ĺá¡ªá¡±á¡± á¡Ńá¡³
Ġá¢Ĭá¡¬á¡± á¡ªá¢İá¡ªá¡±á¡±á¡ªá¡«
Ñĥ Ð»
Ġá¢Ĭá¡ªá¢ĳ á¢Ĭá¡¬á¡«á¡¨
Ġá¡¸á¡ªá¡ªá¢Ļ á¡Ńá¡ªá¡ªá¢Ķá¡ªá¡§
Ġá¡¯á¡Ńá¡¬á¢Ĭ á¡ªá¡§
á¡¥ á¡Ńá¡ªá¢Ĭá¡±á¡±
Ġá¡¥á¡ªá¢Ľá¡¬á¢ĳá¢ĳ á¡ªá¢Ļá¡ªá¢ĩ
Ġá¡¥á¡Ńá¡ªá¢Ĭá¢Ķ á¡¬á¡±á¡±á¡ªá¡Ńá¡§
Ġá¢Ļ á¡Ńá¡³
Ġá¢ļ á¡Ńá¡ªá¢Ĭá¡ªá¡ªá¡Ńá¡§
Ġá¡¥á¡ªá¡±á¡± á¡Ńá¢ŀá¢ĳá¡ªá¢Ľá¡³
á¡Ńá¢ĳ á¡¬á¡§
á¡ªá¡±á¡± á¡ªá¢Ľá¡ªá¡«
á¡ªá¢Ĭá¢Ĭ á¡ªá¡§
Ġá¢ĺá¡ªá¢İá¡¬á¢ŀ á¢ļá¡¬á¡§
Ġá¢ĭá¡Ńá¡¬á¢ŀ á¢ļá¡ªá¡«
Ġá¡¬á¡Ńá¡¬ á¡¬á¢Ļá¡ªá¡«
á¡Ńá¢Ĭ á¢Ļ
Ġá¢ĺá¡Ńá¢İ á¡¬á¡«á¡¨
á¢Į á¡¬á¡±á¡«
á¢Į á¡ªá¡ªá¢Ļ
Ġá¡¬á¡ªá¡±á¡± á¡Ńá¢ļá¡¬á¢ĳá¡ªá¡±á¡±á¡Ńá¢Ŀ
á¡¥á¡Ńá¡¬á¡ªá¢Ĭá¢Ĭ á¡ªá¢ŀá¡ªá¢Ĭá¢Ķá¡ªá¡§
á¡ªá¢Ķ á¡ªá¢īá¡¨
á¡Ńá¡±á¡± á¡ªá¡ªá¡ªá¡³
á¡ªá¢Ļ á¡Ńá¢ŀá¢Ľá¡«
Ġá¡¬á¡Ńá¡¬á¡³á¢Ķá¡¬á¢ľá¡ªá¢ŀ á¡ªá¢ĭá¡Ń
á¡¥á¡Ńá¡¬á¢Ķ á¡Ńá¡¬á¡¨
á¡ªá¡¬á¡¬á¢ĳ á¡ªá¡ªá¡ªá¡³
á¡¬á¢ĳá¢Ļ á¡Ńá¢Ľá¡³
Ġá¡¸á¡Ńá¢Ł á¡ªá¡ªá¡¬á¡¨
Ġá¢ĺá¡ªá¢Ľá¡¬á¢Ĭ á¡ªá¢Ľá¡³
Ġá¢Įá¡Ńá¢ŀ á¡¬á¢Ļá¡³
á¡ªá¢Ļ á¡ªá¡¬á¡¬á¡ªá¡ªá¡ªá¡§
Ġá¡¬á¡¬ á¡«
Ġá¡¥á¡ªá¢ĳá¡ªá¡ª á¡Ńá¡ªá¡ªá¡³
Ġá¢Ĭ á¡ªá¢ĭá¡Ńá¢ĳá¡ªá¢Ŀ
Ġá¡¸á¡ªá¢ŀ á¡¬á¡«á¡¨
á¡¸ á¡ªá¡§
Ġá¡¥á¡Ńá¡¬á¢ŀ á¢Ļá¡ªá¢Ĭá¡ªá¡§
Ġá¡¸ á¡ªá¢Ķá¡«
Ġá¢ĺá¡Ńá¡±á¡± á¡Ńá¢Ķá¡Ńá¡§
Ġá¢Ķá¡¬á¢ĳá¢Ľ á¡¬á¢ĭá¡Ńá¢ĳá¡Ńá¡§
Ġá¡¬ á¡ªá¢Ķá¡ªá¡§
á¢Ī á¡ªá¡¬á¡¬á¡ªá¡ª
Ġáłª áł¤áł¢
á¡¬á¢ĳ á¡ªá¡³á¡ªá¡¨
Ġá¡¥á¡Ńá¡¬á¡ªá¢Ĭá¢Ĭ á¡ªá¢Ļá¡³
á¡¬á¢ĭá¡Ńá¢ĳ á¢Ļá¡ªá¡¬á¡¨
Ġá¡¥á¡ªá¢Ľá¡¬á¢ĳ á¢ļá¡«
Ġá¢Ĭá¡¬á¢ĳ á¡¬á¡ªá¡¬á¡¨
á¢Ĭá¡ªá¢ŀ á¡³á¡ªá¡¨
á¡ªá¢ŀ á¡ªá¢īá¡¨
á¡Ńá¢ŀ á¡¬á¢ĩ
Ġá¡´á¡Ńá¢ĳá¡±á¡± á¡ªá¢Ľá¡ªá¡«
Ġá¡¬á¡Ńá¡¬á¢ŀá¡¬á¢ļ á¡ªá¢Ĭá¢Ķá¡ªá¡§
á¡¬á¢ļá¡¬á¡ªá¡ª á¡ªá¡ªá¡ªá¢Ķá¡ªá¡§
Ġá¡¸á¡Ńá¢ĳá¡ªá¡±á¡± á¡ªá¡¬á¡¬á¢ļá¡«
á¡ªá¢ĳá¢Ļ á¡ªá¡¬á¡¨
Ġá¡¥á¡¬á¡ªá¢Ľ á¢Łá¡±
Ġá¢ŀ á¡¬á¡ªá¢ļá¡¬á¡§
áł¯ áł¢
Ġá¡¥á¡Ńá¡¬á¢ľ á¡ªá¢Ŀ
Ġá¡¸á¡ªá¢ŀ á¢Ķ
Ġá¡¥á¡¬á¢Ľ á¡ªá¡±á¡±á¡Ńá¢ŀ
Ġá¢Ķá¡ªá¡¬á¡¬á¢Ľá¡¬á¢ŀ á¡ªá¡±á¡±á¡Ńá¢ĳá¡ªá¡ªá¡³
ä ¼
Ġá¢Ī á¡ªá¢ĳá¢Ļá¡ªá¡§
Ġá¢Ķá¡ªá¡Ńá¡ªá¢Ĭ á¡¬á¢ĳ
Ġá¡¥á¡Ńá¡¬á¢Ķ á¡Ńá¢ĳá¢Ļá¡§
Ġáł³ áł¥
Ġá¡¥á¢ĭá¡Ńá¢ŀ á¢ļá¡³
æ ĺ
á¢ĺá¡Ńá¢Ļ á¡Ńá¢Ŀá¡¨
Ġá¡¯á¡ªá¢ĭá¡Ńá¢Ļ á¡ªá¢ĳá¢ļá¡¬á¡§
Ġá¢ĺá¡Ńá¡¬á¢ŀá¡¬á¢İ á¢Ľ
Ġá¡¬á¡ªá¢ŀá¢Ĭá¡ªá¢ĳ á¢Ĭá¡ªá¡§
á¡¥ á¡Ńá¡Ń
á¡´ á¡Ńá¡¬á¢ĳ
Ð³Ð° Ð°Ð»
Ġá¡¯ á¡¬á¢İá¡³á¡ªá¡«
Ġá¢ľ á¡Ńá¡¬á¡§
á¡Ńá¢Ķ á¡Ńá¢Ļá¡³
Ġá¢ĺá¡ªá¡¬ á¡¬á¡Ńá¡ªá¡ªá¡ª
á¡¬á¡¬á¢ŀ á¡Ńá¢ĩ
á¡¬ á¡ªá¡±á¡±á¡Ńá¡§
Ġá¡¯ á¡¬á¢Ľ
á¡¯á¡ªá¡¬ á¡¬á¢Ŀ
á¡ªá¡¬ á¡¬á¢Ļá¡ªá¡§
á¡ªá¡ªá¢Ļ á¡Ńá¢ľá¡ªá¢īá¡¨
Ġá¡¥á¢ĭ á¡Ńá¢ĳá¢Ļá¡ªá¢Ŀ
Ġá¡³á¡ªá¡±á¡± á¡Ńá¢ļá¡§
Ġá¡¥á¡ªá¢İá¢Ļ á¡ªá¢Ļá¡³
Ġá¢Īá¡ªá¢ŀ á¢Ļá¡ªá¢Ĳá¡¨
Ð° Ñħ
Ġá¢ĭá¡Ńá¡¬á¢ĭ á¡Ńá¢ŀá¢Ĭá¡ªá¡¨
o r
Ġá¡¥á¡Ńá¢ŀ á¡Ńá¢Ľá¡ªá¡«
á¡ªá¡ªá¢Ĭ á¢Ļá¡§
Ġá¢ĺá¡Ńá¢Ĭá¡¬á¢ŀ á¡ªá¢İá¢Ľá¡¬á¢Ļá¡ªá¡«
á¡¬á¢ĳ á¡ªá¢Ĭá¢Ķá¡ªá¡§
Ġá¢ĺá¡ªá¢ŀ á¡¬á¢ľá¡ªá¢ĳá¡ªá¡ªá¡ªá¡³
á¢§ á¡«
á¢ļ á¡ªá¡ªá¢Ĭá¢Ĭ
á¢ļ á¡ªá¢Ķá¡³
Ġá¡¥á¡ªá¢ĳ á¢Ľ
Ġá¡³á¡ªá¢ĳ á¡ªá¢Ŀ
Ġá¡¥á¡Ńá¢ŀá¡±á¡± á¡Ńá¡ªá¡ªá¡³
á¢Łá¡± á¢ĺá¡¦
Ġáłµáłłáł° áłłáł¬áł¤
Ġá¡¥á¡Ńá¢ŀ á¡ªá¡Ńá¡§
Ġá¢ĺá¡Ńá¢ŀ á¡Ńá¡°á¡¨
Ġá¡¥á¡Ńá¡¬á¢İ á¡ªá¡§
Ġáłªáł¤áł¯áł Ń
á¡ªá¢ļá¡¬á¡ªá¡ª á¡ªá¡°á¡¨
Ġá¢Ķá¡ªá¢ŀá¢ĭá¡Ńá¢Ĭ á¡ªá¢ĭá¡Ń
á¡±á¡± á¡ªá¡³á¡ªá¡¨
Ġá¢Ķá¡¬á¢ĳ á¢Ļ
á¢Ī á¡ªá¡ªá¡ªá¢ļ
Ġá¢ĺá¡ªá¡±á¡±á¡ªá¡±á¡± á¡ªá¢İá¡ªá¢Ĳ
Ġá¡¯á¡ªá¢ľ á¡ªá¡±á¡±á¡ªá¡Ńá¡§
Ġá¢Ķ á¢Łá¢¤á¢ĵ
Ġá¡¯á¡Ńá¢İ á¡¬á¡§
Ġá¡¥á¡Ńá¡¬á¢ŀá¡¬á¢Ķá¡Ńá¢ĳá¢Ļ á¡Ńá¢Ĭá¡ªá¡§
á¡ªá¡ªá¢Ĭ á¡ªá¡ª
Ġá¡´á¡Ńá¡¬á¢Ļ á¡Ńá¢ĭá¡Ńá¢ĳá¡¬á¡¬á¡¨
Ġá¡¬á¡Ńá¡ªá¡ªá¢Ķ á¡Ńá¡±á¡±á¡ªá¡Ńá¡§
á¢ĺá¡ªá¢Ĭ á¡ªá¢Ļá¡³
Ġá¡¥á¡¬á¢ĳá¡ªá¢ŀá¢Ĭ á¡ªá¡«
Ġîį İ
Ġáł¤áł ´
á¡Ńá¢İ á¡ªá¢ĵ
Ġá¡¥á¡Ńá¢ŀá¡Ńá¢ĳá¢Ļ á¡Ńá¢Ľá¡³
Ġá¢Įá¢Ł á¢Ļá¡ªá¢Ĳ
Ġá¡± á¡±
Ġá¢ĺá¡Ńá¡¬ á¡ªá¡¬á¡¨
Ġá¢ĭá¡Ńá¡¬á¢Ļ á¡Ńá¢Ĳ
Â· Â·
á¡ªá¢ĺ á¢Ŀ
á¡ªá¢ĭá¡Ńá¢Ļ á¡ªá¡¬á¡¨
Ġá¢ĭá¡Ńá¡¬á¡ªá¢Ļá¡Ńá¡Ńá¡ªá¢Ĭ á¡ªá¢Ľá¡³
Ġáłµ áłłáł·
Ð¾ Ð¾
Ġá¡¥á¡¬á¢İ á¡ªá¡±á¡±á¡ªá¡§
á¡Ńá¢Ĭ á¢Ļá¡ªá¢Ľá¡³
Ġá¢Ķá¡ªá¢ĳ á¡³
Ġá¡¸á¡ªá¢ĳ á¡ªá¢İá¢Ľá¡«
Ġá¡¸á¡Ńá¢ĳá¡´ á¡Ńá¡ªá¡ªá¢Ļá¡ªá¡ªá¡ªá¢Ķá¡ªá¡§
á¡¥á¡Ńá¡¬á¢ĳ á¡¬á¢Ĭá¡ªá¢Ŀ
Ġá¡¯á¡ªá¢ŀ á¡ªá¢Ļá¡ªá¡«
Ġá¢ĺá¡ªá¡³á¡ªá¢ŀ á¡¬á¢Ľá¡³
á¡¬á¢ĳ á¡ªá¡±á¡±á¡Ńá¢ĳá¢Ľá¡³
á¡ªá¢ŀá¢ĳ á¡ªá¡ªá¡ªá¡³
á¡¥á¡Ńá¢ŀ á¡±á¡±
á¡¬á¢ĳ á¡ªá¡ªá¡ªá¢ļá¡«
Ġá¡¸á¡Ńá¢ĳ á¡ªá¡§
Ġá¡¥á¡Ńá¢Ĭ á¡¬á¢ľ
Ġá¡³á¡ªá¢ŀá¡¬á¢ĳá¢Ļ á¡Ńá¡ªá¡ªá¡³
Ġá¢ĺá¡Ńá¢Ļ á¡ªá¡ªá¡ªá¢Ļá¡ªá¢Ľá¡³
á¡´á¡Ńá¢ĳ á¡Ńá¡§
á¢İ á¡ªá¡±á¡±á¡ªá¡«
á¢ļ á¡ªá¡§
Ġá¡³á¡ªá¢ľá¡ªá¢ŀá¢ĳ á¡ªá¡ªá¡ªá¢Ķá¡ªá¡§
Ġá¡¥á¡Ńá¡ªá¡ªá¢Ļ á¡Ńá¡§
Ġá¢ĭá¡Ńá¡¬á¢ĳ á¡Ńá¢Ķá¡Ńá¡§
á¡¥á¡Ńá¢ĳ á¡ªá¢İá¢Ľá¡¬á¢ĳ
---- ----
Ġá¡¯ á¡ªá¢ĭá¡Ńá¢ĳ
Ġá¢ı á¡ªá¡ªá¡¬á¡¨
á¡ªá¢ĳá¢Ľ á¡§
Ġá¢Ķá¡¬á¢ĭ á¡Ńá¢Ļá¡ªá¢ŀá¡«
Ġá¢ĺ á¡ªá¢ĺá¡ªá¢Ŀ
á¡¬á¡¬á¢ŀ á¡Ńá¢Ĭá¡ªá¡§
Ġá¢ĭá¡Ńá¡¬á¢Ĭá¢Ľ á¡¬á¢İ
Ġá¡¥á¡Ńá¢İ á¢Ļá¡§
á¢ĺá¡Ńá¢ĳ á¡Ńá¡±á¡±á¡ªá¡«
Ġá¢ĺá¡ªá¢Ĭ á¡ªá¢Ļá¡ªá¢Ĳá¡¨
á¢ŀ á¡¬á¢ĳá¡¬á¡¬á¡¨
Ġáłµ áł¤áł¬
Ġá¡¯ á¡ªá¡§
Ġáłª áł¦áł²
Ġá¡¥á¡Ńá¢ŀá¡Ńá¢Ķ á¡ªá¡ªá¡³
Ġá¡³á¡ªá¡¬á¡¬á¡±á¡± á¡ªá¢Ķá¡ªá¡«
æ Ī
Ð´ ÑįÑĢ
Ġá¢ĺ á¡¬á¢Ĭá¢ĳ
Ġá¡¥á¡³á¡ªá¡Ń á¡ªá¢ļá¡³
á¡¥á¡ªá¢ĳ á¡Ńá¢ĵ
Ġá¡¸á¡ªá¢ŀá¡ªá¢İá¢Ķ á¡ªá¢Ĳ
Ġá¢ļá¡ªá¢ĳ á¢Ĭ
è ¿
Ġá¡¥á¡Ńá¡¬á¢Ĭ á¡ªá¡¬á¡¬á¢ļ
Ġá¡¥á¢Ľá¡ªá¢İá¢Ķ á¡¬á¢ĭá¡Ń
á¡ªá¢Ľ á¡ªá¡²
Ġáłµ áł¦áł¢áł¯
Ġá¢ĭá¡Ńá¡¬á¢İ á¡Ńá¢ŀá¢Ĭá¡ªá¡¨
Ġá¢Ķá¡ªá¡¬ á¡¬
á¡ªá¡ªá¡ªá¢Ļ á¡ªá¢Ľá¡ªá¡«
Ġá¡¥á¡³ á¢Ĭ
Ġá¢ľá¡ªá¡´ á¡Ńá¡ªá¡ªá¢Ļá¡ªá¡ªá¡ªá¢Ķá¡ªá¡§
Ġá¡¬á¡Ńá¢ŀ á¡¬á¢Ľá¡³
Ġá¡¸á¡ªá¡±á¡± á¡Ńá¢ļá¡«
Ġá¡¥á¡ªá¡ªá¢Ĭ á¢Ľ
Ġá¡¥á¡Ńá¢ŀ á¢īá¡¨
Ġá¡´á¡Ńá¢ĳ á¡Ńá¡ªá¡ªá¢Ķá¡ªá¡±á¡±á¡ªá¢Ŀ
áł¤áł· áłª
áł£ áł¶
Ġá¢ĺá¡Ńá¡¬á¢ĳá¢Ĭ á¡¬á¢ĭá¡Ńá¢Ŀ
Ġá¡¯á¡ªá¢İ á¡³á¡ªá¡¨
Ġáłµ áł¡áł·áłŃáł¡
Ġá¢ĭá¡Ńá¡¬á¢ľ á¡«
Ġá¢¥á¡Ńá¢İá¡¶á¡¬ á¡Ńá¡¬á¢ĺá¢Łá¢Ŀ
Ġá¢ĺá¡ªá¡±á¡± á¡ªá¡ªá¡ªá¢Ķá¡ªá¡§
á¢Į á¡ªá¢ŀá¡±á¡±
Ġá¡¥á¡Ńá¡¬á¢Ķ á¢ĭá¡Ń
á¡ªá¡ªá¢ļ á¡¬á¢Ŀ
á¡ª á¡ªá¢¦á¡«
á¡±á¡± á¡ªá¢Ŀ
á¡¥á¡Ń á¡ªá¢ļ
Ġá¡¥á¡Ńá¢ŀ á¡Ńá¢īá¡¨
Ġá¢Ķá¡ªá¢ĳ á¡ªá¢įá¡¨
Ġá¡¯á¡ªá¢İ á¡ªá¢Ĭá¢Ļá¡ªá¢Ľá¡³
Ġá¡¯á¡Ńá¡¬ á¡¬á¢Ļá¡ªá¡§
Ġá¡¬ á¡ªá¡¬á¡¬á¢ĳá¡ªá¢Ľá¡³
Ġá¡³á¡ªá¡¬ á¡¬á¢ĩ
Ġá¡¥á¢Ĭá¡¬á¢ĳ á¡ªá¡°á¡¨
Ġá¡¸á¡ª á¡ªá¢Ľ
á¡¥á¡ªá¢Ľá¡¬á¢ĳ á¢ĳ
á¡¥ á¡ªá¢ĳá¡«
á¡¯ á¡ªá¡¬á¡¬á¢Ļ
Ġá¡´á¡Ńá¢ĳá¡³á¡ªá¢Ķá¡Ńá¢ŀ á¡ªá¡±á¡±á¡Ńá¢ĳá¡ªá¡ªá¡³
Ġá¢ĭá¡Ńá¡¬á¢ŀá¡Ńá¢ĳá¢ļ á¡ªá¡§
Ġá¡¥á¡Ńá¡¬ á¡¬á¡±á¡±á¡Ńá¢Ŀ
á¡¥ á¡ªá¢Ĭ
Ġá¡¥á¢ŀ á¡ªá¢ĳá¢Ĭá¡ªá¡¬á¡¨
Ġá¡´á¡Ńá¢Ļ á¡ªá¡±á¡±á¡ªá¡§
ĠÑģÑĥÑĢ Ð³Ð°Ð°Ð»
á¡ªá¢ŀ á¡ªá¢Ĭá¡ªá¡Ńá¡§
áł¦áł µ
Ġá¢Įá¡ªá¢Ļ á¡ªá¢Ĭá¢Ļá¡ªá¢ĭá¡Ń
Ġá¡¥á¡Ńá¡¬á¡ªá¢Ĭá¢Ĭ á¡ªá¡§
Ġáł® áł£áł©áłŃ
Ġá¡´á¡Ńá¢ļ á¡ªá¡±á¡±á¡ªá¡Ńá¡§
Ġá¡´á¡Ńá¢ĳá¢Ľ á¡Ńá¢īá¡¨
Ġáł¬ áł¤áł³
á¡¬á¢Ļ á¡«
Ġáł³ áł¤áł®áł³áłłáł³áł¤
Ġá¡¥á¢Ļ á¢ĳá¡ªá¢Ĳ
Ġá¡¥á¡¬á¢Ļ á¡ªá¡³á¡ªá¢Ĳ
á¡Ńá¢ļá¡¬á¡ªá¡ª á¡ªá¡±á¡±á¡ªá¡Ńá¡§
Ġáłłáłµ áł¢áł¯áł
Ġá¢ĺá¡ªá¡±á¡±á¡Ńá¢ĳ á¡ªá¢Ļá¡ªá¢ĩ
áł§ áł·
Ġá¢ĺá¡Ńá¢ŀ á¡ªá¡Ńá¡ªá¡ªá¡ªá¡³
á¡¥á¡ªá¢İ á¡«
Ġá¢Įá¡Ńá¡¬á¢ŀá¢ĭ á¡Ńá¢Ľá¡³
Ġá¡¥á¡Ńá¡¬á¢İ á¡Ńá¢Ĭ
Ġá¡¸á¡ªá¢ľ á¡ªá¡±á¡±á¡ªá¡Ńá¡§
Ġá¡´ á¡Ńá¡±á¡±á¡Ńá¢ĳ
Ġá¢ļ á¡Ńá¡³
Ġá¡¥á¡Ńá¢ŀá¡Ńá¡±á¡±á¡Ńá¢ĳ á¡Ńá¢ĳá¢Ļá¡§
Ġáł¥ áłª
á¡ªá¢ŀ á¢ļá¡Ńá¡Ńá¡§
á¡ªá¡±á¡± á¡Ńá¢ŀá¡ªá¢Ĳ
Ġá¡¥á¡Ńá¢ŀá¡Ńá¢Ķ á¢ļá¡³
Ġáłª áł¦áł³
Ġá¡¯á¡¬á¢Ĭ á¡ªá¢İá¡Ńá¢Ķá¡Ńá¡§
Ġá¢ĺá¡Ń á¡Ńá¡±á¡±á¡Ńá¢Ŀ
Ġá¢Įá¡ªá¢ĳ á¡ªá¢Ĭá¡ªá¡«
Ġá¢ĺá¡ªá¢ŀ á¡¬á¡ªá¡ªá¡³
Ġá¡¥á¢Ļ á¢ĳá¡ªá¢ĭá¡Ń
Ġá¡¥á¡Ńá¡¬á¢ŀ á¡ªá¢Ľ
Ġá¡¬á¡Ńá¡¬á¢Ĭ á¡ªá¢ĳ
á¡ªá¡ªá¢Ķ á¡¬á¢Ĳ
Ġá¢ĺá¡Ńá¢İ á¡Ńá¡±á¡±
Ġá¡¯á¡ªá¢Ĭ á¡ªá¢İá¢Ľá¡¬á¢ĳ
Ġá¢ĺá¡ªá¢ŀ á¡ªá¢ļá¡¬á¢ĳá¡ªá¡§
Ġá¡¥á¡Ńá¡¬á¡ªá¢Ļ á¡Ńá¢ŀá¢ĳ
Ġá¡¥á¡Ńá¡¬á¡ªá¢Ļá¡Ńá¢Ķ á¡Ńá¢ĳá¡ªá¢Ľá¡³
Ġá¢ļá¡¬ á¡ªá¢Ķá¡ªá¢īá¡¨
Ġá¢ľá¡ªá¢ŀá¡¬á¢ĳá¢ļ á¡ªá¢īá¡¨
Ġá¢ľ á¢Łá¡¦
Ġá¢Įá¡ªá¢Ļ á¡ªá¢ĭá¡Ńá¢ĳá¡Ńá¢ĳá¢Ļá¡§
Ġá¡³á¡ªá¢ĳ á¡ªá¡«
Ġá¢Į á¡ªá¡ªá¡ªá¢Ļá¡ªá¡§
Ġá¡¥á¢Ĭá¡¬á¢ĳ á¡ªá¢ĳá¢Ļá¡§
Ġá¡´á¡Ńá¢Ĭ á¡¬á¡±
20 0
Ġá¢Ķ á¢ĺ
Ġá¢Ī á¡ªá¡ªá¢Ĭá¢Ļ
áłłáł¯áł ´
Ġá¢Īá¡Ńá¢Ļ á¡Ńá¢İá¢Ľá¡«
Ġá¡¬ á¡Ńá¡¬á¢ĳá¢ĭ
Ġá¡¬á¡¬á¢ŀ á¡±á¡±á¡ªá¢Ľá¡³
Ġá¡¸á¡ªá¢Ļá¡ªá¡±á¡± á¡Ńá¢Ľ
Ġá¢§ á¡ªá¡ªá¢Ļá¡ªá¡§
Ġá¢ĺá¡Ńá¡ªá¡ªá¢Ļ á¡ªá¢Ľá¡³
Ġá¡³á¡ªá¢Ļá¡ªá¢ŀ á¡ªá¡±á¡±á¡Ńá¢ĳá¢Ľá¡³
Ġá¡¥á¡ªá¢İá¡¬á¢Ļá¡Ńá¢ŀ á¡ªá¡ªá¡ªá¢Ķá¡ªá¡§
Ġá¡¬ á¡¬á¢ĭ
Ġá¡³á¡ªá¢ľ á¡ªá¢ŀ
Ġá¡¥á¡ªá¡¬ á¡¬á¢Ķ
Ġá¡¯á¡ªá¢İ á¢Ľ
Ġá¢ĺá¡ªá¢İá¢Ľ á¡¬á¡±á¡±á¡Ńá¢ĳá¢Ľá¡³
Ġá¡¸á¡ªá¢ŀ á¡ªá¡±á¡±á¡Ńá¢Ĳ
Ġá¢Ķ á¡Ńá¡±á¡±á¡³
á¡ªá¢İ á¡ªá¡ªá¡ªá¢ļá¡§
Ġá¡´á¡Ńá¡¬á¢ĳ á¡¬á¢ľá¡ªá¡§
áł¢áł¯ áłłáłŃ
á¡Ńá¢ĭá¡Ńá¢ĳ á¡Ńá¡§
Ġá¢ļ á¡Ńá¡ªá¡ªá¢Ļá¡³
Ġá¢Ĭá¡ªá¢Ķ á¡ªá¢Ŀ
Ġá¡¬ á¡Ńá¡¬á¢ĳ
Ġáłª áłłáł°
á¡ªá¡ªá¢Ĭá¡±á¡± á¡ªá¡ªá¡¬á¡¨
Ġá¡¥á¡Ńá¡¬á¡¬á¢ĳá¡ªá¡±á¡± á¡ªá¢Ļá¡ªá¢ĩ
á¡¥ á¡Ńá¢Ĭ
á¡Ńá¢Ľ á¡ªá¡²
Ġá¢ĺ á¡ªá¡³á¡ªá¡¨
Ġá¢ĺá¡Ńá¢ŀ á¢īá¡¨
á¡¬á¡Ńá¢Ĭ á¡¬á¢ľ
Ġá¢Įá¡Ńá¡¬á¢ §
á¡¬á¢ ¥
Ġá¢ĺá¡Ń á¡Ńá¢Ĺ
á¡ªá¢ĭ á¡Ńá¢Ķ
Ġá¢ĭá¡Ńá¡¬á¢Ĭ á¢Ľá¡¬á¢ĳ
ÑĤ Ð°Ð¹
Ġ M
Ġá¡¸á¡ªá¢ŀ á¢ļá¡ªá¡±á¡±á¡ªá¡«
Ġá¡¥á¢Ĭá¡¬á¢ĳ á¡ªá¢Ļá¡ªá¡¬á¡¨
Ġá¡¸á¡Ńá¡³á¡¬á¢ŀ á¡ªá¢Ľá¡³
á¡ªá¡¬ á¡¬á¢Ľ
Ġá¢Ĭ á¡¬á¢Ľá¡ªá¡«
Ġá¢Ī á¡ªá¡ªá¢Ĭá¢Ķ
Ġá¡¯á¡Ńá¡¬á¢ĳá¡Ńá¢Ĭ á¡ªá¢ĳá¡ªá¢ĭá¡Ń
á¡Ń á¡ªá¢ĺá¡¦
á¡¥ á¡ªá¡ªá¡ª
á¡³á¡ªá¢ŀ á¡¬á¢Ĳ
Ò¯ Ò¯
á¢ļá¡¬á¡ªá¡ª á¡ªá¡±á¡±á¡ªá¡Ńá¡§
á¡±á¡± á¡ªá¢Ļá¡ªá¡§
Ġá¡´á¡Ńá¢ĳ á¡Ńá¡±á¡±á¡ªá¢Ķá¡ªá¡«
á¡¥ á¡ªá¡«
Ġá¢ĺá¡ªá¡±á¡± á¡ªá¢Ķá¡¬á¢ľá¡ªá¢Ĳ
Ġá¡¥á¡¬á¢Ļ á¡ªá¢Ķá¡«
Ġáł° áł¢áł¯
áł¤áł¯áł ³áłł
á¡¥á¡Ńá¡¬á¢ĳ á¡ªá¢Ļ
á¡ªá¡¬á¡¬á¢ĳ á¡ªá¢Ĳ
Ġá¢ĺá¡Ńá¢Ļ á¡Ńá¡ªá¡ªá¢Ķá¡«
Ġá¡¸á¡Ń á¡Ńá¡ªá¡ªá¡ª
áł¡áł¯ áł¡áłŃ
Ġá¢Įá¡Ńá¢ŀ á¢Ļá¡ªá¡ªá¡ªá¡³
Ġá¢ıá¡Ńá¡³ á¢Ķ
á¡´ á¡Ńá¢Ķá¡Ńá¡§
Ġá¢ĺá¡ªá¡±á¡± á¡ªá¡ªá¡ªá¡³
á¡¬ á¡Ńá¡ªá¡ªá¢Ķ
á¡ªá¡³ á¡¬á¢ĳá¡¬á¡¬á¡¨
Ġá¡´á¡Ńá¢ĳá¢Ľ á¡Ńá¢İá¡Ńá¢Ŀ
Ġá¢Ķá¡ªá¡±á¡± á¡Ńá¡±á¡±á¡ªá¢ĳá¡«
á¡¥á¡Ń á¡Ńá¡±á¡±
á¡ªá¡ ¶
á¡ªá¢Ķ á¡ªá¢Ŀ
á¡ªá¢Ĭá¢Ļ á¡Ńá¢ŀá¢Ľá¡«
Ġá¢ĺá¡ªá¢Ĭ á¡ªá¢Ķá¡³
Ġá¡¥á¡Ńá¡¬á¢Ķ á¡¬á¡«á¡¨
Ġá¢ıá¡ªá¡³á¢Ļ á¡ªá¡±á¡±á¡Ńá¡§
Ġá¢ĺá¡ªá¡ªá¢Ĭá¡±á¡± á¡ªá¢ŀá¡¬á¢ĩ
á¢Ĭ á¡ªá¡Ńá¢Ĭá¡ªá¡§
Ġá¢Ĺ á¢Łá¡ªá¡¬á¡¨
Ġá¡´á¡Ńá¢Ķ á¡Ńá¡ªá¡ªá¢Ķá¡ªá¡§
á¡Ńá¢ĳ á¢Ľá¡«
Ġá¢ĭá¡Ńá¡¬á¢Ļá¡ªá¢ĳ á¡Ńá¢Ĳ
Ġá¢ĺá¡Ńá¡Ńá¡±á¡±á¡ªá¢ŀ á¡ªá¡ªá¡³
Ġá¡¸á¡Ńá¢ĳá¡´á¡Ńá¡±á¡± á¡ªá¢Ļá¡ªá¡«
á¡ªá¡³ á¢ļá¡¬á¡§
á¡¥á¡± á¡ªá¢ĭá¡Ń
á¡¬á¢ľ á¡ªá¢ŀá¡ªá¢Ľá¡³
á¡Ńá¡³ á¡ªá¡«
Ġá¢ĭá¡Ńá¡¬á¢ŀ á¡Ńá¡ªá¢Ĭá¢Ĭ
Ġá¢Īá¡Ńá¡±á¡± á¡Ńá¢Ľ
Ġá¡¥á¡ªá¢ĳ á¡¬á¡«á¡¨
Ġá¢ľá¡ªá¢ŀ á¡¬á¡³á¡ªá¢Ĳ
Ġá¢ĭá¡Ńá¡¬á¢Ĭá¢Ľ á¡¬á¢ľá¡ªá¡§
á¡Ńá¢ļ á¡Ńá¡Ńá¢Ĳ
á¡¥á¡Ńá¡¬á¢Ĭ á¡ªá¢Ŀá¡¨
ÑĤ ÑįÐ¹
Ġá¢Ķá¡ªá¡± á¡ªá¢Ļá¡ªá¢ĩ
² áł¡
á¡¥á¡Ńá¡¬á¢ŀá¢ĳ á¡Ńá¢Ĭá¡ªá¡¨
á¡¬á¢İá¡¶ á¡¬á¢£
Ġá¢Ķ á¡¬á¡¬
Ġá¡¥á¢ŀ á¡³á¡ªá¢Ĭá¡ªá¡«
Ġá¡¥á¡Ńá¡´ á¡Ńá¡±á¡±
áł¡áł¯ áł¡áł¬
ï¸ ¶
Ġá¢ĺá¡Ńá¢Ļ á¡ªá¡ªá¡ªá¡³
Ġá¡¸á¡ªá¢İá¢Ļ á¡Ńá¡³á¡ªá¢Ŀ
Ġá¡¥ á¡ªá¢ĺ
Ġá¢ĺá¡ªá¡±á¡±á¡Ńá¢Ļ á¡ªá¢Ļá¡ªá¢ĩ
á¡Ńá¡ªá¡ªá¢Ļ á¡ªá¡°á¡¨
Ġá¡¥á¡ªá¡´ á¡Ńá¡«á¡¨
Ġá¡¸á¡ªá¢Ļá¡ªá¡±á¡± á¡ªá¢ĳá¡ªá¡ªá¡ªá¡³
Ġá¡¥á¡ªá¡±á¡±á¡Ńá¢ĳá¢Ľ á¡ªá¢ĳá¢Ļá¡§
Ġáł¬áł¤áł· áłłáł¯
á¡´ á¡Ńá¡¬
Ġá¡³á¡ªá¡¬á¡¬á¢ļ á¡ªá¡±á¡±á¡ªá¢Ľá¡³
Ġá¢Ĭá¡¬á¢İ á¡«
Ġá¡¸á¡Ńá¢ŀá¢Ķ á¡¬á¡«á¡¨
á¢Ł á¡²
Ġáł¢áł¶ áł¡áł·
á¡Ńá¢ £
á¡ªá¢ĳá¢Ľ á¡ªá¡ªá¡ªá¢Ķá¡ªá¡§
Ġá¡¥á¡Ńá¢ŀ á¡¬á¢ľá¡ªá¢ĳ
Ġá¡¶ á¡ªá¢ŀ
Ġá¢ĭá¡Ńá¡¬á¢ļá¡¬á¢ŀá¢Ļ á¡ªá¢Ĳ
Ġá¢ĺá¡ªá¡¬á¡¬á¢Ķ á¡ªá¡§
Ġá¡³ á¡Ńá¡«
á¡¥ á¡Ńá¡¬á¡ªá¢Ĭá¢Ĭá¡ªá¡¨
Ġá¡³á¡ªá¡¬ á¡¬á¢İá¡ªá¢Ŀ
á¢ŀ á¡Ńá¡²
Ġáł° áł¢áł·
Ġá¡¸á¡Ń á¡ªá¢Ľ
Ġ D
Ġá¢ľ á¡ªá¢ĭá¡Ńá¢ĳ
Ġá¡¸á¡Ńá¢Ļ á¡Ńá¡±á¡±á¡Ńá¢Ŀ
Ġá¡¥á¡Ńá¢Ļá¡Ńá¢ŀá¡¬á¢Ļ á¡Ńá¡ªá¡ªá¢ļá¡«
Ġá¡¬á¡¬á¡±á¡±á¡Ńá¢ĳá¢ļ á¡¬á¢ĳá¡ªá¢Ĳ
áłłáł¯áł ²áłł
å Į
á¡ªá¢Ļ á¡Ńá¢Ĭá¡¬á¡¦
Ġáł¬ áł¦áł¨
Ġá¡¯á¡ªá¢ŀ á¡ªá¢ĳá¡ªá¢Ļá¡ªá¡¬á¡¨
Ġá¢Īá¡ªá¢ŀ á¢ļá¡ªá¢īá¡¨
á¡Ńá¢ĳá¢ļ á¡ªá¡ªá¡ªá¢Ķá¡ªá¡§
á¡Ńá¢ĳá¢Ļ á¡Ńá¡§
á¡Ńá¡ª á¡ªá¢ĳá¡ªá¡§
Ġá¢ĺá¡Ńá¢Ķ á¡ªá¢Ļá¡ªá¡«
á¡Ńá¢İá¢Ķ á¡Ńá¢ĩ
á¢ĺ á¡Ńá¡±á¡±á¡Ńá¢ŀ
Ġá¡¸á¡ªá¢ŀá¡¬á¢ļ á¡ªá¡ªá¢Ĭá¡±á¡±á¡Ńá¡«
Ġá¡¥á¢ŀ á¢ĳá¡¬á¡¬á¡¨
Ġá¢Ķá¡ªá¡±á¡± á¡Ńá¢Ĳá¡¨
Ġá¡¥á¡Ńá¡ªá¡ª á¡ªá¢īá¡¨
Ġá¢Ķá¡ªá¢Ĭ á¡¬á¢Ľá¡³
Ġá¡´á¡Ńá¢ļ á¡ªá¡ªá¡ªá¢Ķá¡ªá¡§
á¡ªá¡± á¡ªá¢Ľá¡³
á¡ªá¡±á¡± á¡ªá¢ĳá¡ªá¡ªá¡ªá¡³
Ġá¡³á¡ªá¢ŀ á¡ªá¢Ľá¡³
á¡ªá¢ļá¡¬á¢Ĭ á¡ªá¢ĭá¡Ń
Ġá¢ĺá¡Ńá¡¬á¢ĭá¡Ńá¢Ĭá¡ªá¢ŀ á¡Ńá¢İá¢Ľá¡«
Ġá¢ĺá¡Ńá¡¬á¢ļ á¡«
á¡ªá¢Ļ á¡ªá¢Ĭá¡ªá¡¨
á¡¬á¡ªá¡ªá¢Ļ á¡ªá¢Ĳ
á¢Ķ á¡³
áł¡áłŃ áł¡áł³
Ġá¡¯á¡ªá¢Ķ á¡Ńá¢Ļ
Ġá¡¥á¢İá¢Ľ á¡ªá¡¬á¡¨
Ġá¢Ĭ á¡¬á¢Ĭ
á¢Ī á¡ªá¡ªá¡ªá¢ļá¡§
á¢Ķ á¡Ńá¡¬á¡¨
á¡¬á¡± á¡¬á¢įá¡¨
Ġá¢Ķá¡ªá¡Ńá¡ªá¢Ĭ á¡¬á¢Ĭá¢Ļá¡ªá¢Ĳ
ĠáłŃ áł¡áł³áł¡áłŃ
Ġá¢Īá¡ªá¢Ķ á¡¬á¡±á¡±
á¡Ńá¡ªá¢Ĭá¡±á¡± á¡ªá¢ĳá¡ªá¢ĩ
Ġá¡¥á¡Ńá¡¬á¡¬á¢ĳ á¡±á¡±á¡ªá¡ªá¡ªá¡³
áłłáł° áł¤áł¨
á¡ªá¢ŀ á¡ªá¡³á¡ªá¡¨
Ġáł º
Ġá¡¬á¡¬á¡±á¡± á¡ªá¢Ļá¡ªá¢ĩ
Ġá¢¤á¡ªá¢Ļ á¡ªá¢Ŀ
Ġá¢ĭá¡Ńá¡¬á¢ŀ á¡³á¡ªá¡¨
Ġá¢ĭá¡Ńá¡¬á¢ļá¡¬á¢ŀá¢Ļ á¡ªá¡«
Ġá¢Ķá¡¬á¢ĳ á¡±á¡±á¡ªá¡§
Ġá¢ĺá¡¬á¢ľ á¡ªá¢ĺá¢Ŀ
Ġá¢ĭá¡Ńá¡¬á¢Ľ á¡Ńá¢ĭá¡Ńá¡§
á¡Ń á¡ªá¢Ļá¡§
á¡¬á¡±á¡± á¡Ńá¢Ĳ
Ġá¡¥á¢ĭá¡Ńá¢Ķ á¢Ĭá¡ªá¡§
Ġá¡¥á¡¬á¡³ á¡ªá¢Ĭá¡ªá¢Ĳ
Ġá¢ĺá¡ªá¡± á¡¬á¢Ļá¡ªá¢ĩ
Ġá¡¸á¡Ńá¢Ľ á¡¬á¡Ńá¡§
Ġá¢ĺá¡ªá¢Ĭá¡ªá¢Ĭá¢Ķá¡¬á¢ĳ á¡ªá¢ĭá¡Ńá¢ĳá¢Ľá¡³
Ġá¢ļ á¢Łá¡§
Ġá¡¥á¡Ńá¡¬á¢ŀá¡± á¡¬á¢ĭá¡Ńá¢ĳá¢Ľá¡³
Ġá¡¥á¡Ńá¢ļ á¡ªá¢ŀá¡ªá¢Ľá¡³
Ġá¡¸á¡Ńá¢ľ á¡ªá¢ĩ
Ġá¡¯á¡Ńá¡¬á¢ĳá¡Ńá¢Ĭ á¡ªá¢ĳá¡ªá¢Ľá¡³
á¡¥ á¡ªá¢ĩá¡¨
Ġá¡¥á¡ªá¢Ľ á¡Ńá¡±á¡±á¡³
Ġá¡´á¡Ńá¡¬á¢ŀ á¡¬
Ġá¢ĭá¡Ńá¡¬á¡ªá¢Ļ á¡Ńá¢ŀ
á¡¸á¡Ńá¢ľ á¡ªá¢Ļá¡Ńá¡±á¡±á¡ªá¢Ŀ
Ġáł¬áł¥ áł®
Ġá¡¥á¢ŀá¢Ĭ á¡¬á¢ĭá¡Ńá¢ĳá¢Ľá¡³
Ġá¡¬á¡Ńá¢ŀ á¡¬á¡±á¡±á¡Ńá¢ĳá¢Ľá¡³
Ġá¢Ĭá¡¬á¢ĳ á¡³á¡ªá¢īá¡¨
Ġá¢ľá¡ªá¡ªá¢Ĭ á¢Ľ
Ġá¡¸á¡Ńá¢ŀ á¡Ńá¡Ńá¡§
Ġá¡¥á¡Ńá¢ŀá¡Ńá¢Ķ á¡¬á¢Ĳ
Ġáł´ áł¢
Ġá¢§ á¡«
á¡ªá¢Ļ á¡¦
Ġá¡¥á¡Ńá¢ŀ á¡Ńá¡³á¡ªá¢Ĳ
Ġá¢Ķá¡ªá¢ŀ á¡ªá¡¬á¡¬á¡§
Ġá¡¸á¡ªá¢ŀ á¡ªá¢ļá¡¬á¡§
Ġá¡¥á¡Ńá¢ĳá¡ªá¢İá¢Ľá¡¬á¢ĳ á¡ªá¢Ľá¡³
á¡¬á¡± á¡ªá¢Ĭá¡¬á¡¦
Ġá¢Ĭá¡ªá¢Ļ á¡ªá¢ŀá¢ĭá¡Ń
Ġá¢Ķá¡ªá¢ĳ á¡ªá¡±á¡±á¡ªá¡§
Ġá¢Īá¡ªá¢ĳ á¡³á¡ªá¡¨
Ġá¡¥á¡¬á¢ĳá¡ªá¢ŀ á¡ªá¢ĭá¡Ńá¢ĳá¡Ńá¢Ĭá¢Ķá¡ªá¡§
Ġá¡³á¡ªá¡ªá¡ªá¢Ķ á¡¬á¡±á¡ªá¢Ŀ
Ġá¢ĺá¡ªá¡³á¢Ķ á¡¬á¡ªá¡ªá¡³
á¡¥á¡³á¡ªá¡Ń á¡ªá¢ļá¡¬á¡§
Ġá¡¸á¡Ńá¡³ á¡¬á¢ľá¡ªá¢ŀá¡«
Ġá¡¥á¢ĭá¡Ńá¡Ń á¡ªá¢ĭá¡Ń
á¡¬á¢İ á¢Ľá¡«
Ġá¢Ķá¡ªá¡± á¡ªá¡±á¡±á¡Ńá¢ĳá¢īá¡¨
3 0
Ġá¡¥á¡¬á¢ŀ á¡Ńá¡±á¡±á¡ªá¢Ŀ
Ġá¡¥á¢Ľ á¡ªá¢ĳá¡ªá¢ĭá¡Ń
Ġá¢ľá¡ªá¡±á¡±á¡ªá¢Ĭ á¡¬á¡§
Ġá¢ĺá¡Ńá¡¬á¡³ á¡ªá¡¬á¡¨
Ġá¡¯ á¡¬á¡ªá¢Ĭ
Ġá¢Ķá¡ªá¢ĳ á¡±á¡±á¡ªá¢Ľá¡³
á¡¸á¡Ńá¢ŀ á¡³á¡¨
Ġá¡¸á¡ªá¢İá¢Ļ á¡Ńá¢ŀ
Ġá¡¥á¡¬á¢ĳ á¡±á¡±á¡ªá¢Ľá¡³
Ġá¡¬á¡¬á¢ĳ á¡ªá¢īá¡¨
á¡¸á¡ª á¡Ńá¢ĳá¡«
á¢Ķ á¡¬á¡±
áłłáł° áł¢
Ġá¡¸ á¡Ńá¡«
Ġá¢ľ á¡Ńá¢İá¢Ķá¡¬á¢ĩ
Ġáł¶ áł¡áł·
Ġá¡´á¡Ńá¡¬á¡¬á¢Ľ á¡¬á¢ĳá¢Ļá¡§
Ġáł¤ áł¢
Ġá¡¥á¡¬á¢Ķ á¢ĭá¡Ńá¢ĳ
Ġá¡¥á¡¬á¡³ á¢ļ
á¢Ķá¡Ńá¢ŀ á¡±á¡±á¡ªá¡§
á¡ªá¡³á¢ļ á¡¬á¢ĳá¡ªá¡§
Ġá¡¥á¡Ńá¡¬á¡¬á¢ĳá¡ªá¢ļá¡¬á¢ĳ á¡ªá¢ĭá¡Ń
á¡¥á¡ªá¡³ á¢ļá¡³
Ġá¢ĺá¡ªá¢Ķ á¡´á¡Ńá¢ŀ
Ð°Ð¹ Ð»
Ġá¡³á¡ªá¢ŀ á¢Ĭá¡ªá¡§
á¡ªá¢ĳá¢Ľ á¡ªá¡°á¡¨
Ġá¢Ķá¡Ńá¡±á¡¬á¢ŀ á¡ªá¡ªá¡ªá¢Ľá¡³
áł¦áł¯áł µáł¦
Ġáł´áł¢áł¨ áł¢
Ġáłªáłłáł° áłł
Ġá¢Ķ á¡Ńá¡Ń
Ġá¡¬ á¡ªá¡±
Ġá¡¥á¢ŀá¢Ĭ á¡ªá¢Ķ
Ġá¡¥á¡Ńá¢ŀá¡±á¡± á¡Ńá¢Ļá¡ªá¢ĩ
Ġáł² áł£áłŃ
Ġá¢ĺá¡Ńá¡¬á¢İ á¡ªá¡Ńá¡§
Ġá¢Ķá¡¬á¢ĭ á¡Ńá¢Ķá¡³
Ġá¡¥á¡Ńá¢ŀá¡¬á¢ľ á¡ªá¡ªá¢Ĭá¡ªá¡ªá¡ªá¡«
Ġáł¬áł¤áłŃ áł¤áł´
Ġá¢Ķá¡¬á¡ªá¢Ľá¡¬á¢ĳ á¡ªá¢Ĭá¡ªá¡¨
Ġá¢ĺá¡ªá¢ĳá¡³ á¡¬á¡°á¡¨
Ġá¢ĭá¡Ńá¡¬á¢Ļá¡Ńá¢ĳ á¡´á¡Ńá¢ŀá¡«
Ġá¢ĺá¡ªá¢Ĭ á¡¬á¢Ļá¡ªá¢ĩ
á¡¸ á¡Ńá¢Ľ
Ġá¢Ķá¡ªá¡± á¡ªá¡ªá¡ªá¢Ļá¡ªá¡ªá¡ªá¢Ķá¡ªá¡§
Ġá¢ĺá¡ªá¢Ĭ á¡ªá¢Ĭá¡ªá¢Ľá¡³
Ġá¡¥á¡Ń á¡Ńá¡±á¡±á¡Ńá¢ĳ
Ġá¢Ķá¡ªá¢ĳ á¡Ńá¡ªá¡ªá¢Ķá¡ªá¡§
Ġá¢Ķá¡Ńá¢ĳ á¡¬á¡ªá¡ªá¡³
á¢ĳ á¡ªá¢Ĭá¡ªá¡Ńá¡§
Ġá¡³á¡ªá¡¬á¡¬ á¡ªá¡ª
Ġá¢ĺá¡Ńá¢ĳ á¡Ńá¢ĳá¢Ļá¡Ńá¡±á¡±á¡ªá¡§
Ġá¡¸á¡ªá¢ŀá¡¬á¡±á¡±á¡Ńá¢ļ á¡ªá¢Ľá¡³
ĠÑħ Ò¯Ð½
á¡¥á¡Ń á¡´
Ġá¢ľá¡ªá¢İá¡ªá¢ŀ á¡³á¡ªá¡¨
Ġá¢ļ á¡Ńá¡±á¡±á¡Ńá¢ŀ
á¢Ī á¡ªá¢ĳ
Ġá¡¥á¡Ńá¢ŀá¡Ńá¢Ķ á¡¬á¡ªá¡ªá¡Ńá¡«
Ġá¢Ķá¡Ńá¡±á¡¬á¢ŀ á¡ªá¡ªá¡ªá¡ªá¡ªá¡³
á¡´á¡Ńá¢ĳá¡³ á¡ªá¢Ķ
Ġá¡¥á¡¬á¢ŀ á¡Ńá¢Ĭ
Ġá¢ı á¡¬á¢ľá¡ªá¡ªá¡¬á¡¨
Ġá¡¥á¡Ńá¡¬á¡³ á¢ļá¡«
Ġá¢ĺá¡ªá¡³ á¡ªá¢ĩ
á¡¬á¢ľ á¡ªá¢ļá¡«
á¢ľ á¡ªá¢ĩ
á¢ľ á¡¬á¢ŀá¢Ļá¡¬á¡ªá¢ļá¡³
Ġá¢Ķá¡ªá¢İ á¡ªá¢Ĭá¡ªá¢Ŀ
Ġá¢ĺá¡ªá¢Ķá¡Ńá¢ŀ á¡ªá¡ªá¡ªá¡«
Ġá¢ľá¡ªá¡±á¡± á¡Ńá¢İá¡ªá¢ĵ
á¡¥á¡ªá¢Ķá¡ªá¡±á¡± á¡Ńá¢Ļá¡ªá¢Ĳ
á¡Ńá¢Ļ á¡Ńá¢ĳá¢īá¡¨
Ġá¢Ĭá¡ªá¢ĭá¡Ń á¡³
Ġá¢Ķá¡ªá¡ªá¢Ļ á¡Ńá¢ŀá¢ļá¡³
ĠÐĽÐ°Ð¼ Ð°
á¡± á¡ªá¢Ĳ
," ãĢĬ
Ġá¡¬á¡ªá¡¬á¡¬á¢ĳ á¡ªá¢Ķá¡«
á¡ªá¡±á¡± á¡Ńá¢Ķá¡¬á¢Ļá¡ªá¡«
á¡ªá¢Ĭá¢Ļ á¡ªá¢Ľá¡ªá¡«
á¢Ķá¡Ńá¡¬ á¡±á¡«
Ġá¡¥á¡Ńá¡¬á¢Ĭá¡ªá¢ŀá¡ªá¢ļá¡¬á¢ĳ á¡ªá¢Ľá¡³
Ġá¡¬ á¡Ńá¢īá¡¨
á¡ªá¢Ķ á¢Ĭ
Ġá¢ĺá¡ªá¡³ á¡¬á¢Ķ
á¡¬á¢ĭá¡Ńá¢ĳ á¡Ńá¢Ĭá¡ªá¡Ńá¡§
Ġá¢Ĭá¡ªá¡³ á¢Ļá¡ªá¢ĭá¡Ń
Ġá¢ĺá¡ªá¡³ á¡ªá¡ªá¡ªá¡³
Ġá¡¸á¡ª á¡ªá¢ļ
Ġáłª áł¢áł³
Ġá¡¥á¢İá¡Ńá¢Ķ á¡Ńá¢Ĭá¢Ķá¡ªá¡§
á¢ĺá¡ªá¢Ĭ á¡ªá¡³á¡ªá¢Ĳ
Ġá¡³á¡¬á¢ļá¡¬á¢Ĭ á¡ªá¢Ķá¡³
Ġá¢ĺá¡ªá¡±á¡± á¡ªá¡±á¡±á¡ªá¡ªá¡ªá¡³
Ñį Ñį
á¡Ńá¢ĳá¢Ļ á¡ªá¡¬á¡¨
á¢ĺá¡ªá¢ŀ á¡Ńá¢īá¡¨
á¡ªá¢ŀ á¡ªá¢ĭá¡Ńá¢ĳá¢Ľá¡³
Ġá¢Ķá¡Ńá¢ŀ á¡Ńá¢ĳá¡±á¡±á¡ªá¢Ļá¡ªá¡§
Ġá¡¥á¢Ĭ á¡ªá¢Ļ
Ġá¡¥á¡ªá¢ŀá¡¬á¢ĳ á¡±á¡±á¡ªá¡ªá¡ªá¡³
á¡Ńá¡±á¡± á¡ªá¢ļá¡¬á¡Ńá¡§
á¡¸ á¡Ńá¡±á¡±á¡Ńá¢ŀ
á¡¬á¡±á¡±á¡Ńá¢ĳ á¡Ńá¡±á¡±á¡ªá¡Ńá¡§
Ġáł¤áł ¶
Ġá¡³á¡¬á¢ĳ á¢Łá¢ĺá¡¦
Ġá¡´á¡Ńá¢ĳá¢ļá¡¬ á¡ªá¡ªá¡ªá¡³á¡ªá¡¨
á¡¬á¢ĳ á¡«
Ġá¡¥á¢İá¢Ĭ á¡ªá¡±
Ġá¡¸á¡ª á¡ªá¢Ķá¡Ńá¡¬á¢įá¡¨
Ġá¢Īá¡ªá¢Ļ á¡ªá¢īá¡¨
Ġá¢Īá¡Ńá¢ľ á¡Ńá¡ªá¡ªá¡³
Ġá¢ĺá¡Ńá¢ŀá¢Ķ á¡¬á¢Ļá¡§
Ġá¢ļ á¡Ńá¢Ŀ
Ġá¡³á¡¬á¢ļ á¡¬á¡°á¡¨
Ġá¡¥á¡¬á¡ªá¢Ĭá¢Ĭ á¡¬á¡³á¡ªá¢Ĳ
á¡ªá¡ªá¢Ķ á¡ªá¡ªá¡¬á¡¨
Ġá¡¥á¢İ á¢Łá¡¦
Ġá¡¸á¡ªá¡¬á¡¬á¢ŀ á¡ªá¢ĳá¡ªá¢Ļá¡ªá¢ĩ
á¡ªá¢ £
á¢Ķ á¡¬á¡¬á¡¨
á¡ªá¡ªá¡ª á¡Ńá¡¬á¡ªá¢Ļá¡Ńá¢Ŀ
Ġá¡¥á¡ªá¡´ á¡Ńá¡³á¡ªá¢Ĳ
á¡³ á¡¬á¢ĳá¡§
Ġáł¦áł¢áł¯ áł¡áł³
á¡ªá¢ ¨
á¡³ á¡¬á¢Ļ
á¢Ķ á¡ªá¢ļ
Ġá¡¥á¡¬á¢ŀá¢Ĭ á¡ªá¡ªá¢Ķá¡¬á¢Ĳ
á¡³ á¡ªá¢Ŀá¡¨
á¡¯ á¡¬á¢Ļá¡³
Ġá¡³á¡ªá¢ľá¡ªá¢Ķ á¡ªá¡ªá¡Ńá¢ĳá¡ªá¡ªá¡¬á¡¨
Ġá¢ľ á¡Ńá¡¬á¡ªá¡¬á¡¨
Ġá¢ĺá¡ªá¡±á¡± á¡ªá¡±á¡±á¡ªá¡ªá¡ªá¢Ķá¡ªá¡§
áł¢áł° áł¢
á¡Ńá¡±á¡± á¡ªá¡ªá¡ªá¢Ķá¡ªá¡§
Ġá¡¥á¢ŀ á¢ļá¡¬á¢İ
áłłáł¬ áł¢
á¢Ľ á¡¬á¢ŀ
Ġá¢ĭá¡Ńá¡¬ á¡¬á¢Ķá¡³
áł´ áł¦
Ġá¢ļá¡Ńá¡¬á¢ įá¡¨
Ġá¡´á¡Ńá¢ĳá¢ļá¡¬á¡ªá¡ª á¡ªá¡ªá¡ªá¡³
Ġá¢ĺá¡ªá¡Ńá¡ªá¢ĭ á¡Ńá¢ĭá¡Ń
á¡ªá¢Ķ á¡Ńá¡¬á¢ŀá¡Ńá¡ªá¡¬á¡¨
Ġá¡´ á¡Ńá¢ĩ
á¡Ńá¡Ń á¡ªá¢ļá¡³
Ġá¡³á¡ªá¡ªá¡ªá¢Ļ á¡ªá¡±á¡±á¡ªá¡ªá¡ªá¢Ķá¡ªá¡§
) ,
áł į
Ġá¢Īá¡ªá¡¬ á¡¬á¡±á¡±á¡Ńá¡«
áł¡áłª áł¡áł¯
á¡±á¡± á¡ªá¡«
Ġá¢Ĺ á¡ªá¡ªá¢Ĭá¡ªá¡ªá¡ªá¡«
á¢İ á¡«
Ġá¡¥á¡Ńá¡± á¡Ńá¡ªá¡ªá¢Ķá¡ªá¡§
Ġá¡³ á¡ªá¡ªá¡ªá¢Ļá¡ªá¡ªá¡ªá¡³
Ġá¢Ķ á¡ªá¡ª
Ġá¡¸ á¡Ńá¡ªá¢Ĭá¢Ķ
Ġáłªáł¤áł¯áł ª
Ġá¢Ķá¡Ńá¡¬á¢Ķ á¡Ńá¡¬á¡¨
Ġá¡¸á¡ªá¡ªá¢Ĭ á¡ªá¡ªá¡Ńá¢ĳ
Ġá¢Ķá¡ªá¢Ļá¡Ńá¡³ á¢Ļá¡³
Ġá¡¬á¡¬á¡±á¡± á¡ªá¡´á¡Ńá¢ŀá¡«
Ġáł´ áł¢áł©áłŃ
á¡¥á¢ļ á¡¬á¢Ĭá¡ªá¡¨
á¢ĺá¡Ńá¡¬á¢ĭá¡Ńá¢ŀ á¡¬á¡¬á¡¨
á¢ĳ á¡ªá¡³á¡ªá¡¨
Ġá¡¥á¢Ĭ á¡ªá¢Ĭá¡ªá¡¨
Ġá¢ĺá¡ªá¡±á¡±á¡Ńá¢ŀ á¡¬á¢Ķ
Ġá¡¥á¡ªá¢ľ á¡ªá¡±á¡±á¡ªá¡§
Ġá¡¥á¡ªá¡±á¡± á¡ªá¢ĳá¡«
å ¹
Ġá¢ĭá¡Ńá¡¬á¢ŀ á¡Ńá¢Ĭá¡ªá¡¨
Ġá¡¯á¡ªá¡¬á¡¬á¢Ļá¡ªá¢ĳ á¡ªá¡³á¡ªá¡¨
Ġáł¤áł¬ áłłáłŃáłłáł¨
á¡¬á¢ľ á¡ªá¢ļá¡¬á¡§
Ġá¢ı á¡ªá¡§
Ġáł¬ áł¡áł³
Ġá¡¯á¡ªá¡¬á¡¬á¢ŀ á¡ªá¡±á¡±á¡Ńá¢ĳá¡Ńá¡ªá¡ªá¢Ķá¡ªá¡§
Ġá¡¥á¡ªá¢Ĭá¡± á¡ªá¢Ĭá¡ªá¡§
Ġ S
Ġá¡¸á¡Ńá¢Ł á¡ªá¢ŀá¡ªá¢ĩ
Ġá¡¥á¡Ńá¡ªá¡ªá¡ªá¡±á¡± á¡ªá¢ĳá¡¬á¢ĩ
Ġá¡´á¡Ńá¢Ļ á¢Ļ
Ġá¡´á¡Ńá¢Ķ á¡ªá¡ªá¡ªá¡ªá¡ªá¡³
Ġá¢ĺá¡Ńá¡¬á¢ŀá¡¬á¢İ á¡ªá¢Ĭ
Ġá¢ļá¡¬á¡±á¡ªá¡ªá¡ªá¢Ķá¡¬á¢ĳ á¡ªá¡±á¡±á¡ªá¡Ńá¡§
á¡ªá¢İ á¢Ļá¡ªá¢Ľá¡³
á¡¬á¡±á¡± á¡ªá¢ŀá¡ªá¡«
Ġá¢ĺá¡Ńá¡¬á¢Ķ á¡¬á¢İá¡ªá¡Ńá¡§
á¡Ńá¢Ļ á¡ªá¡°á¡¨
Ġá¡¥á¡ªá¢Ĭ á¡¬á¡±á¡±á¡Ńá¢ĳá¢Ľá¡³
Ġá¡¥á¡Ńá¡¬á¢ŀá¡Ńá¢Ĭ á¡ªá¢Ķá¡Ńá¡§
Ġá¡¥á¡Ńá¡ªá¡ªá¢Ļ á¡Ńá¢Ľá¡³
á¡ªá¢Ķ á¡Ńá¡°á¡¨
á¡¸ á¡Ńá¢ŀá¡ªá¢Ĳ
Ġáł¬ áłłáł¶
Ġá¢ĺá¡ªá¢ŀá¡ªá¡±á¡± á¡ªá¢ļá¡«
á¢ ¦
Ġá¢ĺá¡ªá¢Ļ á¡ªá¡±á¡±á¡ªá¡Ńá¡§
á¡¬á¢ĭá¡Ńá¢ĳ á¡Ńá¢Ĳ
ĠáłŃáł¤ áł¤áł¯
Ġá¢Ķá¡¬á¡± á¡ªá¡Ńá¡ªá¢Ĭ
Ġá¡´á¡Ńá¡¬á¢Ľ á¡¬á¢Ĭá¢ĳ
á¡ªá¡¬ á¡¬á¡°á¡¨
á¡ªá¢Ķ á¡¬á¢ŀá¡ªá¢Ĳ
á¡Ńá¡³ á¡ªá¢ļá¡³
Ġáł¢ áł³
Ġáł¬áł¤áł¶ áłłáł·
Ġá¢Įá¡ªá¢Ļ á¡ªá¢Ĳá¡¨
á¡¬á¢Ł á¡ªá¡§
Ġáłłáłµáł¢áł¯áł ¯
Ġá¡¥á¡Ńá¢Ļ á¡Ńá¢Ŀ
Ġá¢ĺá¡ªá¡³ á¡¬á¡¦
Ġá¡¸á¡ªá¢İ á¡Ńá¢ŀ
Ġá¡¬á¡ªá¢ŀ á¡Ńá¡ªá¡ªá¡³
Ġá¡¯á¡ªá¡¬á¡¬á¢ŀ á¡ªá¡±á¡±á¡Ńá¢ĳá¢Ľá¡³
Ġá¢ĺá¡Ńá¡ªá¡ªá¢ĳ á¡ªá¡ªá¡ªá¢Ķá¡ªá¡§
Ġá¡¥á¡¬á¡±á¡¬á¢ľ á¡ªá¢ĭá¡Ń
Ġá¡¸á¡ªá¡³á¢Ķ á¡Ńá¢ŀá¢ļá¡³
Ġá¢ĺá¡ªá¡³ á¡ªá¢ĳá¡±á¡±á¡ªá¡§
Ġá¡´á¡Ńá¢ļ á¡ªá¢ĳ
Ġ .
á¡¬á¡³ á¡ªá¢ļá¡³
Ġá¢ĺá¡Ńá¡¬á¢ĳ á¡ªá¢Ĭá¡ªá¡¨
Ġá¡¬á¡Ńá¡¬á¡³á¢ĳ á¡ªá¢ĳá¢Ĭá¡ªá¡§
á¡³á¡ªá¢ľ á¡ªá¡§
Ġá¢Ĭ á¡¬á¢Ļá¡ªá¡§
Ġá¢ĺá¡ªá¢Ļ á¡ªá¡´á¡Ńá¢ŀá¡«
á¢ĺá¡Ńá¢İ á¢Ļá¡§
l e
Ġá¡¥á¡ªá¢ĳ á¡Ńá¢Ķ
á¡ªá¡ª á¡ªá¢ĳá¢Ļá¡³
á¡¥á¡Ńá¢Ļ á¡ªá¢īá¡¨
á¡Ńá¡³ á¡ªá¢Ķá¡³
á¢ĭ á¡Ńá¢į
Ġá¢ĺá¡Ńá¢Ķ á¡ªá¢ĳá¡ªá¡ªá¡ªá¢ļá¡«
Ġá¡³á¡ªá¢ĳá¢ļ á¡¬á¢Ĭ
Ġá¢Ķá¡ªá¢ŀá¢ĭ á¡Ńá¢Ĭá¡ªá¡§
Ġá¡¥á¡Ńá¢ĳ á¡Ńá¡°á¡¨
Ġá¢ĺá¡ªá¡±á¡± á¡Ńá¢Ļá¡ªá¡§
Ġá¢Ķá¡Ńá¢Ļá¡Ńá¢ĳ á¡Ńá¡±á¡±á¡ªá¢ļá¡«
Ġá¢Ĭá¡ªá¢ĳá¡ªá¢ĳá¢ļ á¡ªá¢Ĭá¡ªá¢Ŀ
Ġá¡¸ á¡Ńá¢İá¢Ķ
Ġá¡¥á¡¬á¢ĳ á¡ªá¢Ĭá¡ªá¡§
Ġá¢Ķá¡Ńá¢ŀá¡±á¡± á¡ªá¢İá¢Ľá¡«
Ġá¡¯á¡¬á¢Ļ á¡Ńá¡±á¡Ńá¡§
Ġá¡¬á¡ªá¢ŀá¢Ĭ á¡ªá¢ļá¡ªá¡§
Ġá¢Ķá¡ªá¡Ńá¡ªá¢Ĭ á¡¬á¢ĭá¡Ń
áł¬ áłłáł¢
Ġá¡¬á¡ªá¢Ĭ á¡ªá¢Ŀá¡¨
Ġá¡³á¡ªá¡¬á¡¬á¡±á¡± á¡ªá¢ĳ
Ġá¢ľá¡ªá¢ŀá¡¬á¢ĳá¢ļ á¡ªá¢ĳá¢īá¡¨
Ġá¢Ķá¡¬á¡¬á¡Ń á¡ªá¡´á¡Ńá¢ŀá¡¬á¢ĳá¡ªá¢Ľá¡³
á¡´ á¡Ńá¢ľá¡³
Ġá¢Ķá¡Ńá¡± á¡¬á¡±á¡±
áłłáł¯ áł¢áłŃ
Ġá¢Ĭá¡ªá¢Ĭ á¡ªá¢ŀá¡ªá¢ĭá¡Ń
Ġá¡¸á¡ªá¡ªá¢Ļ á¡Ńá¢ĳá¢īá¡¨
á¡Ńá¢ĳ á¡ªá¢Ĭá¡ªá¡Ńá¡§
á¡´ á¡Ńá¡¬á¢Ŀ
Ġá¡¥á¡ª á¡Ńá¡ªá¡ªá¡ªá¡Ńá¡§
Ġá¡³á¡ªá¡±á¡±á¡ªá¢Ļ á¡Ńá¢ŀá¢ĳá¡¬á¢ĩ
Ġáłªáł¢áł´ áł¢áłŃ
Ġá¢Ĭá¡ªá¢ŀ á¡¬á¡«á¡¨
Ġá¢Ķá¡¬á¢ĳ á¢Ļá¡ªá¢ĩ
Ġá¢Īá¡ªá¢ŀá¡±á¡± á¡ªá¡³á¡ªá¡¨
Ġá¢ĭá¡Ńá¡¬á¢İ á¡Ńá¢Ķ
Ġá¡³á¡ªá¡ªá¡ªá¢Ļ á¡ªá¡±á¡±
Ġá¢Įá¡Ńá¡¬á¢§ á¢Łá¡«
á¢Ĭ á¡ªá¢Ļá¡³
áł¡áłª áł¡
Ġá¢ĺá¡Ńá¢Ķ á¡¬á¢ľá¡ªá¡ªá¡ªá¡³
Ġá¢ļá¡Ńá¢Ĭ á¡¬á¡ªá¡ªá¡³
Ġá¢ļá¡Ńá¢ĳ á¢İá¡Ńá¡§
á¡ªá¡ª á¡ªá¢ĳá¡ªá¡ªá¡ªá¢Ķá¡ªá¡§
Ġá¢ĺá¡ªá¡¬á¡¬á¢ĳ á¢Ļá¡ªá¡¬á¡¨
Ġá¢Ĭá¡¬á¢ļ á¡¬á¢ľá¡ªá¢Ľá¡³
á¡ªá¢ ¥
áł¯ áł¢áłŃ
á¢ļ á¡ªá¢ļ
á¡¥ á¡ªá¡ªá¢Ĭá¢Ĭ
Ġá¡¥á¡Ńá¡Ńá¡±á¡± á¡Ńá¡±á¡±á¡ªá¡Ńá¡§
Ġá¢ļá¡¬á¢ĳá¡Ńá¢Ĭ á¡ªá¢ĳá¡ªá¢ĭá¡Ń
Ġá¡¥á¡Ńá¡¬á¡¬á¢ĳá¡ªá¢Ļ á¡Ńá¢Ĭá¢Ķá¡ªá¡§
Ġá¢ļ á¡ªá¡¬á¡¬á¢Ļá¡ªá¢į
á¢Ķá¡Ńá¢ŀá¡´á¡Ńá¢ĳá¢Ľá¡¬á¢ĳ á¡ªá¡ªá¡ªá¢ļá¡«
á¡¥á¡Ńá¡Ń á¡ªá¢ĩá¡¨
á¡ª á¡Ńá¡ªá¡ª
Ġá¢ı á¡¬á¢ľá¡Ńá¡³
Ġá¡¥á¡Ńá¡¬á¡ªá¢Ĭá¢Ĭá¡ªá¢ŀ á¡ªá¡³á¡ªá¡¨
Ġáłªáłłáł¢ áłŃ
Ġá¡¥á¡ªá¢Ĭá¢ĭá¡Ńá¢ŀ á¡ªá¡«
Ġá¡´á¡Ńá¡¬á¢ĳá¡Ńá¢Ĭ á¢ĳá¡ªá¢Ĳ
Ġá¡¥á¡ªá¢ĳ á¡ªá¡±á¡±
áłµ áł¢áł¶
Ġá¢Įá¡Ńá¢ŀ á¢Ļá¡ªá¢Ľá¡³
Ġá¡¥á¡Ńá¡¬á¢Ľá¡ªá¢Ķ á¢ĭá¡Ńá¢ĳ
Ġá¡¬á¡Ńá¡¬ á¡¬á¢Ŀ
Ġá¡¥á¡Ń á¡Ńá¡±á¡±á¡ªá¡§
áłłáłŃáł¤áł¯ áł¢
Ġá¢Ĭá¡ªá¢Ĭ á¡ªá¢ŀá¡ªá¢Ĳ
Ġá¡¥á¡Ńá¡¬á¢ŀá¢ĭá¡Ńá¢ĳá¢Ľá¡¬á¢ĳ á¡ªá¢Ľá¡³
á¡¬á¢Ĭ á¢ĳá¡ªá¢ĭá¡Ń
Ġá¡´á¡Ńá¢Ļ á¡Ńá¢ĳá¡±á¡±
á¡¯ á¡ªá¢Ķá¡³
Ġá¡¥á¡ªá¡³ á¡ªá¡±á¡±á¡ªá¡«
Ġá¡¸á¡Ńá¡¬ á¡¬á¡±á¡ªá¢Ĭá¡¬á¡¦
á¡¥á¡Ńá¡¬á¢Ĭ á¡ªá¢ŀ
Ġá¡´á¡Ńá¢ĳá¡±á¡± á¡ªá¡³á¡ªá¡¨
Ġá¡¸á¡ªá¡ªá¢Ļ á¡Ńá¢Ķá¡«
Ġá¡¥á¡Ńá¢Ķ á¡Ńá¢ĳá¢Ļ
á¢ĭá¡Ńá¡¬á¢İ á¡Ńá¢Ľá¡¬á¢Ĳ
á¡ªá¡ª á¡Ńá¡Ńá¡§
Ġá¢Ĭ á¡¬á¡«á¡¨
Ġá¡¬á¡ªá¢Ĭá¡¬á¢ŀ á¡Ńá¡ªá¡ªá¢ļá¡«
Ġá¡¥á¡ªá¡±á¡± á¡Ńá¢ļá¡¬á¢ĳ
á¡Ńá¢ŀ á¢ĳá¡ªá¢Ĳ
áł° áł¢áłŃ
ĠÑ İ
á¡Ń á¡Ńá¢ĳ
á¡Ńá¢Ķ á¢Ļá¡§
Ġá¡¥á¡ªá¢ĳá¢Ļá¡ªá¢ŀá¢Ķ á¡¬á¡ªá¡ªá¢Ķá¡ªá¡§
á¡ªá¢ĭ á¡Ńá¢ļá¡¬á¢ĳá¡ªá¡§
Ġá¢ĺá¡ªá¢ŀ á¡Ńá¡ªá¢Ĭá¡±á¡±
á¡¥ á¡¨
Ġá¡³á¡ªá¡±á¡± á¡ªá¡°á¡¨
á¢Ķ á¡ªá¢Ĭ
Ġá¡³á¡¬á¢ļ á¡¬á¢Ľá¡ªá¡«
á¡´á¡Ńá¢ĳ á¡Ńá¡Ńá¡§
Ġá¢Ķá¡Ńá¡ªá¢Ĭá¡±á¡± á¡Ńá¡ªá¡ªá¢Ķá¡ªá¡§
Ġá¢ĺ á¡ªá¢Ŀá¡¨
Ġá¡¥á¡Ńá¡¬á¢Ĭ á¢ļá¡¬á¢Ĭ
Ġá¢Ķá¡ªá¢ļ á¡Ńá¢ĳá¡«
Ġá¡¥á¡Ńá¡ªá¢Ĭá¢Ķ á¡¬á¡§
á¢ļ á¡¬á¡³
Ġá¡¥á¡Ńá¢ĳ á¡¬á¢İá¡¶á¡¬á¢£
á¢Į á¡Ńá¡¬
Ġá¡¥á¡Ńá¢Ĭ á¡¬á¡¦
Ġá¢ĺá¡Ńá¢Ĭá¡¬á¢ŀ á¡ªá¡±á¡±á¡Ńá¢ĳá¡Ńá¢ĳá¢Ļá¡§
Ġá¢Ĭá¡¬á¡± á¡ªá¡ªá¡ªá¢ļá¡«
á¡¬ á¡ªá¢ĭá¡Ńá¢Ļ
Ġá¡¯á¡ªá¡¬á¡¬á¢ļ á¡ªá¢ĭá¡Ń
Ġá¢Ĭá¡ªá¢Ļ á¡ªá¢Ĭá¢ļá¡¬á¢ĳá¡ªá¡§
á¡¥á¡Ńá¡¬ á¡¬á¢Ŀá¡¨
Ġá¢ĭá¡Ńá¡¬á¢Ļá¡Ńá¢ĳ á¢Ľá¡³
Ġá¢ĺá¡Ńá¡¬á¢Ĭá¢Ķá¡¬á¢ĭ á¡Ńá¢ŀá¡«
ç »
á¡Ń á¡Ńá¡ªá¡ªá¡ªá¡ªá¡ªá¡ªá¡³
á¡¥á¡Ńá¢ŀ á¢ļá¡¬á¢ĳá¡ªá¡ªá¡¬á¡¨
Ġá¢ĺá¡ªá¢ĳá¡ªá¢ŀ á¡ªá¡ªá¡ªá¢Ĳ
Ġá¢ļá¡¬á¢Ļá¡ªá¡³ á¢Ĭá¡¬á¡¦
Ġá¡¥á¡Ńá¢ĳ á¡³á¡ªá¡¨
Ġá¢Īá¡ªá¢ŀ á¡Ńá¢Ļá¡«
áł¯ áłłáł¨
Ġá¢ľá¡ªá¢Ļ á¡ªá¡ªá¡ªá¡³
á¡¥á¡ªá¢İ á¢Łá¢ŀá¡¬á¢¤á¡ªá¡¨
î į
á¢Ļ á¡Ńá¡±á¡±á¡ªá¢Ŀ
á¡¥ á¡ªá¡ªá¢Ĭá¢Ĭá¡¬á¡¦
á¡ªá¢ŀá¢Ļ á¡ªá¡§
Ġá¡¥á¡ªá¢Ľ á¡¬á¢ĩ
Ġá¢Ķá¡¬á¢ŀá¡±á¡± á¡ªá¡±á¡±á¡³
Ġá¢ı á¡¬á¡ªá¢Ĭ
Ġá¡¥á¡Ńá¢ļ á¡ªá¢ŀá¡ªá¡ªá¡ªá¡³
Ġá¢Ĭá¡ªá¢Ļ á¡ªá¢Ķá¡Ńá¡§
Ġá¡¥á¡ªá¢Ļ á¡ªá¡±á¡±á¡ªá¢ŀ
Ġá¢ļá¡Ńá¡´ á¡Ńá¢īá¡¨
Ġá¢Ĭá¢Ĭ á¡¬á¢Ŀ
á¡¥á¡Ńá¡¬á¢ŀá¢ĭá¡Ńá¢ĳ á¢Ľá¡¬á¢ĳ
Ģ ł
Ġá¡¬á¡ªá¢Ķ á¡ªá¡ªá¡ªá¢Ķá¡ªá¡§
Ġá¢ĺá¡ªá¢Ķ á¢ļá¡³
Ġá¡¥á¡Ńá¡¬á¢ŀá¡³ á¡¬á¢Ķá¡Ńá¢Ĳ
á¢Ķ á¡ªá¢ŀá¡ªá¡§
Ġá¡¸á¡ªá¢ĳ á¡¬á¢İá¡ªá¢ĩ
19 8
Ġá¡¯á¡ªá¡³ á¢ļá¡¬á¡§
Ġ b
Ġá¢ĺá¡ªá¡±á¡¬á¢ĳá¢ļ á¡ªá¡±á¡±á¡Ńá¢ĳá¢īá¡¨
Ġá¡¸á¡ªá¢ŀ á¡¬á¢ľá¡ªá¡§
Ġá¢Įá¡Ńá¡¬á¢ŀá¢ĭ á¡Ńá¢ĳá¢Ļ
á¢Ķ á¡¬á¢Ŀá¡¨
á¡¬á¢ľ á¡ªá¢Ĭá¢Ķá¡ªá¡§
Ġáł² áł¡áł³
Ġá¢ĺá¡Ńá¢ŀ á¡ªá¡Ńá¡ªá¢ļá¡³
Ġá¡¥á¡Ńá¢ŀá¡Ńá¢ĳá¢Ļ á¡Ńá¡ªá¡ªá¡³
Ġá¡¬á¡¬á¢ĳá¡Ńá¡±á¡±á¡Ńá¡Ń á¡ªá¢ļá¡³
á¡³á¡ªá¡¬á¡¬á¡±á¡± á¡ªá¢ĳá¡«
áł³ áłłáł¢
Ġá¡¸á¡Ń á¡ªá¢Ļá¡³
Ġá¡¬á¡ªá¢ľ á¡ªá¡±á¡±á¡ªá¡ªá¡ªá¢Ķá¡ªá¡§
Ġá¡¬á¡ªá¢İ á¡Ńá¢ĩá¡¨
Ġá¡¬á¡¬á¡ªá¡ªá¢Ķ á¡ªá¡±á¡±á¡ªá¢Ĳ
á¡¬á¡± á¡ªá¡«
Ġá¢ĺá¡ªá¡³á¢Ķ á¡¬á¢ĭá¡Ńá¢ĳá¢Ľá¡³
á¡ªá¡± á¡ªá¡«
á¢ĺ á¡ªá¡´á¡Ń
Ġáłµ áł¤áł·
á¡ªá¢Ĺ á¡ªá¡§
Ġáł² áłłáł®
Ġá¢ļá¡¬á¡ªá¢Ĭá¡±á¡± á¡ªá¡Ńá¡ªá¡ªá¡ªá¡ªá¢Ľá¡³
á¡³á¡ªá¡±á¡± á¡ªá¢ŀá¡¬á¡§
Ġá¡¸ á¡ªá¢Ĭá¡¬á¢Ŀ
Ġá¢ĺá¡Ńá¡¬ á¡¬á¢ĳ
Ġá¡³á¡ªá¢ĳ á¡³
Ò¯ Ð¹
Ġá¡¯á¡ªá¡¬á¡¬á¢Ļ á¡ªá¡´á¡Ńá¢ŀá¡¬á¢Ľ
Ġá¢ĺá¡Ńá¢Ĭá¡¬á¢ŀ á¡ªá¡±á¡±á¡Ńá¢ĳá¡ªá¡ªá¡³
Ġá¡¯á¡ªá¢Ĭ á¡ªá¢Ĭá¡ªá¡§
Ġ20 19
Ġá¢Ĭá¡ªá¢ĳá¡ªá¢ĳá¢ļ á¡ªá¢ĭá¡Ń
Ġá¡¥ á¡ªá¢¡
Ġá¡¬á¡Ńá¢Ķ á¡ªá¢ĳá¡ªá¡ªá¡¬á¡¨
Ġá¡¥á¡Ńá¢ŀ á¡¬á¡«á¡¨
áł° áł¢áł¨
Ġá¡¸á¡ªá¡ªá¢Ľ á¡Ńá¡§
Ð ·
á¡¬á¢ľ á¡ªá¢Ļá¡ªá¡«
Ġá¢ĺá¡ªá¢ŀ á¢Ķ
á¡¬á¡±á¡±á¡Ńá¢ĳ á¡Ńá¢Ĳ
á¡¯ á¡ªá¢Ĭ
Ġá¢Īá¡ªá¢Ļ á¡ªá¡±á¡±á¡Ńá¢ŀ
Ġá¢ĺá¡Ńá¡¬á¢Ķ á¡Ńá¡³
á¡Ńá¢ŀ á¢Ĭá¡ªá¡§
á¢Ĭ á¡¬á¢Ĳ
Ġá¡¥á¢ŀ á¡ªá¢Ĭá¡ªá¡«
Ġá¡¥á¡¬á¢ĳ á¡±á¡±á¡ªá¡ªá¡ªá¡³
Ġáł¬ áłłáł¤
Ð¸ Ð»
á¡Ńá¡Ńá¡ªá¡ªá¡ª á¡ªá¢Ľá¡³
Ġá¡´á¡Ńá¢ĳ á¡Ńá¢İá¡ªá¢Ŀ
áł¡áłŃ áł¡áł·
Ġá¡¸á¡ªá¢İá¡¬á¢ľá¡ªá¢ŀ á¢ļá¡³
á¡¬á¡ªá¢Ĭ á¢ĭá¡Ńá¡«
Ġá¡¥á¡Ńá¡¬á¡ªá¢Ĭá¢Ĭá¡ªá¢ŀ á¡ªá¢ĳá¢Ļá¡§
Ġá¢Ķá¡ªá¢ŀá¢Ĭ á¡ªá¡¬á¡¬á¢ĳá¡ªá¡§
á¡¬á¡±á¡± á¡ªá¡§
Ġá¡¥á¡Ńá¢ĳá¢Ļ á¡ªá¡ªá¡ªá¢Ķá¡ªá¡§
o l
Ġá¢ŀ á¡Ńá¢İ
áł¦áłŃ áł°áł¡áł¨
Ġá¡¯á¡ªá¡¬ á¡¬á¢Ľ
Ġá¡¸á¡ªá¡±á¡±á¡ªá¢ĳ á¡´á¡Ńá¢ŀ
Ġá¡¸á¡ªá¢ŀ á¡ªá¡±á¡±á¡Ńá¢ĳá¡Ńá¡ªá¡ªá¢Ķá¡ªá¡§
Ġáł¤áł ¯áł
á¢ĭá¡Ńá¡¬á¢ Ĳ
å ¸
á¡¥á¢ŀ á¢Ļá¡§
Ġá¢ıá¡Ńá¡³ á¢Ķá¡ªá¡ªá¡¬á¡¨
Ġá¢ıá¡Ń á¡Ńá¢ĵ
á¡¥á¡Ńá¡¬ á¡¬á¢ŀ
Ġá¢ĺá¡ªá¡¬á¡¬á¢ĳá¡´á¡Ńá¢ŀ á¡¬á¢ĳá¡ªá¡ªá¡ªá¡³
Ġá¡¥á¡Ńá¢ŀ á¡¬á¢ĳá¢īá¡¨
Ġá¡¸á¡Ńá¢ŀ á¢ļ
Ġá¡¥á¡Ńá¡¬á¡± á¡ªá¢ĳá¡ªá¢Ľá¡³
Ġá¡´á¡Ńá¡¬á¢Ļ á¡Ńá¢Ĭá¢Ķá¡ªá¡§
Ġá¢ĭá¡Ńá¡¬á¢ĳ á¢Ļ
Ġá¡¥á¢ŀá¢Ļ á¡ªá¢İá¢Ļá¡³
Ġáł² áł¥áł·
Ð°Ð° Ñģ
Ġá¡¥á¢ŀ á¡¬á¢ľ
Ġá¡´á¡Ńá¢ĳá¡±á¡± á¡ªá¡±á¡±á¡ªá¡Ńá¡§
Ġá¢ĺá¡ªá¡±á¡±á¡ªá¢ŀ á¡¬á¢ĳá¢Ļá¡§
Ġá¢ĺá¡ªá¢Ĭ á¡¬á¡±á¡«
Ġá¢ĺá¡ªá¢İ á¡ªá¢Ĭá¡¬á¡§
Ġá¡³á¡ªá¢Ļ á¡Ńá¢ĳá¡ªá¡§
Ġá¢Ĭá¡¬á¢ĳ á¢Ĭá¡ªá¢ĭá¡Ń
á¡¬á¢Ļ á¡Ńá¡±á¡±á¡ªá¢Ŀ
Ġá¢ĺá¡ªá¡ªá¢Ĭ á¢ļá¡«
Ġá¡´á¡Ńá¢Ĭá¡¬á¡± á¡¬á¢Ļ
Ġá¡¥á¡Ńá¡ªá¢ļ á¡ªá¢ĳ
á¡Ńá¡±á¡±á¡Ńá¢ĳ á¡Ńá¡±á¡±á¡ªá¡Ńá¡§
Ġá¢ĺá¡Ńá¢ĳ á¢Ļá¡ªá¢Ĳá¡¨
Ġá¡¥á¡Ńá¡¬á¡¬á¢ĳ á¡±á¡±á¡ªá¢Ľá¡³
Ġá¡¥á¢Ľ á¡ªá¢ĳá¡ªá¡§
áłłáł¯áł ª
á¢ĺá¡Ń á¡Ńá¢Ŀá¡¨
Ġáł² áłłáłŃ
Ġá¡¸á¡ªá¡ªá¢Ļ á¡Ńá¡§
á¡ªá¡´á¡Ńá¢ŀá¡¬á¢ĳ á¡ªá¢ĭá¡Ń
á¡³ á¡¬á¢Ŀ
áł¦áł¯áł µ
á¡¬á¡ªá¢Ĭ á¡±á¡±á¡Ńá¡«
Ġá¡¥á¡ªá¡³á¢ļá¡¬á¢ŀ á¡ªá¡ªá¡ªá¡³
á¢Ķá¡¬á¢ĳ á¡±á¡±
á¡ªá¢ŀ á¡ªá¡¬á¡¨
Ġá¡¸á¡Ńá¢Ļ á¡ªá¢ĳá¡§
Ġá¢ļá¡ªá¡³ á¡ªá¢ŀá¢Ĭá¡ªá¡§
á¡¬á¡Ńá¡±á¡± á¡Ńá¢ĵ
Ġá¡¥á¡Ńá¢ļ á¡¬á¡°á¡¨
Ġá¡¸á¡ªá¡ªá¢ļ á¡Ńá¡«
Ġá¡¥á¡ªá¢ĳá¢Ļ á¡ªá¡±á¡±á¡ªá¡Ńá¡§
á¡ªá¢ĳá¢Ľ á¡ªá¢Ĭá¢Ķá¡ªá¡§
Ġáłłáł ©áł¬
Ġá¡´á¡Ńá¢ļ á¡ªá¡±á¡±á¡ªá¢Ľá¡³
Ġá¡¬á¡¬á¢ŀá¡±á¡± á¡ªá¢ĳá¢Ļá¡³
Ġáłªáł£ áł³
á¢Ķ á¡ªá¡¬
Ġá¢ĺá¡Ńá¢Ļá¡Ńá¢ŀ á¡ªá¢Ľá¡³
Ġá¡¥á¢ĳá¡³ á¡ªá¢Ĭá¢Ļá¡Ńá¢ŀá¢Ľá¡«
á¢ļ á¡Ńá¢ĩ
á¡¬á¡±á¡±á¡Ńá¢ĳ á¢īá¡¨
Ġá¡¥á¡Ńá¡¬á¡± á¡ªá¢Ļá¡ªá¡«
Ġá¡¥á¡ªá¢ľ á¡Ńá¢Ļá¡ªá¢ĩ
á¡ªá¡ªá¢Ĭá¢Ĭ á¡ªá¡«
áłŃ áłŃ
Ġá¡³ á¡ªá¢İ
á¡´ á¡Ńá¢į
Ġá¡¥á¡Ńá¡¬á¢ĳá¢Ľá¡ªá¡¬ á¡¬á¡³
ã ģ
Ġá¢ĺ á¡Ńá¡±á¡±á¡Ńá¢ĳá¡Ńá¡ªá¡ªá¢Ķá¡ªá¡§
á¡Ńá¢İ á¢Ļ
Ġá¡³á¡ªá¢ľá¡ªá¢ŀá¢ĳ á¡ªá¡ªá¡ªá¡³
Ġáłłáł· áłª
Ġá¢ı á¡Ńá¢Ĭá¡ªá¡¨
Ġá¡¸á¡Ńá¢Ļá¡Ńá¡±á¡± á¡Ńá¢Ļá¡³
á¡¥á¡´ á¡Ńá¢Ĭá¡ªá¡§
á¡¬á¡± á¡Ńá¢į
Ġá¡¥á¢ŀ á¡¬á¢Ĭá¡ªá¡¨
Ġá¡¬á¡¬á¢ŀ á¡Ńá¡ªá¡ªá¢Ķá¡ªá¡§
Ġá¢ĭá¡Ńá¡¬á¢ľ á¡Ńá¡§
Ġá¡¬á¡ªá¢ĭ á¡Ńá¢Ľá¡³
Ġá¢¡á¢ŀ á¡ªá¡ªá¢¦á¡«
Ġá¡¬á¡ªá¢ŀá¢Ĭá¡ªá¢ļ á¡ªá¢Ĭá¡ªá¡¨
Ġáł¶ áł¡áł¬áł¡
á¢ľ á¡ªá¢Ļ
Ġá¡¥á¡Ńá¡¬á¢ŀá¢ĭá¡Ńá¢ĳá¢Ľá¡¬á¢ĳ á¡ªá¢Ĭá¢Ķá¡ªá¡§
á¡ªá¢ŀ á¡ªá¡±á¡±á¡Ńá¢ĳá¡Ńá¡§
Ġá¡´á¡Ńá¡¬á¢Ĭ á¢ĳ
Ġá¢ĭá¡Ńá¡¬á¢Ļá¡Ńá¢ĳ á¡Ńá¡§
á¡¥á¡Ńá¡¬á¡³ á¡ªá¢ŀá¢Ļá¡ªá¢Ĭá¡ªá¡§
Ġá¢ĺá¡ªá¢Ĭ á¢Ľá¡¬á¡§
Ġá¡¬á¡Ńá¡¬á¡³á¢ĳ á¡ªá¢ĳá¢Ĭá¡ªá¡¨
å º
Ġá¡¸á¡Ńá¢ŀ á¡Ńá¡±á¡±á¡Ńá¡§
á¡¯á¡ª á¡¬á¢İá¡ªá¡§
á¢ĺ á¡ªá¢Ļá¡ªá¡§
Ġá¢Ĭá¡ªá¢ĳ á¢İ
ï¸ ĸ
Ġá¡³á¡ªá¢ĳá¡ªá¡Ńá¡ªá¢Ĭ á¡ªá¢ĭá¡Ń
Ġá¢ĺá¡ªá¡±á¡±á¡Ńá¢Ķ á¡ªá¡ªá¡³
Ġá¡³á¡ªá¢ľá¡ªá¡ªá¡ªá¡ª á¡Ńá¢Ķá¡¬á¡±á¡±á¡³
á¡ªá¡´ á¡Ńá¢ĳ
Ġá¢Ķá¡¬á¢ŀ á¢Ļ
Ġá¡¥á¡Ńá¢İ á¡³
Ġá¢ĺá¡ªá¢İá¡ª á¡Ńá¢ĳ
Ġá¡¥á¢İ á¢Ļ
á¡Ńá¡±á¡±á¡Ńá¢ĳ á¡Ńá¡°á¡¨
Ġá¢ĺá¡Ńá¡±á¡± á¡ªá¡ªá¡¬á¡¨
Ġá¡¥á¡¬á¢ĳ á¡ªá¡Ńá¡ªá¢Ļá¡§
Ġá¡´á¡Ńá¢ŀ á¢ļá¡ªá¢ĩ
Ġá¡¥á¡ªá¡±á¡±á¡Ńá¢ĳá¢Ľ á¡ªá¡ªá¡ªá¢Ķá¡ªá¡§
Ġá¡¸ á¡Ńá¢Ļá¡Ńá¢ĩ
á¡¬á¢Ľ á¡¬á¢ŀá¡ªá¢Ĳ
Ġá¡¸á¡ªá¡¬á¡¬á¢ŀ á¡ªá¢ĳá¡§
ä¸ Ģ
Ġáłª áł¤áł¶
Ġá¡¥á¢İá¢ļá¡¬á¢ĳ á¡ªá¢Ĭá¡ªá¡§
áłłáł¯ áłłáłŃ
Ġá¡¸á¡ªá¢ľ á¡ªá¡±á¡±á¡ªá¡§
Ġá¢Ķá¡ªá¢ŀá¢Ĭ á¡ªá¡¬á¡¬á¢ĳ
Ġá¡¬á¡Ńá¡¬á¡³á¢Ķá¡¬á¢ľá¡ªá¢ŀ á¡ªá¢Ĭá¢Ķá¡ªá¡§
á¡ªá¢ĳá¢Ļ á¡Ńá¢ĭá¡Ń
Ġá¢Ĺ á¡³
Ġá¢ĺá¡ªá¢Ķ á¡´á¡Ńá¢ŀá¡«
Ġá¡¥á¡Ńá¢ļ á¡«
Ġá¢Īá¡ªá¢ŀá¡±á¡± á¡ªá¢Ľá¡ªá¡«
Ġá¡³á¡ªá¢ļ á¡¬á¢İ
Ġá¡´á¡Ńá¡¬á¢Ļ á¡Ńá¢İá¢Ľá¡¬á¢Ļá¡ªá¡«
Ġá¢Īá¡Ńá¢ŀ á¡Ńá¢ĩá¡¨
á¡Ń á¡ªá¢Ķ
á¡¬á¡±á¡± á¡Ńá¢ŀ
Ġá¡¥á¡ªá¢ŀ á¡ªá¡ªá¡ªá¢ĩ
Ġá¡¥á¡Ńá¡¬á¢ŀ á¡Ńá¡³
Ġáłłáł¯áł ³
Ġá¢ļ á¡ªá¡§
Ġá¢Ĺ á¡Ńá¡ªá¢Ĭá¡ªá¡ªá¡Ńá¢Ŀ
áł¡áłŃ áł´áł¢
á¢ĺá¡Ńá¡¬ á¡²
á¢Łá¢İ á¢Łá¡±á¢ĺá¡¦
Ġáł´áł¢áł¬ áł¤áł¯áłł
19 9
Ġá¡¸á¡Ńá¢ŀá¡ªá¢ĳá¢Ļ á¡Ńá¡±á¡±á¡ªá¡§
Ġá¡¥á¡Ńá¡¬á¢Ļ á¡³
áł¤áł³ áł¤áłŃ
Ġá¢Ĭá¡ªá¢ĳá¡ªá¢ĳá¢ļ á¡ªá¢Ľá¡³
Ġá¢ĺá¡ªá¢ĳá¡ªá¢ŀ á¡ªá¡ªá¡ªá¢Ľá¡³
Ġá¢ĺ á¡¬á¢Ļ
Ġá¡´á¡Ńá¡¬á¢Ļ á¡Ńá¢ĭá¡Ń
Ġ t
Ġá¢ ª
á¡ªá¡±á¡±á¡Ńá¢ĳ á¡Ńá¢Ĳá¡¨
Ġá¢ĺá¡ªá¢ĭ á¡Ńá¢ŀá¢Ĭá¡ªá¡¨
á¡¸á¡Ńá¢ŀ á¢ļá¡¬á¡§
Ġáłłáł° áłłáłŃ
ĠÐĽÐ°Ð¼ ÑĭÐ½
Ġá¡³á¡ªá¢ŀá¡¬á¡³ á¢ļá¡¬á¢ĳ
á¢Ĭ á¡ªá¢ļ
á¢ĺ á¡ªá¡±á¡±á¡Ńá¢ĳ
Ġá¢ĺá¡ªá¡¬á¡¬á¢ļ á¡¬á¢ĳá¡ªá¡§
á¡¥á¢ŀ á¢ĭ
á¡¬ á¡ªá¡±á¡±
Ġá¡¥ á¡Ńá¢Ľ
á¡Ńá¢Ĭ á¡ªá¢Ĭá¢Ķá¡ªá¡§
Ġá¢ĺá¡ªá¢Ĭ á¡¬á¢Ĳ
Ġá¡¥á¢ŀ á¡ªá¡³
Ġá¡¥á¡Ńá¡¬á¡ªá¢Ļá¡Ńá¢Ķ á¡Ńá¢ĳá¡ªá¢Ĳ
Ġá¡¥á¡Ńá¢ĳ á¡Ńá¢ĳá¢Ļá¡§
á¢Ł á¢Ľ
Ġá¡¬á¡Ńá¢ŀ á¡¬á¡ªá¡ªá¢Ļá¡³
Ġá¢ĺá¡ªá¡±á¡±á¡ªá¢ŀ á¡¬á¢Ľá¡³
Ġá¢ļ á¡Ńá¡¬á¢ĭ
Ġá¡¥á¢Ļ á¡ªá¡§
Ġá¢Ķá¡ªá¢ŀ á¡±
Ġá¢ļ á¡Ńá¡¬á¡§
á¢Ĭ á¡ªá¡³á¡ªá¡¨
Ġá¡¥á¡Ńá¡¬á¢Ľ á¡Ńá¡¬á¡¨
Ġá¡´á¡Ńá¢ľ á¡ªá¡ªá¢Ļá¡³
Ġá¢Įá¢Ł á¢ĺ
á¡¸á¡ªá¢İ á¡¬á¢īá¡¨
Ġá¢ĺá¡Ńá¡ªá¡ªá¢Ļá¡ªá¡± á¡¬á¡ªá¡ªá¡³
Ġá¡¥á¡Ńá¡¬ á¡«
Ġá¡¥á¡ªá¡³ á¢ĳ
á¡¬á¡¬á¢ĳ á¡Ńá¡±á¡±
Ġá¢ĺá¡ªá¢ŀ á¡Ńá¡§
á¡Ńá¡± á¡ªá¢Ļ
á¡Ńá¡ªá¡ªá¢Ļ á¡ªá¡±á¡±á¡ªá¡Ńá¡§
Ġá¡¬á¡ªá¢ĳ á¡ªá¡§
Ġá¢ĭá¡Ńá¡¬á¢Ľ á¡«
Ġáłªáł¤áł¯áł ¬áł¤
Ġá¡¯á¡ªá¢Ķá¡Ńá¢Ļ á¡ªá¡¬á¡¬á¢ļá¡Ńá¡Ńá¡§
Ġá¡¬á¡ªá¢ŀ á¡±á¡±á¡³
Ġáł¡ áłµ
Ġá¡¥á¡ªá¡³á¡¬á¢ľ á¡ªá¢Ķ
á¢Ķá¡¬ á¡ªá¢Ľá¡¬á¢ĳ
á¡¥á¡´ á¡Ńá¢Ĭá¡ªá¡¨
áł¤áł° áł¢áłŃ
Ġá¡¯ á¡ªá¢ļ
á¢Ī á¡ªá¢ļ
á¡Ńá¡Ńá¡ªá¡ªá¡ª á¡ªá¡§
Ġá¡³á¡ªá¡±á¡± á¡Ńá¡±á¡±á¡ªá¡Ńá¡§
Ġá¡¸á¡ªá¢Ļ á¡ªá¢Ľá¡³
Ġá¡¥á¡Ńá¡¬á¢ĭ á¡Ńá¢Ĭ
Ġá¡¯á¡ªá¢Ĭ á¡ªá¢Ĭá¡ªá¢Ĭá¢Ķá¡ªá¡§
Ġá¢ĺá¡ªá¡¬á¡¬á¡´ á¡Ńá¢Ķ
á¡ªá¢ĳ á¡ªá¡«á¡¨
á¢Ĭ á¡¬á¢Ĭá¢Ķá¡ªá¡§
Ġá¢ļá¡ªá¡±á¡± á¡ªá¢Ľ
Ġá¢Īá¡ªá¢ŀá¡±á¡± á¡ªá¡³á¡ªá¢Ĳ
Ġá¡¥á¡¬á¡¬á¢İá¡Ńá¢ŀ á¢ĭá¡Ńá¡³
Ġá¢Ĭá¡¬á¢ĳ á¡³á¡ªá¢ŀ
áł¤áł¶ áł¤áł¯
Ġá¡¸á¡Ńá¢ŀá¡¬á¢ľ á¡ªá¡ªá¢Ĭá¡±á¡±
Ġá¡¥á¡¬á¢ĳ á¡±á¡±á¡ªá¡§
Ġá¡¯á¡ªá¢ŀ á¡ªá¢Ķá¡³
Ġá¢ĺá¡ªá¡ªá¢Ĭá¡± á¡ªá¡±á¡±á¡Ńá¢Ĳ
Ġáłłáł®áł¢áł³ áł¤áł·áłłáł¯
Ġá¡¯á¡ªá¢ŀ á¡ªá¢ĳá¡ªá¢Ĭá¢Ķá¡ªá¡§
Ġá¡¯á¡ªá¡¬á¡¬á¢ŀ á¡ªá¡±á¡±á¡Ńá¢ĳá¡ªá¡ªá¡³
Ġá¢ĺá¡ªá¡±á¡±á¡Ńá¢ĳ á¡ªá¢Ĳ
á¡ªá¢ļá¡¬á¢Ĭ á¡ªá¡°á¡¨
Ġá¡¥á¢Ľá¡ªá¢İá¢Ķ á¡¬á¢Ľá¡³
Ġá¢ĺá¡ªá¢Ł á¡ªá¢Ŀ
Ġá¢Ī á¡ªá¡ªá¢Ļ
Ġá¡¥á¡Ńá¢ĳ á¢Ľá¡ªá¡«
á¡¥á¡Ńá¡¬á¢Ĭ á¡¬á¡§
Ġá¢Į á¡ªá¢ļ
Ġá¡¥á¡Ńá¢ŀá¡Ńá¢Ķ á¡¬á¡°á¡¨
Ġá¡¥á¡ªá¡³á¢ļá¡¬á¢ŀ á¡ªá¡±á¡±á¡ªá¡Ńá¡§
Ġá¡¥á¡Ńá¡¬á¢Ĭ á¡ªá¡¬á¡¬á¢ĳ
á¡ªá¡ªá¡³ á¡ªá¢ľá¡ªá¢Ŀ
Ġáł¬áł¦áł® áł¦áł°
á¡Ńá¢ ¥
á¡¥ á¡§
á¡ªá¡ªá¡³ á¡¬á¢ĳá¡¬á¡¬á¡¨
Ġá¡¥á¡ªá¢ľ á¡Ńá¡ªá¢Ĭá¢īá¡¨
Ġá¡¯á¡ªá¢İ á¡ªá¢ĭá¡Ń
áł¦áłŃ áł¡
Ġá¡¥á¡ªá¢ļ á¡¬á¡«á¡¨
á¡ªá¢ŀ á¢Ļá¡§
á¡¸ á¡ªá¢Ľ
á¡Ńá¢Ł á¡¦
Ġá¢Ł á¢ļá¡¬á¢Ŀ
á¡ªá¡ªá¡Ńá¢ĳ á¡ªá¢Ŀ
Ġá¢Ĺá¡Ńá¡Ńá¢Ĭ á¡¬á¢ľá¡ªá¡§
Ġá¢ĺá¡Ń á¡ªá¢Ļ
Ġá¢¡ á¡¬á¢ĳ
á¡¬á¡ªá¢Ļ á¡ªá¡ªá¡¬á¡¨
Ġá¢ļá¡Ńá¢ĳ á¡³
Ġá¢ļá¡ªá¢Ĭá¡ªá¢ŀá¢ĳ á¡ªá¡°á¡¨
Ġáł¶ áł¤áł°
Ġá¡³ á¡ªá¡ªá¡ªá¢Ļá¡ªá¢Ľá¡³
áł¦áł¯áł ³
Ġá¢ĺá¡ªá¢ŀá¡¬á¢ĭ á¡Ńá¢Ļá¡ªá¡§
Ġá¢ļ á¡ªá¡ªá¡ªá¢Ļ
Ġá¡¸á¡ªá¢ŀ á¡ªá¢Ĳá¡¨
Ġá¢ĺá¡ªá¡³ á¡ªá¢ŀá¡¬á¡§
á¢ĺá¡ªá¢Ĭ á¡ªá¢ŀ
ä¸ Ń
Ġá¡¥á¡Ńá¡¬á¢Ļá¡ªá¢ĳ á¡Ńá¢Ĭá¡ªá¡¨
Ġáł³ áł¦áł·
á¡¥á¡Ńá¢Ļ á¡Ńá¢ŀ
Ġá¢ĺá¡ªá¡Ńá¢Ĭ á¡ªá¢Ļá¡³
á¡ªá¢ĳ á¢įá¡¨
Ġá¢ıá¡ªá¡³ á¢ĳ
Ġá¢Į á¡ªá¡±á¡±á¡Ńá¢ĳ
áł¤áł µ
á¡´ á¡Ńá¢ĳá¢ļ
Ġá¡³á¡ªá¢ŀ á¡¬á¢Ļá¡ªá¢ĩ
Ġá¢ĭá¡Ńá¡¬á¢ŀá¡Ńá¢Ĭ á¡ªá¢Ķá¡³
Ġá¡¥á¡Ńá¢ŀ á¡¬á¡§
á¡¥á¡Ńá¢ŀ á¢ļ
Ġá¡¸á¡Ńá¡³á¢ļ á¡ªá¢Ķá¡Ńá¡§
Ġá¡¸á¡Ńá¡Ńá¢ŀ á¢Ļá¡³
á¡Ńá¡±á¡±á¡Ńá¢ĳ á¢Ļá¡ªá¢ĩ
á¡¥á¡Ńá¢ŀ á¡Ńá¡«
Ġá¡¬á¡ªá¢Ĭ á¡¬á¢ľá¡ªá¢ĳ
Ġá¢Įá¡ªá¡ªá¢Ļ á¡Ńá¢Ľá¡³
Ġá¢Ķá¡Ńá¡¬á¢Ĭ á¡ªá¡³á¡ªá¡±á¡±á¡ªá¢Ļá¡Ńá¢Ŀ
Ġáł°áł¤áł·áłŃ áłłáłŃáł¤áł¯áł¢
á¡ªá¡³ á¡ªá¡§
á¢Ķ á¡Ńá¢ĩ
Ġá¡¥á¡ªá¢İ á¡ªá¢Ķá¡ªá¢Ŀ
Ġá¢ĭá¡Ńá¡¬á¢Ķ á¡¬á¢Ĭá¡ªá¡¨
áł´ áłł
á¡¥á¡ªá¡¬ á¡¬á¢İá¡ªá¢ĩ
Ġá¢Ķá¡Ńá¢ŀá¡±á¡± á¡ªá¡ªá¡ªá¢Ķá¡ªá¡§
Ġáł² áł¦
Ġá¢ĭá¡Ńá¡¬á¡³ á¢ļá¡«
á¡¥á¡ªá¢İ á¡ªá¢ŀá¡ªá¢ĩ
á¡ªá¢ļ á¡¬á¡ªá¡ªá¡ªá¡³á¡ªá¡¨
Ġá¡¥á¢Ľ á¡ªá¡ªá¢Ļá¡³
Ġá¡¥á¡Ńá¡¬á¢İ á¢ļá¡«
á¡ªá¢Ļ á¡Ńá¢Ĭá¢Ķá¡ªá¡§
Ġá¢ľ á¡¬á¡ªá¡¬á¡¨
Ġá¡¥á¢Ľ á¡ªá¢ĳá¡ªá¢Ĭá¢Ķá¡ªá¡§
Ġá¡¯á¡ªá¡¬á¡¬á¢Ļá¡ªá¢ĳ á¡¬á¡¬á¡¨
Ġá¢Īá¡ªá¢ŀ á¢İá¡ªá¡±á¡±á¡ªá¡«
Ġá¡´á¡Ńá¡¬ á¡³á¡ªá¡«
Ġá¢ļá¡¬á¢ŀá¢İá¡ªá¡¬ á¡¬á¡ªá¡ªá¡³
Ġá¡¯á¡Ńá¡¬á¢Ĭá¢ļ á¡¬á¢Ĭá¢Ķá¡ªá¡§
á¡³á¡ªá¢ŀ á¡¬á¢İ
Ġá¡¯á¡ªá¡¬á¡¬á¢Ļ á¡ªá¢ĳá¡ªá¢ĭá¡Ń
Ġá¡¥á¡¬á¢ĳá¡ªá¢ŀ á¡ªá¢ĭá¡Ńá¢ĳá¢Ľá¡³
Ġá¡³á¡ªá¡¬á¡¬á¢ŀ á¡¬á¢ĳ
Ġá¢Ķ á¡ªá¡ªá¢Ĭá¢Ĭá¡¬á¡±
Ġá¡¥á¡¬á¢ĳ á¡ªá¢ĭ
Ġá¢Ķá¡Ńá¢ľ á¡Ńá¢ĳá¢Ļá¡³
áł¯ áł¡áł¯
á¡´á¡Ńá¢ŀ á¡Ńá¡±á¡±á¡ªá¡§
Ġá¡¥á¡Ńá¡¬á¢ĭá¡Ńá¢ĳ á¡ªá¢Ľá¡³
Ġá¡¯á¡ªá¢İá¡ªá¢Ĭá¢Ļ á¡ªá¢ĭá¡Ńá¢ĳá¢ĭá¡Ń
Ġá¡¬ á¡¬á¢Ĭá¡ªá¡¨
Ġá¡¥á¡Ńá¡¬ á¡ªá¢Ĭ
á¡ªá¢ĳá¢Ļ á¡Ńá¡°á¡¨
Ġá¢Ĭá¡ªá¡Ńá¢Ĭ á¡ªá¡ªá¢ļá¡Ńá¡Ńá¡§
Ġá¡¥á¢ŀá¢Ĭá¡¬á¢ļ á¡ªá¢ĭá¡Ńá¢ĳá¡Ńá¡§
Ð°ÑĢ ÑĭÐ½
Ġá¡¸á¡Ńá¡ªá¢Ļ á¡ªá¡±á¡±á¡ªá¢Ļá¡³
Ġá¡¥á¡Ńá¡ªá¢Ĭá¡±á¡± á¡Ńá¢ļá¡ªá¡§
áł¤áł¯áł ¬áł¤
Ġá¡¥á¢ŀá¢Ĭá¡¬á¢İ á¢Ķá¡Ńá¡¬á¡¨
Ġá¢Įá¡ªá¡ªá¢Ĭá¡±á¡± á¡Ńá¢ĵ
Ġá¢Ł á¡¬á¢ŀ
Ġá¢ĺá¡ªá¢İá¢Ľ á¡¬á¢ĩ
Ġá¢Įá¡ªá¡±á¡± á¡Ńá¢Ļ
Ġá¢ĺá¡¬á¢Ĭá¢ĳ á¡¬á¢į
á¢Įá¡ªá¢ŀá¡±á¡± á¡ªá¢Ķá¡«
Ġá¡¥á¡Ńá¢ĳ á¡ªá¡ªá¢Ļá¡§
Ġá¡´á¡Ńá¢Ķ á¡Ńá¢ĳá¢īá¡¨
Ġá¢ĺá¡ªá¢ĳá¡³ á¡¬á¡¦
Ġá¡¸á¡Ńá¡³á¡¬á¢ŀ á¡ªá¡ªá¡ªá¢Ķá¡ªá¡§
Ġá¢Ĭ á¡¬á¢Ķ
Ġá¢ĺá¡Ńá¢Ķ á¡ªá¢ĳá¡ªá¢Ľá¡³
Ġá¢Īá¡ªá¡ªá¢Ľ á¡Ńá¢īá¡¨
á¢Ĭ á¡ªá¢ŀá¡ªá¢Ĳ
áł¡áłŃ áł¦áł¯
áł¡áł¯áłŃ áł¡
Ġá¡¯ á¡¬á¢ĭá¡Ńá¢ĳ
Ġá¢Ĭá¡ªá¢ĳ á¡ªá¢Ĳá¡¨
á¡ªá¡ªá¢Ĭá¡±á¡± á¡ªá¡«
á¡¸á¡ªá¢ŀ á¡¬á¡±á¡±
Ġá¢Īá¡ªá¡¬á¡¬á¡ªá¡ª á¡ªá¢Ĳ
á¢Ĭá¡ªá¢ĳ á¡ªá¢Ĭá¢Ķá¡ªá¡§
Ġá¢Ķ á¡ªá¡²
Ġá¢ĭá¡Ńá¡¬á¢ŀá¢Ļ á¡ªá¢ĳá¡ªá¢Ĭá¡¬á¡¦
Ġá¢Īá¡Ńá¢ļ á¡¬á¡±á¡±á¡ªá¡Ńá¡§
Ġá¢Įá¡ªá¢ŀ á¢¤
Ġá¢Ķá¡¬á¢ĭá¡Ńá¢İá¢Ľá¡¬á¢ĳ á¡ªá¢Ĳ
Ġá¢Įá¡ªá¢ĳá¢Ļ á¡ªá¢Ľá¡³
á¢ĭá¡Ńá¡¬á¢ ľ
á¡¬á¡¬á¢ŀ á¡Ńá¢Ĭá¡ªá¡¨
Ġá¢Ķá¡Ńá¡¬á¡± á¡¬á¢Ľá¡¬á¡§
á¡Ńá¡ª á¡ªá¢Ļá¡§
Ġá¡¥á¡Ńá¢ŀ á¡Ńá¡¬á¡¬á¢Ļ
Ġá¡´á¡Ńá¢Ļ á¡Ńá¢Ĳá¡¨
Ġá¡¬á¡Ńá¢ĳ á¡ªá¡«
á¡¥ á¢ĭá¡Ńá¢ŀ
á¡ªá¢ĳ á¢Ķá¡ªá¡ªá¡¬á¡¨
Ġá¢Ĭá¡ªá¢İ á¡ªá¢Ĭá¢Ķá¡ªá¡§
á¡¥á¡Ńá¡¬á¡¬á¢ĳ á¡§
Ġá¢Ķá¡ªá¢ĭá¡Ńá¢ŀ á¡ªá¢Ķá¡³
Ġá¢Ĭ á¡ªá¢ĭá¡Ńá¢ļá¡¬á¢ĳá¡ªá¡§
á¡ªá¢Ķ á¢ļá¡³
Ġá¡¸á¡ªá¢ŀ á¡ªá¡°á¡¨
Ġá¡¥á¡Ńá¢ŀá¡Ńá¢Ķ á¡Ńá¡°á¡¨
Ġá¢ĺá¡ªá¢ŀ á¡¬á¡ªá¡ªá¢Ķá¡ªá¡§
Ġá¡¥á¡ªá¢ŀ á¢İá¡«
Ġá¢Ķá¡Ńá¡¬ á¡¬á¡¨
Ġá¡³á¡¬á¢ļá¡¬á¢Ĭ á¢Ļá¡ªá¢Ĭá¢Ķá¡ªá¡§
Ġá¢ĭá¡Ńá¡¬á¢İá¡Ńá¢Ķ á¢Ĭá¡ªá¡¨
á¡¥á¡ªá¢ŀ á¡¬á¡±á¡±á¡Ńá¡§
Ġáł¬áłłáł¤ áł¯áł¢
Ġá¡¥á¡Ńá¢ŀ á¡¬á¡ªá¡ªá¡ªá¡§
á¢Į á¡ªá¡±á¡±á¡³
á¡¬á¢ľ á¡ªá¡ªá¢Ļá¡ªá¡«
Ġá¢ĭá¡Ńá¡¬á¢İ á¡Ń
i s
á¡ªá¢ŀ á¡§
á¡¸ á¡ªá¡ªá¢Ļ
Ġá¢ĺá¡ªá¢ĳá¢Ĭ á¡ªá¢ļá¡§
Ġá¡³á¡ªá¡Ń á¡ªá¢İ
Ġá¡¸á¡ªá¢ŀ á¡ªá¢į
áł¤áł ¸
Ġáłª áłłáł³
Ġá¡¬á¡Ńá¡ªá¡ªá¢Ķ á¡Ńá¢īá¡¨
Ġá¢ļá¡Ńá¢Ĭ á¡¬á¢ĳá¢Ļá¡§
á¡³ á¡ªá¢Ķá¡³
á¡Ńá¡ µ
Ġá¡¥á¡Ńá¡¬á¡± á¡Ńá¢ļ
Ġá¡´á¡Ńá¡¬á¢Ĭ á¢Ķá¡§
Ġá¡¥á¡Ńá¡¬á¡¬á¢ĳá¡ªá¢ļá¡¬á¢ĳ á¡ªá¢Ĭá¢ļá¡«
áł· áł¢
Ġá¢ĺá¡ªá¢Ĭá¡ªá¢Ļ á¡Ńá¢ĳá¡ªá¢Ľá¡³
á¡´á¡Ńá¡¬á¢Ļ á¡Ńá¢Ĭá¡ªá¢Ĳ
Ġá¢ĺá¡Ńá¢ŀ á¡Ńá¡±á¡ªá¢Ļá¡³
Ġá¢Īá¡ªá¢ŀá¡±á¡± á¡ªá¡°á¡¨
Ġá¢ĺá¡ªá¢Ĭ á¡¬á¢ľá¡ªá¡§
Ġá¢Ĭá¡¬á¢ĳ á¡³
Ġá¢Ķá¡¬á¡¬ á¡Ńá¡ªá¢Ĭ
á¡³ á¡ªá¢ĳá¢ļ
á¡Ńá¡¬á¡¬á¢ĳ á¡ªá¡ªá¡ªá¢Ķá¡ªá¡§
Ġá¡¯á¡ªá¢Ķ á¡Ńá¢Ļá¡ªá¡Ńá¡§
Ġá¢ĺá¡ªá¢ĭá¡Ńá¢Ķ á¢ļá¡³
Ġá¡´á¡Ńá¢Ļá¢Ļ á¢¨
á¡ªá¡¬ á¡¬á¢Ĭá¢Ķá¡ªá¡§
Ġá¡¥á¡Ńá¢ļ á¡¬á¢ŀ
Ġáłµ áł¦áłª
á¡¥á¢İ á¡ªá¢Ĭá¢Ļá¡ªá¡«
Ġá¡¥á¡¬ á¡ªá¢Ļ
á¡Ńá¢Ł á¡ªá¡ªá¡¬á¡¨
á¡ªá¢ļá¡¬á¢Ĭ á¡ªá¢Ļá¡ªá¡¬á¡¨
Ġá¢Ķá¡ªá¢Ľ á¡¬á¡¬á¡¨
ï Ģł
á¡¬á¢ľ á¡Ń
Ġá¢Ķá¡¬á¢ĳ á¡±á¡±á¡ªá¢Ľá¡³
Ġá¢Įá¡ªá¢Ļ á¡ªá¢Ĭá¢Ļá¡ªá¢Ľá¡³
á¡Ńá¢Ľ á¡¬á¡ªá¡¬á¡¨
Ġá¡³á¡ªá¡¬á¡¬á¢ļ á¡ªá¡±á¡±
Ġá¡¥á¢ŀ á¡¬á¢ĳ
á¡ªá¢ĭá¡Ńá¢ĳ á¡³á¡ªá¢Ĳ
Ġá¢ĺá¡Ńá¢Ļ á¡ªá¢İá¡ªá¢ĩ
Ġá¢Ĭá¡¬á¢ĳ á¡¬á¢ĵ
á¡ªá¢Ķá¡¬á¢ĳ á¡ªá¢Ĭá¡ªá¡¨
Ġá¡¯ á¡¬
Ġá¡¥á¡Ńá¡¬á¢Ĭ á¢Ĭá¡¬á¢ľ
Ġá¡¬á¡Ńá¡¬á¡ªá¢Ĭá¡± á¡ªá¢Ĳ
Ð½ Ð°
Ġáł¨áł¢áłŃ áł¡áł¨
á¢Ķ á¡ªá¢ľ
á¡Ńá¡³ á¡ªá¡§
Ġá¢ı á¡¬á¡ªá¡¬á¡¨
Ġá¢Ĺá¡ªá¡±á¡±á¡ªá¢ŀá¢Ļ á¡ªá¢Ľá¡³
å ¾
á¡ªá¢Ĭ á¡ªá¢ĳ
Ġá¡¥á¡¬á¢ŀ á¡ªá¢Ĭá¡ªá¡¨
Ġá¡¥á¢Ľ á¡ªá¢ĭá¡Ńá¡«
Ġá¢Ķá¡Ńá¢ŀá¡Ńá¢ĳá¢ļ á¡ªá¡ªá¡ªá¢Ķá¡ªá¡§
Ġá¢ĭá¡Ńá¡¬á¢ŀá¡Ńá¢ĳá¢ļ á¡ªá¢ĭá¡Ń
Ġ m
á¡ªá¢Ľ á¡ªá¡§
Ð°Ð ±
Ġá¢Įá¡ªá¢ĳ á¢İá¡ªá¡«
Ġá¢ĺá¡ªá¢Ĭ á¢ŀá¡¬á¢ĳá¡¬á¡¬á¡¨
Ġá¡¥á¡ªá¢Ķ á¢Ļá¡ªá¡±á¡±á¡ªá¡§
Ġá¡¥á¡Ńá¢Ļ á¡ªá¢Ľá¡³
Ġá¡¶ á¢Łá¢ŀ
Ġá¢Īá¡ªá¡ªá¡ªá¢ļ á¡ªá¢ĭá¡Ń
Ġá¡¥á¡Ńá¢ŀ á¢Ķá¡¬á¢ĩ
Ġá¡¥á¡Ńá¡¬á¢Ľ á¡ªá¡³á¡ªá¡¨
Ġá¡¥á¡ªá¢ľ á¡Ńá¢İá¡ªá¢Ŀ
Ġá¡¸á¡ªá¡±á¡± á¡Ńá¢ļ
Ġá¡¥á¡Ńá¡Ńá¡±á¡± á¡Ńá¢Ļá¡ªá¢ĩ
Ã Ĺ
á¡ªá¢ŀ á¡ªá¢ĭá¡Ńá¢ĳá¢ĭá¡Ń
á¡¬á¢ŀ á¡ªá¡°á¡¨
Ġá¡³á¡ªá¢Ļ á¡Ńá¢Ļá¡ªá¡«
Ġá¢ŀ á¡¬á¢Ļá¡«
áł¥ áłŃ
á¡¥ á¡ªá¡´á¡Ńá¢ŀ
Ġá¢Ķá¡Ńá¢Ļ á¡Ńá¢ĳá¢īá¡¨
Ġáł¶áłłáłª áł¤áł³áłłáł¯
Ġáłªáł£áł¯áł £
Ġá¡³ á¡¬á¢Ľ
Ġá¢Ĭá¡ªá¢Ļ á¡Ńá¡¬
Ġá¡¬á¡Ńá¡¬ á¡ªá¢Ĭ
áł¤áł¯áł ª
Ġá¢Ĺá¡ªá¡±á¡± á¡ªá¢Ľá¡ªá¡±á¡±á¡ªá¡«
ãĢĪ ãĢĪ
e s
Ġá¡¥ á¡Ńá¢į
Ġá¢ļ á¡Ńá¡¬á¡¬á¡³
á¢Ľá¡¬á¢ĳ á¢Ļ
Ġá¢ĺá¡Ńá¢ŀ á¡ªá¢Ķá¡Ńá¡§
Ġá¢Ķá¡ªá¢ĳ á¡ªá¢ĭá¡Ńá¡³
Ġá¡¯á¡ªá¡¬á¡¬á¢ŀ á¡ªá¡±á¡±á¡Ńá¢ĳá¡Ńá¡§
Ġá¡¥á¡ªá¡ªá¢Ĭá¢Ĭ á¡¬á¢Ľá¡¬á¢ŀ
Ġá¢Ĭá¡¬á¢İ á¡Ńá¢ŀá¡ªá¢Ĳ
2 1
Ġá¢ĺá¡Ńá¡¬á¢ŀ á¡Ńá¢Ļá¡ªá¡¬á¡¨
Ġá¢Ļ á¡ªá¢İá¡³á¡ªá¡¨
Ġá¢Ķá¡ªá¢ŀ á¡³
á¢Įá¡Ńá¡¬á¡ªá¢Ĭ á¢ĭá¡Ń
á¡¬á¡±á¡± á¡Ńá¡ªá¡ªá¡ªá¡§
Ġá¡¥á¡Ńá¢ľ á¡ªá¢īá¡¨
ĠÑ ı
á¢Ķ á¡ªá¢İ
á¡Ńá¡ªá¡ªá¢Ļ á¡Ńá¢ŀá¢Ľá¡«
Ġá¢ĺá¡ªá¡³ á¡ªá¡±á¡±á¡³
Ġá¢Ĭá¡ªá¡¬ á¡¬á¢ĭá¡Ńá¢ĳá¡Ńá¢Ĭá¢ļá¡«
Ġáł¬áłłáł® áłłáłŃáłłáł¯
á¡´á¡Ńá¡¬á¢ĭ á¡Ńá¡§
Ġá¡¯á¡Ńá¡¬á¢İ á¡Ńá¢ŀ
áł¡áł ¦
Ġá¢ĭá¡Ńá¡¬á¢ŀá¢Ĭ á¡ªá¡«á¡¨
á¢Į á¡Ńá¢ŀá¡¬á¡§
Ġá¡¥á¡³á¢ļ á¡¬á¢ĭá¡Ńá¡³
Ġá¢ľ á¡ªá¡±á¡±á¡ªá¡§
Ġá¡¸ á¡Ńá¡ªá¢Ĭá¡ªá¡ªá¡³
á¡ªá¢ļá¡¬á¢ĳ á¡ªá¢ĭá¡Ń
Ġá¡¸á¡Ńá¡³á¡¬á¢ľ á¡ªá¢ĳá¢ļ
i t
Ġá¢ľá¡ªá¢ŀ á¡¬á¢Ĳá¡¨
á¡¸á¡ªá¢ŀá¡¬á¡±á¡± á¡Ńá¢ļ
á¢Ł á¡ªá¡ªá¡¬á¡¨
Ġá¡¥á¢ĳ á¢ļá¡¬á¡§
Ġá¢Ĭá¡¬á¢ļ á¡¬á¢Ĭ
Ġá¢ļá¡¬á¢ĳ á¡ªá¡±á¡±á¡Ńá¡Ńá¡§
Ġá¡¸á¡Ńá¢ŀá¡¬á¢ľ á¡ªá¢ĳá¢Ļá¡§
Ġá¡¸á¡ªá¡¬ á¡¬á¡§
á¡ªá¡ªá¢Ĭá¢Ĭ á¡ªá¡§
Ġá¡¯á¡Ńá¡¬á¢ĭ á¡Ńá¢Ĭ
Ġá¡¥á¡Ńá¡¬á¡¬á¢ĳá¡ªá¡Ń á¡ªá¢ļá¡³
á¢Īá¡Ńá¢ŀá¡³ á¡ªá¢Ļá¡Ńá¡±á¡±á¡ªá¢Ŀ
Ġá¢Ĭ á¡ªá¢ĳá¢Ļá¡ªá¡«
Ġá¡¥á¡Ńá¡¬á¢Ĭ á¡ªá¢ĳá¡Ńá¡§
Ġá¡³á¡ªá¡ªá¡ª á¡ªá¢Ļá¡ªá¡«
Ġá¢ļá¡¬á¡±á¡ªá¢Ĭ á¡ªá¢ĳá¡¬á¡¬á¡¨
Ġá¢Ī á¡ªá¢Ļá¡§
Ġá¡¥á¡ªá¢İ á¡Ńá¢ŀ
Ġá¡¥á¢Ľ á¡ªá¢ĳ
Ġá¡¥á¡³ á¢Ķ
Ġá¢ĺá¡Ńá¡Ńá¡±á¡±á¡ªá¢ŀ á¢ļá¡³
Ġá¢Ķ á¡ªá¢Ĭá¢Ķ
á¢Ĭ á¡ªá¡±
Ġá¢ľá¡ªá¢ŀ á¢Ķá¡¬á¢ĩ
áł¬ áł¡áł¨
Ġá¢Įá¡ªá¡ªá¢Ļ á¡Ńá¡ªá¡ªá¢Ķá¡ªá¡§
á¡¬ á¡¬á¢Ĺ
á¡¬á¢Ĭ á¡¬á¢Ŀ
á¡¥á¡Ńá¢ľ á¡Ńá¡§
Ġá¢Ķá¡ªá¢ŀá¢ĭá¡Ńá¢Ĭ á¡ªá¢Ľá¡³
Ġá¡¥á¢ŀá¡ªá¢İ á¡ªá¢ĳá¢Ľá¡ªá¢Ĳ
Ġáł²áł¤áł¬ áłłáł¢
á¡ªá¢ŀ á¡ªá¢ĳá¢Ļá¡§
Ġá¢ĺá¡ªá¡³ á¡ªá¡§
Ġá¡¥á¡ªá¡ªá¡ª á¡ªá¢ĳá¡ªá¡ªá¡ªá¢ļá¡«
Ġ Ð°Ð¹Ð»
Ġá¡¸á¡ªá¢ŀ á¡ªá¡ªá¡ªá¢Ļá¡ªá¡ªá¡ªá¢Ķá¡ªá¡§
áł¡áł µáł¢áł¯
á¡Ńá¡¬á¢ĳ á¢Ľá¡ªá¡«
Ġá¡³á¡¬á¢ĳ á¡ªá¡ª
Ġá¢ļá¡¬á¡± á¡ªá¢Ĭá¡ªá¡§
Ġá¢ļá¡ªá¢Ĭá¡ªá¢ŀá¢ĳ á¡ªá¢Ļá¡ªá¡¬á¡¨
Ġáłªáł¤áł· áł¬áłłáł¨
Ġáł¥áłª áł¡áł·
Ġ P
Ġá¡¸á¡ªá¢ŀ á¡¬á¡±á¡±á¡ªá¡Ńá¡§
Ġáł¬ áł¤áł°áł¢áłŃ
Ġá¢Įá¡ªá¡ªá¢Ļ á¡Ńá¢Ĳ
Ġá¡¥á¡ªá¡³ á¡ªá¡ªá¡ªá¡ªá¡«
Ġá¢ĺá¡ªá¡³ á¢Ĭá¡¬á¢Ľá¡³
Ġá¡¥á¡Ńá¡¬á¢ĳá¢Ľá¡ªá¡¬ á¡¬á¢Ļá¡³
á¢Ķ á¡¬á¢ĭá¡Ń
Ġá¡¥á¡Ńá¡¬á¢Ĭ á¡³á¡ªá¢Ĳ
á¡¬á¡³ á¡ªá¡«
Ġá¡¸á¡ªá¢Ļá¡ªá¡±á¡±á¡Ńá¢Ľ á¡¬á¢ĳá¢Ļá¡ªá¡«
Ġá¡³á¡ªá¡±á¡± á¡ªá¢Ķá¡³
Ġáł¦ áł°
Ġá¡¥á¢Ķá¡ªá¢ŀá¢ĭ á¡Ńá¡³
áł¢áłŃáł¤áł¯áł ¬áł¤
Ġá¡¥á¡ªá¡¬á¡¬á¢Ķ á¡Ńá¡«
á¢ Ĳ
áł¤áłŃ áł³
Ġá¢ĺá¡Ńá¡¬á¢ĳá¡Ńá¡³ á¢ĳ
á¡Ńá¢ŀ á¡ªá¡ª
Ġá¡¥á¡Ńá¢Ĭ á¢ľ
Ġá¢Ķá¡Ńá¡³ á¡ªá¢ĩ
Ġá¡¥á¡Ńá¡¬ á¡¬á¢Ķ
Ġáł² áłłáł¶
Ġá¡¥á¡Ńá¢Ļ á¡ªá¢Ķ
á¢ŀ á¡ªá¡«
á¡³á¡ªá¡¬ á¡¬á¢Ľá¡ªá¡«
Ġá¡¸á¡ªá¡¬á¡¬á¢ŀ á¡ªá¡§
á¡¬á¢ĭá¡Ńá¢ĳ á¡Ńá¡«á¡¨
ĠáłŃ áł¤áł·áłª
Ġá¡¥á¡Ńá¢ŀá¡Ńá¡±á¡±á¡Ńá¢ĳ á¡Ńá¡§
Ġáł¬áłłáł® áł¤áłŃ
Ġá¢ĺá¡Ńá¡¬á¢ĭ á¡Ńá¢Ĭá¡ªá¡«
á¡¥á¡Ńá¢ŀ á¡ªá¡ªá¢Ĭá¡±á¡±á¡Ńá¡³á¡¨
á¡Ńá¡±á¡ªá¢Ļ á¡ªá¢Ĭá¡¬á¡§
Ġá¢ĺá¡ªá¢ŀ á¡±á¡±á¡³
Ġá¡´á¡Ńá¢Ķ á¡ªá¡ª
Ġá¡¸á¡ªá¢Ļ á¡ªá¡ªá¡ªá¢Ķá¡ªá¡§
á¢ļá¡¬á¢ĳ á¡ªá¡±á¡±á¡³
áł¢áł¯áł ³áłł
Ġá¢ľá¡ªá¢ŀá¡¬á¢ĳá¢ļ á¡ªá¡±á¡±á¡ªá¡§
áł¡áł¯áł ª
Ġá¡¬á¡¬á¢ľ á¢Łá¡¦
Ġá¢Įá¡Ńá¡¬á¢ĭ á¡Ńá¢ĳá¡¬á¡¬á¡¨
á¡¥á¢ŀá¢Ļ á¡ªá¢į
á¡Ńá¢Ĭ á¢ļá¡¬á¡Ńá¡§
Ġá¡¥á¡Ńá¡¬á¢ĭ á¡Ńá¡§
á¡¥á¢ŀá¢Ĭ á¡¬á¢į
á¡¬á¢ŀ á¡ªá¢īá¡¨
á¡Ńá¡³ á¢Ļá¡Ńá¢Ŀ
á¡Ńá¢ļ á¡¬á¡ªá¡ªá¡ªá¡³á¡ªá¡¨
Ġá¡¥á¡Ńá¡¬á¡± á¡Ńá¢ŀá¢Ļ
Ġá¡¯á¡ªá¢ŀ á¡ªá¢ĳá¡ªá¢Ľá¡³
á¡ªá¢Ĭá¢Ķ á¡§
Ġá¢ĭá¡Ńá¡¬á¢Ļá¡ªá¢ĳ á¢Ĭá¡ªá¢Ľá¡³
Ġá¡¥á¡Ńá¡ªá¡ªá¡ªá¡±á¡± á¡ªá¢ŀá¡ªá¢Ľá¡³
Ġá¡³á¡ªá¡ªá¢Ļ á¡¬á¢Ļá¡§
Ġá¡¥á¡ªá¢¤ á¡ªá¢Ļ
á¢Ļ á¡¬á¢Ŀ
á¡¥ á¡ªá¢Ĭá¢Ĭ
Ġá¢ľá¡ªá¡´ á¡Ńá¢ĳá¢ļ
á¡¬á¢Ľ á¡¬á¢Ĳ
á¡¯á¡ªá¡¬ á¡¬á¢Ļá¡§
Ġá¡¸á¡ªá¢ŀ á¢İá¡ªá¡§
Ġá¡¯á¡Ńá¡¬á¢ĭ á¡Ńá¢ŀá¢ĳá¡ªá¢Ĳ
ĠÑģ Ð°ÑĢÑĭÐ½
Ġá¢ĭá¡Ńá¡¬á¡± á¡Ńá¢Ĭá¡ªá¢Ĳ
Ġá¢ĭá¡Ńá¡¬á¢ŀ á¢ļá¡¬á¢Ĭ
áł¦áł ©
Ġá¡¥á¢ŀá¢ĭ á¡Ńá¡°á¡¨
á¢Īá¡ªá¢Ļ á¡ªá¡°á¡¨
Ġá¡¥á¡Ńá¢Ļá¡Ńá¢Ĭ á¡¬á¢ļ
Ĵ Ļ
á¡Ńá¢Ļ á¡ªá¢Ŀ
Ġá¡¯á¡ªá¡¬ á¡¬á¢İá¡ªá¡§
Ġá¢Ķá¡¬á¢ŀ á¡³
Ġáł° áł¤áł¶áł¤áł¯
áł¬ áłłáł¯
Ġá¢ĭá¡Ńá¡¬á¢Ļá¡ªá¢ĳ á¢Ĭ
Ġá¢Ĭá¡ªá¢ŀá¡ªá¢Ĭá¢ĳ á¡ªá¢Ĭá¢ļá¡¬á¡Ńá¡§
á¡ªá¡± á¡¬á¢ĩ
Ġá¢ľá¡ªá¡´ á¡Ńá¡ªá¡ªá¢Ļá¡ªá¡ªá¡ªá¡³
Ġá¡¸á¡Ńá¡± á¡¬á¡Ńá¡§
Ġá¢ļá¡Ńá¡¬ á¡¬á¡±á¡Ńá¢į
á¢ĺ á¡Ńá¡¬á¢Ĭ
Ġá¡¬á¡Ńá¡ªá¡ªá¢Ķ á¡Ńá¡°á¡¨
Ġá¢ĺá¡Ńá¡¬á¢ŀ á¢£
Ġá¢ĺá¡ªá¢ĳ á¡ªá¡±á¡±á¡ªá¡Ńá¡§
Ġá¢Īá¡ªá¡¬ á¡¬á¡ªá¡ªá¡ªá¡§
Ò¯ ÑĢ
Ġá¢ĺá¡Ńá¢Ĭá¡¬á¢ŀ á¡ªá¡ªá¡ªá¡³
á¡ªá¢¤ á¢ĺ
Ġá¡¥á¡Ńá¡¬ á¡Ńá¢Ķá¡¬á¡§
Ġáł¦áł¨ áł¡áł¨
Ġá¢ĺá¡Ńá¢Ļ á¡ªá¢Ľá¡³
Ġá¢ľá¡ªá¢İ á¡ªá¢ŀá¡ªá¡ªá¡ªá¡§
Ġá¡¥á¡Ńá¡¬á¢Ľá¡ªá¢ĭá¡Ńá¢ĳ á¢Ļá¡ªá¡¬á¡¨
Ġá¡¥á¡Ńá¢ŀ á¡ªá¢ĳá¡ªá¢Ĳ
Ġá¡¥á¡Ńá¡ªá¡ª á¡ªá¡±á¡±á¡Ńá¢ĳá¡ªá¡ªá¡³
Ġáł¬áł¦áł °
Ġá¡³á¡ªá¢Ļá¡Ńá¢Ľ á¡¬á¢ŀá¡±á¡±á¡ªá¢Ĳ
Ġá¡¥á¡¬á¢Ľá¡ªá¡±á¡±á¡Ńá¢ŀ á¢Ļá¡ªá¡§
2 5
Ġá¢Ļ á¢Łá¡³
Ġá¡¥á¡Ńá¡± á¡Ńá¡§
Ġá¡¸á¡Ńá¡³á¢Ļ á¡Ńá¢ĩ
Ġá¡¯á¡Ńá¡³ á¢Ķá¡«
Ġá¢ĭá¡Ńá¡¬ á¡´á¡Ńá¢ŀ
Ġá¢ĭá¡Ńá¡¬á¢ĳ á¡¬á¢ļ
Ġá¢Ł á¢Ł
á¢Ķ á¡¬á¡ªá¢Ĭá¢Ĭ
Ġá¢ĺá¡ªá¡±á¡± á¡ªá¢İ
Ġá¢Įá¡ªá¢ĳá¢Ľ á¡¬á¢Ľá¡³
Ġá¢Ĭá¡ªá¢ĳ á¡ªá¢Ľá¡ªá¡«
á¡Ńá¡ªá¢Ĭ á¢Ĭá¡¬á¡¦
Ġá¡³á¡¬á¢ļá¡¬á¢Ĭ á¡ªá¢ļá¡«
Ġá¡¥á¢Ľá¡ªá¡ªá¢Ĭá¡± á¡ªá¢ĳá¢Ļá¡§
Ġá¢ļ á¡Ńá¡¬á¡ªá¢Ĭ
Ġá¡¸á¡Ńá¢Ķá¡¬á¡±á¡± á¡Ńá¢ļá¡«
á¡¥á¡Ńá¢ĳ á¢Ľá¡³
Ġá¢Ķá¡ªá¡±á¡±á¡Ńá¢ĳ á¡±á¡±á¡ªá¢Ľá¡³
Ġá¢Ķá¡ªá¡± á¡ªá¡§
Ġá¢ľá¡ªá¡±á¡±á¡ªá¢Ĭ á¡¬á¢Ĳá¡¨
i d
é ĩ
á¡ªá¢ļá¡¬á¢ĳ á¡ªá¢Ĭá¢Ķá¡ªá¡§
Ġáł® áł¦áł¨
Ġá¢Īá¡Ńá¢İ á¡¬á¡ªá¢Ļá¡ªá¡ªá¡¬á¡¨
á¡ªá¡±á¡± á¡ªá¢Ļá¡ªá¡«
Ġá¢Ķ á¢Łá¡¦
Ġá¡¸á¡ªá¡¬ á¡¬á¡ªá¡ª
Ġ20 20
Ġá¡³á¡ªá¡¬á¡¬á¡±á¡±á¡ªá¢ĳ á¡¬á¢ĳá¡¬á¢ĩ
Ġá¢ĺá¡ªá¢ĳ á¡ªá¢ĳ
Ġá¢ļá¡¬á¢Ļ á¡ªá¢İá¢Ľá¡«
Ġá¢ĺá¡ªá¢Ķ á¡¬á¡«á¡¨
á¢ĺá¡Ńá¡¬á¢ŀ á¡Ńá¢Ĳ
Ð°Ð ¶
a g
Ġá¢ĺá¡Ńá¢ŀ á¡ªá¡Ń
Ġá¢Ķá¡Ńá¡³ á¡¬á¡ªá¡¬á¡¨
á¢Įá¡Ńá¡¬á¢ŀ á¡Ńá¢Ĭ
Ġá¢Į á¡ªá¡¬á¡¬á¢ĳ
á¡ªá¡±á¡±á¡Ńá¢ĳ á¡Ńá¡ªá¡ªá¢Ķá¡ªá¡±á¡±á¡ªá¢Ŀ
Ġá¡¸á¡ªá¢Ļ á¡Ńá¢ĳá¡ªá¡ªá¡¬á¡¨
Ġá¡¬á¡Ńá¢Ĭá¡¬á¢ļ á¡ªá¢Ĳ
á¢Ķá¡ªá¢ĳ á¢Ĭá¡¬á¡§
____ ____
á¡ªá¢ŀ á¢ļá¡³
Ġá¢Ĺ á¡ªá¢Ĭ
Ġá¢ļá¡ªá¢Ĭ á¡ªá¢Ĳ
Ġá¡¬á¡¬á¢Ĭ á¢Ļ
Ġá¢ĺ á¢ŀ
Ġá¢ĺá¡ªá¡±á¡± á¡ªá¢ĳá¡ªá¢Ĳ
Ġá¡¥á¡Ńá¢ľ á¡ªá¡§
Ġá¢ĺá¡ªá¡±á¡±á¡Ńá¢Ķ á¡Ńá¡ªá¡ªá¢Ķá¡ªá¡§
Ġá¡¥á¡Ńá¡¬á¢Ĭ á¡ªá¡¬á¡¬á¢Ļ
Ġá¢Ķá¡ªá¢İ á¡³á¡ªá¢Ŀá¡¨
Ġá¢ĺá¡ªá¡³á¢ļ á¡¬á¢ľá¡ªá¢ŀá¡«
á¡Ńá¢ĳ á¡ªá¡±á¡±á¡ªá¡Ńá¡§
Ġá¡¯ á¡¬á¢Ķá¡Ńá¡§
á¡¥á¡Ńá¢ŀ á¡Ńá¢Ľá¡³
á¡ªá¡³ á¡ªá¡³
Ġá¡¬á¡¬á¢Ĺ á¡¬á¢ľá¡ªá¢ļá¡«
Ġá¢ĺá¡Ńá¢Ĭá¡¬á¢ŀ á¡ªá¡±á¡±á¡Ńá¢ĳá¡Ńá¡§
á¡¥á¡Ńá¢Ļ á¡ªá¡±á¡±á¡ªá¡§
Ġá¢Įá¡Ńá¢ŀá¢Ļ á¡ªá¡ªá¡ªá¢Ķá¡ªá¡§
Ġá¡¥á¡¬á¡ªá¢Ĭá¢Ĭ á¡¬á¢Ĭá¢Ķá¡ªá¡§
á¡Ńá¡¬á¢ Ł
Ġáłµ áł¢
Ġá¡¥á¡Ńá¡¬á¡Ńá¡ªá¢Ĭ á¡ªá¡§
Ġá¢Ķá¡ªá¡Ńá¡ªá¢Ĭ á¡¬á¢ĳá¢Ļá¡³
á¡¶ á¡¬á¢ŀ
Ġá¡¥á¡¬á¢Ľ á¡«
á¢ľá¡ªá¢ŀ á¡³
á¡Ńá¢ŀ á¡ªá¡ªá¡ªá¢ĩ
Ġá¢ĭá¡Ńá¡¬á¡³ á¡ªá¢Ĭá¡ªá¢Ļá¡³
Ġá¡¯á¡¬á¢ĳ á¡´á¡Ńá¢Ķá¡Ńá¡§
á¢¤ á¢Łá¡§
Ġá¢Įá¡Ńá¡¬á¢Ķ á¡¬á¢ľá¡ªá¢Ĳ
á¡Ńá¡± á¡ªá¡§
Ġá¡´á¡Ńá¢Ļ á¡¬á¢Ķ
Ġá¡¥á¡Ńá¢ľ á¡Ńá¢Ļá¡ªá¢Ĳ
áłłáł¯áł µ
Ġá¡´á¡Ńá¢ĳá¢ļá¡¬á¡ªá¡ª á¡ªá¢Ļá¡ªá¢ĩ
Ð¾ Ð³
á¡¬á¡±á¡± á¡ªá¢Ŀ
Ġá¢ĺá¡ªá¢Ķ á¡¬á¢ŀ
Ġá¡³á¡ªá¢Ļ á¡Ńá¢Ķ
á¢Łá¢ ¥
Ġá¢ĺá¡Ńá¡± á¡Ńá¢ĩ
Ġá¡¥á¡ªá¢ŀá¡³ á¡ªá¢Ļá¡Ńá¡±á¡±á¡ªá¢Ŀ
Ġá¢ŀ á¡Ńá¡¬á¡ªá¡¬á¡¨
Ġá¢¥ á¡Ńá¢Ļá¡¦
Ġá¢ļá¡Ńá¡¬á¡¬á¡³ á¡ªá¢ĳá¢Ķá¡ªá¡ªá¡¬á¡¨
á¡Ń á¡Ńá¡ªá¡ªá¡ªá¡«
á¡Ńá¢ŀ á¡´á¡Ń
á¡Ńá¢ĳá¢Ļ á¡Ńá¡ªá¡ªá¡³
Ġá¢ļá¡¬á¢Ĭ á¡¬á¡¬á¡¨
Ġá¢Īá¡ªá¢ĳá¢Ľ á¡ªá¡±á¡±á¡³
Ġá¢Ķá¡¬á¡±á¡± á¡Ńá¢ŀá¡±á¡±á¡ªá¡§
Ġá¡¬á¡ªá¢ŀá¢Ĭá¡ªá¢ĳ á¡ªá¢Ļá¡ªá¢Ĭá¡ªá¡¨
á¡Ńá¢ĳ á¡ªá¡³á¡ªá¡¨
Ġá¡³á¡ªá¢ŀ á¡¬á¢ļá¡§
Ġá¡¥á¡Ń á¡ªá¢Ľ
Ġáłªáłłáł¢ áł¨
á¡´á¡Ńá¡¬á¢ĭ á¡Ńá¢Ļá¡§
Ġá¡¸á¡Ńá¡ªá¢Ĭá¢Ķ á¡¬á¢ľá¡ªá¢Ŀ
á¡Ń á¡ªá¢ļá¡§
á¡¬á¢İ á¡Ńá¡«
Ġá¢ĺá¡Ńá¡¬á¢ŀ á¡Ńá¢Ĭá¡ªá¡§
Ġá¡³á¡ªá¢ŀ á¡¬á¢ļ
Ġá¡¥á¡Ńá¡¬á¢Ľ á¡ªá¢Ĭá¡ªá¢ŀá¡ªá¡«
á¡ªá¢ŀá¢ĳ á¡¬á¢ĩ
á¡ªá¡¬á¡¬á¢ļ á¡¬á¡§
Ġáł¡áł¬ áł¢áł¯
Ġá¢ĺá¡ªá¢ŀ á¡±á¡±
Ġá¡¥á¡ªá¢İ á¡Ńá¢ŀá¢Ľ
áł¡áł¯áł³ áł¡
Ġá¡¥á¡Ńá¢ŀá¢ļá¡¬á¡±á¡±á¡Ńá¢ĳ á¡Ńá¡ªá¡ªá¢ļá¡«
Ġá¡¥á¡¬á¢Ļ á¡ªá¡°á¡¨
Ġá¢Ķá¡¬ á¡ªá¡¬á¡¨
á¡¥á¡ªá¢ŀ á¡¬á¢Ĭá¡¬á¡¦
Ġáł£ áł¨
Ġá¡¥á¡ªá¢ĳá¢Ļ á¡ª
Ġá¡¥á¡ªá¡ªá¢Ĭ á¢ļá¡¬á¡§
á¡¥á¢Ļ á¡ªá¢Ĭá¡ªá¢Ŀ
Ġá¡¬á¢Ł á¡ªá¡¬á¡¨
Ġá¢Ī á¡ªá¡ªá¢Ĭá¢īá¡¨
Ġá¡¥á¢ŀ á¡¬á¢Ĭá¡ªá¡Ńá¡§
Ġá¡¥á¡Ńá¢Ļ á¡ªá¢Ļá¡ªá¢Ĳá¡¨
Ġá¢ĺá¡Ńá¢ŀ á¢Ĭ
Ġá¢ĺá¡Ńá¢ŀá¡ªá¢Ķ á¡Ńá¢Ĳ
Ġá¢ĺá¡ªá¢Ķá¡Ńá¢ŀ á¡ªá¡ªá¡ªá¡³
á¡¥á¡Ńá¡¬á¡ªá¢Ļ á¡Ńá¢Ķá¡Ńá¡§
á¡´á¡Ńá¢ĳá¡³ á¡ªá¢ļá¡³
Ġá¡¥ á¡¬á¢Ŀ
Ġá¢Ī á¡Ńá¢Ľ
Ġá¢ĺá¡Ńá¢Ļ á¡ªá¡±á¡±á¡ªá¢Ľá¡³
Ġá¡¥á¡¬á¢ĳ á¡ªá¢ŀá¡ªá¢ĭá¡Ń
Ġá¢ĺá¡ªá¢Ļ á¡ªá¢Ļá¡ªá¢ĩ
ãĢĭ áłĤ
áł¢áł¶ áł¡áł¯
Ġá¢ľ á¡Ńá¡¬
á¡¬á¢ŀ á¡±á¡±á¡ªá¡§
Ġá¡¸á¡Ńá¢ŀ á¡¬á¢Ľá¡³
Ġá¡¥á¢Ķá¡ªá¢ŀá¢ĭ á¡Ńá¢ļá¡ªá¢Ĳ
Ġá¡¥ á¢Ļá¡§
Ġá¡¥á¡Ńá¡Ńá¡±á¡± á¡Ńá¡³á¡ªá¢Ĳ
Ġá¢ļá¡ªá¢ĳ á¢İá¡ªá¡¬á¡¨
á¡¬á¡ªá¢ĭá¡Ńá¢Ļ á¡Ńá¡§
Ġá¢Ķá¡Ńá¢ŀ á¡Ńá¡°á¡¨
Ġá¢ĺá¡ªá¡± á¡¬á¢Ĭá¡ªá¢Ŀ
Ġá¡¸á¡ªá¡³á¢Ķ á¡Ńá¢ŀá¡Ńá¡§
ĠÒ¯ Ð´ÑįÑĢ
Ġá¡¥á¡ªá¢İ á¡ªá¢ŀá¡ªá¢Ľá¡³
á¡ªá¢ĳá¢ļ á¡ªá¢ĭá¡Ń
Ġá¡¥á¡ªá¢Ľá¡¬á¡ª á¡ªá¢ĳá¡ªá¢Ľá¡³
Ġá¡¬á¡¬á¡Ńá¡ªá¢ĭ á¡Ńá¢Ĭá¢Ķá¡ªá¡§
Ġá¡´á¡Ńá¢ĳ á¢ļá¡¬á¡ªá¡¬á¡¨
á¡ªá¡ªá¢Ĭ á¡ªá¢ŀá¡ªá¢Ĳ
Ġá¡¥á¡ªá¢İ á¡¬á¢Ľá¡¬á¢ŀá¡ªá¢Ĳ
Ġáł³ áłłáłŃáłłáł¨
á¡¬á¡¬á¢ŀ á¡±á¡±á¡ªá¢Ĳ
Ġá¢ĭá¡Ńá¡¬á¡ªá¢Ļ á¡Ńá¢ĳá¡ªá¢Ľá¡³
á¡ªá¢ŀ á¡ªá¢Ĳá¡¨
Ġá¡¸ á¡ªá¡ªá¢Ĭá¢Ĭ
Ġá¡´á¡Ńá¢ĳ á¡¬á¡ªá¡ªá¢Ķá¡ªá¡§
á¡¬á¢ļ á¡¬á¡Ńá¡§
Ġá¢ļá¡Ńá¡ªá¡ª á¡Ńá¢Ŀ
Ġá¢Įá¡ªá¢ŀá¢Ļ á¡ªá¡ªá¡ªá¢Ķá¡ªá¡§
Ġá¢Ķ á¡Ńá¡ªá¢Ļ
Ġá¡¥á¡Ńá¢ŀá¡Ńá¢ĳá¢Ļ á¡Ńá¢ĳá¢īá¡¨
Ġá¢ľ á¡Ńá¡¬á¢İ
Ġá¢Įá¡Ńá¡¬á¢ŀ á¡Ńá¡§
Ġá¡¸á¡ªá¢ŀá¡¬á¢ļ á¡ªá¢Ĳ
á¢Ĭ á¡ªá¢ĳá¡ªá¢Ľá¡³
Ġá¢¤ á¡ªá¢ĳ
Ġá¡¥á¡¬á¢ĳá¡ªá¢ŀ á¡ªá¢ĭá¡Ńá¢ĳá¢ĭá¡Ń
á¡ªá¢Ľ á¡¬á¢ľá¡ªá¡ªá¡¬á¡¨
Ġá¢Ķá¡¬á¢ĳá¢Ľ á¡¬á¢Ľá¡³
Ġáł¬áłłáł· áł¢áłŃ
Ġáł¤áł´ áł¢áł·
Ġ G
á¡ª á¡Ńá¢Łá¡§
Ġá¢ĺ á¡Ńá¡ªá¢Ĭá¢Ķ
Ġá¡¥á¡¬á¢Ļá¡ªá¢Ĭ á¡ªá¢Ļá¡ªá¡¬á¡¨
Ġá¡¯á¡ªá¡³ á¢Ļá¡§
á¢Ĭá¡ªá¢İ á¡ªá¡§
Ñ İ
Ġáłł áł³
Ġá¡¸á¡ª á¡Ńá¢ĳ
ĠâĢ ¢
Ġá¢Įá¡Ńá¡¬á¡ªá¢Ĭá¢Ĭ á¡ªá¢Ļ
Ġá¢ĺá¡ªá¡¬á¡¬á¢ĳ á¡ªá¡ªá¡ªá¡³
Ġá¢ĺá¡Ńá¢Ļá¡Ńá¢ŀ á¡ªá¡ªá¡ªá¢Ķá¡ªá¡§
áłĬáłĬ áłĬáłĬ
á¡ªá¢ŀ á¡³
á¢ľ á¡ªá¢Ĭ
á¡¯á¡¬á¢Ĭ á¡ªá¢Ļá¡Ńá¢Ĭá¡ªá¢Ŀ
á¡ªá¢İ á¡ªá¡«
á¡¬á¢ŀ á¡Ńá¡Ńá¡§
Ġáł¨ áłłáł¢
Ġá¢Ĺá¡ªá¢Ķ á¢Ļá¡¬á¢Ŀ
á¡¬á¡ªá¡ªá¢Ļ á¡ªá¡°á¡¨
Ġá¡¸á¡ªá¡ªá¢Ļ á¡¬á¡²
áł¦áłŃ áł¡áł·
á¡¥á¡¬á¢ŀ á¡ªá¢ĭá¡Ń
Ġá¢ļ á¡¬á¢ļ
á¢Į á¡ªá¢Ļá¡³
á¢Į á¡¬á¡ªá¢Ĭá¡±á¡±á¡ªá¡§
Ġá¡¸á¡Ńá¢ŀá¢İ á¡Ńá¢Ķá¢Ļá¡§
Ġá¡¯á¡Ńá¡¬á¢İ á¡Ńá¢ŀá¡«
Ġá¡¸á¡ªá¢ŀ á¡ªá¡±á¡±á¡Ńá¢ĳá¡ªá¡ªá¡³
á¡Ńá¡ªá¡ªá¢Ļ á¡ªá¢Ļá¡ªá¢ĩ
Ġáł¤áł °
Ġá¡¥á¡Ńá¢ĳá¡ªá¡±á¡± á¡ªá¡ªá¢ĭá¡Ńá¡³
Ġá¡¥á¡¬á¢ĳá¡ªá¢ŀá¢Ĭá¡ªá¡¬á¡¬á¢ĳ á¡ªá¢Ĳ
áłłáłŃ áł³
á¡ªá¢Ĭ á¡ªá¡³á¡ªá¡¨
á¡Ńá¢Ļ á¡ªá¢Ĭá¡¬á¡¦
á¢ĳ á¡ªá¢Ĭá¢ļá¡«
Ġá¢ĺá¡Ńá¡¬á¢ĳ á¢Ĭá¡¬á¢Ľá¡³
áł¢áł¶ áł¡áł¨
Ġá¡³á¡ªá¡±á¡±á¡Ńá¢ĳ á¡±á¡±á¡ªá¡ªá¡ªá¡³
ÑĪ Ð°
áłłáłŃáł¤áł¯áł µáł¤
á¡¸ á¡Ńá¢ŀá¡¬á¡§
Ġá¢ĭá¡Ńá¡¬á¢Ļ á¡ªá¢Ŀ
á¡¥á¡Ńá¡¬á¡± á¡³
Ġá¡³ á¡ªá¢ĳá¢Ļ
Ġá¢ĺá¡ªá¢ŀ á¡«
Ġá¡¥á¢ŀ á¡ªá¢ĭá¡Ńá¢ĳ
Ġá¢ĺá¡Ńá¢İ á¡¬á¢ĳ
Ġá¡³á¡ªá¡¬á¡¬á¡±á¡±á¡Ńá¢ĳ á¡Ńá¢Ĳ
Ġá¢Ķá¡¬á¢Ļ á¡ªá¢Ľá¡³
á¢ļá¡¬á¡³ á¡ªá¢īá¡¨
á¡Ń á¡Ńá¡ªá¡ªá¡ªá¡§
Ġá¡¥á¡Ń á¡Ńá¡ªá¡ªá¡ªá¡Ńá¡§
Ġá¢ĺá¡Ńá¡¬á¡ªá¢Ĭá¢Ĭ á¡ªá¢Ľá¡«
á¡Ńá¢ĳ á¡ªá¡ªá¡³
Ġá¢ĺá¡Ńá¢Ļ á¡Ńá¡ªá¡ªá¡ªá¡§
áł¡áł· áł¢
Ġá¢Ķá¡¬á¢Ļ á¡Ńá¢Ļá¡ªá¡¬á¡¨
á¡¸á¡ªá¡¬á¡¬á¢ŀ á¡ªá¢Ļá¡ªá¡«
Ġá¢ĺá¡ªá¢Ķá¡¬á¢ŀ á¡ªá¢į
á¢Ķ á¡¬á¡ªá¡ª
Ġá¡¸á¡ªá¡¬ á¡¬á¢ļ
Ġá¡¥á¡Ńá¡ªá¡ªá¢Ļ á¡Ńá¡ªá¡ªá¡³
á¢¤ á¡¬á¡¦
Ġáł¬áł¤áł· áł¢áł¶áłłáł¨
á¡ªá¡ªá¢Ĭ á¢ĭ
Ġáł¡áł· áł³
Ġá¡³á¡ªá¡ªá¡ªá¡ªá¢ŀ á¡ªá¡ªá¡ªá¢Ľá¡³
Ġá¡³ á¡ªá¡ªá¡ªá¢Ļá¡ªá¡°á¡¨
Ġá¢ĭá¡Ńá¡¬á¢ŀ á¡¬á¢ľá¡ªá¢ĳ
Ġá¡³á¡ªá¡±á¡± á¡ªá¡³
Ġá¢Ķá¡ªá¢ŀ á¡ªá¡ªá¡Ńá¡Ńá¡§
Ġá¢Ķá¡¬á¡³ á¢Ļá¡Ńá¢ĳ
Ġá¢ļá¡¬á¡± á¡ªá¢Ľá¡³
Ġá¢ļá¡ªá¢Ĭ á¡¬á¢ĳ
á¡Ńá¡¬á¢ļ á¡¬á¢Ŀ
Ġá¡¬á¡ªá¢ŀ á¡Ńá¢ļá¡§
Ġá¡¬á¡Ńá¢ŀ á¢ļ
Ġá¡¸á¡Ńá¢Ĭ á¡¬á¢ŀ
Ġá¢ĺá¡ªá¢ŀ á¡Ńá¡³
Ġá¢Ķá¡Ńá¡±á¡Ńá¢Ķ á¢Ļ
Ġá¢ĺá¡ªá¡±á¡±á¡ªá¢ŀ á¡¬á¡§
Ġá¡³á¡¬á¢Ķ á¡¬á¢ŀá¡ªá¢Ľá¡³
Ġá¡¯á¡ªá¢İ á¡ªá¢īá¡¨
á¡Ńá¡ªá¡ªá¢Ļ á¡ªá¡³á¡ªá¡¨
Ġá¢ĺá¡ªá¢Ķ á¢ĭá¡Ń
Ġá¡¬á¡ªá¢ĭ á¡Ńá¢Ĭá¢Ķá¡ªá¡§
á¡ªá¡¬ á¡¬á¢ĭá¡Ń
Ġá¢Ĺ á¡ªá¢īá¡¨
á¡Ńá¢Ľ á¡¬á¢ĵ
Ġá¡³á¡ªá¢ĳ á¢ĭ
á¡¥á¢ŀ á¢Ļá¡ªá¡§
Ġá¢ĺá¡Ńá¡ªá¢Ĭ á¡ªá¡ªá¡ªá¡ª
á¡¥á¡¬á¡ªá¢Ĭá¢Ĭ á¡¬á¢Ľá¡³
å Ĩ
á¢Ķ á¡ªá¡³
Ġá¡¥á¡Ńá¢Ļ á¡ªá¡±á¡±
Ġá¢ĺá¡Ńá¢ĳ á¡Ńá¡§
Ġá¢ĭá¡Ńá¡¬á¢Ķ á¡ªá¡«á¡¨
Ġá¡¸á¡ªá¢ľ á¡ªá¡ªá¡ªá¢Ļá¡ªá¡ªá¡ªá¢Ķá¡ªá¡§
Ġá¢ĭá¡Ńá¡¬á¢ŀ á¡Ńá¢Ĳá¡¨
Ġá¡¥á¡Ńá¡¬á¢ŀá¢ĳ á¡Ńá¡¬á¡¨
Ġáł¤áł· áł¤áłŃ
á¢Ł á¢ŀá¡«
Ġá¡¥á¡Ńá¢ľ á¡ªá¢Ľá¡³
áł¢áłŃ áł°áłłáł¨
Ġáł¬ áłłáł¢
Ġá¢Ķá¡¬á¢ŀ á¢Ļá¡ªá¢Ľá¡³
Ġá¢Ĭá¡ªá¢ŀá¡ªá¢Ĭá¢ĳ á¡ªá¡°á¡¨
ĠáłŃ áł¡áł°
Ġá¡¥á¡ªá¢Ĭ á¡¬á¡±á¡±á¡ªá¡Ńá¡§
Ġá¢ľá¡ªá¡´á¡Ńá¡ªá¡ªá¢Ļ á¡ªá¡³á¡ªá¡¨
Ġá¢Ĭá¡ªá¡³á¢ĳ á¡ªá¢ĭá¡Ńá¢ĳá¡Ńá¢Ĭá¢Ķá¡ªá¡§
Ġá¡¬á¡ªá¢ĳá¡ªá¡ª á¡ªá¡±á¡±á¡³
á¡¬ á¡Ńá¡¬á¢ŀ
Ġá¢Īá¡Ńá¡¬ á¡¬á¢Ļá¡§
Ġá¡¥á¡ªá¢Ĭá¢Ĭ á¡ªá¡³á¡ªá¢ľá¡ªá¢Ŀ
Ġá¡³ á¡ªá¢ĳá¢Ļá¡ªá¡§
á¡ªá¢ŀá¢Ļ á¡ªá¡±á¡«
Ġá¢ĺá¡ªá¢İá¢Ļá¡ªá¢Ĭá¢ĳ á¡ªá¡§
Ġá¡¥á¡Ńá¡¬á¢Ĭ á¢ĳ
Ġá¡¬á¡¬á¢ŀ á¡§
á¡¬á¡ª á¡ªá¢ĳá¡ªá¢Ľá¡³
Ġá¡¯á¡ªá¢ŀ á¡ªá¢ĳ
Ġáłµ áłłáł¬
Ġá¡¥á¢İá¢Ĭ á¡ªá¡¬á¡¨
Ġáł¯ áłł
á¢ĺ á¡Ńá¡¬á¢ĭ
áł¦áł· áł¢
Ġá¡¥á¡ªá¢ľá¡ªá¢ĳ á¡±á¡±á¡Ńá¡§
Ġá¢ĺá¡ªá¡±á¡¬á¢ĳá¢ļ á¡ªá¡±á¡±á¡Ńá¢ĳá¢Ľá¡³
Ġ s
á¡ªá¡³ á¢Ļá¡ªá¡§
Ġá¡¥á¡Ńá¢Ķ á¡ªá¡Ńá¡ªá¡ªá¡ªá¡ªá¡ªá¡ªá¡³
Ġá¢Ĭá¡¬á¢İ á¢Ļá¡§
Ġá¡¸á¡ªá¡±á¡±á¡Ńá¢Ļ á¡ªá¢Ķá¡Ńá¡§
Ġáł²áł¦áł· áł¦
Ġá¡±á¡± á¡ªá¡Ńá¡§
Ġá¢ĺá¡ªá¢ŀ á¡Ńá¡¬á¡¬á¡ªá¡ªá¡ªá¡§
á¡³á¡ªá¡¬ á¡¬á¡³á¡ªá¡¨
Ġá¢¤ á¢ĳ
Ġá¢Ĭá¡¬á¢ĳ á¢Ĭá¡ªá¢Ľá¡³
Ġá¢Īá¡Ńá¢ŀá¡³ á¡ªá¢Ļá¡ªá¢Ĭá¡¬á¡¦
Ġá¡³á¡ªá¡¬á¡¬á¢ĳ á¡±á¡±á¡ªá¢Ľá¡³
Ġá¡¸á¡ªá¢ŀá¡¬á¢ľ á¡ªá¢ļá¡ªá¡«
á¡Ńá¢Ķ á¢ļá¡³
Ġá¡³á¡¬á¢Ļ á¡ªá¡±á¡Ńá¢ĵ
Ġá¢ļ á¡ªá¡±
Ġá¢Ī á¡Ńá¢ŀá¡«
Ġá¡¥á¡Ńá¢ĳá¡ªá¢İá¢Ľá¡¬á¢ĳ á¡ªá¡ªá¡ªá¡³
á¢Į á¡ªá¢Ķá¡«
Ġá¢Ķá¡ªá¢ļ á¡Ńá¢ŀá¡ªá¢ĩ
Ġá¡¥á¡Ńá¢ŀá¢ļ á¡¬á¡±á¡±á¡Ńá¢ĳá¢Ľá¡³
Ġá¡³á¡¬á¢Ķá¡¬á¢ŀ á¡ªá¡§
i c
Ġá¢ľ á¡Ńá¡³
áł³ áł¦
Ġá¡¬á¡¬á¡±á¡± á¡Ńá¢ŀ
Ġá¡¥á¡Ńá¡¬á¡ªá¢Ĭá¢Ĭá¡ªá¢ŀ á¡ªá¢ĭá¡Ńá¢ĳá¡Ńá¢Ĭá¢Ķá¡ªá¡§
Ġá¢Ķá¡¬á¢Ľ á¡¬á¢Ŀ
Ġá¡¯á¡ªá¢ĭá¡Ńá¢ŀ á¡ªá¢Ķá¡³
Ġá¢ĺ á¡ªá¡ªá¡ª
á¡³á¡ªá¢ŀ á¡«
Ġá¢ļá¡ªá¡±á¡± á¡ªá¢Ļá¡³
Ġá¡³á¡ªá¡ªá¢Ļ á¡«
á¡ªá¢ĳ á¡ªá¢Ķá¡«
áł¡áłŃ áł¦
Ġá¡¬á¡Ńá¢Ĭá¡¬á¢ľ á¡ªá¡ªá¡ªá¡³
Ġá¢Ĭá¡ªá¢ĳá¡ªá¢ĳá¢ļ á¡ªá¢Ĭá¡ªá¡¨
Ġá¢ĺá¡ªá¢Ĭá¡ªá¢Ĭ á¡ªá¡´á¡Ńá¢ŀá¡«
å ·
Ġá¢Ķ á¡Ńá¢Ļá¡³
Ġá¡´á¡Ńá¢ĳ á¡¬á¢Ľá¡³
á¡Ńá¢ľ á¡ªá¢ĩ
á¡¸ á¡ªá¡±
Ġá¡¥á¡Ńá¡¬á¢Ļ á¡ªá¢Ķá¡¬á¢ĳá¡ªá¢Ĭá¡ªá¡¨
Ġá¡³á¡ªá¢ľá¡ªá¢Ķ á¢ļá¡³
Ġá¢Īá¡Ńá¡Ńá¢ĳ á¢ĳá¡ªá¡§
á¡¬á¡±á¡±á¡Ńá¢ĳ á¡Ńá¡ªá¡ªá¢ļá¡«
Ġá¡³á¡¬á¢ĳ á¢Ļ
Ġá¢Ĭá¡ªá¢ŀá¡ªá¢Ĭá¢ĳ á¡ªá¢Ĭá¡ªá¡¨
Ġá¢ĺá¡Ńá¡¬á¢Ĭ á¡ªá¢İ
Ġá¡¸á¡Ńá¢ŀá¡¬á¡ª á¡ªá¢ĳá¡ªá¡ªá¡ªá¡³
áł¡áł¯áł¡áł¬ áł¡áł¢
á¡¬ á¡ªá¢ĭá¡Ń
Ġá¡´á¡Ńá¢ĳ á¡Ńá¢İá¢Ľá¡¬á¢Ļá¡ªá¡«
Ġá¡¥á¡Ńá¡¬á¡± á¡¬á¢ľá¡ªá¡§
Ġá¡¬á¡¬á¢Ĭ á¡ªá¢ĳá¡ªá¢Ľá¡³
Ġáłªáłłáł· áł¢áł®
Ġá¢Ķá¡Ńá¢ĳá¡¬á¢ĳá¢ļ á¡ªá¢īá¡¨
á¡¥ á¡ªá¢Ľá¡³
Ġáłªáłłáł¶ áł¢áł¬áł¤
á¢ĺá¡ªá¢ĳ á¡ªá¡«
Ġ1 0
á¡Ńá¡±á¡± á¡Ńá¢Ķá¡¬á¢Ļá¡ªá¡«
Ġá¢Ĭá¡ªá¡³ á¢Ķ
Ġá¡¥á¢ĳá¢ĭ á¡Ńá¢Ľá¡³
á¡¥á¡Ńá¡¬á¢Ĭ á¡ªá¢Ŀ
Ġá¢Įá¡¬á¡± á¡Ńá¢Ĭá¡¬á¡¦
Ġá¡¥á¡Ńá¡¬á¢Ľ á¡ªá¢Ĭá¢ļá¡«
Ġá¢ĺá¡ªá¢ĳ á¡§
á¡ª á¡Ńá¡ªá¡ªá¡ªá¡ªá¡ªá¡ªá¢Ķá¡ªá¡§
á¡ªá¡ªá¢ļ á¡ªá¢ļá¡ªá¡¬á¡¨
æ ī
á¡Ńá¢Ļ á¡ªá¢Ĭá¡ªá¡§
á¢ĺ á¡ªá¢Ļá¡§
Ġáł¬ áł¡áł·
á¡³á¡ªá¡¬ á¡¬á¢ļ
Ġá¢ĺá¡ªá¡³á¢Ķ á¡¬á¢Ľá¡³
Ġá¡¥á¡Ńá¡±á¡¬á¢Ķ á¡Ńá¢īá¡¨
á¢Ĭ á¡ªá¢ĳá¡ªá¡§
Ġá¡´á¡Ńá¢ĳ á¢ļ
Ġá¢Ķá¡¬á¢Ļ á¡Ńá¢ĭá¡Ń
Ġá¡³á¡ªá¡¬á¡¬á¢Ķ á¡§
en t
Ġá¡¥á¡Ńá¡¬á¢Ľá¡ªá¢Ķá¢ĭá¡Ńá¢ĳ á¡ªá¡ªá¢Ĭá¢Ļá¡³
ĠÐ°Ð¹Ð» Ð´
á¡¥ á¡Ńá¡ªá¡ªá¢Ļ
Ġá¡¥á¡ªá¢Ļá¡ªá¢ĳ á¡¬á¡Ńá¡ªá¡ªá¡ª
å¤ §
á¢ĺ á¡ªá¡³á¢Ķ
Ġá¡¸á¡ªá¢ŀ á¡ªá¢Ķ
Ġá¡¥á¡Ńá¡± á¡Ńá¢Ķ
Ġá¢ļá¡Ńá¢İ á¡Ńá¢ŀá¢ĳá¡¬á¢ĩ
á¢ļá¡¬á¢Ļ á¡ªá¡ªá¡ªá¡³
Ġá¡¥á¡Ńá¡¬á¢ĳ á¡Ńá¢Ĭ
á¡¥á¢ŀ á¡ªá¢ĭá¡Ńá¢Ĳ
Ġá¡¯á¡ªá¡¬á¡¬á¢ĳ á¡ªá¢ĭá¡Ńá¢ĳá¢Ľá¡³
á¡ªá¡±á¡± á¡ªá¢ĳá¡ªá¡§
á¡¬á¢Ķ á¢į
Ġá¡¸á¡Ńá¢ŀ á¢ļá¡¬
Ġá¢ĺá¡Ń á¡Ńá¢ĳá¡§
Ġá¢Ķá¡¬á¡ªá¢Ľá¡¬á¢ĳ á¡ªá¢Ĳ
Ġá¡¬á¡Ńá¡ªá¡ªá¢Ķá¡Ńá¡±á¡± á¡ªá¡ªá¡ªá¡³
å ±
Ġá¡¯á¡ªá¡¬ á¡¬á¢İ
Ġá¡¥á¡Ńá¡Ń á¡ªá¡ªá¡ªá¡³
Ġá¢Ķá¡ªá¡Ń á¡ªá¢ĭá¡Ńá¢ĳá¢ļá¡«
æ ²
á¡ª á¡ªá¢ĺ
Ġá¡¥á¡Ńá¡¬á¢Ĭ á¢Ķ
Ġá¡¸á¡ªá¢ŀ á¡±á¡±á¡Ńá¡«
Ġá¡¥á¡ªá¡³ á¡ªá¡ª
Ġá¡¥á¡Ńá¡¬á¢ŀá¡Ńá¢Ķ á¡¬á¢ľá¡ªá¢Ĳ
Ġá¢ĺá¡ªá¢Ĭ á¡ªá¢ĭá¡Ńá¢ĳá¡ªá¢Ŀ
Ġá¡¸á¡Ńá¢ĳ á¡³
Ġá¡¥á¡ªá¢Ķá¡ªá¡±á¡± á¡Ńá¡³á¡ªá¢Ĳ
ÑįÐ ¼
Ġá¡¥á¡Ńá¡¬á¢Ĭ á¡ªá¢ĳ
ĠÐ µ
Ġá¢ĺá¡Ńá¡¬á¢ŀ á¡¬á¢ľá¡ªá¢Ķá¡Ńá¡§
Ġá¡¥á¡ªá¢İá¡¬á¢Ļá¡Ńá¢ŀ á¡ªá¡°á¡¨
Ġï¸ ¾
Ġá¡¬ á¡¬á¢ľá¡ªá¡§
á¢Ĭ á¡ªá¢ĳá¡ªá¢ĭá¡Ń
Ġá¡¥á¡Ńá¡¬á¢Ķ á¢Ĭá¡ªá¢Ĭá¢Ķá¡ªá¡§
Ġá¢ĺá¡ªá¡± á¡¬á¡§
Ġá¢ĭá¡Ńá¡¬á¢Ļá¡ªá¢ĳ á¢Ĭá¡ªá¢ĭá¡Ń
Ġá¢Īá¡Ńá¢ľ á¡Ńá¡ªá¡ªá¢Ķá¡ªá¡§
Ġá¡³á¡ªá¢ŀá¡¬á¢İá¢Ļ á¡ªá¢ĳá¡ªá¡ªá¡ªá¡³
á¡Ń á¡Ńá¡ªá¡ªá¡ªá¡ªá¢Ĳ
á¡¥ á¢Ķ
Ġá¡¸á¡Ńá¢ŀ á¡Ńá¢īá¡¨
Ġá¢Ĺ á¡Ńá¡¬á¢ĭá¡Ńá¢ŀ
Ġáł¨ áł¡áł·
Ġá¡¬á¡¬á¡±á¡± á¡ªá¢Ķá¡Ńá¢Ļá¡ªá¡«
Ġá¡¬á¡Ńá¡³ á¡ªá¡±
á¡ªá¡±á¡±á¡Ńá¢ŀ á¡ªá¡ªá¡ªá¢Ķá¡ªá¡§
Ġá¡´á¡Ńá¢Ļ á¡Ńá¡±á¡±á¡³
Ġáł¬ áłłáł¨
ĠÐ ¢
á¢Īá¡ªá¢ŀ á¢ļá¡³
á¢Ľ á¡¬á¢ĭá¡Ń
á¢Į á¡ªá¢ĳá¢ļá¡¬á¡§
á¢¤ á¡¬á¢ŀá¡¬á¢Ĳ
Ġá¡¥á¡Ńá¡¬á¢Ĭá¡ªá¡¬ á¡¬á¢Ķ
á¢¥ á¡Ń
Ġá¢Ķá¡Ńá¢Ļá¡Ńá¢ĳ á¡Ńá¡ªá¡ªá¢Ķá¡ªá¡§
á¡¥á¡Ńá¡¬á¡¬á¢ĳ á¡ªá¡Ń
á¡ªá¢ĳá¢Ļ á¡ªá¢Ļá¡ªá¡«
Ġá¢Īá¡ªá¢ŀ á¢Ļá¡ªá¡§
Ġá¡¬á¡ªá¡±á¡± á¡Ńá¢ŀ
Ġá¢ĺá¡ªá¡ªá¢Ĭá¡±á¡± á¡Ńá¡Ńá¡§
Ġá¢Ķá¡¬á¢ŀ á¢Ĭ
Ġá¡¸á¡ªá¢Ļá¡ªá¡±á¡± á¡ªá¢ĳá¡ªá¡ªá¡ªá¢Ķá¡ªá¡§
á¡ µ
Ġá¢ĭá¡Ńá¡¬á¢Ĭá¢Ľ á¡¬á¡§
Ġá¡¥á¡Ńá¡ªá¡ªá¡ªá¡±á¡± á¡ªá¡ªá¢Ļá¡³
á¡ªá¢Ł á¡§
Ġá¢Ķá¡ªá¡ªá¢Ĭ á¢Ľá¡ªá¡«
Ġá¡¬á¡¬á¢ŀá¢Ĭ á¡¬á¢Ĭá¡ªá¡¨
Ġá¢ı á¡Ńá¢Ĭ
Ġá¡¬á¡¬á¢ŀá¡±á¡± á¡ªá¢ĳá¡ªá¡ªá¡¬á¡¨
Ġá¡¸á¡ªá¢Ľ á¡ªá¡±á¡±á¡ªá¢Ŀ
Ġá¡¥á¡¬á¢Ļá¡ªá¡³ á¢Ĭá¡¬á¡¦
Ġá¢ĺ á¡Ńá¢į
Ġá¡³á¡ªá¢ŀá¡¬á¢ĳá¢Ļ á¡Ńá¢ĳá¢īá¡¨
Ġá¢ĺá¡ªá¡¬á¡¬á¢ĳ á¡ªá¡ªá¡³
Ġá¡¸á¡ªá¡³á¢Ļ á¡ªá¡±á¡±á¡ªá¡«
á¡´ á¡Ńá¢ľá¡ªá¡§
Ġá¡¥á¡ªá¢İ á¡¬á¢ĳ
Ġá¡¸á¡Ńá¢ŀ á¡¬á¡ªá¡ªá¡³
Ġá¢ĺá¡ªá¡³ á¢Ľá¡¬á¢ľá¡ªá¡§
Ġá¢ĺá¡Ńá¢Ķ á¡¬á¢ľá¡ªá¢Ľá¡³
Ġá¡¯á¡ªá¢İ á¡Ńá¡±á¡±á¡Ńá¡ªá¡ªá¡ªá¡§
á¡ªá¢ŀ á¡ªá¢Ľá¡ªá¡«
á¡¥á¡Ńá¡ªá¡ª á¡ªá¡±á¡±
åı ¤
á¡¬á¡±á¡± á¡ªá¢ļá¡«
Ġá¡¯á¡Ńá¡±á¡± á¡Ńá¢Ķá¡³
Ġá¢Ĭá¡¬ á¡ªá¢Ļá¡ªá¡§
Ġá¢¡á¢Ł á¡Ńá¢Ļá¡ªá¢Ĳ
á¡Ńá¡¬ á¡¬á¢ļá¡§
á¡¯ á¡ªá¢ĳ
á¢Ī á¡Ńá¢Ļ
áł² áł¡áłŃáł¡áł¨
á¢Īá¡ªá¢Ļ á¡ªá¡±á¡±á¡ªá¢Ļá¡³
Ġá¢Ķá¡ªá¡Ńá¡ªá¢Ĭá¡¬á¢ĳ á¢Ĭá¡ªá¡§
Ġá¢Ĭá¡¬á¢ĳá¡³á¡ªá¢ŀ á¡ªá¡ªá¡ªá¡§
2 4
á¡Ń á¡ªá¢ļá¡Ńá¡Ńá¡§
Ġáłª áł¦áłŃ
á¡ªá¢ŀá¢ĳ á¡ªá¡ªá¡ªá¢Ķá¡ªá¡§
á¡´á¡Ńá¢ŀ á¡Ńá¡±á¡±á¡³
Ġá¢ĺá¡Ńá¡¬á¢ŀá¢Ĭ á¡ªá¡Ńá¡ªá¢Ĭ
Ġá¡¥á¢ĳ á¢Łá¢İá¢Łá¡±á¢ĺá¡¦
Ġá¡¯á¡ªá¡³á¢Ļ á¡ªá¢ŀá¡ªá¢ĭá¡Ń
Ġá¡´á¡Ńá¢Ļá¡Ńá¢ĳá¢Ĭ á¡¬á¢ĳá¡ªá¢Ľá¡³
Ġáłª áł¢áł°áł¢
Ġáł¬ áł¡áłª
Ð¾ Ð´
áł² áł¤
á¡¥á¡ªá¢ĳ á¡ªá¢ĩ
á¡¥á¡¬á¢Ļ á¡ªá¢Ĭá¡ªá¢Ĳ
á¡ªá¡³ á¡Ńá¢ŀ
á¡ªá¢İ á¡Ńá¡¬á¢ŀá¡ªá¡§
Ġá¢Łá¡¬á¢ŀ á¡Ńá¡¬á¢ĵ
Ġá¡¯á¡Ń á¡Ńá¢Ķá¡³
Ġá¡¥á¡ªá¡³ á¡ªá¡«
Ġá¢Ķá¡ªá¡³ á¢Ļá¡ªá¢ĩ
Ġá¢Ĭá¡ªá¢ĳá¢Ļ á¡Ńá¢ŀ
Ġá¡¥á¡Ńá¡ªá¢ļ á¡Ńá¡±á¡±
Ġá¢ĺá¡ªá¢ŀ á¡ªá¢Ķá¡Ńá¡§
Ġá¢ĺá¡Ńá¢ŀ á¡Ńá¡ªá¡ªá¢Ķ
Ġá¡¥á¡¬á¡±á¡¬á¢ľ á¡ªá¢Ĭá¡ªá¡Ńá¡§
Ġá¡³á¡ªá¡ªá¡ªá¢Ļ á¡ªá¡±á¡±á¡ªá¢Ľá¡³
á¡ªá¢İ á¡±
Ġá¡¥á¡Ńá¡¬á¡± á¡ªá¢İá¢Ķ
Ġá¡¥á¡ªá¢ľ á¡ªá¢ŀá¡ªá¡ªá¡ªá¡§
Ġá¢¥á¡Ńá¢İ á¡¬á¢ĵ
á¡Ńá¢Ķá¡³ á¡ªá¢Ĳ
Ġá¢ĺá¡ªá¢İá¢Ļ á¡ªá¢ŀ
Ġá¢ĺá¡ªá¡±á¡¬á¢ĳá¢ļ á¡ªá¡ªá¡ªá¢Ķá¡ªá¡§
Ġá¡³á¡ªá¢ĳá¢Ĭ á¡ªá¢ĳá¡ªá¢ĭá¡Ń
Ġá¢ĺ á¡Ńá¡±á¡±á¡Ńá¢ĳá¡ªá¡ªá¡³
á¡ªá¢ļá¡¬á¢Ĭ á¡ªá¡³á¡ªá¡¨
Ġá¢¡á¢ŀ á¡Ńá¡ªá¢ĺá¡¦
Ġá¢Ī á¡Ńá¢ĳá¡±á¡±
Ġá¡¥á¡ªá¢ŀ á¢ļá¡§
Ġá¡¥á¡ªá¡ªá¢Ĭ á¢īá¡¨
Ġá¢ĭá¡Ńá¡¬á¡´ á¡Ńá¡ªá¡¬á¡¨
Ġá¡³á¡ªá¡¬á¡¬á¡±á¡±á¡Ńá¢ĳ á¢Ľá¡ªá¡«
Ġá¡´á¡Ńá¢ŀá¢Ļ á¡Ńá¢īá¡¨
á¢ļ á¡ªá¢Ľá¡³
á¢Ķá¡Ńá¡¬ á¡±
á¢Ĭ á¡ªá¢Ľá¡ªá¡«
Ġá¡¥á¡Ńá¡¬á¢Ĭ á¡ªá¢Ļá¡ªá¡«
Ġá¡¥á¡Ńá¢ŀ á¡Ń
á¡¯ á¡ªá¢Ŀ
Ġá¢ĺá¡Ńá¡ªá¡ªá¢Ļ á¡ªá¡±á¡±á¡ªá¡§
Ġá¡¸á¡Ńá¢Ļ á¡ªá¡°á¡¨
á¢ĭá¡Ńá¡¬ á¡¬á¢ļ
á¡´ á¡Ńá¡±á¡±á¡Ńá¢ŀ
Ġá¢ĺá¡Ńá¡ªá¡ªá¢Ļ á¡ªá¢ļá¡§
Ġá¢Ķá¡¬á¡ªá¢Ĭá¢Ĭ á¡ªá¢Ĭá¡ªá¢Ľá¡³
Ġá¢ļá¡¬á¡±á¡ªá¡ªá¡ªá¢Ķ á¡¬á¢ĳá¡ªá¡§
Ġá¢ļá¡Ńá¡ªá¡ªá¢ļ á¡ªá¢ĵ
Ġáł³áł¡áłŃ áł¡áł·
Ġá¢ĺá¡ªá¡ªá¢Ļ á¡ªá¢Ĭá¡¬á¡¦
â Ĺ
á¡¥ á¡ªá¢Ľ
Ġáł² áł¥
Ġá¡¸ á¡ªá¡ªá¡ª
Ġá¢Įá¡ªá¢Ļ á¡ªá¡³á¡ªá¡¨
áłŃ áł¡áł¨
Ġá¡¥á¡¬á¢ĳá¡ªá¢ŀ á¡ªá¢Ļá¡ªá¡¬á¡¨
Ġá¢Ķá¡¬á¡ªá¢Ļ á¡ªá¢Ķá¡³
Ġá¡¥ á¡ªá¢ļá¡¬á¢ĳá¡ªá¢Ĳ
Ġá¢Ĭá¡ªá¢ŀ á¡ªá¡¬á¡¬á¡Ńá¡§
Ġá¢ĺá¡Ńá¢Ļ á¡Ńá¡±
ÑĥÑĥ Ð»
Ġá¡´á¡Ńá¡¬á¢ŀ á¢Ļá¡§
Ġá¢ļá¡¬á¡ªá¢Ĭ á¡±
á¡¥á¡Ńá¡¬á¡¬á¢ĳ á¡ªá¢ĵ
Ġá¡¥á¢ŀ á¢Ĭá¡ªá¡§
Ġá¢ĺá¡ªá¡¬ á¡¬á¢Łá¡ªá¡§
Ġá¡¯á¡ªá¡¬á¡¬á¢ŀ á¢Ķá¡ªá¢ĩ
á¡ªá¡ªá¢Ķ á¡Ńá¡¬á¢Ĭá¡ªá¡¨
á¡¥á¡ªá¢ĳ á¡³á¡ªá¡§
Ġá¡¥ á¡Ńá¡ªá¡ªá¢Ľ
Ġá¡¥á¢Ļ á¢ĳ
á¢ļá¡¬á¢ĳ á¡ªá¢ĳá¢Ļá¡§
Ġá¡¬á¡Ńá¢ĳ á¡±á¡±á¡ªá¡ªá¡ªá¡³
á¡¯á¡ªá¢İ á¡ªá¡¬á¡«
Ġá¡¥á¡Ńá¡¬á¡ªá¢Ĭá¢Ĭá¡ªá¢ŀ á¡ªá¢Ľá¡ªá¡«
á¢ĺá¡Ńá¡¬á¢ŀ á¡Ńá¢Ĭá¢Ķá¡ªá¡§
Ġá¢ĺá¡Ńá¡ªá¡ªá¡ªá¡¬á¡¬á¢ĳ á¡ªá¡ªá¡ªá¢Ķá¡ªá¡§
Ġá¢Ķá¡ªá¡±á¡ªá¡±á¡±á¡ªá¢ļá¡¬á¢ĳ á¡ªá¢īá¡¨
á¡´ á¡Ńá¡±á¡±
Ġá¢ĺá¡Ńá¡±á¡± á¡ªá¢ĳá¡ªá¢Ľá¡³
Ġá¡´á¡Ńá¡±á¡±á¡Ńá¢ŀ á¢Ķá¡Ńá¢ĩ
á¡¯ á¡ªá¢ĭ
Ġá¢Į á¡Ńá¡±
Ġá¢ľá¡ªá¡±á¡± á¡ªá¢ŀá¡ªá¡§
á¡¬á¡ªá¡ªá¢Ļ á¡ªá¢Ļá¡ªá¢ĩ
Ġá¢ļá¡ªá¢ļ á¡ªá¡§
Ġá¢ĭá¡Ńá¡¬á¡ªá¢Ļ á¡Ńá¢Ļá¡ªá¡«
Ġáł¬áł¤áłª áł¢
Ġá¢Ļ á¡ªá¡ªá¡¬á¡¨
á¡ªá¢ĳá¢Ļ á¡Ńá¡±á¡±á¡ªá¡Ńá¡§
Ġá¡¬á¡¬á¢ŀ á¡Ńá¡ªá¡ªá¡³
Ġá¡¥á¡ªá¢ľ á¡Ńá¢ĳá¢Ļá¡ªá¡«
Ġáł° áłłáłŃ
Ġá¡³á¡ªá¡¬á¡¬á¢ĳá¢Ļ á¡Ńá¡§
Ġá¡¥á¡ªá¢ĳá¡±á¡± á¡Ńá¢Ŀ
0 4
Ġá¡¥á¡Ńá¢ĳ á¡ªá¢ŀá¡¬á¡§
Ġá¡´á¡Ńá¢ŀ á¡ªá¡ªá¡ªá¡Ńá¡§
Ġáł° áł¤áł³
Ġá¡¥á¢Ķ á¡ªá¡§
á¡´á¡Ńá¢ŀ á¢Ľá¡¬á¢Ĭá¡¬á¡§
Ġá¡³á¡ªá¡¬á¡¬á¢ĳ á¡§
á¢Ľ á¡ªá¡²
Ġá¢¤á¡¬á¢ĳ á¡Ńá¢Ĭá¢ŀá¡ªá¢į
Ġá¡¯ á¡Ńá¢ĳ
á¡ªá¢ļ á¡¬á¡ªá¡ªá¡ªá¡³á¡ªá¢Ĳ
Ġá¢ĺá¡Ńá¡¬á¢ŀ á¡Ńá¡¬á¡¨
Ġá¡¥á¡Ńá¡ªá¡ª á¡ªá¢İá¢Ķ
Ġáł¤áł¯ áłłáł®
á¡Ńá¢Ķ á¡Ńá¢Ŀ
Ġá¢ı á¡¬
Ġáł¨ áł¢áł¬
Ġá¡´á¡Ńá¢ĳá¡±á¡± á¡Ńá¢İá¢Ľá¡¬á¢ĳ
Ġá¢Įá¡ªá¡ªá¢Ļ á¡Ńá¢ļá¡¬á¢ĳ
Ġá¢ľá¡ªá¢ŀá¡¬á¢ĳá¢ļ á¡ªá¡§
á¡ªá¡±á¡± á¡Ńá¡³á¡¬á¡¦
Ġá¡¥á¡ªá¢İá¡¬á¢Ļ á¡Ńá¢ĳá¡¬á¢ĩ
Ġá¡¥á¡ªá¢Ļ á¡ªá¢īá¡¨
Ġá¢Ķá¡¬á¢Ļ á¡ªá¢Ŀá¡¨
Ġá¡¸ á¡ªá¢ĳá¢Ľá¡ªá¡§
á¡¥á¡Ńá¢ŀ á¢ļá¡¬á¡§
Ġáł¬áł¦áł ¯
Ġá¢ľá¡ªá¡´á¡Ńá¢ļá¡¬á¡ªá¡ª á¡ªá¡ªá¡ªá¢Ķá¡ªá¡§
Ġá¢ļá¡Ńá¡Ńá¢ŀ á¡¬á¢ľá¡ªá¢Ļ
Ġáł¨áł¡áł¶ áł¢áłŃáł¡áł®
Ġá¢Įá¡ªá¢Ļ á¡ªá¢ĭá¡Ńá¢ĳá¡Ńá¢Ĭá¢Ķá¡ªá¡§
Ġá¡¥á¡³ á¢Ļá¡ªá¢Ľá¡³
á¡¥ á¡ªá¡¬á¡¨
áł¤áłŃ áłłáł³
á¡ªá¢İ á¡Ńá¢ŀ
Ġá¢Ķá¡ªá¢ŀá¢Ĭ á¡ªá¡¬á¡¬á¢ĳá¡ªá¢Ľá¡³
á¡¥á¡ªá¡±á¡±á¡Ńá¢ĳ á¢Ľ
á¡ªá¢ŀ á¡ªá¢Ļá¡ªá¡¬á¡¨
á¡ªá¢ĳ á¡ªá¡±á¡±á¡Ńá¢ĳá¢Ľá¡³
á¡ªá¢Ķ á¢Ĭá¡¬á¡§
Ġá¢Į á¡Ńá¢ĳ
Ġá¡¬á¡Ńá¡¬á¡³á¢Ķ á¡¬á¢ľá¡ªá¢ŀá¡ªá¢Ľá¡³
á¡Ńá¢Ĭ á¢Ļá¡³
á¡¥ á¡Ńá¡Ńá¢Ĳ
Ġá¡¥á¡Ńá¢ŀ á¡Ńá¢į
Ġá¡¥á¡ª á¡Ńá¡¬á¢ĺ
Ġá¢Ķá¡ªá¢İ á¡ªá¡±á¡±á¡Ńá¡§
Ġáł¦áłŃ áł¡
á¡¯á¡ªá¡±á¡± á¡ªá¢Ļá¡Ńá¢į
Ġá¡¥á¡ªá¡ªá¢Ĭá¢Ĭá¡¬á¢ĳ á¡Ńá¢įá¡¨
æ ķ
Ġá¢Ĭ á¡ªá¡¬á¡¬á¢ŀ
Ġá¡´á¡Ńá¢ĳ á¡¬á¢ľá¡ªá¡§
Ġá¡¥á¡Ńá¡ªá¡ª á¡ªá¡±á¡±á¡Ńá¢ĳá¢īá¡¨
Ġáł¦ áł¯
áł¬ áł¡
á¡¥á¡Ńá¡¬á¢Ļ á¡ªá¢Ķá¡«
á¡¬á¢Ļ á¡ªá¢ĵ
Ġá¢ĺá¡Ńá¢ŀ á¡±
Ġá¢Ķá¡Ńá¡¬á¡± á¡ªá¢Ķá¡Ńá¡§
Ġá¢Ķá¡ªá¡³ á¡ªá¡§
Ġá¡¸á¡Ńá¢ŀá¡¬á¢ľ á¡ªá¡ªá¡ªá¢Ķá¡ªá¡§
Ġá¢Ķá¡ªá¡±á¡ªá¡ªá¡ªá¢Ļ á¡ªá¡±á¡±á¡ªá¡Ńá¡§
Ġáłµ áł¤áłŃ
Ġá¢ĺá¡ªá¢ŀá¡ªá¡±á¡± á¡ªá¢ĳá¡ªá¢Ĳ
á¡¥á¡ªá¡ªá¢Ĭ á¡ªá¡ªá¡ªá¡§
á¡¬á¡±á¡±á¡Ńá¢ĳ á¡Ńá¢ĳá¢Ļá¡§
Ġá¡¥á¡ªá¢ľ á¡Ńá¡ªá¡ªá¢Ķá¡ªá¡§
áł¤áł¯ áł¤áł¨
á¡ªá¢Ķ á¡Ńá¡³á¡ªá¡§
Ġá¢ĺá¡Ńá¡ªá¡ªá¢Ļ á¡ªá¢İá¡ªá¢Ĳ
Ġá¢Ķá¡Ńá¢Ļ á¡ªá¢Ķá¡³
Ġá¡¬á¡Ńá¡³ á¡ªá¡±á¡±á¡Ńá¢ŀá¡«
Ġá¡¥á¡Ńá¢İá¢Ļ á¡Ńá¡±á¡±
Ġá¢Ļ á¢Ł
á¡Ńá¡±á¡± á¡ªá¢Ļá¡Ńá¡«
á¢Į á¡Ńá¢ŀ
Ġá¢ĺá¡Ńá¢ŀ á¢İ
á¢ĺá¡Ńá¢ŀ á¡ªá¢Ķ
Ġá¢Ĺá¡¬á¢ŀ á¡³
á¡ªá¡± á¡§
á¡ªá¡±á¡± á¡ªá¢Ĳá¡¨
á¡Ńá¡±á¡± á¡ªá¢ļá¡¬á¡§
Ġá¢ĺá¡Ńá¡±á¡± á¡Ńá¢Ľá¡¬á¢ĵ
Ġáł´ áł¢áł®
Ñħ Ð°Ð½
á¡¥á¡ªá¢ĳ á¡ªá¡ª
Ġá¡¥á¡¬á¢ĳ á¡ªá¢īá¡¨
Ġá¢Ķá¡¬á¢ĳ á¡Ńá¢Ķá¡³
á¡ªá¡´á¡Ńá¢ŀ á¡¬á¢ĳá¡ªá¡§
á¡¥á¢ŀá¢Ļ á¡ªá¡±á¡«
Ġá¡´á¡Ńá¢ĳ á¡ªá¡±á¡±á¡ªá¡§
Ġá¢Ķá¡¬ á¡Ńá¡«
Ġá¡¥á¢ĳ á¡¬á¢Ĭ
á¡´á¡Ńá¢ĳ á¢Ļá¡§
Ġá¡¸á¡ªá¢Ķ á¡¬á¢Ľá¡³
áłłáł® áłłáł·
Ġá¡¥á¡Ńá¡ªá¡ªá¡Ńá¢ŀ á¡ªá¡ªá¡ªá¡§
Ġá¡´á¡Ńá¢Ĺ á¡Ńá¢īá¡¨
Ġ h
Ġá¢Ķá¡ªá¡± á¡ªá¡±á¡±á¡ªá¡Ńá¡§
Ġá¢Īá¡Ńá¢ľ á¡Ńá¡ªá¡ªá¡ªá¡§
á¢Ĺ á¡ªá¡ªá¢Ĭá¡±
Ġá¡¥á¡Ńá¡ªá¡ªá¢Ķ á¡ªá¡±á¡±á¡ªá¡§
á¡ªá¢Ļ á¡Ńá¢ĵ
Ġá¢ĺá¡ªá¢ĳ á¡ªá¡³á¢ļá¡«
á¢Ļ á¡ªá¡ªá¡¬á¡¨
Ġá¢Įá¡Ńá¡¬á¢ŀ á¢Ļá¡ªá¡§
ĠáłŃ áł¡áł·áł¡áłŃ
Ġá¡¯á¡ªá¢ĭá¡Ńá¢ŀ á¡ªá¢Ķá¡Ńá¡§
á¡ªá¢ŀ á¡ªá¢Ĭá¡ªá¡¨
á¡ªá¢ĭá¡Ń á¡°á¡¨
Ġá¡¥á¡Ńá¡± á¡ªá¡±á¡±á¡ªá¢Ľá¡³
Ġá¢Ķá¡Ńá¡±á¡Ńá¢Ķ á¢Ļá¡ªá¢ĩ
Ġá¡¥á¡¬á¢Ľá¡¬á¢ĳ á¡«
á¡ªá¡ª á¡Ńá¡«
Ġá¢Ī á¡§
Ġá¢Ķá¡ªá¢ŀ á¡ªá¢İá¢Ľá¡¬á¢ĳ
á¡¥á¡Ńá¢ŀ á¡ªá¢ĳá¡¬á¢ĩ
Ġá¡¬á¡ªá¢Ĭ á¡ªá¢ŀá¢Ļá¡§
Ġá¡¯á¡ªá¢İ á¡ªá¢ŀ
Ġá¡¯á¡ªá¡±á¡± á¡ªá¡°á¡¨
á¢ļá¡¬á¢ĳ á¡ªá¢Ĭá¢Ķá¡ªá¡§
Ġá¡¥á¡ª á¡Ńá¡ªá¡ªá¡ªá¡§
Ġá¢Ķá¡¬á¢ŀá¡±á¡± á¡Ńá¢ĳá¢Ľá¡«
Ġá¢Īá¡ªá¡ªá¢Ľ á¡Ńá¡Ńá¢Ŀ
Ġá¢Ķ á¡ªá¢ĳá¢Ļá¡§
Ġá¢Ł á¡ªá¡±á¡±á¡ªá¢Ŀ
á¡´ á¡Ńá¡¬á¢İ
Ġá¡¥á¡Ńá¢ŀá¢ļ á¡¬á¡±á¡±á¡Ńá¢ĳá¡ªá¡ªá¡³
á¡¥á¡¬á¢ĳ á¡ªá¢ĭá¡Ńá¡³
Ġáłªáł¦áł² áł¦áłŃ
á¡ªá¡ªá¡³ á¡ªá¢Ļá¡³
Ġá¡¥á¡Ńá¢ĳ á¡ªá¢Ķá¡¬á¢ŀá¡ªá¢Ľá¡³
Ġá¡³á¡¬á¢ļ á¡¬á¢Ĳ
Ġá¡³á¡ªá¢ľ á¡ªá¡ªá¢Ļ
á¡Ńá¢ŀá¢ĳ á¡ªá¢Ĭá¢Ķá¡ªá¡§
á¡ªá¡±á¡± á¡ªá¡¬á¡¬á¢ŀ
ĠáłĤ "
áł¦áł ©áł¬
Ġá¡³á¡ªá¡ªá¡ª á¡ªá¢Ļá¡Ńá¢Ĳ
á¡¬á¢İá¡Ńá¢ŀ á¢ĭá¡Ń
Ġá¡¬á¡ªá¢ĳ á¡ªá¡ªá¡ªá¡³
Ġá¢ĺá¡ªá¢Ķá¡Ńá¢ŀ á¡ªá¡ªá¡ªá¢Ķá¡ªá¡§
á¢ĺ á¡ªá¢İá¢Ľ
Ġá¢ĺá¡ªá¡¬á¡¬á¢ĳ á¡Ńá¡§
Ġá¡¬á¡¬á¢ĭ á¡Ńá¢ŀá¢Ļá¡ªá¡§
á¡¯ á¡Ńá¢İ
Ġá¡¥á¢ŀá¢Ĭá¡¬á¢ļ á¡ªá¢ĭá¡Ńá¢ĳá¡Ńá¢Ĳ
Ġá¢ĺá¡Ńá¡Ńá¢ĳ á¡¬á¢ĵ
á¡Ńá¢Ĭ á¢ĳá¡ªá¡§
Ġá¡¥á¡Ńá¢ĳ á¡ªá¢ŀ
á¢Į á¡Ńá¢ŀá¡«
Ġá¡¥á¡Ńá¡ªá¢Ļ á¡ªá¢ŀ
Ġá¡¥á¡¬á¢ĳá¡ªá¢ŀá¢Ĭ á¡ªá¡¬á¡¬á¢ĳá¡ªá¢ĭá¡Ń
á¡ªá¡´á¡Ńá¢ĳ á¡Ńá¡Ńá¡§
Ġá¢ĺá¡ªá¡¬ á¡¬á¢Ľ
Ġá¢ĺá¡ªá¡±á¡¬á¢ĳá¢ļ á¡ªá¡±á¡±á¡Ńá¢ĳá¡ªá¡ªá¡³
Ġá¡¬á¡Ńá¡ªá¡ªá¢Ķá¡Ńá¡±á¡± á¡ªá¢Ľá¡³
Ġá¢ĺá¡Ńá¡¬á¡ªá¢Ĭá¢Ĭ á¡ªá¢Ľá¡³
Ġá¡³á¡¬á¢Ķá¡¬á¢ĳ á¡±á¡±á¡ªá¢Ĳ
á¡¬ á¡ªá¡ªá¡¬á¡¨
á¡ªá¢ĳ á¢Ĭ
Ġá¡¥á¡Ńá¡¬ á¡ªá¡¬á¡¨
Ġá¢Ķá¡Ńá¡¬á¢Ľ á¡¬á¡¬á¡¨
Ġá¢Ĭ á¡¬á¢Ĳá¡¨
Ġá¢ĺá¡Ńá¢ĳ á¢Ĭá¡¬á¢ľá¡ªá¡§
Ġá¢ļá¡ªá¡±á¡± á¡ªá¡ªá¢Ľ
Ġá¡¸á¡ªá¢ŀá¡´ á¡Ńá¡ªá¡ªá¡³
Ġá¢ļá¡Ńá¡Ńá¢ŀ á¡¬á¡«á¡¨
Ġá¡´á¡Ńá¢Ĭá¡¬á¢ŀá¢Ļ á¡Ńá¢Ĳ
Ġá¢ĭá¡Ńá¡¬á¢ŀ á¡¬á¢ľá¡ªá¢ĳá¡ªá¢Ĳ
Ġá¢ľá¡ªá¢ŀ á¡Ńá¢Ļá¡ªá¢Ĭá¡ªá¡§
á¡Ńá¡¬á¡¬á¢ĳ á¡ªá¡ªá¡ªá¡³
Ġá¡³á¡ªá¢ĳá¡ªá¡Ńá¡ªá¢Ĭ á¡ªá¢Ĭá¢Ķá¡ªá¡§
Ġá¡¬á¢Ł á¡§
á¡¬á¢ļá¡¬á¡ªá¡ª á¡ªá¡±á¡±á¡ªá¡Ńá¡§
Ġá¡¬á¡¬á¢ĳá¡Ńá¡±á¡±á¡Ńá¢Ļ á¡Ńá¡ªá¡ªá¢ļá¡«
Ġá¢Įá¡Ńá¢Ķ á¢¤á¢Łá¡§
Ġá¡¥á¡Ńá¡Ńá¡ªá¡ª á¡ªá¡Ń
á¡ªá¢ŀ á¢Ĭá¡ªá¢Ľá¡³
Ġá¡¥á¡ªá¡´ á¡Ńá¢ŀá¡ªá¢Ĳ
áł£ áłª
Ġá¡¥á¡ªá¢İá¢Ķ á¡ªá¢Ľá¡³
Ġá¢ĺá¡Ńá¢İ á¡¬á¢ĳá¡ªá¡§
Ġá¢ıá¡Ńá¢Ĭ á¡¬á¢ĩ
áłĤ áłĤ
Ġá¡³á¡¬á¢ĳ á¢Ľ
áł¬ áł¤áł¨
á¡³á¡ªá¡¬ á¡¬á¡±á¡±á¡ªá¡Ńá¡§
Ġá¢ĺá¡ªá¢ĳá¡³ á¡¬á¡³á¡ªá¡¨
á¡ªá¡±á¡± á¡ª
á¡ªá¡±á¡± á¡ªá¢Ķá¡³
á¡ªá¢ŀá¢Ļ á¡ªá¢Ľá¡³
á¡¸á¡Ńá¢ĳ á¡´á¡Ńá¢īá¡¨
Ġá¡¥á¡Ńá¢ľá¡ªá¢ĳá¢Ļ á¡Ńá¡±á¡±á¡Ńá¢ĳá¡Ńá¡§
Ġá¡¥á¡Ńá¢ļ á¡¬á¡³á¡ªá¡¨
Ġá¢ļá¡ªá¡±á¡± á¡ªá¢Ļá¡Ńá¢Ĭá¡¬á¡¦
á¢ļá¡¬á¡ªá¡ª á¡Ńá¢ĳá¡§
Ġá¡¥á¡Ńá¢ŀá¢Ĭ á¡¬á¡ªá¡ªá¡³
Ġá¢Ĺ á¡ªá¡ªá¡ªá¢Ļ
Ġá¢Įá¡Ńá¡¬á¢ŀ á¢Ļ
á¡¸á¡ªá¢ŀ á¡¬á¢ļ
Ġá¡³á¡ªá¢Ĭ á¡¬á¢Ľ
Ġá¡¯á¡ªá¡¬á¡¬á¢ĳ á¡ªá¢Ĭá¡ªá¡Ńá¡§
Ġá¢Ķá¡ªá¢ŀá¢Ĭ á¡ªá¡¬á¡¨
Ġá¡¥á¡³á¢Ĭ á¡ªá¢İá¡ªá¢Ĳ
Ġá¢ĺ á¡Ńá¢Ľá¡«
Ġá¢ļ á¡Ńá¡¬á¢ŀ
Ġá¡¸á¡ªá¡¬á¡¬á¢ĳ á¡ªá¢Ķá¡Ńá¡§
Ġá¡¥á¡ªá¢¤á¡ªá¢Ļ á¢Łá¢İ
Ġáł ¸
Ġá¡¸ á¡Ńá¡ªá¢Ĭá¡±á¡±
Ġá¡¥á¡¬á¢ĳ á¡ªá¡§
Ġá¡¥á¡Ńá¢ļ á¡¬á¢Ļá¡ªá¢ĩ
Ġá¢Ķá¡ªá¡± á¡ªá¡±á¡±á¡Ńá¢ĳá¢Ľá¡³
Ġá¡³á¡ªá¢ľ á¡ªá¡ªá¡ªá¡Ńá¡¬á¡ªá¢Ļá¡Ńá¢Ŀ
è ĴĻ
Ġ d
á¡Ńá¢ŀ á¡±á¡±
Ġá¡¥á¡Ń á¡Ńá¡ªá¡ªá¡ª
Ġáł¨ áł¡áł®
Ġá¢Įá¡Ńá¡¬ á¡±
á¡¸á¡Ńá¢ľ á¡ªá¡±á¡±á¡Ńá¢ĳá¡§
Ġá¡¥á¡¬á¢ĳ á¡ªá¡ªá¡ªá¢Ļá¡ªá¢Ĳ
Ġá¢Ķá¡Ńá¢ŀá¡±á¡± á¡ªá¢Ļá¡ªá¢ĩ
á¢ĺá¡ªá¢ŀ á¡¬á¢ĭá¡Ńá¡§
Ġá¡¸á¡Ńá¡± á¡¬á¢ļá¡¬á¡§
Ġá¡¥á¡ªá¡ªá¢Ĭá¡ªá¡ªá¡ªá¢Ļ á¡ªá¡ªá¡ªá¢ļá¡«
Ġá¢Įá¡Ńá¡¬á¢ŀá¢ĭ á¡Ńá¢ĭá¡Ń
á¢Įá¡ªá¢Ļ á¡ªá¢ĭá¡Ń
á¡Ńá¢ļá¡¬á¢Ĭ á¡ªá¢Ĭá¢Ķá¡ªá¡§
Ġá¡¸á¡ªá¢ŀá¡¬á¡±á¡±á¡Ńá¢ļá¡ªá¢ĳá¡±á¡± á¡ªá¢Ļá¡ªá¡§
Ġá¡¯á¡Ńá¡¬á¡¬á¢ŀ á¢Ķ
Ġá¡¥ á¡ªá¡Ńá¡ªá¡ªá¡ªá¡³
Ġá¡¥á¡Ńá¡¬á¢Ĭ á¢ļ
á¡¬á¡ªá¡ª á¡ªá¡ªá¡ªá¢Ķá¡ªá¡§
á¡ªá¡ªá¢Ĭá¢Ĭ á¡¬á¢Ŀ
áł¡áł¬ áł¡áł¨
Ġá¢ĺá¡ªá¢ĭá¡Ńá¢Ķ á¡Ńá¢Ĭá¡ªá¡Ńá¡§
Ġá¡¬á¡ªá¢ĭ á¡Ńá¢ĭá¡Ń
á¢ĺá¡ªá¡±á¡± á¡Ńá¢ļá¡¬á¡§
á¡Ńá¢Ķ á¡¬á¢ľ
á¡¯á¡ªá¡¬ á¡¬á¢Ľá¡§
Ġá¡´ á¡Ńá¢İá¡ªá¡§
Ġá¢Ī á¡Ńá¡«á¡¨
á¡¥ á¢¨
Ġá¡³á¡¬á¢Ļ á¡ªá¢ĭ
Ġá¡³á¡ªá¡ªá¡ª á¡ªá¢Ļ
Ġá¡¥á¢Ľá¡ªá¢İá¢Ķ á¡¬á¢Ĭá¢Ķá¡ªá¡§
Ġá¢ľá¡ªá¢ŀá¡Ńá¡ªá¢Ĭá¢Ĭá¡ªá¡¬á¡¬á¢ĳ á¡ªá¢Ĭá¢Ķá¡ªá¡§
Ġá¡¯á¡Ńá¢Ļ á¡Ńá¡ªá¡ªá¢Ķ
Ġá¢ĺá¡Ńá¡¬á¢ŀá¡Ńá¢ĭá¡Ńá¢ĳ á¡ªá¢Ľá¡³
Ġá¢ļá¡¬á¡ªá¢Ļ á¡ªá¢İá¡Ńá¡±á¡«
Ġá¢ĺá¡ªá¢ŀ á¡Ńá¡±á¡±á¡ªá¡Ńá¡§
Ġá¢ĺá¡ªá¢ŀ á¡ªá¡ªá¡ªá¢Ľá¡³
Ġá¡¥á¡ªá¡´á¡Ńá¢ŀ á¡ªá¢Ľá¡³
á¢Ķá¡Ńá¡± á¡¬á¢ŀ
Ġá¢Į á¡ªá¡ªá¡ªá¢Ļá¡ªá¢Ľá¡³
Ġá¡¥á¡Ń á¡Ńá¢Ŀ
Ġá¡¥á¡¬á¢ĳ á¡ªá¢Ĭá¡ªá¢Ĭá¢Ķá¡ªá¡§
Ġá¢Ķá¡ªá¢ŀ á¡ªá¡±á¡±á¡Ńá¢ĳ
ï ½
Ġá¢ĺá¡ªá¢ŀ á¢Ĭá¡ªá¢ĳ
Ġá¡³á¡¬á¢ļ á¡¬á¡³á¡ªá¡¨
Ġá¢Ķá¡¬á¢ŀ á¡«
Ġá¡¥á¢ŀá¢Ļá¡ªá¡± á¡¬á¢ļ
ĠáłªáłłáłŃ áł°áł¢
á¡Ńá¢Ļ á¡ªá¡±á¡±á¡ªá¡Ńá¡§
Ġá¡´á¡Ńá¢ĳ á¢ļá¡¬á¢ŀ
Ġá¢ĭá¡Ńá¡¬á¢ĳ á¡Ńá¢Ĭá¡ªá¡¨
Ġá¡¬á¡¬á¡³ á¡ªá¡ªá¡Ńá¢ĳá¡ªá¡ªá¡¬á¡¨
á¡Ńá¢Ļ á¡Ńá¡ªá¡ªá¢Ķá¡ªá¡§
Ġá¡¥á¡Ńá¡¬á¢Ľ á¡Ńá¢į
Ġá¡¸á¡ªá¢İá¡ªá¡±á¡± á¡ªá¢ĳá¡ªá¡§
Ġá¡³á¡ªá¢ŀá¡¬á¢İ á¢Ľ
Ġá¢¡ á¡¬á¢§
á¡¥á¡Ńá¡¬á¢ŀ á¢Ĭá¡ªá¡§
á¢ľá¡ªá¡´ á¡Ńá¡ªá¡ªá¢Ķá¡ªá¡§
á¢Ķá¡Ńá¡± á¡¬á¡§
Ĩ Ĵ
á¢ĺ á¢Łá¢Ŀ
á¡¯ á¡ªá¢įá¡¨
Ġá¡¥á¡Ńá¡¬á¢ŀ á¡Ńá¢įá¡¨
Ġá¢ĺá¡ªá¢İá¡ªá¢ļ á¡ªá¡§
ĠáłŃáłłáł· áłŃ
Ġá¡¬á¡ªá¢Ļá¡ªá¢ĳ á¡Ńá¢ĳá¢Ļá¡§
Ġá¡¸á¡ªá¢Ķ á¡¬á¢Ŀ
Ġá¢ĭá¡Ńá¡¬á¢ľ á¡Ńá¢Ĭá¡ªá¡Ńá¡§
Ġá¢Ķá¡ªá¢İ á¢Ĭá¡ªá¡§
áł¢áł® áł¦
è ®
Ġá¡¥á¡ªá¢Ķ á¡¬á¢Ļá¡§
Ġáł°áł¡áł³áł¬ áł¢áł¯
á¡´ á¡Ńá¡±á¡±á¡Ńá¢Ŀ
á¡¬á¡Ńá¡¬á¡³ á¢Ĭá¡ªá¡§
Ġá¢ĺá¡Ńá¡±á¡±á¡Ńá¢Ķ á¢ĩá¡¨
áłłáł¬ áł°áłłáł¨
Ġá¡¯á¡ªá¢İá¡ªá¢Ĭá¢Ļ á¡ªá¢ĭá¡Ńá¢ĳá¢Ľá¡³
á¡¥á¡Ńá¡¬á¢Ļ á¡§
åĽ ½
Ġá¡¥á¡ªá¡¬á¡¬á¢Ľ á¡ªá¢į
Ġ ï¼
á¡ªá¢ĭá¡Ńá¢ĳ á¡Ńá¡«á¡¨
åŃ ¦
á¢Ĭ á¡¬á¢Ľ
á¡¸á¡ªá¡±á¡± á¡Ńá¢ļá¡¬á¡§
Ġá¢Ķá¡Ńá¢ŀ á¢Ļá¡ªá¢ĩ
Ġá¢Ķá¡¬á¢ĳ á¡¬á¡§
Ġá¢Ĭá¡ªá¡³ á¢Ļá¡ªá¢Ĭá¢Ķá¡ªá¡§
á¡Ńá¢ĳ á¡ªá¢Ļá¡ªá¢ĩ
Ġá¡¸á¡ªá¢ŀá¡´ á¡Ńá¢Ľá¡³
Ġá¡¥á¡Ńá¢ŀ á¡¬á¢Ļá¡ªá¢Ĳ
Ġá¡³á¡ªá¢ŀ á¡ªá¢Ķá¡«
Ġá¡¥á¡Ńá¡¬á¡ªá¢Ļ á¡ªá¢Ĭá¡ªá¡§
áł¦áł³ áł¡áł¨
á¡Ńá¡¬ á¡¬á¡ªá¡ªá¢Ķá¡ªá¡§
Ġá¡¬á¡Ńá¢Ĭ á¡¬á¢ĵ
á¡´á¡Ńá¢ĳ á¡ªá¢ĩ
Ġáł¨ áł¦áł¬
Ġáł¦áł¢áł¯ áł¡áł°
Ġá¡³á¡ªá¢ĳá¢ĭ á¡Ńá¢Ļá¡ªá¡«
á¡Ńá¢ŀ á¡ªá¡ªá¡³
Ġá¢ĺá¡Ńá¢ĳá¡±á¡± á¡ªá¢ŀá¡ªá¢Ľá¡³
ÑįÐ³ Ñį
Ġá¡´á¡Ńá¢Ļá¡Ńá¢ĳá¢Ĭ á¡¬á¢ĳá¡ªá¡ªá¡ªá¡³
á¡ªá¡ªá¡ªá¢Ļ á¡ªá¢İá¡ªá¢Ĳ
Ġá¢ĺá¡Ńá¢Ļ á¡Ńá¡°á¡¨
Ġáł¬ áł¡áł°
á¢Ī á¡Ńá¢ľ
Ġá¢ļá¡¬ á¡Ńá¢Łá¡ªá¡§
áł¤áł®áł³ áłł
Ġá¡³á¡ªá¡¬ á¡¬á¡±
Ġá¡¥á¡ªá¢ĳá¢Ļ á¡ªá¡°á¡¨
Ġá¡¥á¡³ á¢Ļá¡ªá¡«
Ġá¢ĺá¡ªá¡ªá¢Ĭá¢ļ á¡ªá¢ĭá¡Ńá¢ŀá¡«
á¢Įá¡Ńá¡¬á¡ªá¢Ĭ á¢ĭá¡Ńá¡§
Ġá¢Ķá¡ªá¡Ńá¡ªá¢Ĭ á¡¬á¢İá¢Ľá¡«
Ġá¡· á¡Ńá¢ĳ
Ġá¡¥á¡Ńá¡¬á¢ŀá¡± á¡¬á¢ĭá¡Ńá¢ĳá¢ĭá¡Ń
Ġá¢ľá¡¬á¢Ķ á¡Ńá¢Ĭá¡ªá¡«
Ġá¡¸á¡ªá¢ĳá¡ªá¡±á¡± á¡Ńá¡ªá¡ªá¡ªá¡§
Ġá¢ļá¡ªá¡³á¡ªá¢ŀá¢ĳ á¡ªá¢ĭá¡Ń
á¡¥ á¡Ńá¡±á¡±
Ġá¢ľá¡ªá¢Ļ á¡ªá¢ŀá¡ªá¢Ľá¡³
á¢Ķá¡Ńá¡¬á¢ĳ á¢Ľá¡¬á¢ľá¡ªá¡§
Ġá¡¸á¡ªá¢ŀ á¡¬á¡±á¡±á¡Ńá¢ĳá¡Ńá¡ªá¡ªá¢Ķá¡ªá¡§
Ġá¡¥á¡ªá¢ĳá¢Ļ á¡ªá¢ŀ
Ġáł¶ áłłáł³
Ġá¢ĺá¡Ńá¡¬á¢İ á¡Ńá¢Ķá¡³
Ġá¢ĭá¡Ńá¡¬á¢Ķ á¡Ńá¡±
Ġá¡¸á¡Ńá¢ŀá¡¬á¡ª á¡ªá¢ĳá¡ªá¢Ľá¡³
Ġá¡¥á¡Ńá¢ŀá¢ļ á¡¬á¡±á¡±á¡Ńá¢ĳá¡Ńá¡ªá¡ªá¢Ķá¡ªá¡§
Ġá¢Ķá¡Ńá¡¬á¢İ á¡´á¡Ńá¢Ŀ
e l
Ġá¡´á¡Ńá¢Ļ á¡³
á¡¬á¢ľá¡ªá¢ĳ á¢īá¡¨
á¡¥ á¡ªá¡ªá¡ªá¡Ńá¡«
Ġá¢ĺá¡ªá¡³ á¢Ļá¡ªá¡ªá¡ªá¡³
Ġá¢Ķá¡ªá¡±á¡± á¡ªá¢ŀá¡ªá¢Ĳ
á¡¥á¡ªá¢İ á¡¬á¢Ļá¡ªá¡§
á¡¬á¡Ńá¡¬ á¡²
æ ³
á¡Ń á¡ªá¢Ľ
Ġá¡¥á¡Ńá¡¬á¢Ķ á¢Ĭá¡ªá¢Ľá¡³
Ġá¢Ĭá¡ªá¢ļ á¡¬á¡±á¡ªá¢Ĭá¡ªá¡§
Ġá¡¥á¡ªá¢Ļá¡Ńá¡±á¡± á¡Ńá¢Ķá¡³
á¢ĺá¡Ńá¡¬á¢ĳ á¡Ńá¢Ĭá¡ªá¡¨
Ġá¡¯á¡ªá¢ļ á¡Ńá¡ªá¡ªá¢Ļá¡Ńá¢ŀá¢Ľá¡«
Ġá¡¬á¡¬á¢ŀ á¡Ńá¡ªá¡ªá¢Ļá¡³
Ġá¡¯á¡ªá¢ĭá¡Ńá¢Ļ á¡ªá¢ĳá¢ļá¡¬á¡Ńá¡§
Ġá¢ļá¡¬á¢İ á¡ªá¢Ļá¡³
Ġá¢Ķá¡¬á¢ĭ á¡Ńá¢ŀ
Ġá¢Į á¡¬
Ġá¡´á¡Ńá¢ĳ á¡¬á¢ľá¡ªá¢Ľá¡³
á¡¥á¡Ńá¢ŀ á¡Ńá¢ĵ
Ġá¡¥á¢ľ á¡ªá¢ĳá¢Ļá¡ªá¡¬á¡¨
Ġá¢Ĭ á¢Łá¡§
Ġá¡¥á¡Ńá¡¬ á¡Ńá¢ŀá¢Ķ
Ġá¢ĺá¡Ńá¢ĳ á¡±á¡±á¡ªá¡§
Ġá¡¥á¡ªá¢ĳá¢Ļ á¡ªá¢Ĳ
Ġá¡¸á¡ªá¡±á¡± á¡ªá¢ŀ
Ġáł° áł¤áł¨
Ġá¢Ĭá¡¬á¢ĳ á¡¬
Ġá¡¥á¡ªá¢İá¡¬á¢Ļá¡Ńá¢ŀ á¡ªá¡§
Ġ ï¼Ī
á¡ªá¢Ĭ á¡ªá¡±
á¢Ķ á¡¬á¡¬á¡Ń
Ġá¡¸á¡Ńá¢ŀ á¡Ńá¡±á¡±
Ġá¡¥á¡Ńá¡¬á¡¬á¢ĳ á¡ªá¡±á¡±á¡ªá¡§
á¡¸á¡ªá¢ŀ á¡ªá¡ªá¢Ĭá¡±á¡±á¡Ńá¡«
Ġá¡¸á¡ªá¢Ľ á¡ªá¡±á¡±
Ġá¡¯á¡Ńá¢ľá¡ªá¢ŀ á¡ªá¡ªá¡ªá¢Ĳ
Ġá¢ĺá¡ªá¡±á¡± á¡ªá¡°á¡¨
Ġá¢ĺá¡ªá¡±á¡± á¡ªá¡±á¡±á¡Ńá¢ĳá¡Ńá¡±á¡±á¡ªá¡Ńá¡§
á¡´á¡Ńá¢ĳ á¡ªá¡ªá¡Ńá¢Ŀ
Ġá¢ľá¡ªá¢Ļ á¡ªá¡ªá¡ªá¢Ķá¡ªá¡§
Ġá¢ĺá¡Ńá¡¬á¢ĳá¡Ńá¢Ĭ á¡ªá¢ĳá¡ªá¢Ľá¡³
Ġáł£áł· áł£áł¨
Ġá¡¥á¡¬á¢ĳ á¡ªá¢ĭá¡Ńá¢Ļ
Ġáł¬ áł¤áł¯áłª
Ġá¡¸á¡Ńá¡¬ á¡¬á¢ĳ
Ġá¡¥á¡Ńá¢ĳá¡ªá¡±á¡± á¡ªá¡ªá¢İ
á¡Ńá¢ļá¡¬á¡ªá¡ª á¡ªá¢Ĳá¡¨
Ġá¢ĺá¡ªá¡±á¡±á¡Ńá¢ŀ á¡¬á¢ľá¡ªá¢Ľá¡³
Ġá¡¬á¡ªá¡ªá¢Ĭá¢Ĭ á¡¬á¡«á¡¨
Ñħ ÑįÐ»
Ġá¢Ĭá¡ªá¢ŀá¡ªá¢Ĭá¢Ķ á¡ªá¢ĭá¡Ń
Ġá¢ļ á¡Ńá¢ŀ
Ġá¡´á¡Ńá¢Ļ á¡Ńá¡³á¡ªá¡¨
Ġá¢Ķá¡ªá¡± á¡ªá¢İá¢Ķá¡ªá¢Ŀ
Ġá¢Ĭá¡ªá¢İ á¢Ļá¡³
Ġáłµ áł£áł¬
Ġá¢Ķá¡¬á¢Ļ á¡ªá¢Ŀ
Ġá¡¸á¡ªá¡ªá¢Ļ á¡¬á¡³
Ġá¢ĺá¡Ńá¢ľ á¡ªá¡±á¡±
Ġá¢ľá¡ªá¡³ á¡Ńá¢Ļá¡ªá¢Ĳ
á¢ĺ á¡Ńá¢Ŀá¡¨
Ġá¡¥á¡Ńá¡¬á¡± á¡ªá¢Ķá¡³
Ġá¡¯á¡Ńá¡¬á¢ĭ á¡Ńá¢Ľá¡³
Ġá¡¶á¢ŀ á¡Ńá¢Ĭá¢ŀá¡ªá¢į
Ġá¡¥ á¡ªá¡±á¡±á¡ªá¡Ńá¡§
Ġá¡¸á¡Ńá¢ŀ á¢ĳ
á¡¯ á¡ªá¡±á¡±á¡Ńá¢Ŀ
Ġá¢Ķá¡¬á¡³ á¢Ļ
Ġá¡¬á¡Ńá¡¬á¡³ á¢ĳá¡ªá¢ĭá¡Ń
Ġá¡¸á¡ªá¢ŀá¡¬á¡±á¡±á¡Ńá¢ļ á¡ªá¡ªá¡ªá¡³
á¢ľá¡ªá¡´ á¡Ńá¡ªá¡ªá¡³
á¡³ á¡ªá¡ªá¡ª
Ġá¡¥á¡Ńá¢ŀ á¡¬á¢Ļá¡§
Ġá¡¥á¡Ńá¡¬á¡³ á¡ªá¢Ķá¡Ńá¡³á¡ªá¡§
Ġáł² áł¤áł³
Ġá¡¸á¡Ńá¢ĳá¡´ á¡Ńá¡ªá¡ªá¢Ķá¡ªá¡§
Ġá¢¥ á¡Ńá¢ĳ
Ġáł¬áł¤áłŃáł¤áł´ áłłáłŃáłłáł¨
á¡ªá¢ļ á¡ªá¢ļá¡ªá¡¬á¡¨
Ġá¡¥á¡Ńá¡¬á¢ĳá¡ªá¢Ļ á¡ªá¢Ĭá¢Ļá¡ªá¢Ĳ
Ġá¡¥á¡ªá¢İá¢Ľ á¡¬á¡ªá¡ªá¢Ķá¡ªá¡§
Ġá¡¥á¡Ńá¡¬á¢Ĭá¡ªá¡¬ á¡¬á¢Ĭá¡ªá¡§
Ġá¢ĺá¡Ńá¢ĳá¡ªá¡±á¡± á¡ªá¡ªá¡ªá¡ªá¡§
r o
á¡¥ á¡Ńá¡¬á¢İ
Ġá¡¥á¡ªá¢ŀ á¡¬á¢Ĭ
Ġá¡´á¡Ńá¡¬á¢ŀ á¡¬á¢Ļá¡³
Ġáł¬áłłáł® áł³áł¤
á¡´á¡Ńá¢ĳ á¡±á¡±á¡ªá¡§
Ġá¡¸á¡Ńá¡³á¡¬á¢ŀ á¡ªá¡ªá¡ªá¡³
Ġá¡¬á¡¬á¢Ķ á¡Ńá¢į
á¡ªá¢ĳ á¡ªá¡ªá¢Ĭá¢Ļá¡³
á¡Ńá¡ªá¢Ĭá¡±á¡± á¡Ńá¡³á¡¨
á¢ĺ á¡ªá¡ªá¢Ĭá¢Ķ
Ġá¡¸á¡Ńá¢ŀ á¡¬á¢īá¡¨
Ġá¡¥á¡Ńá¢İá¢Ļ á¡ªá¡±á¡±
Ġá¢Įá¡Ńá¢Ļ á¢Łá¢Ĳ
Ġá¡¸á¡ªá¢İá¢Ļ á¡Ńá¢ŀá¡ªá¡ªá¡ªá¢Ķá¡ªá¡§
Ġá¡¥á¢Ĭá¡ªá¢ĳá¢Ľá¡¬á¢ĳ á¡ªá¡§
á¡¬á¡Ńá¢Ĭá¡¬á¢ľ á¡ªá¡ªá¡ªá¢ļá¡«
Ġ |
Ġá¢Ķá¡Ńá¢ŀ á¡Ńá¡±á¡±á¡ªá¡Ńá¡§
Ġá¢Įá¡Ńá¡ªá¢Ĭá¡±á¡± á¡Ńá¢ĳ
Ġá¢Ĭá¡¬á¢ļá¡¬á¢ľ á¡ªá¢ĭá¡Ń
Ġá¡´á¡Ńá¢ĳá¢ļá¡¬á¢ŀ á¡ªá¡ªá¡ªá¡«
Ġá¢Ĺ á¡ªá¡ªá¢Ĭá¢Ķá¡«
á¡ªá¡±á¡±á¡Ńá¢ŀ á¡ªá¡ªá¡ªá¡³
Ġá¢Ķá¡¬á¡ªá¢Ĭá¢Ĭ á¡ªá¢Ľá¡³
Ġáł¬áł¡áł·áł¡áłŃ áł¯
Ġá¡¥á¡Ńá¢İá¡Ńá¡ªá¡ªá¢Ķ á¡¬á¢Ĳ
Ġá¢ĺá¡Ńá¡¬á¢ĭá¡Ńá¢İ á¢Ĭá¡ªá¡§
u t
Ġá¡¥á¡Ńá¡ªá¢Ļ á¡ªá¡ªá¡ªá¢Ķá¡ªá¡§
Ġï¸ ±
á¡ªá¢Ł á¢ļá¡¬á¢Ŀ
Ġá¡¥á¢ĭá¡Ńá¢Ķ á¢Ĭá¡ªá¢Ľá¡³
á¢Ĺ á¡ªá¡±á¡±á¡ªá¢ŀá¢Ļ
Ġá¡¥á¡Ńá¡¬á¡¬á¢ĳá¡ªá¡±á¡± á¡ªá¢İá¢Ľá¡¬á¢Ļá¡ªá¡«
Ġá¢ĺ á¡ªá¢Ľ
Ġá¡¸á¡ªá¢ŀ á¡¬á¢ľá¡ªá¢Ľá¡³
Ġá¡´á¡Ńá¡¬á¢ĳ á¢Ļ
Ġá¡¥á¡¬á¡ªá¢Ľá¢Łá¡± á¢Łá¢ŀ
æ ł
á¡¬ á¡¬á¢Ĭ
Ġá¡¬ á¡Ńá¢Ŀ
2 3
á¡Ń á¡Ńá¢ŀ
Ġá¡¥ á¡´á¡Ńá¢ĳ
Ġá¢ĺá¡ªá¡³ á¡¬á¡±á¡±á¡ªá¡Ńá¡§
Ġáłł áł³áłłáł¯
Ġáł³ áłłáłŃ
Ġá¡¬ á¡ªá¡³á¡ªá¡¨
Ġá¡¥á¡Ńá¡¬á¢ĳ á¡Ńá¡§
Ġá¡¥á¡Ńá¡¬á¢ĳá¡ªá¢Ļ á¡ªá¢Ľá¡ªá¡«
Ġá¢ļá¡ªá¡³ á¡ªá¢ŀá¢ĳá¡ªá¢Ľá¡³
ÑįÐ½ Ñį
ï½ ŀ
Ġá¢ĺá¡Ńá¢Ķ á¡¬á¢ľá¡ªá¡ªá¡ªá¢Ķá¡ªá¡§
Ġá¡¸á¡ªá¡¬ á¡¬á¡ªá¡ªá¡³
Ġá¢ĺá¡Ńá¡¬á¢ĳ á¡Ńá¢ĭá¡Ń
Ġá¢ĭá¡Ńá¡¬á¢ľ á¡Ńá¢Ļá¡ªá¢Ĳ
Ġá¡³á¡¬á¢Ļ á¡ªá¢ĭá¡Ńá¡§
á¢Ķ á¡ªá¢ĭá¡Ńá¢Ļ
á¢ĺ á¡ªá¢ĭá¡Ńá¢Ķ
á¡ªá¡³á¢Ļ á¡Ńá¢Ŀ
é ĥ
Ġá¢ĺá¡Ńá¢ĳ á¡Ńá¡ªá¡ªá¢Ķá¡ªá¡§
Ġá¢ĺá¡Ńá¢ĳ á¢įá¡¨
á¢ľ á¡ªá¡±á¡±á¡Ńá¡§
Ġá¡¥á¡Ńá¡± á¡Ńá¡ªá¡ªá¡³
áł¤áł· áł¢áł¨
Ġá¡¥á¡ªá¢Ķá¡ªá¡±á¡± á¡Ńá¡°á¡¨
Ġá¡¸á¡ªá¢Ķ á¡Ńá¢Ľá¡³
Ġá¡´á¡Ńá¢ĳá¢ļá¡¬á¡ªá¡ª á¡ªá¡±á¡±á¡ªá¡Ńá¡§
Ġá¢Ĺá¡Ńá¡±á¡± á¡Ńá¢İá¡ªá¢Ĳ
Ġá¢ļá¡ªá¢Ĭá¡ªá¢Ľá¡¬á¢ĳ á¡ªá¢ĭá¡Ń
Ġá¡¥á¡Ńá¡¬á¢Ľ á¡ªá¢Ĭá¢Ļ
Ġá¡¥á¡Ńá¡¬á¢ŀ á¡ªá¢Ľá¡¬á¢Ĳ
Ð° Ð°Ð½
Ġá¡³á¡ªá¡Ń á¡ªá¢įá¡¨
á¡¬ á¡ªá¢ĭ
Ġá¡¥á¡Ńá¡¬á¢ĳ á¡¬á¢Ĭ
Ġá¡¬á¡Ńá¡ªá¡ªá¢Ķ á¡Ńá¡³á¡ªá¡¨
á¡Ńá¡¬á¢Ķ á¡ªá¢Ŀ
Ġá¡¥á¡ªá¢Ķá¡¬á¡ª á¡ªá¢ĳá¡ªá¢ĳá¢Ļá¡§
Ġá¢ĺá¡Ńá¢Ĭá¡¬á¢ľá¡ªá¢ĳá¢Ļ á¡Ńá¡ªá¡ªá¢Ķá¡ªá¡§
á¡ªá¢Ĭ á¡ªá¢Ĭá¡ªá¡Ńá¡§
Ġá¢ľá¡ªá¢ŀ á¡¬á¡³á¡ªá¡¨
á¡¥á¡ªá¡ªá¢Ĭ á¢ĩá¡¨
Ġá¢ĺá¡Ńá¢ŀá¡±á¡± á¡Ńá¡Ńá¡§
Ġá¡¬ á¡ªá¡ªá¢Ĭ
á¢ļ á¡Ńá¡ªá¡ªá¢ĳ
Ġá¢ļá¡Ń á¡´á¡Ńá¢ŀ
á¡¥á¡Ńá¡¬á¢Ľ á¡Ńá¢İá¡Ńá¢ļá¡¬á¡§
áł¡áł¯áł ´
á¢Įá¡ªá¢Ļ á¡ªá¢Ĭ
, ãĢĬ
á¡³ á¡¬á¢Ķ
Ġá¢Į á¡ªá¡¬á¡¬á¡ªá¡ªá¡ªá¡§
á¡¥ á¡ªá¢İá¢Ľá¡¬á¢ĳ
Ġá¡¬á¡ªá¢ĳá¡±á¡± á¡ªá¢İá¢Ľá¡«
Ġá¡³á¡ªá¡¬á¡¬á¢ĳá¢Ļ á¡Ńá¢Ľá¡³
á¡¥á¡¬á¡ªá¢Ĭá¢Ĭ á¡¬á¢Ĭá¡ªá¡Ńá¡§
á¢ĳ á¡ªá¡±á¡±á¡ªá¡Ńá¡§
Ġá¢ĺá¡ª á¡ªá¢Ľá¡¬á¡§
Ġá¢ĺá¡ªá¡±á¡±á¡Ńá¢ĳ á¡ªá¡°á¡¨
Ġá¡¥á¡ªá¡ªá¢Ĭá¡ªá¡ªá¡ªá¢ŀ á¡Ńá¡§
á¡¬á¢§ á¡«
áłłáłŃáł¤áł¯ áł¤áł¨
ĠÐ ľ
Ġá¢ĺá¡ªá¡¬á¡¬á¢ĳ á¢īá¡¨
á¡¥á¡Ńá¡¬á¢Ľ á¡ªá¢ĭá¡Ń
á¢Ĭá¡ªá¢Ķ á¡ªá¡¬á¡¨
Ġá¡³á¡¬á¢ŀ á¡ªá¡±á¡±á¡³
Ġá¡¸á¡ªá¢ŀ á¡ªá¡³á¡ªá¡¨
Ġá¢ĺá¡ªá¡± á¡¬á¡ªá¡ªá¢Ķá¡ªá¡§
Ġá¡¥á¡ªá¡ªá¢Ĭ á¡ªá¡ª
Ġá¡¬á¡Ńá¡±á¡± á¡Ńá¢Ķá¡Ńá¡§
Ġá¡¸á¡ªá¡´ á¡Ńá¢Ļá¡ªá¢Ŀ
1 00
á¡ª á¡ªá¡§
á¢ĳ á¡Ńá¡ªá¡¬á¡¨
á¡´ á¡Ńá¢ĩ
Ġá¢ĺá¡Ńá¡¬á¢ŀ á¢ĭá¡Ńá¢į
Ġá¢Įá¡ªá¢Ļ á¡ªá¢ŀá¡ªá¢Ĭá¢Ķá¡ªá¡§
á¡ªá¡¬á¡¬á¢ĳ á¡±á¡±á¡ªá¡§
Ġá¢ĭá¡Ńá¡¬á¢ľ á¡Ńá¢Ļá¡ªá¡¬á¡¨
á¡¸á¡Ńá¡¬ á¡¬á¡°á¡¨
i on
è ¡
á¢ļ á¡ªá¢Ĭá¡ªá¢Ŀ
Ġá¢Ĭá¡ªá¢ŀ á¡ªá¢ĳá¢Ļá¡Ńá¢Ľá¡³
Ġá¢ĭá¡Ńá¡¬á¢Ĭ á¡¬á¢ĭá¡Ńá¢ĳá¡Ńá¢Ĳ
Ð° Ñģ
áł³ áł¡áł¢
Ġá¡¸á¡ªá¢İá¢Ļ á¡Ńá¢ŀá¡ªá¢Ľá¡³
Ġá¡´á¡Ńá¢ŀá¡Ńá¢ĳ á¡ªá¡±á¡±á¡Ńá¢ĳá¡ªá¡ªá¡³
á¡¥á¡Ńá¡¬á¢ ľ
Ġáł¬áł¦áł´ áł¦áł¨
á¢Ĭ á¡ªá¡³á¡ªá¢Ĳ
á¡Ńá¢İ á¢Ļá¡³
Ġá¡¥á¡Ńá¡¬á¡³ á¡ªá¢Ļ
Ġá¡¬á¡Ńá¢ĳ á¡±á¡±á¡ªá¢Ľá¡³
áłªáł¦áł· áł¢áł¯
á¡³ á¡¬á¢ĳá¡¬á¡¬á¡¨
á¡Ńá¡± á¡¬á¢Ķá¢ĺá¡¦
á¡¥á¡ªá¢İ á¡¬á¢Ļá¡³
Ġá¡´á¡Ńá¢ĳá¡³á¡ªá¢Ķá¡Ńá¢ŀ á¡ªá¡ªá¡ªá¡³
Ġá¡¬ á¡¬á¢Ļ
á¡ªá¢Ĭ á¢ļá¡¬á¡§
Ġá¡¥á¡Ńá¢Ļ á¡Ńá¢İá¢Ķ
Ġá¡¬á¡¬á¡±á¡± á¡ªá¢Ķá¡Ńá¡§
áł¦áł¯ áł¦áł¨
á¡¥á¡ªá¢ĳ á¡¬á¡³á¡ªá¡¨
Ġá¢ĺá¡ªá¡±á¡¬á¢ĳá¢ļ á¡ªá¢Ľá¡³
Ġá¡« á¡¨
á¢ľ á¡ªá¡·á¡Ńá¡§
Ġá¢Īá¡ªá¢Ļ á¡ªá¢Ķá¡³
Ġá¡¥á¡ªá¢ŀá¡¬á¢ĳ á¡±á¡±á¡ªá¢Ľá¡³
Ġá¡¥á¡Ńá¡¬á¡¬á¢ŀá¡ªá¢Ļ á¡Ńá¢Ľá¡³
5 0
Ġá¡¬ á¡Ńá¢Ļá¡Ńá¢ĩ
Ġá¢Ĭ á¢Ł
Ġá¢ĺá¡Ńá¢İ á¡¬á¢ĳá¡ªá¡ªá¡ªá¢Ķá¡ªá¡§
Ġá¢ĺá¡Ńá¢ŀ á¡ªá¢ĳá¡ªá¢Ľá¡³
Ġá¢ĭá¡Ńá¡¬á¢ŀá¢Ĭ á¡ªá¢Ļá¡ªá¡¬á¡¨
á¢Ķá¡ªá¡± á¡ªá¡±á¡±á¡ªá¡§
á¢ľá¡ªá¡±á¡±á¡ªá¢Ĭ á¡¬á¢Ľá¡³
Ġá¢ĺá¡ªá¢Ĭá¢Ķ á¡¬á¢Ĭá¡ªá¡§
á¡¬á¢ľ á¡ªá¡ªá¢Ļá¡³
Ġá¡¥á¡Ńá¢ŀ á¡Ńá¢Ļá¡ªá¢Ĳá¡¨
á¡Ńá¢ļ á¡ªá¢īá¡¨
Ġá¢ľá¡ªá¢Ļ á¡ªá¢ŀá¡ªá¡ªá¡ªá¢Ķá¡ªá¡§
Ġá¢Ķá¡Ńá¡±á¡¬á¢ŀ á¡ªá¡ªá¡ªá¡§
Ġá¢ļá¡ªá¡ªá¡ª á¡ªá¢ŀá¢ļá¡Ńá¡Ńá¡§
Ġá¡¸á¡ªá¢ŀ á¡ªá¢ļá¡³
Ġá¡¥á¡ªá¢İ á¡Ńá¢ŀá¢ĳ
á¡ªá¢ĭá¡Ńá¢ĳ á¡§
Ġá¢Īá¡ªá¢ŀ á¡Ńá¢ĳá¢Ļá¡§
Ġá¢Ĺ á¡Ńá¡¬á¢ŀ
áł³ áł¡
á¡ªá¡· á¡Ńá¡ªá¢ļá¡Ńá¡Ńá¡§
Ġá¡³á¡ªá¡±á¡±á¡Ńá¢ĳ á¡±á¡±á¡ªá¡ªá¡ªá¢Ķá¡ªá¡§
Ġá¡´á¡Ńá¢Ļá¡Ńá¡ªá¡ªá¢Ļ á¡ªá¡°á¡¨
á¡¯á¡¬á¢ĳ á¡´á¡Ńá¢Ķá¡³
2 2
Ġá¡¸á¡ªá¢ŀ á¡ªá¢ļá¡ªá¡§
á¡ªá¡ªá¢Ļ á¡ªá¢ĩ
á¢Ī á¡Ń
Ġá¢Ĭá¡ªá¡¬ á¡¬á¢ļá¡¬á¡§
Ġá¢ľá¡ªá¢ŀá¡¬á¢ĳá¢ļ á¡ªá¡ªá¡ªá¢Ķá¡ªá¡§
Ġá¡¬á¡ªá¢ŀá¢Ĭ á¡ªá¡³á¡ªá¢Ŀ
Ġá¡³á¡ªá¢ĳá¢ļ á¡¬á¢ŀá¡Ńá¡Ńá¡§
Ġá¢Įá¡ªá¢Ļá¡ªá¢Ĭ á¡ªá¢ĳá¡ªá¡³á¡ªá¡¨
Ġá¡¥á¡Ńá¡¬á¢Ľ á¡ªá¢Ĭá¢Ļá¡ªá¢Ľá¡³
á¡ªá¡³ á¡ªá¢ŀ
á¡ªá¡ªá¡ª á¡ªá¢ĳá¢Ļá¡§
Ġá¡¥á¡ªá¢Ľá¡¬á¢ĳ á¢Ļá¡ªá¡Ńá¡§
Ġá¢ĺá¡ªá¡¬á¡¬á¢ĳ á¡ªá¢ĳá¢īá¡¨
Ġá¢ĺá¡ªá¢ĳá¡ªá¢ŀ á¡ªá¡ª
Ġá¡¥á¢ĳá¢Ľ á¡¬á¢Ĭá¡ªá¡§
Ġá¢Ķ á¡ªá¡ªá¡ªá¢Ķ
á¡¬á¢ĭá¡Ńá¢ĳ á¡Ńá¢ĳá¢Ļá¡§
Ġá¢ĭá¡Ńá¡¬á¢Ĭá¡ªá¢Ĭá¡ªá¢ļá¡ªá¢ĳá¢Ļ á¡Ńá¢Ĳ
Ġá¡¯á¡ªá¢ŀ á¡¬á¡ªá¡ªá¡ªá¡§
Ġá¡¥á¡Ńá¡± á¡ªá¡±á¡±á¡ªá¡Ńá¡§
Ġá¢ĺá¡ªá¢Ĭá¡ªá¢Ĭá¢Ķ á¡¬á¢Ĭá¡¬á¡¦
Ġá¢Ķá¡ªá¡¬á¡¬á¢Ķ á¡¬á¢ľá¡ªá¢Ĳ
á¡ªá¡±á¡± á¡ªá¢ļá¡¬á¡Ńá¡§
á¡¬á¢ľ á¡ªá¢ĵ
á¡´ á¡Ńá¡ªá¡¬á¡¨
á¡Ńá¢İ á¡ªá¡ªá¡ªá¡§
Ġá¢Īá¡ªá¡¬á¡¬á¡ªá¡ª á¡ªá¡±á¡±á¡Ńá¢ĳá¢Ľá¡³
Ġá¡¬á¡¬á¡Ńá¡ªá¢ĭ á¡Ńá¢ĭá¡Ń
á¢ĭá¡Ńá¡¬á¢ļ á¡Ńá¡§
Ġá¡¸á¡ªá¢ĳ á¡ªá¡ªá¡ªá¡³
Ġá¢ĺá¡Ńá¢Ĭ á¡¬á¢Ļá¡ªá¡«
Ġá¢Įá¡Ńá¢ŀ á¡¬á¢Ļá¡ªá¡§
Ġá¡¯á¡ªá¢ĭ á¡Ńá¢ĭá¡Ń
Ġá¡³á¡ªá¢Ļá¡Ńá¢ĳ á¡ªá¡ªá¡ªá¢Ķá¡ªá¡§
á¡¥á¡ªá¡ªá¢Ĭ á¡ªá¡ªá¡ªá¢ŀ
á¡¬á¡¬á¢ŀá¡±á¡± á¡Ńá¢īá¡¨
á¡ª á¡ªá¢ļá¡¬á¢ĳá¡ªá¡§
á¡ªá¡±á¡± á¡ªá¢ĳá¡ªá¡ªá¡ªá¢Ķá¡ªá¡§
Ġá¢ĺá¡Ńá¡¬ á¡¬á¢İá¡ªá¢Ŀ
Ġá¢ļá¡¬á¢İ á¡Ńá¢Ĭá¡ªá¡¨
Ġá¢ĭá¡Ńá¡¬á¢Ĭ á¡ªá¢Ĭá¡ªá¢ĭá¡Ń
Ġá¡¥á¢İá¢ļá¡¬á¢ĳ á¡ªá¢Ĭá¡ªá¡¨
Ġá¢ļá¡¬á¢ĳá¡ªá¡±á¡± á¡Ń
Ġá¡¯ á¡ªá¢Ľá¡ªá¡±á¡±á¡ªá¡«
á¡ªá¢ĺá¢Łá¢ŀ á¡±
Ġá¢Ĭá¡ªá¡¬á¡¬á¢Ķ á¡´á¡Ńá¢ŀá¡«
á¢ĭá¡Ńá¡¬á¢Ĭá¡ªá¢ŀ á¡Ńá¢ĭá¡Ńá¡«
Ġá¢Į á¢Łá¡ªá¡¬á¡¨
Ġá¡´á¡Ńá¡¬á¢ Łá¢Łá¡¦
á¡Ńá¡±á¡±á¡Ńá¢ĳ á¡³á¡ªá¡¨
Ġá¡¥á¡ªá¡³ á¡¬á¢ľá¡ªá¡§
Ġá¡³á¡ªá¢ľ á¡ªá¡ªá¡±á¡ªá¡±á¡±á¡Ńá¢Ŀ
Ġá¢Ĭá¡¬á¢ĳ á¡¬á¡ªá¢Ĭ
Ġá¡¸á¡ªá¡ªá¢Ļ á¡Ńá¢Ļá¡ªá¢ĩ
Ġá¡¥á¡ªá¢Ľá¡¬á¡ª á¡ªá¢ĳá¡ªá¡ªá¡ªá¡³
á¢Ĭ á¡¬á¢Ĭá¡ªá¡Ńá¡§
Ġá¡¥á¡ªá¢Ļ á¡Ńá¢ŀ
Ġá¢ļá¡Ńá¡¬á¢ Ĳ
áłłáł² áł¤
Ġá¢Ĭá¡ªá¢ŀá¢ļ á¡ªá¢Ĭá¡ªá¡«
á¡¥ á¡Ńá¢Ķ
Ġá¢ĺá¡ªá¡±á¡± á¡ªá¡Ńá¡ªá¡ªá¡ªá¡ªá¢Ľá¡³
á¢Į á¡ªá¡±
Ġá¢ĺá¡ªá¡¬á¡¬á¢ĳá¡´á¡Ńá¢ŀ á¡¬á¢ĳá¡ªá¡ªá¡ªá¢Ķá¡ªá¡§
Ġá¡¥á¡ªá¢ľá¡Ńá¢ĳ á¢ĭá¡Ńá¡«
å ¿
Ġá¡³ á¡ªá¢ļá¡¬á¡§
á¡Ńá¡¬á¢ Ĳ
Ġá¢ļ á¡ªá¢īá¡¨
á¡¥ á¡ªá¢Ĭá¢Ĭá¡ªá¡¨
Ġá¡¥á¡Ńá¡±á¡± á¡ªá¢ĳá¢Ľá¡§
Ġáł²áł¡áłŃ áł¡áł·
á¡ªá¢İ á¡¬á¡§
á¢Ķ á¡ªá¡¬á¡¨
á¡¬á¡³ á¡ªá¢Ķá¡³
áłłáłŃ áł´áł¢
Ġá¢Ķá¡ªá¢Ĭ á¡ªá¢Ĭá¡ªá¡¨
Ġá¡¥á¡ªá¢ŀá¡±á¡± á¡ªá¢Ļ
á¢ĺá¢ŀ á¡Ńá¡§
á¢Ķá¡Ńá¡¬á¢ĳ á¢Ľá¡¬á¡«á¡¨
Ġá¡¯á¡Ńá¡±á¡±á¡Ńá¢ĳ á¡Ńá¢īá¡¨
á¡± á¢Łá¢ĵ
Ġá¡¥á¢ŀá¢Ĭ á¡¬á¢İá¡³
Ġá¢ļá¡Ńá¡ªá¡ªá¢ĳ á¡ªá¡±á¡±á¡Ńá¢ĳá¡ªá¡ªá¡³
Ġá¢ĭá¡Ńá¡¬á¢ĳá¡¬á¢ľ á¡ªá¡°á¡¨
á¡¥á¡ªá¡±á¡± á¡Ńá¢Ļ
á¢Ķ á¡ªá¢ĭá¡Ńá¢Ĳ
Ġá¡¬á¡ªá¢Ķ á¡ªá¢İá¡ªá¢Ĳ
Ġá¡¸á¡ªá¢ŀá¡¬á¢ĳá¢ļ á¡ªá¢Ľá¡³
Ġá¡¥á¡ªá¡³á¢ļá¡¬á¢ŀ á¡ªá¡§
Ġá¡³á¡ªá¡ªá¡ª á¡ªá¢ŀá¡ªá¡ªá¡ªá¡§
á¡¸á¡Ńá¢Ľ á¡¬á¢į
áłłáł ¡
Ġá¡¸á¡Ńá¡± á¡Ńá¡ªá¡ªá¢Ķá¡ªá¡§
Ġá¡¯á¡ªá¢Ķ á¡Ń
Ġá¢Ĭá¡ªá¢Ĭ á¡ªá¡ªá¢ļá¡¬á¢Ŀ
Ġá¢Īá¡Ńá¢Ł á¡ªá¡ªá¡¬á¡¨
á¡¯ á¡¬á¢Ļá¡Ńá¡§
Ġá¢ľá¡ªá¢ĳ á¡ªá¢Ļá¡ªá¡§
á¢ĭá¡Ńá¡¬á¢Ļá¡ªá¢ĳ á¢İ
á¡Ńá¢İ á¢Ľá¡¬á¡§
Ġá¢ĺá¡Ńá¡¬á¢ŀ á¡Ńá¢Ľá¡ªá¡«
á¡¸ á¡Ńá¡ªá¢Ĭá¡±á¡±á¡Ńá¢Ŀ
Ġá¢ĭá¡Ńá¡¬á¢Ĭá¡ªá¢ŀ á¡Ńá¢ĭ
á¡¬á¢ĳ á¡±á¡±
Ġá¡¯á¡ªá¢İ á¡ªá¢Ĭá¢Ļá¡ªá¢ĭá¡Ń
Ġá¢ĺá¡ªá¢Ķ á¡Ńá¢ŀá¡ªá¢Ľá¡³
á¢ļá¡¬á¢ĳ á¡ªá¡ªá¡ªá¢Ķá¡ªá¡§
Ġáł® áł¦áł·
Ġá¡´á¡Ńá¡¬á¢Ķ á¡ªá¢ĳ
ÑĤ Ñį
Ġá¢Ķá¡¬á¡Ńá¡ªá¢Ĭ á¡ªá¢Ĳ
á¡Ńá¢Ļ á¡Ńá¡³
áł¡ áł¤áł¬
Ġá¡¥á¡Ńá¢ľ á¡ªá¡±á¡±á¡ªá¡§
áł¡áł· áł¢áłŃ
á¡¥á¢ŀ á¢Ĭá¡¬á¢ĳ
Ġá¢Ķá¡¬á¢ĳá¢Ľ á¡¬á¢ĭá¡Ńá¢ĳá¢ĭá¡Ń
áłłáłªáł¤áł· áł¢
Ġá¡¥á¡Ńá¡¬á¢Ĭá¡ªá¡¬á¡¬á¢Ķ á¢Ĭá¡ªá¢Ľá¡³
Ġá¡¥á¡Ńá¡¬á¡³á¡ªá¢Ļ á¡ªá¢Ĭá¢Ķá¡«
Ġá¡¬á¡Ńá¢ŀ á¢ĳá¡Ńá¡ªá¡¬á¡¨
Ġá¢Ļ á¡ªá¡³á¡ªá¡§
Ġá¢Ķá¡ªá¡Ńá¡ªá¢Ĭ á¡¬á¡§
Ġá¡¥á¢ŀá¢Ļ á¡ªá¢Ĭá¡ªá¡§
áł¦áł¬ áł¦
á¢ĺ á¡ªá¢ĭá¡Ńá¡³
Ġá¢ļá¡¬á¡± á¡ªá¢Ļá¡³
Ġá¡¬á¡ªá¡³á¢Ķ á¡ªá¢Ĭá¢Ļá¡³
Ġá¢ĺá¡Ńá¡¬á¢ŀá¡Ńá¢ĭá¡Ńá¢ĳ á¡Ńá¢Ĭá¢Ķá¡ªá¡§
Ġá¡¥á¡ªá¢İá¢Ľ á¡¬á¢īá¡¨
Ġá¢ļá¡¬á¡ªá¡ªá¡Ńá¢ĳ á¡ªá¢ļá¡¬á¢ĳ
á¡ªá¢Ķ á¢Ĭá¡¬á¢Ľá¡³
á¡ªá¢ĳá¢Ļ á¡ªá¢ĩ
á¢Ķá¡ªá¢ĳ á¢Ĭá¡¬á¡¦
Ġá¢Ķá¡¬á¢ľ á¡ªá¡ªá¢Ĭá¡±á¡±á¡ªá¡ªá¡¬á¡¨
Ġá¡¥á¡Ńá¡¬á¢Ĭá¢ĳ á¡¬á¢Ĭá¡ªá¡¨
Ġá¢Ĭ á¡¬á¢ļá¡§
á¡ªá¢ĳá¢Ļ á¡Ńá¡±á¡±á¡ªá¡§
Ġá¡³á¡ªá¡¬á¡¬á¡ªá¡ª á¡Ńá¡²
Ġá¢ĺá¡Ńá¡¬á¢Ĭá¡ªá¢İ á¡ªá¢ĳá¢Ľ
Ġá¡¯á¡ªá¢ŀ á¡ªá¢ĳá¡ªá¢ĭá¡Ń
Ġá¢ĺá¡Ńá¡¬á¢ĳ á¡³
Ġá¢Ķá¡ªá¢Ĭ á¡¬á¡ªá¡ªá¡³
Ġá¡¬á¡ªá¡¬á¡¬á¢ĳ á¡ªá¡ªá¡ªá¡³
Ġá¡¸á¡Ńá¡³ á¢Ļá¡³
Ġá¡¬á¡Ńá¢ŀ á¡¬á¡±á¡±á¡Ńá¢ĳá¡Ńá¡§
Ġá¡³á¡ªá¡¬á¡¬á¡±á¡±á¡Ńá¢ĳ á¡³á¡ªá¡¨
Ġá¢Īá¡ªá¢ĳ á¡³á¡¬á¢Ŀ
Ġá¡³á¡¬á¢ļá¡¬á¢Ĭ á¢Ļá¡ªá¡§
Ġá¡³á¡ªá¡±á¡±á¡Ńá¢ĳ á¡±á¡±á¡ªá¡§
Ġá¡¥á¢Ľá¡ªá¢İá¢Ķ á¡¬á¢Ĳ
Ġá¢ļá¡Ńá¡¬ á¡¬á¢Ľ
á¡ªá¡ªá¢Ĭá¢Ĭá¡ªá¢ŀ á¢Ĭá¡ªá¡¨
á¢ĺ á¡ªá¡¬á¡¬á¡§
Ġá¢Ĺá¡ªá¡±á¡±á¡ªá¢ŀá¢Ļ á¡ªá¡ªá¡ªá¡³
á¡Ńá¡¬á¢Ķ á¢ĺá¢ŀ
á¡¸á¡Ńá¡±á¡± á¡Ńá¢ļá¡ªá¡±á¡±á¡ªá¡§
á¢Ĭ á¡ªá¡«
Ġá¡¥á¢ŀ á¡ªá¢Ķ
Ġá¡¸á¡Ńá¢ŀ á¡¬á¢Ļá¡Ńá¡±á¡±á¡ªá¢Ŀ
Ġá¡¥á¡ªá¢ľ á¡Ńá¡±á¡±á¡ªá¡Ńá¡§
Ġá¢Įá¡ªá¢ŀá¢Ĭ á¡ªá¢Ķ
á¡ªá¢ļá¡¬á¢Ĭ á¡ªá¢Ľá¡ªá¡«
á¢Ķá¡ªá¢ŀ á¢ĭ
Ġá¢ĺá¡Ńá¢Ķ á¡ªá¡±á¡±
Ġáł¨ áł¤áł³áł¤áłŃ
áł¤áł· áł¢áł³
á¡¬á¢ŀ á¡ªá¡Ńá¡§
Ġá¡³á¡ªá¢Ļ á¡ªá¢ŀá¡ªá¡ªá¡ªá¡³
Ġá¡´á¡Ńá¡±á¡± á¡Ńá¢Ļá¡³
Ġá¢ļá¡ªá¢Ļ á¡¬á¢ĩ
á¡ªá¡ªá¡ª á¡Ńá¡«á¡¨
áł¢áł´ áłłáłŃ
Ġá¢ĭá¡Ńá¡¬á¢ĭ á¡Ńá¡§
Ġá¡¥á¡ªá¡Ńá¡ªá¡ªá¡ª á¡Ńá¡ªá¡ªá¢Ķá¡ªá¡§
Ġá¡¯á¡ªá¡³ á¢Ļá¡ªá¢ĩ
Ġáł« áł¢áł©
Ġá¢Ķá¡ªá¡¬ á¡¬á¡ªá¢ļ
Ġá¢ĺá¡ªá¡±á¡± á¡ªá¡±á¡±á¡Ńá¢ĳá¡Ńá¡ªá¡ªá¢Ķá¡ªá¡§
Ġá¡³á¡¬á¢ĳ á¡¬á¢Ĭá¢Ļá¡³
Ġá¢ĺá¡Ńá¡¬á¢ĳ á¡ªá¢Ķá¡«
Ġá¡´á¡Ńá¢ľ á¡ªá¡ªá¢Ļ
Ġá¢ĺá¡Ńá¡ªá¡ªá¢Ļ á¡ªá¡±á¡±á¡ªá¡°á¡¨
Ġá¡¥á¡Ńá¢ŀá¡Ńá¡ªá¡ªá¢Ķ á¡¬á¢Ļá¡ªá¡«
á¡¯á¡Ńá¡±á¡± á¡Ńá¡±á¡±á¡ªá¡§
Ġá¢Ķá¡Ńá¡¬á¡ªá¢Ļ á¡ªá¢ŀá¢ĳ
