#version: 0.2
Ġ á
Ġá ł
ł ł
á łł
áłł á
áłłá ł
ł ¢
á ł¢
ł ¡
á ł¡
áł¡ á
áł¡á ł
ł ¤
á ł¤
áł¢ á
áł¢á ł
â Ģ
âĢ ¯
ł ¦
á ł¦
áł¤ á
áł¤á ł
áł¦ á
áł¦á ł
£ á
£á ł
ł £áł
á ł£áł
Ġáł ¬
¯ á
¯á ł
Ġáł ª
¶ áł¢áł
áłłáł Ń
ł İ
á łİ
ł Ń
á łŃ
áłłáł ¨
Ġáł ²
ł ³
á ł³
áł¡áł Ń
áłłáł ·
¶áł¢áł ¨
áł¡áł ·
ł ¥
á ł¥
Ġáł °
ł ¶áł¢áł¨
á ł¶áł¢áł¨
áł¤áł ¨
Ġáł ¨
Ġáł µ
ł ¬
á ł¬
áł¦áł ¨
Ġáł ł
ł ²
á ł²
ł °
á ł°
ł ·
á ł·
áł¡áł ¨
ł ª
á łª
áłłáł ¯
Ġáł ³
áł¢áł Ń
Ġáł ¡
ł ¯
á ł¯
áł¢áł ¯
áł¢áł ¶
ł µ
á łµ
Ġáł Ĥ
áł¢áł ¨
Ġáł Ń
Ġáł ´
Ġáł ¦
ł Ĥ
á łĤ
ł ¶
á ł¶
¬ áł¤
áł¤áł ·
ł ´
á ł´
áł¡áł ³
Ġáłª áłłáł
áł¡áł ¯
Ġáł ¤
Ġáł ®
Ġáłª áł£áł
áł¦áł ·
áł¤áł Ń
ł ¨
á ł¨
¯áł Ń
ł ®
á ł®
Ġáł £áł
áł¡áł ¬
áł¶ áł¢
ł ĭ
á łĭ
áł£áł Ń
áłłáł ¶
áłłáł ®
µ áł¤
¯áł ²
áł¤áł ¯
áłłáł °
áł¡áł ¶
Ġáł ¶
Ġáłªáłłáł ¶áł¢áł
Ġáł¨ áł¢
áłłáł ³
áłłáł ¬áł¤
Ġáł ¥
áłłáł ª
áł³ áł¤
áł¡áł¬ áł¦
áł¢áł ·
áł¤áł °
áł¡áł µ
áłŃ áł¡
áł¡áł ®
áł¤áł ¯áł
Ġáł¬ áł¥
áł¢áł ³
áłłáł ©
áł¤áł ³
áł° áłłáł¨
Ġáłªáł£áł ¯
áł¦áł ¯
ł §
á ł§
Ġáł¬ áł¡áł·
Ġáł ¢
áł¦áł Ń
¯áł² áłł
áł³ áł¦
áł£áł ·
áł¡áł ´
áłłáłŃ áłłáł¨
áł¡áł ª
Ġ ï
áł¦áł ¯áł
Ġáłł áłµ
ł ©
á ł©
áłłáł ´
áłłáł µáł¤
áłłáł ¬
Ġáł£áł ·
ł ¯áł
á ł¯áł
áł¤áł ®
ł ĥ
á łĥ
Ġáł¬áł¡áł· áł¡áłŃ
Ġáł¨ áł¢áłŃ
Ġáł ĥ
Ġáł² áł¥
Ġï ¸
áł¡áłµ áł¦
áł£áł ¨
¬ áł¦
áłłáł ¶áł¢áł
Ġáł¤ áł¯
Ġáł² áł£áłŃ
Ġáł¬ áłłáł®
Ġáł¬ áł£áł
¯áł ª
áł¢áł ®
áłłáł ²
áł¡áł °
áł° áł¡áł¨
áł¢áł ´
Ġáłł áł·
áł¡áłŃ áł¡áł¨
áłª áł¡áł·
áłłáł ¯áł
áł² áłłáł¶
áł¢áł ¯áł
áł´ áł¢
áł² áł¡áł¶
Ġáł² áł£áł
áł¡áł ¶áł¢áł
áł¤áł ´
Ġáł¡ áł·
áł¦áł °
áł¤áł ¶
Ġáł¬ áłłáł·
áł¥ áłŃ
áłª áłłáł·
áł² áł¤
áł¢áł ¯áłŃ
áł¢áł °
áł¢áł¶ áłłáł¨
Ġáłª áłł
Ġáłªáł£áł¯ áł¤áł¨
áłłáł´ áłł
áł¥ áł·
Ġáł¬áł¥ áł®
áłłáłŃ áł°áłłáł¨
áł¡áł· áłŃ
ã Ģ
áł¢áł ©
áł¡áł´ áł¡
ł ¸
á ł¸
áłłáłŃ áł¤áł¯
Ġáłł áł®
Ġáłª áł¦áł
Ġáł¤ áł·
áłłáł ¯áł²áłł
Ġáł¦ áłŃáł¡
Ġáł ±
áł¦áł¯áł µ
Ġáł° áł¤áł·
Ġáł¡ áłŃ
áł¢áł¶ áłłáł·
áł¤áł ª
ĠáłŃ áłłáł·
ł £
á ł£
¯áł² áł¡
Ġáł¦ áł¶
áł¤áł¯áł ¬áł¤
Ġáłªáłłáł¶áł¢áł Ń
áł¢áł ²
Ġáł³ áł¡áłŃ
áłµ áł¢
áł¡áłŃ áł¡
Ġáł³ áł£áł
áł¡áł³ áł¬
áł¤áłŃ áł°áłłáł¨
áłłáł µ
áł¢áł µ
áł¢áł¶ áł¡áł¨
Ġáł¦áłŃáł¡ áł¢
áł¡áł ¯áłŃ
Ġáł¦ áł¨
Ġáłª áłłáł·
Ġáł¡ áł®
Ġáł° áł¢áł¨
Ġáł® áł¡áł³
Ġáł² áł¤áł°
Ġáł¡ áł³
Ġáłª áłłáłŃ
áł¦áł ´
áł¡áłŃ áł°áł¡áł¨
Ġáł¡ áł¨
Ġáł ¯
Ġáłªáłłáł¶áł¢áł ³
Ġáł¦ áłµ
Ġáł¦ áł¢áł¯
Ġáł¬áł¡áł·áł¡áłŃ áł¯
Ġáł³ áłłáł·
áłłáł ¢
Ġáł¤áł¯ áł¤áł°
Ġáł¬ áł¤áłª
Ġ ãĢ
áł¡áł· áłŃáł¡
Ġáł º
Ġáłªáł£áł ¯áł
Ġáł¨áł¢áłŃ áł¡
Ġ 1
Ġáł® áłłáł°
Ġáł¬ áł¡áł
Ġ 2
áł¡áł® áłµ
áł£áł ¬
áł¦áł ¶
áł¤áł ¯áłŃ
áł¦áł ®
áł© áłŃ
áł¤áł ¯áł²áłł
áłłáł¯áł ³
Ġáł² áłłáł¯
Ġáł´ áł¢áł¨
áł£áł ¯
Ġáł£áł ¨
áł¢áł ¬
Ġáł¬ áł¦áł·
¶áł¢áł ¯
áł§ áł·
áł¯áł ¥
Ġáłł áłª
Ġáłłáłµ áł¢áł¯
Ġáłł áł¬
Ġáł¶ áł¡áł¬
Ġáł² áł¡áłŃ
áł£áł ®
áłª áł¦áł·
áł² áł¦
áłłáł© áłŃ
áł¡áł ©
Ġáł¬áł¥áł® áł¦áł¨
áłª áłłáł¨
áł¤áł¯áł µáł¤
Ġáł® áł¥
áł¦áł ©
Ġáł² áł¤áł
áłłáł³ áł¤
Ġáł¶áł¡áł¬ áł¡
Ġáł¡áł¨ áł¡
áł¢áł¶ áłłáł¯
Ġáł£áł ¯
Ġáł³ áłłáłŃ
Ġáłł áłŃ
Ġáł¨ áł¡áł¶áł¢áł
Ġáłłáłµ áł¤
Ġáł² áł¦áł·
Ġáłµ áł¡áł·áłŃáł¡
Ġáł¬ áł¡áł®áłµ
Ġáł¢ áł¯
áł¦áł¯áł ¬áł¦
Ġáł´ áł¢áł³
Ġáłł áł°
áł£áł °
Ġáł¬ áł¦áł´
áł¬ áł¡áł¶
Ġáłµ áł¢áł·
áłłáł³ áłłáłŃ
Ġáłª áł¦áł·
Ġáł´ áłłáłŃ
áłłáł ¯áłŃ
Ġáłª áł¥
áłµ áł¢áłŃ
áł¤áł³ áłłáł¯
áłłáł° áł¤
Ġáł® áł¡áł·áłŃ
áłłáłª áł¤áł·
áł¢áł¯ áł¡áł¬áł¦
áł¦áł ³
Ġáł´áł¢áł¨ áłłáł·
áł¤áł® áł³
áł¡áłŃ áł¦áł¯
Ġáłªáł¦áł ²
Ġáł¶ áłłáłª
Ġáł®áł¡áł·áłŃ áł¡áłµ
áł³ áłłáł¯
Ġáł³ áł¤áł®áł³
Ġáłª áł¡áł¶
Ġáł¦ áł·
Ġáł°áł¤áł· áłŃ
áł° áł¢
áł¤áł ¸
áł¬ áł¤
áłłáłŃ áłłáł·
° áłł
Ġáłµ áł¢áł¯
Ġáłªáł£áł ³
áł¡áłª áł¡áł¯
áł¡áłŃ áł³
áłłáłŃ áł¤áł·
Ġáł¬ áł¤áł³
ĠáłŃ áł£áł
ĠáłŃ áłłáłµ
Ġáłªáłłáł ¶áł¢áł¨
Ġáł®áł¡áł·áłŃáł¡áłµ áł¢áł¯
ĠãĢ Ĭ
ĠáłŃáłłáłµ áłłáł·
Ġáł¥ áł·
Ġáł²áł¥ áł¯áł¥
Ġáł¡ áłª
áłłáłŃ áł¤áł¯áł¬áł¤
Ġáłµ áł¦
Ġáłªáłłáł °áłł
áł¡áł ¯áł²áł¡
áł¢áł¶ áł¡áł·
áł¡áłŃ áł¦áł·
áł³ áł¡áłŃáł¡áł¨
Ġáł¬áł¥ áłŃ
Ġáł¦áł¶ áł¯
Ġáł²áł£áłŃ áł²
ł «
á ł«
Ġáł³áł£áł ²
Ġï¸ ½
ĠáłŃ áł¡áł·
áł¬ áł¥
Ġáł¤ áł³
áłłáł¬ áł¢
áł´ áł¢áł¨
Ġáłªáł£áł ¯áłŃ
Ġáłµ áł£áł¬
Ġáłłáłµ áł¢áł¯áł
Ġáł¬ áł¤áł·
Ġáł¬ áł¡áł¯
áł· áł¥
Ġáłµáł¦ áł¢áł¯
Ġáł¤ áł¬
Ġáł¡áł³ áł¦áł·
áłª áł¡áł¨
Ġáł² áł¡áł·
Ġáłłáł· áłŃ
Ġáł¥ áł¬áł¡áł¶
Ġáł£áł¯ áłłáł¨
Ġáł¥ áł¨
¶ áłłáł·
Ġáł²áł¤áł ¬
Ġáłµ áłłáł°
áł´ áł¤
Ġáłªáłłáł¶áł¢áł³ áłłáł¯
Ġáłµ áł¢áłŃ
Ġáł¥ áłªáł¡áł·
áł¤áłŃ áłłáł¨
áł¯ áł¡áł¯
áłłáłŃ áłłáł¯
Ġáłª áł¤áł°
Ġáł³áł¡áłŃ áł¡áł·
áł¢áł¯áłŃ áłłáł¨
Ġáł² áł¡áł®
áł¢áł ¬áł¦
Ġáł¥ áłŃ
Ġáł¶ áł¤áł®
Ġáłª áł¤áł¶
áł¡áł³ áł¡áłŃ
Ġáł¡ áłµ
Ġáł° áłłáł·
Ġáłº áł£áł®
Ġáłªáłłáł¶áł¢áł³ áłłáłŃ
Ġáł¬ áł¢áłµ
Ġáł Ħ
Ġáł£áł· áł£áł¨
áł¡áł³ áłªáł¦áł·
áłłáł² áł¤
Ġ2 0
Ġáł®áłłáł° áł¢áł¨
áł¡áł ²
áłłáłŃ áł¤
Ġáłºáł£áł® áł«
Ġáł° áłłáł¨
Ġáł¤ áł°
áłłáł° áł¤áł¨
Ġáł²áł£áł °
áłłáłŃ áł¤áł¨
áł¡áł ¯áł
Ġáł¬ áł¤áłŃ
Ġáłªáł£áł¯áł ¬áł¤
áł¬ áłłáł¶
áł¯ áł¢áłŃ
áł£áł ³
Ġáł¬ áł¢áł¨
Ġï¸ ¾
áł¢áł¯áł ´
Ġáł³ áł¡áł¯áłŃ
áł³ áł¡áłŃ
áłŃ áł¡áł¨
áł¡áł´ áł¢áł¯
áł¬ áł¡
Ġáł¬áł¤áł³ áłłáł¯áł³
Ġáłł áł¯áł
áłłáł¨ áł¢
Ġáł° áł¢áł¶
Ġáł²áł¥ áł·áł¥
Ġáł¬áł¤áłŃ áł¤áł´
áłłáłŃáł¤áł¯ áł¢
Ġáłªáł£áł ¯áłª
Ġáł³ áłłáłª
áł¤áł ¶áł¢áł¯
Ġáłłáłµáł¢áł¯áł ¯
áł¦áł¯áłµ áł¦
áł¢áł ¬áł¤
Ġáł´ áłłáł¬
Ġáł° áł¦áł¯áłµ
Ġáł£áł· áł£áł
Ġáłµ áł¥
Ġáł²áł¡áłŃ áł¦áł¨
Ġáł°áł¤áł·áłŃ áłłáłŃáł¤áł¯áł¢
áł´ áł¢áł³
áł¤áł ¬áł¤
Ġáł¬áłłáł® áł²áł¤
Ġáł²áł£áłŃ áł£áł·
¯áłª áł¡áł·
áłłáł¶áł¢áł ¯
áł¢áł´ áł¢
Ġáłªáłłáł¶áł¢áł ¬áł¤
Ġáł¢ áł·
Ġáłºáł£áł®áł« áłłáł¨áł¢
áł¦áł ª
© áłŃ
Ġáł®áłłáł° áł¢
Ġáłªáłłáł¶áł¢áł µáł¤
áł¦áłŃ áł°áł¡áł¨
Ġáł¬áł¤áłª áł¢
Ġáłµ áłłáł®
Ġáł³áłłáł· áłłáłŃ
áł¡áłŃ áł¦áł¯áł¬áł¦
Ġáł¬ áł¡áłª
Ġáłµ áłłáł·
Ġáł¨áł¢áłŃ áł¡áł¨
Ġáłªáł¤áł¶ áł¤
áł¢áł ª
Ġáł´áłłáł¬ áł¢áł¯áłŃáłłáł¨
Ġáłµ áłłáł¬
Ġáł¬áł¡áł ¯áłªáł¡áł·
Ġ 3
Ġáł¡áłŃ áł¦áł¨
Ġáłµ áł¢áł´áł¢
Ġáłµáł¥ áłª
ĠáłŃ áł¡áłµáł¦
Ġáł¥áł¨ áł³
Ġáł¦ áłŃ
Ġáł£áł· áł£áłŃ
Ġáł° áł£áł
áł¬ áł¦
áł¯ áł¢
Ġáł¬áł¡áł®áłµ áł¢áł¶
áł¤ áł¢
Ġáł ¸
áł° áł¢áł¯
Ġáłł áł³áłłáł¯
£áł ·
Ġáł¬áłłáł® áł¤áłŃ
Ġáł¬áł¡áł·áł¡áłŃ áł²áł¡áł¶
Ġáł¬áł£áł ¯áłª
Ġáłª áł¥áłŃ
Ġáł° áł¡áł³áł¬
Ġï ¼
Ġáłµáł¢áł· áł¤áłŃ
Ġáł¬áł¡áł¯áłªáł¡áł· áł¢
Ġáł³áł£áł² áł£áł·
áł¤áł ²
Ġáł¥áł¨áł³ áł¥áł·
Ġáł³áł¤áł®áł³ áłłáł³áł¤
áł¢áł µáł¤
Ġáł¬ áł£áł·
ï ¸
Ġáł° áłłáł¶áł¢áł
Ġáł° áł¢áł·
áł¢áł¶ áł¡áł¯
áł³ áłłáłŃáłłáł¨
áłłáłŃ áł³
Ġáłª áł¢áł´
Ġáłªáłłáł¶áł¢áłŃ áł¤áł¯
Ġáł¶ áł¡áł·
áł¤áł´ áłł
Ġáł¡áłª áł¡áł³
Ġáł° áł¢áłŃ
Ġáł¬ áł¦
áł¬ áł¢
áł¦áł ¬
Ġáł¬áł£áł ¶áłłáł·
áłłáłŃ áłłáł¬áł¤
ĠáłŃ áłłáł³
áł¢áł ¯áł²áł¡
áł¬ áłłáł¨
áł§ áł¨
áł¡áł¶áł¢áł ¯
áł¤áł¯áł ³
Ġáł²áł¡áł· áł¡
áł¡ áł¢
Ġáłłáł¬ áł¤áł¶áł¢áł¯
¬ áł¢áł·
Ġáł¦áłŃ áł¡áł¶
ł ¶áł¢áł
á ł¶áł¢áł
áł¦áł µ
áł¤áłŃ áłłáł·
áł° áł¢áłŃ
Ġáłłáł¬áł¤áł¶áł¢áł¯ áłłáł¯
Ġáł¬ áł£áłŃ
Ġáł´ áł¤
Ġáł¬áł¥ áł³
áł´ áł¢áł¯
Ġáłł áł©
Ġáł´ áł¢áł¬
Ġáłª áł¢áł³
Ġáł¨ áł¡áł·
áł¦áł® áłµáł¢
ĠáłŃáłłáł· áłŃ
Ġáł®áł¥ áł¨
ĠáłŃáł£áł £áł
áł¡áł³ áł¦
Ġáłµ áł¢áł¨
áł´ áł¢áł·
áł¢áł© áłŃ
Ġáł²áł¤áł¬ áłłáł¶
Ġáłªáł¦áł² áł¦áłŃ
Ġáł¡ áł¯
áł¡áł¯áłŃ áł¡
0 0
Ġáł® áłłáł²
Ġáł²áł¥áł·áł¥ áł¯
áł§áł· áł¢áł¶áłłáł¯
áł² áł¡áłŃ
Ġáłªáłłáł· áł¢áł®
áł´ áł¦
Ġáł²áł¥áł¯áł¥ áłª
áłłáłŃ áł¤áł¯áłµáł¤
Ġáł¬áł£áł¯áłª áł£áłŃ
Ġáłł áł¶
Ġáł¦áł¢áł¯ áł¡áł³áłªáł¦áł·
Ġáł¡áł® áł¦áł¨
áł¤áł µáł¤
Ġáł¤áł¬ áłłáłŃáłłáł¨
ł Ħ
á łĦ
Ġáł² áłłáł·
Ġáł¬áłłáł® áł¢áł¶áłłáł·
áł² áłł
Ġáł ¹
áł¢áł ¯áł²
Ġáłª áł¤áł³
Ġáł¨ áłłáł·
Ġáł² áłłáł¨
® áł¦
Ġáłªáł¦áł ¬áł¦
Ġáł° áłłáłŃ
Ġ Ċ
áłłáł¯ áł¢áłŃ
áł¥ áł®
Ġï¸ µ
áł¡áł² áł¦
áł¤áł¯ áłł
Ġáł¨ áł¥
Ġáł¬áł£áł ²
Ġáłłáł° áł¢áłŃ
Ġáł¬áł¥áłŃ áłµ
áłłáł¶áł¢áł ·
Ġáł¬áł¦áł´ áł¦áł¨
Ġáł³áł¡áł¯áłŃ áł¡áłŃáł¦áł·
Ġáł¤áł¯ áłłáł¨
áłłáł ¶áł¢áł¨
Ġáł°áł¦áł¯áłµ áł¢áł¶áł¡áł¨
Ġáł¡ áł¶áł¢áł
Ġáł¨áł¡áł¶áł¢áł ²
Ġáł¬ áłłáłª
Ġáł «
Ġáłªáłłáł¶áł¢áł ´
Ġáł¢áł¯ áł¡áł·
î Ģ
áł¤áł¯ áł¤áł¨
Ġáł²áł¡áł® áł³áł¡áłŃ
áł¢áł ¯áł²áłł
Ġáł¨ áł¡áł®
Ġáł´ áł¦
áłłáł° áł¤áł·
áł¡áł¬ áł¢
áłłáłªáł¤áł· áł¢
Ġáł¶áłłáłª áł¤áł³áłłáł¯
Ġáł¬áł£áł² áłł
ĠáłŃ áł¤áł·
áł³ áł¦áł°
Ġáł¬ áł¡áł°
Ġáł¦áł¨ áł³áł¦áł°
Ġáł¡ áł°
Ġáłªáł¥áłŃ áł¡áł³
Ġáłªáł¥ áł¬áł¥
Ġáł¬áł¡áł° áł¡áłŃ
áł¤áł µ
áł¡áłŃ áł´áł¢
Ġáłµ áł¦áł¶
Ġáł¬áł¥áł® áł¦áł°
Ġáłłáł³áłłáł¯ áł¢
Ġáł°áł¢áł¨ áłµ
áł£áł ´
Ġáł³ áł¤áł·
ĠãĢ ĭ
áłª áł¡
Ġáł³áł£áł £áł·
Ġáł¨ áł¡áłŃ
áł² áł¡
Ġï¼ Ī
ãĢ ĭ
Ġáłªáł¤áł° áł¤
áł¡áłŃ áł¦áł¯áłµáł¦
Ġáł¬ áłłáł©áłŃ
Ġáł£áł ³
Ġáł° áł¤áł³
Ġáł² áłłáłª
áł¬ áł¢áł¨
Ġáł¬áł¡áł·áł¡áłŃáł¯ áł¡áł¬áł¦
áłłáłŃ áł´áł¢
Ġáłłáł® áł¢áł³
Ġï¸ ¶
Ġáł¥ áł©áłŃ
áł® áłª
Ġáł¬áłłáł® áłłáłŃáłłáł¯
Ġáł® áłłáł¨
Ġáł³ áłłáł®
áł¬ áł¡áł¨
áł¢áł° áł²
áł¢áł ±
áł¤áłŃ áł´áł¢
Ġáł¬áł¤áłŃáł¤áł´ áłłáłŃáłłáł¨
áł¬ áł¢áł¯
áł¦áł· áł¢
ï ¼
Ġáłµ áł£áłŃ
Ġáł²áł¤áł° áł¬áłłáł¶
Ġáłµáł¦áł¶ áł¯
Ġáł¡áłŃ áł¦áł³
Ġáłµ áłłáł©áłŃ
Ġáł¶ áłłáł®
Ġáł®áł¡áł³ áł¡áłŃáł¡
Ġáł£áł ¯áł
Ġáłªáłłáł ¶
áł¤áł¯áł³ áł¤áłŃáłłáł¨
áł¡áł´ áł¦
Ġáł¬ áł¡áł³
Ġáłªáł¥ áł®áłª
Ġáł²áł¥áł¯áł¥áłª áł¯
ĠáłŃ áł¡áłª
Ġáł¡áł¶áł¢áł ®áł¦
Ġáł¤áł¯ áłłáł®
áł§ áł®
Ġáł° áł¢áł°áł²
Ġáł¬ áłłáł¯
ĠáłŃáł¡áłª áł¡áł´áł¦
Ġáłµ áł¢áł±
áłłáł² áłłáł¶
Ġáł¡ áł¯áł
Ġáł³áł¡áłŃ áł¡áłŃ
Ġáł¤áł· áł¤áł¯áł³áł¤áłŃáłłáł¨
Ġáł³áł¡áłŃ áł¡áł³áł¦
Ġ 5
Ġáł¨ áłłáł®
áł´ áłł
áł¤ áł¤
Ġáłªáłłáł ²
áłłáłª áłłáł¯
Ġáł° áł¡áł·áłŃ
Ġ 4
áł¤áł¯áł ´
Ġáł²áł¥ áłª
Ġáłłáł° áłłáłŃ
Ġáłª áł¢áł°
Ġáł°áł£áł ©áłŃ
Ń áł¡áł®
Ġáł°áł¢áł¶ áł³
Ġáłª áł¦áł¯
Ġáł¬áł¡áł· áłªáł¡
áłłáł® áłµáł¢
ł º
á łº
Ġáł¨áł¡áł¶áł¢áł Ńáł¡áł®
áłŃ áł¡áł¯
Ġáł¡áłªáł¡áł³ áł´áł¢áł¨
Ġáłª áł¢
Ġáłªáł£áł¯ áł¤áłŃáł°áłłáł¨
áł¢áłµ áł¦
áłłáł ¤
áłłáłŃ áłłáł³
áł° áł¢áł¨
Ġáł¢ áł³
Ġáł°áł¢áł¶áł³ áłªáł¦áł·
áł¥áłŃ áł¡áł·
Ġáł° áłłáłŃáł¤áł·
ĠáłŃ áłłáł³áłłáłŃ
Ġáł¬áłłáł· áł¢áłŃ
áł¦ áł¦
Ġáł° áł¢áł¯áłŃ
Ġáł° áłłáł¶áł¢áł¨
áł©áłŃ áł¥
Ġáłłáłª áł´áł¤
Ġáł¨ áł¡áł©
áł¬ áłłáł¯
Ġáł®áł¥ áł©áłŃáł¥
Ġáłłáł© áł¬
Ġáł²áł£áłŃáł£áł· áł¢áłŃ
Ġáłµ áł¢áł¶
Ġáł¬ áłłáłŃ
Ġáł²áł¥ áł¬
Ġáł²áł¥áł¬ áł¥áłŃáł¡áł·
Ġáł¤áł³ áłłáłŃ
Ġáł²áł¥áł¬áł¥áłŃáł¡áł· áł¦áł®áłµáł¢
áł§ áł©
Ġáł´áł¢áł³ áłłáłªáł¤áł·áł¢
Ġáł² áł¤áł·
Ġáł¬áłłáł®áł¢áł¶áłłáł· áł¤áł¯áł²áłł
Ġáłł áł©áłŃ
Ġáłµ áłłáłŃ
Ġ âĢ
áłŃ áł¦áł¯áłµ
áł¢áł¶ áł¡áł³
Ġáł°áł¢áł¨áłµ áł¢áł¯áł¡áł¬áł¦
Ġáłªáłłáł¶áł¢áł ·
Ġáł¦áł· áłŃáł¦áł¯áłµ
Ġáłªáł£áł ·
Ġáł® áł¥áł·
Ġáłªáł¢áł° áł¢
áł¤áł¯áł µ
Ġáłªáł¢áł³ áł¡
Ġáł´ áł¥áł®
Ġáłª áł¡áł¯
Ġáł²áł£áł ¬áł¢áł·
Ġáł° áł¢áł¯
¬ áłłáł¨
Ġá ¡
ĠáłŃáłłáł³ áłłáł¨
Ġáł¶ áłłáł·
Ġáł¤áł° áł¤
Ġáł² áł¦áł®
Ġáł£áł¯áł µáł¤
Ġáł° áł£áł¨
Ġáł³áłłáł® áłµáł¢áłŃ
áł¢áł² áłłáł¶
Ġáłłáłµáł¢áł¯áł¯ áłłáłŃ
Ġáł¤ áłŃ
áł¬ áł¡áł³
áł¦áłŃ áł¡áł·
áłłáłŃ áłłáł¶
ĠáłŃáł£áł£áł ¯
Ġáł¶áłłáł® áłłáł·
Ġáłªáł£áł¯áłª áłłáł°áł¤áł·
Ġáł¶ áłłáłŃ
Ġáł´ áł¢áł©áłŃ
Ġáłłáł· áłłáł³
Ġáłµ áł£áł·
áłłáłŃáł¤áł¯ áł¤áł¨
Ġáł¡áł· áłŃ
áłłáł¯áł µ
Ġáł´áł¢áł¬ áł¤áł¯áłł
Ġáł¥áł©áłŃ áł¡áł·
Ġáł°áłłáł¨ áłłáłŃ
Ġáłłáł¬ áł¤áł¶
áł¢áł¯áł ³
Ġáłªáł¢áł´ áł¢áłŃ
áłłáł® áłłáł¯
Ġáł² áłłáł°
Ġáł¶áł¡áł· áł¦áł©
Ġáł² áłłáł
¯áł ³
áłłáł¬ áł¢áł¨
áłµ áł¢áł¯
áł¤áł· áłłáł¯
áł¢áłµ áł¢áłŃ
áłłáł¯ áłłáł¬áł¤
Ġáł¡áłµ áł¡áł®
Ġáł¬áł¤áłª áł¢áł·
ï¼ ī
áł¡áł¯ áł¡áł¬
Ġáł¬ áł¦áł°
Ġáł¨ áł¡áł¯
Ġáł¬áł¢áłµ áłłáłŃáłłáł·
Ġáłªáł£áł¯áł µ
Ġáł£áł ¶áł¢áł¯
Ġáł¨áł¡áł¯ áł¢áł¶áł¡áł³
Ġáłª áł¤áł¢
áł¡áł³áł¬ áł¦áł¨
Ġáł² áł¡áł³
Ġáł£áł¨ áł´
áł¦áł ¯áłŃ
Ġáł¡áł® áł¨
Ġáł¬áł¥áłŃáłµ áł¢áł¯áł²áł¡
îĢ Ĳ
Ġáł³áł¤áł®áł³ áłł
Ġáł¶ áł£áł°
áł¡áłŃ áł¡áł·
Ġáł²áł¦áł· áł¦áł¯
Ġáł£áł· áł´áł¢áł¨
áłłáł´ áł¢áł¯
Ġáłªáł£áł³ áłłáł°
Ġáł¤áł° áł¤áł¨
Ġáł£áł·áł£áłŃ áł¤áł¯
Ġáłłáł°áłłáłŃ áł¤áł³áłłáł¯
Ġáł¬áł¢áłµ áł¦
Ġáłªáł¤áł° áł¤áł³
Ġáł¬ áłłáł¨
áł¡áłª áł¡áł·
Ġáł¦áł¨ áł¡áł¨
Ġáł¬ áł¢áł¬áł¦
Ġáł¬áł¡áł ¦
Ġáł¬áł£áłŃ áł£áł¯
Ġáł°áł¡áł·áłŃ áł¡áł¶áł¢áł¯
Ġáłłáłª áł¬áł¤
áł¡áłª áł²
áł¢áł º
Ġáł® áł¢áł¨
Ġáłªáłłáł² áł¤áł¯
ł Į
á łĮ
áł¡áłŃ áł´áł¢áł³
áł¥áłŃ áł¡áł¨
Ġáł² áł¡áł·áłŃ
Ġáł¡áł· áł¬áł¡
ĠáłŃáł£áł ¸
Ġáł°áł¡áł³áł¬ áł¢áł¯
Ġáł£áł· áł³
¯áł ´
ĠáłŃ áł¡áł³áł¡áłŃ
Ġáł²áł£áłŃáł£áł· áł¢áł¨
ł ¯áłŃ
á ł¯áłŃ
áłµ áł¢áł¶
áł¥ áłŃáł¡
Ġáł²áł¦áł® áł¡áł¨
Ġáł¬áłłáł· áł¢áł¯áł´
Ġáł² áł¦áłª
Ġáł° áł£áł·
Ġáł¬áłłáł· áł¢áł´
áłłáłŃ áłłáł¯áł²áłł
Ġáł¡áł· áł¬
Ġáł¬áł¥áł³ áł¡áł¯áłŃ
áłłáł³ áł¤áłŃáłłáł·
áł¬ áł¡áł¯
Ġáł¤ áł¶
Ġáłµáłłáł©áłŃ áł¢
áł© áłŃáł¡
Ġáł²áł¡áł·áłŃ áł¡áł¨
áł¯ áłłáł¬áł¤
Ġáł¢ áł¨
Ġáł°áłłáł¶áł¢áł ¬áłłáł¨
Ġáłªáłłáł· áł¢áł¯áłŃ
áł² áł¡áłŃáł¡áł¨
ĠáłŃ áł¦
Ġáł¨ áłłáł¶áł¢áł
áł¨ áł¢
Ġáł¨áł¡áł® áł¡áłŃáł³
Ġáł¬áł¤áłŃáł¤áł´ áłłáłŃ
áł¤áł¸ áłłáł¨
Ġáł³ áł¦áł·
áł¡áł¯ áł¡áł¨
áłłáł´ áł¤
áłłáłŃáłłáł· áł³
áł¤áł· áłŃ
áłłáłŃ áłłáłµáł¤
Ġáł¤ áł´áł¢áł·
áł¢áł ¦
áł¡áł¯áł µ
áł£áł ª
Ġáł° áłłáł¢
Ġáł¦áł¢áł¯áł¡áł³áłªáł¦áł· áł¢
Ġáłµáłłáł· áł¢áł®
Ġáł£áł³ áł£áł¬
áł¦áł ¸
Ġáł± áłłáłŃáłłáł·áł³
Ġáł²áł¦áłª áł°áł¢áł¨
Ġáł¬áł¥áł® áł¦áłµ
áłłáłª áłł
Ġáłªáł¦áł¯ áł¦áłŃ
Ġáłłáł®áł¢áł³ áł¤áł·áłłáł¯
Ġáł¡áłŃ áł¦áł°
Ġ 6
Ġ20 2
Ġáł²áł¦áł· áłŃáł¡áł¨
ĠáłŃ áł¡áł°
Ġáłµáłłáł° áłłáłŃ
Ġáł¨áł¢áłŃáł¡áł¨ áł²áł¡
áł¡áłŃ áł¡áł³
áł¦áł ¬áł¦
áłłáł ¯áł²
áł¡áł® áłµáł¢
Ġáł¶áłłáłª áł¤áł´áłł
¶áł¢áł ·
Ġáłªáł£áł¯áłŃ áłłáłµáł¤
Ġáłµ áł¡áłŃ
áł° áłłáł·
áł¦áł ¯áł²áł¡
áłłáł¯ áłłáłŃ
Ġáł¬ áł¦áł¨
Ġáłªáł£áł¯áłª áłłáł´áł¤
áł¡áł° áł¦
Ġáł³ áł¤áł¯
Ġáł²áł¥áł¯áł¥ áłŃáł¡
Ġáł²áł¤áł· áł°
ĠáłŃáł¤áł· áłªáłłáł¨
Ġáł¡ áł¬áł¢áł¯
Ġáł´ áł¢
Ġáł²áł£áł ®
Ġáł³áł¡áłŃáł¡áłŃ áł°áł¢áł¯
Ġáłłáł® áł¤áł·
áł¡áłªáł² áł¡áł·
Ġáłªáłłáł¶áł¢áłŃáł¤áł¯ áł¤áł¯áł²áłł
Ġáłµáł¥áłª áł¬áł¡áł¨
Ġáł³áłłáł· áł¤áł¶
áł¯áł ³
áł¥áł· áł¢áłŃ
Ġáł¡ áł©
áł¢áł² áł¡áł¨
Ġáł¢ áł³áł¡áłŃáł¡áł¨
Ġáł²áł£áł ª
Ġáł´ áł¡áłªáł¡áł·
Ġáł°áłłáłŃáł¤áł· áł¢
Ġáł¬áł¤áł· áłłáł¯
áł¡áł© áł¨
áł¡áł¯áł¡áł¬ áł¡áł¶
Ġáł¬áł¡áł¦ áł¬áł¡áł³
Ġáł²áł¥áł¯áł¥áłªáł¯ áł¡áłŃáł¡
´ áł¢
áł¤áł® áłµáł¢
Ġáł´ áłłáłŃáłłáł¨
Ġáł¬ áłłáł¶áł¢áł·
Ġáł¨ áł£áł®
áł¤áłµ áł¢
ĠâĢ į
áł¡áłŃáł¦áł¯ áł¦áł¨
Ġáł¬áł¢áł¨ áłłáł¨
¸ áł·
Ġáłµáł£áłŃ áł£áł°
áł³ áł¤áł¨
áł¢áłŃ áł¦áł¨
áłłáłŃ áłłáłŃáł°áłłáł¨
Ġáł® áł¤áłµáł¢
Ġáłªáł£áł³ áł£áł
Ġ20 1
Ġáł¨áł¢áłŃ áł¡áł³
áł¦áł¯áłŃ áł¡
Ġáł¡áłµ áł¡áł©áł¨
Ġáł¨áł¡áłŃ áł¡áłŃ
áł¤áł¸ áłłáł©
Ġáł³áł£áł² áł£áłŃ
Ġáł® áłłáł¶
Ġáłµ áł¢áł©
Ġáł£áł·áł£áł ¯áł´
áł¤áłŃ áł´áł¢áł³
Ġáł²áł¥ áłŃ
áł² áłłáł°áł¤
Ġáł®áł¢áł¨ áł¦
Ġáłł áł¯
Ġáłłáł©áłŃ áł¢
Ġáłªáł¦áł ¬
Ġáł¬ áłłáł³áłłáłŃ
ĠáłŃáłłáł³áłłáłŃ áłłáł³áł¤
Ġáł¡ áł´
Ġáł³áł£áł²áł£áłŃ áłłáł³áł¤
Ġáł¤áł· áł¢áł³
Ġáł²áł£áł ³
Ġáł¬áłłáł· áł¢áł¨
Ġáł ¾
Ġáł¨áł¥ áł¬áł¥
Ġáł¬ áłłáł¤
Ġáł² áłłáł¶áł¢áł
Ġáł¤áł³ áłłáłŃáłłáł¨
áł¦áłŃ áł¡
Ġáł¬áłłáł® áł²
ª áłłáł¯
Ġáł¦áł¨áł³áł¦áł° áł¦áł¯
Ġáł² áł¡áł·áłŃáł¡
Ġáł³áł£áł²áł£áł· áłłáł¬áł¢
áł¤áłŃ áł³
ï¸ ¾
Ġáłªáł¦áł· áł¢
áł¢áł¯ áłłáł¬áł¤
Ġáł¬ áłłáł¶
áł¤áłŃ áłłáł´
Ġáł¬áł¤áł³áłłáł¯áł³ áł¤áł¨
Ġáł´ áł¢áłŃ
áł¢áł¯ áł¡áł¨
Ġáłłáł©áł¬ áłłáł·
Ġáł¨áł¡áł¶áł¢áł² áł¡
Ġáł¬áł¡áł·áł¡áłŃáł¯ áł¡áłµáł¦
Ġáł¨áł¡áł¶áł¢áł² áł¡áł¯
Ġáł³áłłáłª áł¬
Ġáł¬ áł¢áł·
Ġáł² áł¦áłŃ
Ġáł£áł³áł£áł¬ áłłáł¨
Ġáł²áł£áłŃ áł¯
Ġáł¦áł¢áł¯ áł¡áł´áł¢áł¯
Ġáł¥áłŃ áł¡áł·
áł° áł¦
Ġáł°áł£áł©áłŃ áł£áł
áłłáłŃáł¤áł¯ áł¤áłŃáł°áłłáł¨
Ġáł²áł¥áłŃ áł¥áł·áł¢áłŃ
áł¦áłŃ áł¦áł·
Ġáł¡áł®áł¨ áł¡áł¯áłŃáł¡
Ġáł²áłłáł ¯áłª
Ġáł² áłłáł²
Ġáł´ áł¡áłŃ
áł¯ áłłáł¨
Ġáł° áł£áł¯
Ġáł¦áłµ áł¡áł¬áł¦
áłª áłł
Ġáł ·
Ġáłł áł¨
Ġáł³ áłłáł¬áł¢áł¨
Ġáł´ áł¢áł®
Ġáł´ áł¤áłŃ
¯áł ¬
áłłáł¯áł ¬
Ġáł° áł¢
Ġáłłáł® áłłáł·
Ġáłªáł£áł¯áłŃ áłłáł¨
Ġáł³áł¤áł¯ áłłáłŃáłłáł¨
Ġáł¬ áł¦áł¯
Ġáł¬áłłáł·áł¢áłŃ áł¤áł´
Ġáł² áłłáł®
áł¦áł¯áł ³
áł¯ áł¡áł¬áł¦
áł´ áł¢áł¶
Ġáł¡áłŃ áł¦áł·
áł¢áł¯áłŃ áł¡
Ġáłłáł¯áł ª
ĠáłªáłłáłŃ áł°áł¢
áł¡áł¬ áł¦áł¨
ĠáłŃáłłáł³ áłłáł·
Ġáł¶áł¡áł· áł¦
Ġáłłáł¯áł ³
áł¢áł¶ áłłáł¬áł¤
áł¡áłµ áł¢áłŃ
Ġáł¨ áłłáł©
Ġáł¤ áł¨
Ġáłªáłłáł·áł¢áł® áł²áłł
Ġáłª áł¤áł¯
áł¡áłµ áł¡áł¶
Ġáł± áłłáł©
Ġ A
Ġ C
Ġáł¬áłłáł¤ áł¯áł¢
Ġáłªáł£áł· áł£áł¯
Ġáł¬áł¢áł· áł¢
áł¡áłª áł¡
Ġáłµáłłáł° áłłáł¬áł¤
Ġáłªáłłáł·áł¢áł® áłµáł¢áł¶
Ġáł´ áł¡áł´
áł¸ áł¨
áł¢áł¯ áł¡áł¯
Ġáł® áł§
Ġáł¦áł¶áł¯ áł¡áł´áł¢áł¯
ĠáłŃ áł¦áł¨
áł· áł¥áłŃ
Ġáłµ áł£áł´
áł³ áł¡áł¯
Ġáłµáł£áł· áł¢áłŃ
Ġáł¬ áł¢áł´
áł´ áłłáł©
áł¦áł¬ áł¡
Ġáł¯ áł¡
áł¤áł¯áłŃ áłłáł¨
ĠáłªáłłáłŃ áł²
Ġáł² áł£áł¨
Ġáł°áłłáł¢ áł¢áł¨
Ġáł¬áł£áł ¶
Ġáł³áłłáłŃ áłłáłŃ
Ġáłªáłłáł ¶áłłáł·
áł¦áł¯ áł¦áł¨
Ġáłµ áłłáł¯áłŃ
Ġáł° áłłáł¶
ĠáłŃ áł¦áł¶
Ġáł°áł¢áł¶áł³áłªáł¦áł· áł¢áł¯áł¡áł¬áł¦
Ġáł¨ áł¡áłªáł²áł¡áł·
Ġ 8
Ġáłªáł£áł ¶
Ġáł²áłłáł¯ áłłáłªáł¤áł·
áł¡áłŃáł¦áł¯ áł¦áłŃáł°áł¡áł¨
Ġáłłáł· áłłáł°áł¤áł¨
Ġáł¡áł¯áł §
Ġáłªáł¥áł®áłª áł¥áłŃáł¡
Ġáłłáłµ áł¢áł¯áł²
áł¢áł¬ áłłáł¨
Ġáł³ áł¥áł·
¬ áł£áł·
Ġáł¨áł¥ áł¯áł¥
Ġáł£áł·áł³ áł£áł¨
Ġ 7
Ġáł¦áł¶áł¯ áł¡áł³áłªáł¦áł·
áł³áł¤áł¨ áł¢
áł¢áł³ áł¡áłŃ
¶ áł£áł¯
Ġáłµ áł¢áłµáł¢áłŃ
Ġáł¦áł¢áł¯ áł¡áł°
Ġáł¨áłłáł· áł¢áł¨
Ġáł´áł¢áł³ áłłáł¬áł¤
Ġáł´áł¢áł¨áłłáł· áł²áłłáł¶
Ġáł± áł¤áłŃ
Ġáłªáłłáł¶ áłłáł¯áł¢áłŃ
Ġáłłáł¯áł ¬
áł¢áł² áł¡áł¶
áł¢áł¯áł µ
áł³ áł¡
Ġáł²áł£áł³ áł£áł·
Ġáł¯ áłłáłª
áł¡áłŃ áł²áł¡áł¶
áłłáłŃ áł¤áł¯áłŃ
áł¤áł ¬
Ġáł¦áł¢áł¯ áł¡áł³
Ġáł²áłłáłª áł´áłłáł©
Ġáł¬áł¦áł· áł´áł¦
Ġáłªáł¡áł¶ áł¡áł¯
áł¡áłª áł¦áł·áł¢
Ġáł³ áł¡áł¯áł¡áł¬áł¡áł¶
Ġáł¬áł¥áł®áł¦áłµ áł¢áł¯
áł¢áł¶áł¡áł¯ áł¡áłªáł¡áł¯
Ġáł¬áł¡áł·áł¡áłŃ áł´
Ġáł´ áł£áłŃ
áł¬ áł¡áł¶áł¢áł¯
Ġ1 0
áłŃ áł¢
Ġáłªáłłáł¶áł¢áłŃ áł°áłłáł¨
Ġáł³áł¡áłŃáł¡áł· áł¡áł¬áł¢
áł¡áłŃáł³ áł¡áł¬áł¦áł¨
Ġáł¬áłłáł¯ áłłáłŃáł¤áł¨
áłłáł° áł¢
Ġáł±áłłáłŃáłłáł·áł³ áłłáł¯áłŃ
áłª áł¤áł¯áłµ
ĠáłłáłŃ áł¤áł¯áłŃ
Ġáł¬áł¡áł³ áł¦áł¨
Ġáł¡áł· áł¡áłŃáł¦áł¯
Ġáłªáł¦áł²áł¦áłŃ áł¡áłŃáł³áł¡áł¬áł¦áł¨
Ġáł¦ áł¯
Ġáł° áł¢áł¯áłµ
Ġáł³áł£áł ¸áł·
Ġáł¬ áł¢áłŃ
Ġï¸ ±
Ġáł¡áł¨ áł§áł·
Ġáł¬áł¡áł¯ áł¡áłªáł¡áł¯
Ġáł±áł¤áłŃ áł¤áł®
Ġáł¬áł¡áł·áł¡áłŃ áł°
áł¦áł ²
Ġáł°áł¤áł· áłªáł¤áł¯áłµ
áłłáł©áłŃ áł¤áł¶
Ġáł¬áł¡áł·áł¡áłŃáł¯ áł¡áłŃáł´áł¢áł³
ĠáłªáłłáłŃ áł¤áł·
Ġáł¡áł¨áł§áł· áłŃáł¢
Ġáł¦áł¢áł¯ áł¡áł³áł¬áł¦áł¨
áł° áł¤áł·
Ġáłªáłłáł¶áł¢áł· áł¢
áł¬ áłłáł¬áł¤
áłµáł¢áłŃ áł¦áł¯áł¬áł¦
Ġáł¤áł¯ áłłáł·
Ġáł³ áł¡áł®áłµ
Ġáł²áł¡áł® áł¦áł·
ĠáłłáłŃ áłłáł·
Ġáł¬áł¤áł³ áłł
Ġáłµ áł¥áłŃ
áł¬ áł£áł¨
áł¦áł¯áł ¬
ĠáłłáłŃ áł¤áł·
Ġáł¯ áł¢
Ġáł¬áłłáł®áłłáłŃáłłáł¯ áłłáł¬áł¤
Ġáłµ áłłáł³
Ġáł°áł¦áł¯áłµ áł¢áł¶
Ġáłµáł¢áł± áł¢áł¶áł¡áł¯áł¡áłªáł¡áł¯
áł£áł £
áłłáł¯ áłłáł¯
áł£áłŃ áłłáł¨
Ġáł¬áł¦áł¨ áł³áł¦
Ġáł´áł¤áłŃ áł¯
Ġáł²áł¤áł ¶áł¢áł¯
Ġáłªáł£áł Ń
Ġáł²áł¥ áł°
Ġáł°áł¢áłŃ áł¤áł³
áł¤áł´ áł¢áł¯
Ġáł¢ áł²áł¡áłŃ
Ġáł¨ áłłáł¶áł¢áł·
Ġ S
Ġáł¶áł¡áł·áł¦áł© áł¬áł¡áł¶
ĠáłŃáł¡áł· áł¡áł¯
Ġáłªáł¦áł¬áł¦ áł¢
Ġáłµáł£áł¬ áł¢áł¶áłłáł¨
Ġáł¬áł¡áł·áł¡áłŃáł´ áł¡áłŃáł¡
Ġáłµ áł¢
Ġáł¤áł¯áłłáł· áł¢áł¯
Ġáł¬ áłłáł²
Ġáł°áł¤áł· áł¤áłŃáł´áł¢áł³
Ġáłª áłłáł¯
áł¡áł´ áł¢
Ġáł¬áł¡áł ²
áłµ áł¢áł¨
Ġáł¬áł¤áł³áłłáł¯áł³ áł¤áłŃáłłáł¨
áł¦áł´ áł¡
Ġáł°áł£áł ¶áł£áł¯
áłłáłµ áłłáł¶
áł¬ áłłáłµáł¤
Ġáł¬áł¢áł´ áł¢áł¶áł¡áł¯
Ġáł°áł¤áł³ áł¤áł¯áłŃáłłáł¨
áł° áł¥
Ġáł¬áłłáł®áł² áł¤áł·
áł¡áł¬ áł¡áł¨
Ġáłµáł¢áł¯ áł£áłŃ
áł¡áł³áł¬ áł¦
Ġáł°áłłáł¶áł¢áł ²
Ġáł¬áł£áł¯áłªáł£áłŃ áł³áłłáł¯
Ġáł¬ áł¤áł¸
Ġáł²áł£áł® áł£
Ġáł¬áł¡áł®áłµ áł¢áł¶áł¡áł¨
Ġáł®áł¥áł· áł²áł¡áłŃáł¡áł¨
ĠáłŃáł¦ áł¢áł´
Ġáłłáł¯áłª áłłáł¨
áł³ áł¡áł¬áł¦
Ġáł² áłłáł©
Ġáłµáł£áł¬ áł¢áł¶áłłáł¯
Ġáł°áł¢áł¯áłŃ áłłáł¯áł²áłł
Ġáłªáł¦áł· áł¢áł¯áł³
áł¡áłŃáł³ áł¡áł¯
Ġáł¡ áł¬áł¢
Ġáł°áł¤áł·áłŃ áłłáł¨
Ġáł°áł¡áł·áłŃáł¡áł¶áł¢áł¯ áł¡áł¬áł¦
áłłáł¯ áł¢
Ġáłłáł¯áł¬ áł¤áł®
Ġáł®áł¡áł³ áł¡áł¨
Ġáłµ áłłáł©
Ġáł¬ áł¢áł®
Ġáłµ áłłáł¶
Ġáł° áł¢áł©
Ġáł¬áł¡áł·áł¡áłŃáł¯ áł¡áłŃáł¡áł¨
Ġáł² áłł
Ġ 9
Ġáłł á
áł§ áł¦
Ġáłªáł¥áł¬áł¥ áł¶
Ġáłłá ł
áł´ áł¢áł²áł¡áł¨
Ġáł¬áł¡áł®áłµ áł¢áłŃ
áł¢áł¯ áł¢áłŃ
Ġáł²áł£áł¨ áł£áłŃ
áłłáł¯áł ´
áłµ áł§áł¨
Ġáł¶ áłłáł°áł¤
Ġáł¡áł° áł¡áł·áłŃ
áł£áł· áł£áł¨
Ġáł²áłłáł® áł¢áł·
Ġáł¦ áł°
Ġáł¥ áł©áłŃáł¡
Ġáł¨áł¢áłŃáł¡áł³ áł¦áłŃáł¡áł·
Ġáł¤áł· áł¤áł°
Ġáł° áłłáł¯áłłáłŃ
ª áłł
ĠáłŃáłłáł·áłŃ áłłáł¬áł¤
Ġáł´ áł¢áł·
Ġáł¬áłłáł·áł¢áłŃáł¤áł´ áłłáł¯áłŃ
Ġáł£áł¯ áł¤áłŃáł°áłłáł¨
Ġáł²áłłáł¯ áłłáłª
áł¦áłŃ áł¡áł¨
Ġáłł áł¯áł¢
Ġáł¦áł¶áł¯ áł¡áł°
Ġáł¬áł£áł· áł¢áł¶áłłáł¨
Ġáł°áł¤áł· áł¤áł¯áł´
Ġáł¢áł¯ áł¡áłŃ
áł¬ áł¡áłŃ
Ġáł³ áłłáł©
Ġáł° áł¡áł·
áłłáłŃáł¤áł¯ áł¤áł¯áł²áłł
áł¢áłº áłł
Ġáłªáł¢áł³ áł¡áł¨
Ġ P
Ġáłªáł¡áł¯ áł¡
Ġáł¥áł©áłŃáł¡áł· áł¡áłŃáł°áł¡áł¨
Ġáł¬áł¦áł· áł¢áł¶áł¡áł¯
Ġáłłáł® áł¢
Ġáł¬áł£áłŃáł£áł¯ áłłáł¶
Ġáłª áł¤áł·
Ġáłłáł¬ áł¢áłŃ
Ġáł¨ áł¢áł³
îĢ Ħ
Ġáł¡áłµáł¡áł©áł¨ áł¡áł¯áł²áł¡
Ġáł£áł ¶áł¢áł·
Ġáł°áł¢áł¯ áł¢áł³áł¡áłŃ
ĠáłŃáł¡áł° áł¡áł¨
Ġáłªáł£áł¯áłŃ áłłáł¬áł¤
Ġáł³áłłáł· áł¤áłŃ
áł¨ áłłáł·
Ġáł¡áłªáł¡áł³ áł´áł¢áł²áł¡áł¨
Ġáł° áł¡áł³
Ġáł° áł¡áłŃ
ĠáłŃ áł¤áł¶
áł´ áłłáłŃ
Ġáł´ áłłáł¢
áł¡áł° áł¦áł¨
áł² áł¡áł¬áł¡áł¨
ï¸ ½
Ġáł£áł¨áł´ áłłáł¯áł¢áłŃ
Ġáłªáł¦áł² áł¦áł®áłµáł¢
Ġáłªáł£áł¯áł µáł¤
áł¢áł² áł¦
Ġáł° áłłáł¯áł¬
Ġáłªáł¦áł²áł¦áłŃ áł¡áł¯
áł¨ áł¢áłŃ
Ġáł£áł· áł£áł°
Ġáł²áł¡áł· áł¢áłŃáł¦áł¨
Ġáłª áł¤áł´
Ġáłłáłµáł¢áł¯áł² áłłáł¨
áł¢áł¯ áłłáłŃ
Ġáłµáł£áłŃ áł°
ĠáłŃáłłáł· áł¬áł¤
Ġáł° áł¢áł¶áłłáł¨
Ġáłłáł· áłªáłłáł¨
Ġáł¥áł· áłŃáł¡áł¨
áł¡áł³áł¬ áł¡áł¬áł¦
Ġáłłáł· áłª
Ġáł®áł¥áł©áłŃáł¥ áł¨
Ġáł¡áł³ áł¡áłŃáł¡áł·
áł³ áłłáłŃ
Ġáł® áł£áł³
Ġáł¦áł·áłŃáł¦áł¯áłµ áł¢áł¯áł¡áł¨
Ġáł¡áł· áł¦áł¬áł¡
Ġáł´áł¢áł¬ áł¤áł¯
Ġáłªáł£áł³ áłłáł²áłłáł¶
ĠáłŃáł£áł¸ áł¯
Ġáłłáł· áłłáł¯áłµ
Ġáł¡ áł²áł¡áłŃ
áłłáł¯áł² áł¤
Ġáł£áł ¶
Ġáłªáł£áł ¬áł¢áł·
Ġáł¬áł¦áł· áłŃ
Ġáł³ áł¤áłŃ
Ġáł¬áłłáłª áł°áł¤áł·
Ġáł³ áł¡áł°
Ġáłªáł£áł³ áłłáł²áł¤
Ġáł²áł£áł° áł¬áł£áł¨
Ġáł¨ áł£áłŃ
áł° áł¢áł¶áł¡áł·
áł¡áłª áł°áł¢
áłłáł ¸
áł§áł· áł¢áłºáłł
Ġáł¬áł¤áł· áł³
Ġáłªáł¦áł² áł¦áł´áł¡
Ġáłµáł¥áłª áł°áł¢áł¶áł¡áł·
Ġáł¡áł·áł¬ áł¡áłªáł°áł¢
Ġáłµ áł¥áł·
Ġáł± áłłáł¨
Ġáł¬áłłáł¨ áł³
Ġáł¨ áłłáł°áł¤áł¨
Ġáł¶ áłłáł©
Ġáł³áł¦áł· áł°áł¦
Ġáłªáłłáł¶áł¢áł ªáłłáł¯
áł¸ áł·
áł¦áł¯áł¬ áł¦áł®
Ġáłªáł£áł¯áłµ áł£
áłª áł¤áł·
Ġáł¡áł´ áł¦áł°
Ġáł¤áł¯áłłáł® áłµáł¢áł¯
Ġáłª áł¦áł¯áł¬áł¦áł®
Ġáł® áł¡áł²áł¦
áł£áłŃ áłłáł·
Ġáłµáł¥áłŃ áł¡áł¯áł¡áł¨
áł¢áł¯ áł¡áłµáł¦
Ġáłªáłłáł¶áł¢áłŃ áł¤áł¯áłµáł¤
áł£áł·áł£áł¨ áł³
Ġáł¬áł£áłŃ áł£áł·áł£áł¨áł³
Ġáł²áłłáł¨ áł¢áł¯áł´
Ġáłłáł® áł§áł·áł¢áłºáłł
áł¢áłŃ áł°áłłáł¨
áłłáł¯áł³ áł¤áłŃ
Ġáł°áł¡áł³áł¬ áł¢áł¯áłŃáł¡
Ġáłªáł¦áł· áł¢áł¨
Ġáł£áł·áł£áłŃáł¤áł¯ áł¤áł¯áł²áłł
Ġáł¬áł¡áł·áł¡áłŃáł° áł¡áł¯
Ġáł¦áł¢áł¯áł¡áł³áłªáł¦áł· áł¢áł¯áł¡áł¯
Ġáł¬áł£áł¶ áłłáł³áł¤áłŃáłłáł·
áł· áł£áł¨
Ġáł²áł¡áł®áł³áł¡áłŃ áł²áł¦
Ġáł¢ áł¯áł
µ áłł
Ġáł² áł¡áł©
Ġáł²áł¡áł³ áł¡áł¨
áł¡áł¯áł ³
Ġáł¸ áłłáł©
Ġáł Ł
Ġáłµáł¢áł¯áł£áłŃ áł£áł³
Ġáł¬áł¦áł´ áł¢áł·
áł¸ áł©
áł¢áł² áłłáł¨
Ġáł£áł·áł£áłŃ áł¤áł¯áł¬áł¤
Ġáł¦áł¨áł³áł¦áł° áł¦áł¨
Ġáłłáłµáł¢áł¯áł¯ áłłáł¬áł¤
Ġáł¬áł¢áłµáłłáłŃáłłáł· áł²áł¤
Ġáł¬áł¡áł¯ áł¡áł¬áł¦
áł¢áł¬ áł¢
áł£áł ¶
Ġáłµáł¢áł· áł¤áł®
Ġáłµáł£áł´ áł¢áł¨
Ġáł£áł·áł£áł µáł¤
Ġáłªáłłáł¶áł¢áł´ áłłáłŃáłłáł¨
ĠáłŃáł£áł£áł ¯áł³
Ġáłłáł° áłłáł·
áł¡áłŃ áł¡áłµ
e r
áł¦áł ¶áł¢áł
Ġáł¤ áł®
áł² áł¡áł¨
ĠáłŃ áł¤áł¸áłłáł©
áł¤áł¯ áł¤áłŃáł°áłłáł¨
Ġáł²áł£áł ¬
áłłáł¯ áłłáłµáł¤
Ġáł¨áł¡áł¶áł¢áł ¯
Ġáł¬áł¤áł³áłłáł¯áł³ áł¤áłŃáłłáł´
Ġáłªáłłáł¶áł¢áłŃ áł¤áł¯áł¬áł¤
áł¯ áł¡áł¨
ĠáłŃáł¤áł· áłª
Ġï¼ ī
áł´ áł¢áł®
ĠáłŃ áłłáł¯
Ġáł²áł¤áł¬ áłłáł¶áł¢áł¯
Ġáł¢ áł¯áłŃ
Ġáł¤áł· áł¤áłŃ
Ġáł³áłłáłªáł¬ áł¤áł·áłŃ
Ġáł° áł¢áłª
áł· áł¢
ĠáłµáłłáłŃ áłªáł¤áł·
ĠáłŃáłłáł· áł´áł¤
áł°áł¢áłŃ áł¤áł·
Ġáł³ áł¡áł¶áł¢áł
Ġáł°áł¡áł³ áł¦áłª
áł¦áłµ áł¦
Ġáł¨áł¢áłŃ áł¤áł·
Ġáł²áł¦áł· áł¦áłŃ
Ġáłªáłłáł¶áł¢áł ¯áł³
áłłáłŃ áłłáł®
Ġáł´ áł¢áł¯
áł£áł º
Ġ1 2
Ġáł¤áłŃ áł°áłłáł·
Ġáł²áł£áłŃáł² áłłáłŃáłłáł¯
áłº áł²
Ġáł¬ áł¡áł®
Ġáłª áł¡áł·
Ġáłłáł®áłłáł· áł¬áłłáł¨
áł¢áł° áł¬
Ġáł´áł¢áł³ áłłáł¨
Ġáł¨áłłáł¶áł¢áł ³
Ġáł° áł¦áł·
Ġáł°áł£áł· áł£áłŃ
¯áłª áł¤áł·
Ġáł£áł ¯áłŃ
Ġáłªáłłáł¯ áłł
Ġáł¨áłłáł¶áł¢áł µáłł
Ġáł³áłłáłª áł²
Ġáłªáł£áł¯áł ¬áł£áł·
ĠáłŃ áłłáłŃ
Ġáł²áł¤áł·áł° áł¢áł¯áł²áłł
Ġáł° áł¢áł¬
áł¦áł® áłµ
Ġáł² áłłáł°áł¤áł·
Ġáł´áł¡áł´ áł¡áłŃ
Ġáł¡áł· áł³
Ġáłµáł¢áłŃ áł°
áł¢áł¯ áłłáłµáł¤
Ġáł¦áł¨áł³áł¦áł°áł¦áł¯ áł¡áł¨
áł¤áłŃ áłłáł³
Ġáł¤áł¶ áł¤áł¨
Ġ M
áł¢áł¯ áłłáł¯
Ġáłµáł¢áł© áł¬áł¢áł¨
Ġáł¬áł¦áł·áł¢áł¶áł¡áł¯ áł¡áł©
Ġáł¨ áł¤áł²
i n
Ġáł¬áł¥ áł¨
Ġáł° áł¢áł¯áł²
áłłáł² áł¤áł¨
áł¥ áł¯áł³
ĠáłŃ áł¡áł¬áł¦
Ġáł¦áł·áłŃáł¦áł¯áłµ áł¢
ł į
á łį
Ġáłłáł® áłµ
Ġáł³áłłáł®áłµáł¢áłŃ áł¤áł¯áł¤áł¨
Ġáłµáł¢áł©áł¬áł¢áł¨ áł¢
¯áł ¬áł¦
Ġáłªáłłáł· áł¤áłŃ
áł² áłłáł·
Ġáł¬áłłáł©áłŃ áłłáł¬áł¤
Ġáł¤ áł¯áł
Ġáł¬áł¡áłª áł¯áł¡áł¯
Ġáłª áł¦áł°
áł¦áł© áł°áł¢áłŃáł¤áł·
Ġáł° áł¢áł³
áł¡áł¯áł ´
Ġáł¨ áł¡áłŃáł¦áł·
Ġáł°áł£áł¨ áł¢áł¨
Ġáł¥áłŃ áł¬áł¦
Ġáł² áł¡áł°
Ġáł¡áł® áł´áł¢áł¯
áłłáł¯ áłłáł¨
Ġáł¬áł¥ áł·áł¥
Ġáłªáłłáł¶áł¢áł´ áłłáłŃáłłáł¯áł²áłł
Ġáł³ áł¤áł²
áłŃ áł¤
Ġáłµáł¢áł· áłŃ
Ġáł®áł¡áł³ áł¡áł¬áł¦
Ġáł®áł¥ áł´áł¢áł·
áł¦ áł¢
áł¯ áłłáłµáł¤
Ġáł³áł¡áł¶áł¢áł ¯áł¬áł¦
Ġáł¥áłŃáł¡áł· áł¡áł´áł¢áł¯
Ġáł¦áł¢áł¯áł¡áł³ áł¦áł¯
Ġáł¬áł¤áł³áłłáł¯áł³áł¤áłŃáłłáł´ áł¢áł¨
Ġáł¡áłŃáł¦áł³ áł¬áł¦
Ġáł¥áł· áł²áł¡áłŃ
áł¡áłŃáł¡áłµ áł¢áł©
Ġáł¬ áł¢
Ġáłªáł¦áł¯áł¦áłŃ áł¯áł¡áł¯
áłłáłŃáł¤áł¯ áł¤áłŃáł´áł¢
áł¥áł· áłŃáł¡
Ġáłªáłłáł¶áł¢áł´ áłłáłŃáłłáł¬áł¤
Ġáł³áł¤áł· áłłáł³
Ġáł¤ áł²áłłáł°áł¤
Ġáł°áł¢áł¯áł² áłłáłŃáłłáł¨
áł² áł¡áłŃáł¡
Ġáł¬ áł¡áł¢
Ġáł° áł¦
áł³ áłłáł¬áł¢
Ġáłµáł£áł¬ áł¢áł¬áł¤
Ġáł¬áł¤áłªáł¢áł· áłłáł¯áł²áłł
Ġáł¢áł³ áł¡áłª
Ġáł¡áł¯áł§ áłºáł²
áłłáłŃáł¤áł¯ áł¢áłŃ
áłłáł³ áłł
Ġáł¬áł¤áł·áł³ áł¤áł´áłł
Ġáłªáłłáł¶áł¢áłŃáł¤áł¯ áł¤áł®áłµáł¢
Ġáł¬áł¡áł· áł¬áł¢áł¨
áł¢áł´ áł¡
Ġáł³ áł¡áłª
áł¡áł· áł¢áłŃ
Ġáłªáłłáł ¢
Ġáł°áł¤áł³ áł¤áł¯áł¤áł¨
áł£áł ¬áł¤
áłµáł§áł¨ áł§áł·
áł² áł¤áł¯
áł¸ áł¢
ĠáłŃáłłáł·áłŃ áłłáłµáł¤
Ġáłª áł¤áł¯áłµáł¤
Ġáł¯ áłł
Ġï¸ Ķ
Ġ îĢĦ
áł¡áł ¦
Ġáł¢áł¨ áłµáł§áł¨áł§áł·
áłµ áł¢áł²áłłáł¶
Ġáłªáł£áł³áł£áł ¯áłŃ
Ġáł¬áł¥áłŃ áłµáł¢áłŃ
áł´ áł¡áł¯
Ġ 0
Ġáł¬áł£áł· áł¢áł¶
Ġ I
Ġáłµáł£áł¬ áł¢áł¶
Ġáłª áł¡áłŃáł¡áłµáł¢áł©
áłłáł· áł²
Ġáł¬áł£áł ¯
Ġáł¤áł¯áł ¬áł¤
Ġáł¬áłłáł·áł¢áł´ áłłáłŃ
áł¢áł¨ áł£
¯áł² áłłáł¯
Ġáł¥áłŃ áłŃ
Ġáł°áł¢áł¯áłµ áł¢áłŃ
áłłáł© áł¬áł¢
Ġáł¬áłłáłª áł²áłłáł°áł¤
Ġáł¨áłłáł· áłłáł²áł¤
Ġáł° áł¢áł©áłŃ
ĠáłłáłŃ áł¤áł°
Ġáł¬áłłáł®áłłáłŃáłłáł¯ áłłáł¯áł²áłł
Ġáłłáł®áłµ áł¢áł¯áł²áłł
Ġáł¬áłłáł©áłŃ áłłáłµáł¤
Ġáł¬áłłáłŃ áłłáł°
Ġáł° áł²
Ġáł ½
Ġáł¨áł¥áł¯áł¥ áłŃáł¡áł¯
Ġáł¬ áłłáłŃáł¤áł·
Ġáł¤ áł©
Ġáł³áł¥áł· áłª
ª áł¡áł·
Ġáł£áł·áł£áł ¬áł¤
Ġáł£áł¯ áłłáł©áł¬áł¢
Ġáł¬áł¦áł· áł¢áł¶áł¡áł¨
ĠáłŃáłłáł·áłŃ áłłáłŃáł°áłłáł¨
Ġáłº áł¢áł¨áł£
Ġáł¤áł¯ áłłáłŃáłłáł¨
áł¥áłŃ áł¥áł®
Ġáł± áłłáł²áł¤áł¨
Ġáł¢áł· áł¡áłŃáł¡áł³
áł´áł¢áł¯ áłłáł¨
Ġáł¡áł® áł¡áłŃáł²áł¡áł¶
Ġáł²áłłáłª áł¤áł¨
Ġáł¨ áłłáł°
Ġáł¥áł· áł¢áł°
Ġáł¦áł¶áł¯ áł¡áł³áł¬áł¦áł¨
áł¦áł¶áł¢áł ªáł¡áł·
áł¤áł° áł¢
áł¬ áłłáł¶áł¢áł¯
Ġáł´áł¢áł· áł®
Ġáłª áł¢áł²
áł¡áł® áł¡áł¯
áł¤áł· áł¢áł³
Ġáł¡ áł¬áł¡
ĠáłŃáłłáł· áł¤áł¶
ĠáłŃ áł¡áłªáł¡áł¯
Ġ1 1
Ġáł¬ áłłáł°
Ġáł´áłłáł¢ áł·
Ġáł²áł¤áł¬áłłáł¶áł¢áł¯ áłłáłŃáł°áłłáł¨
Ġáłªáł£áł¯áłµ áłłáł¶
Ġáł³ áł¥áłŃáł¥áł®
Ġáł³áłłáł· áł¤áł¯áł²áłł
Ġáł¡áł°áł¡áł·áłŃ áł¦áł´
Ġáł¬áł¡áł³ áł¦áł¶áł¢áłªáł¡áł·
áł¯áł¢áłŃ áł¡áł·
Ġáł´áłłáł¢áł· áłłáł¯áł²áłł
Ġáł°áł¢áł© áłŃáł¡áł¨
áł³ áł¡áł¬áł¢
áł¡áł ¯áłª
Ġáł¤áł· áłłáł¯áł¢áłŃ
Ġáł¥ áł®
Ġ B
Ġáł´áł£áłŃ áł´áłł
Ġáł®áł¡áł³ áł¡áł¯áłŃáł¡
Ġáł¬áł£áł ¶áł¢áł
Ġáł¶ áłłáłŃáł¤
Ġáł²áł£áłŃáł² áłłáłŃáłłáł¬áł¤
Ġáł¬áł¤áłª áł´
Ġáł°áł£áł·áł£áłŃ áł´áł¢
Ġáł¨áł¡áłŃ áł¡áłŃáł¡áł¨
Ġáłµáłłáł¬ áł¢áł·
Ġáł²áł£áłŃáł¯ áłłáłŃáłłáł®
áłŃ áłłáł¨
áł´ áł¢áłŃ
ĠáłªáłłáłŃ áłłáł°
Ġáłªáł£áł ¯áł²áłłáł¯
áłłáł¬ áłłáł¶
Ġáł¬ áłłáł¸
Ġáł¦áłµ áł¡áłµáł¦
Ġáł« áł·
áł§ áł¶
Ġáł¬áł¦áł´ áł¦
Ġáł¨áł¡áł¶áł¢áłŃáł¡áł® áł¯áł¢áłŃ
áł¦áł¬ áł¡áł¨
áłłáł¯áł³ áł¤áł¨
Ġáł£áł ª
Ġáłªáłłáł¶áł¢áł °
Ġáł³áł¡áł¯áłŃ áł¡áł·
Ġáł¬áł¤áł¸ áłł
áł· áłłáł®
Ġáł¨áł¥áł¬áł¥ áł´áł¡áł¯
Ġáłªáłłáł¶áł¢áł° áł¢áł©
Ġáł¨ áł¢áł°
Ġáł¡áł²áł¡áłŃ áł¡áł³
Ġáł¢áł· áł¡áłŃáł°áł¡áł¨
Ġáł¦áłµ áł¡áł®áłµáł¢
Ġáłµáłłáł³ áłłáł¯
Ġáł´áłłáłŃ áłłáłµ
áł¦áł³ áł¡áł·
Ġáł¦áłµ áł¡áłŃáł¦áł¯áł¬áł¦
áł¬ áł¡áł·
áł¢áłŃ áł¡áł¢
Ġáłµ áł¢áł®
Ġáł¤áł³ áł¤áł·áł¢áł³
áł´ áł¡áłŃ
Ġáł¢áł¯áł ´áł¢
Ġáł¤ áł¢áłŃáł¡áł¢
Ġáłªáłłáł ©
Ġáłµáł¢áłŃ áłłáł¨
áł¡áł³áł¬ áł¡áł¯
áłłáłµ áł¢
Ġáł³áł¤áłŃ áł¤áł¶áł¢áł¯
Ġáł¦áł° áł¦áłŃ
Ġáłµáł¢áł¶ áłłáł©
Ġáł¬áł¡áł ¯áł¬
áł¢áł¶ áłłáł©
Ġáł³áłłáłª áłłáłŃáł¤áł¯áł¢áłŃ
Ġáł¥áł·áł¢áł° áł¥áł¯áł³
Ġáł²áłłáł· áł¬
Ġáł²áł¥áł° áł¦áł¯
ł ±
á ł±
Ġáł¬áł¢áł® áł¢
áł¤áłŃ áł¤
Ġáł¦áł¶áł¯áł¡áł³áłªáł¦áł· áł¢
Ġáł°áł¢áł· áł£áł¶
Ġáłµáł£áł¬ áł¢áł´
Ġ T
Ġáłµáłłáł° áłłáł¯
Ġáł® áł¡áł¨
áł³ áł¦áł·
Ġáł¬áł¦áł° áł¡áł¯
áłłáł³ áł¬áłłáł¯
Ġáł¬áł¡áł·áł¡áłŃáł¯ áł¡áłŃáł´áł¢
Ġáł° áł¢áł¯áłŃáłłáł¨
Ġáłłáł© áł¬áłłáł¨
ĠáłŃáłłáł· áłłáłŃ
Ġáł³áł£áł£áł· áłłáł¬áł¢
Ġ G
Ġáł¬áł¡áł² áł¦áł·
ĠáłŃáłłáł³áłłáł· áłŃáł¤
Ġáł±áłłáł© áł¨
o n
Ġáł²áł£áł³áł£áł· áł¬áłłáł¶
áł£áł ©
Ġáł¶áłłáłŃ áłłáł¬
Ġáł¬áłłáł· áłłáłŃ
Ġáł² áł§
Ġáł´ áł¢áł°
Ġ1 9
áł¢ áł¢
áł² áłłáł°áł¤áł¨
Ġáł¬áł¡áłª áł´áł¢áł¶
Ġáł¬áł¡áł¯ áł¡áł¨
Ġáł¦áł¢áł¯áł¡áł´áł¢áł¯ áł¡áłŃáł¡
Ġáł²áł¦áł· áł¢áł®
´ áł¢áł¨
áłłáłŃáł³ áłłáł¬áł¤
Ġáł´ áł¢áł©
Ġáł¶áłłáł· áł¢áł¯áł´
Ġáł¢ áł°
Ġáł¡áłŃáł¦áł· áłŃáł¡
Ġáł²áł£áłŃ áłłáł¨
Ġáł² áł¡áłµáł¢áłŃ
Ġáł¡áł° áł¡áł¬áł¦
Ġáł¬áł¢áłµ áł¢áłŃ
Ġáł³ áł¡áł³
Ġáł¨áłłáł· áł¢áł¯áł¢áłŃ
Ġáł° áł¤áłª
Ġáł°áł£áł¨ áł£áł°
Ġáł¬áł¥ áł©áłŃ
Ġáłªáł¢áł² áł¡áłŃ
Ġáł¦áł¶áł¯áł¡áł´áł¢áł¯ áł¡áłŃáł¡áł¨
Ġáł¬áłłáł¸ áł¯áł¢
Ġáłªáł¦áł² áł¦áł®áłµ
Ġáł£áł¨áł´ áłłáłŃáłłáł¶
µ áł¢áł·
áłłáł¬ áł¤áł¨
Ġáł¢áł³áł¡áłª áł¬
áł¢áł¯ áł¡áłŃáł°áł¡áł¨
ĠáłłáłŃ áł¤áł¯
Ġáł° áłłáł¬
Ġáł¡áłµáł¡áł® áł³áł¡áł¬áł¦
Ġáłł áł¦
Ġáł°áłłáł¶áł¢áł² áł¤áł·
Ġáł¨ áłłáł¨
Ġáł´ áł¡áł·áł¢áłŃ
Ġáłµ áł¦áł´
Ġáł³áłłáł© áł°
Ġáł¢áł¯áł¡áł· áł¬áł¡áł¶áł¢áł¯
Ġáłªáł£áł¯áłªáłłáł°áł¤áł· áłłáł¯
Ġáłªáłłáł²áł¤áł¯ áłłáł¬áł¤
áł¡áł¯ áł¡áł¬áł¦
Ġáł´ áł§áł©
áł¯ áł¡áł·
Ġáłªáłłáł· áłłáł¬áł¤
áł¯ áłłáł¯
Ġáł² áł¡áł¶áł¢áł
Ġáł §
Ġáł³áł¤áłŃáł¤áł¶áł¢áł¯ áłłáł©
Ġáłµ áłłáł¶áł¢áł¯
Ġáł¢ áł©áłŃ
Ġáł¬áł¦áł¯ áł¢áł¶
Ġáłłáł¶ áł¤áł¯
áł¢áł¯ áłłáł¨
Ġáłµáł¦áł´ áł¦áłŃáł¡
Ġáł¨ áłłáł°áł¤
Ġáł£áł· áł£áł¯
Ġáł¤áł·áł¤áł° áł¬áłłáł¯
Ġáłªáłłáł· áłłáłŃáłłáł¨
Ġáłªáłłáł· áłłáłŃáł¤áł¨
Ġáł¥áł· áłŃ
Ġáł¢áł¨áłµáł§áł¨áł§áł· áł¢áł©
Ġáł° áł¥
Ġáł¡áłŃáł¦áł° áłŃ
áł¤áł´ áł¢áł¨
Ġáł³ áł£áł·
Ġáł¬áł¥áł³áł¡áł¯áłŃ áł¡áłŃáł¡áł¨
Ġáł£áł³ áł£
Ġáł° áł¢áł²
Ġáłłáłª áł´áł¢áł·
Ġáł®áł£áł³ áł£áł¨
Ġáłłáł· áł¢áł¯áłŃ
Ġáł°áł£áł¯ áł¢áł¯áł´
Ġáł²áłłáł· áłłáłŃ
Ġáł¬áł¡áł¯ áł¡áłµáł¦
Ġáł¦áł¶áł¯áł¡áł´áł¢áł¯ áł¡áłŃáł¡
Ġáł²áł£áł ¯
Ġ L
Ġáł¶áł£áł° áł£áłŃáłłáł·
áł¯ áł¡áłµáł¦
Ġáł²áł¥áł¯áł¥ áłŃáł¡áł¯
ĠáłŃáł¤áł·áłª áłłáł³áł¤áłŃáłłáł·
Ġáłªáł£áł¬áł¢áł· áł²áł¤áł¯
Ġáł¬áłłáł³áłłáłŃ áłłáł¯áłłáł¬áł¤
áł³ áłłáł¨
Ġáł³áłłáłŃ áł¤áł°
áł¤áłŃ áł¤áł¯áł¬áł¤
ĠáłŃáłłáłŃ áł´áłł
áł³ áłłáł¬áł¤
Ġáł¦áłµ áł¡áłªáł¡áł¯
Ġáł®áł¡áł³ áł¡áł·
Ġáł¬áłłáł® áł¢áł¶
áł¤áł ©
Ġ D
Ġáłµáł¡áłŃ áł¦áł¨
áł£áł «
Ġáł¬áł¢áłŃ áł°áł¡áł¨
Ġáłªáłłáł ³
ĠáłªáłłáłŃ áłłáłµáł¢
áł¯ áłłáł¯áł²áłł
Ġáł²áłłáł· áł¢áł¶áłłáł¯
Ġáł¦áłµ áł¦áłŃáł¦áł·
áł¢áł ¸
a n
áł¦áł¯áł³ áł¡áł·
Ġáł² áł¢áł¶áłłáł¨
Ġáł¬ áłłáł©
Ġáł¬ áł¢áł²
áłłáł «
áł§ áł²
´ áł¡áł¬áł¦
áł¬ áł¢áł®
áłª áł¡áł¯
Ġáł¡áł®áł´áł¢áł¯ áł¡áłŃáł¡áł¨
Ġáł¶ áł¤áł¸áłłáł¨
ĠáłŃáł¤áł¶ áł¤áł´áł¢áł¯
Ġáł¢áł·áł¡áłŃáł¡áł³ áł¦áł¶
áłłáł´ áł¢
Ġáł£áł¶ áł¤áł¨
áł¢áł¶ áłłáłµáł¤
Ġá¡ ½
Ġáł¬áł¡áł®áłµáł¢áłŃ áł¦áł·
Ġáł¨áł£áł® áł§áł·
Ġáł¦áł¨ áł¡áł®
Ġáłµáłłáł· áł¤áł³áłłáł¯
Ġáł° áł§
Ġáł£áł ²
Ġáłªáł¦áł ³
Ġáł±áłłáł©áł¨ áłłáł¯
Ġáł²áłłáł°áł¤áł· áłłáł¯áł²áłł
Ġáłµ áł§
Ġáł²áł£áłª áł´áł¢áł¶
Ġáł²áłłáł¯áłłáłª áłłáł¶
áł¤áł¨ áł¤áłŃ
Ġáł¤ áł³áł¤
Ġáł£áł ´
ĠáłŃáł¦áł¨ áłµ
Ġáł¦áł¨áł¡áł® áł¯áł¡áł¯
Ġáł¡áł¯áł °
Ġáł¶áł¡áł·áł¦áł© áł¬áł¡áł¶áł¢áł¯
Ġáł³áłłáłŃ áłłáł¯áł³áł¤áł¨
Ġáł£áł·áł£áłŃáł¤áł¯ áł¤áłŃáł°áłłáł¨
Ġáł´áł¢áł³ áłłáł®áłµáł¢
Ġáł° áł¢áł®
Ġáł¶áł£áł° áł£
Ġ1 5
Ġáł¥áł· áł²áł¡áłŃáł¡
áł·áł¥áłŃ áł´áł¢
áłłáł® áłłáłŃáłłáł¶
áł¡áł¬ áł¡áł·
ĠâĢ Ķ
áł¬ áł¦áł¯
Ġáłµ áłłáł¯
áł® áłłáłŃ
Ġáł¬áłłáł·áł¢áł¯áł´ áłłáł¨
Ġáł ¶áł¢áł
Ġáłªáłłáł¶áł¢áłŃ áłłáł¯áł¢
Ġáł¬áł¥ áłª
Ġáłªáł¤áł³ áł¤áł¯áłŃ
Ġáł¤áł·áł¢áł³ áł´áł¢áł¯áłłáł¨
Ġ3 0
Ġáłµáł¢áłŃ áł¤áł¯áł´
áł® áłłáł¨
Ġáł¬áł¥áł³ áł¡áłŃáł¡
áł¬ áłłáł¢
Ġáł¬áł¥áł·áł¥ áł©áłŃáł¡
Ġáłªáłłáł© áł¬áł¢
áł£áł ¯áł
Ġáł¡áł¬áł¢áł¯ áł¡áł¨
Ġáł¦áł¨ áł¦áł·
Ġáłłáł® áł¢áł°áł¬
Ġáł¨áł¡áłŃáł¡áłŃ áł¡áł¬áł¦
Ġáł²áł¡áłŃ áł¦áł°
Ġáł²áł¥áłª áł¯áł¡áł·
Ġáł²áł¡áłŃ áł¡áłŃ
áł² áł¡áł¯
Ġáł¦áł¨ áł¡áł¬áł¡áł·
áłłáł¬ áłłáł¨
Ġáł²áłłáł° áł¤áłŃ
00 0
Ġáłªáł¦áł¯ áł¢
áł¢áł³ áł¬áł¡áł¯
Ġáłªáł¦áł¬ áł¦áł¨
Ġáł£áł·áł£áł ¯áłŃ
ĠáłŃáł£áł£áł¯áł³ áłłáłŃáł¤
Ġáł¨áłłáł¶áł¢áł³ áłłáłªáł¤áł·
Ġáł²áłłáł·áł¢áł¶áłłáł¯ áłłáł©
Ġáł´áł¢áł©áłŃ áłłáł³
Ġáł¬áłłáł· áłłáł¯áł²áłł
áł© áł·áł¢
Ġáłłáł¯ áł¤áł°
Ġáł ¼
áł¡áłŃáł¦áł¯ áł¦áł¯áł²áł¡
Ġáł²áłłáł ¸
Ġáł¬áł¤áłª áł¢áł¶áłłáł·
Ġáłłáł©áł¬áłłáł· áł¤áł¯
Ġáł¤ áł¤áł¯
áł¦áł¸ áł§
áłª áł¥áł·
Ġáł°áł£áł©áłŃáł£áł ¬áł¤
áł³ áł¡áłµáł¦
áł¡áł ¯áł²
Ġáł²áł¡áł¶áł¢áł ®áł¦
áł£áł« áłł
áł¯áł ¸
Ġáł¥áł¨ áł¥
Ġáł¥ áł°
Ġáł² áł¦áł°
Ġáł¦áłµ áł¡áłŃáł¦áł¯
Ġáł¨ áł£áł·
Ġáł¨ áłłáłŃ
Ġáł¤ áł¸
áł· áł£áł«áłł
áł¦áł¯ áł¡áł¨
Ġáł£áł² áł£
Ġáłªáł£áł³áł£áł ¯áł¬
Ġáł¦ áł¸
Ġáł´áł¢áł® áł¡áłŃ
áł¤áł® áł¤
Ġ202 2
Ġáł²áł¦áłŃ áł°áł¢áłŃ
Ġáł²áł£áłŃáł² áłłáłŃáłłáłŃáł°áłłáł¨
Ġáłªáł¦áł²áł¦áł®áłµ áł¢áł²áł¡áł¶
Ġáł°áłłáł¨ áłłáłŃáłłáł¨
Ġáł§ áł¦
Ġáł¬áł¤áłªáł´ áłłáł°áł¤
Ġáł²áłłáł¸ áłłáł·
Ġáł¬ áł¤áł¨
Ġ E
2 0
Ġáł¬áł¡áł·áł¡áłŃáł¯ áł¡áł¨
Ġáłªáł£áł¯áłªáłłáł°áł¤áł· áłłáłŃáł¤áł¯áł¬áł¤
áł¡áł´ áł¢áł¯áł¡áł¬áł¦
áłłáł¶áł¢áł¯ áł¢
Ġáł² áł¤
Ġáł¬áł¢áłŃ áł¡áł³
áł¦áł³ áł¡áł¯
Ġáł³ áł£áłŃ
áł¤áł® áłłáł¯
áł¡áł² áł¡áł¶
Ġáł²áł¡áłŃ áł¦áł¯áł³áł¡áł·
Ġáłªáłłáł· áłłáłŃ
Ġáł¬áłłáł² áłłáłŃáł¤
Ġ (
Ġáł¡áł· áł¬áł¢áł¯
Ġáłµ áłłáłŃáł¤áł¨
Ġáł² áł©áł·áł¢
Ġáł°áł£áł¨ áł¢áł·
Ġáł¨áł¤áł² áł¤áłŃ
Ġáł¢áł¯ áł¡
Ġáł³áł¤áł· áłłáł²áłłáł¶
Ġáł´áłłáłŃáłłáłµ áłł
Ġáł¡áł®áł¦áł¨ áł¡áł¬áł¢
Ġáłªáł¤áł¯ áł¤áł³
áł¦áłŃ áł¦áł¯
áł° áłłáł³
Ġáł® áłłáłŃ
áł¡áł³áł¬ áł¡áłµáł¦
Ġáł£áł·áł£áłŃ áł¤áł¯áłµáł¤
Ġáłªáł¤áł³ áł¤áł¬áł¤
Ġáł¬áł¡áł·áł¡áłŃ áłµáł¢áłŃ
Ġáł¬áł¥áł¨ áł³
Ġáł®áł§ áł²
áł£áł ²
ĠáłŃ áłłáł¶áł¢áł¯áł¢
Ġáł¡áł·áł³ áł¡áł®
® áł¦áł·
áł¢áłª áłł
áł¦áłŃ áł´áł¢
Ġáłªáł£áł·áł£áł¯ áłłáłŃáł¤áł¯áłŃ
áł¦áł· áł¬áł¡áłŃ
Ġáł° áł¡áł¯áłª
áł¦áł¯ áł¢
Ġ20 0
Ġáł¬áłłáł¶áł¢áł· áł´áłłáłŃ
áłłáł· áłłáłŃáł¤áł¯áł¬áł¤
Ġáł¸ áł§áł¶
ĠáłŃáłłáł³áłłáł¨ áłłáł¬áł¢
Ġáłłáł· áł¤
Ġáł¤áł¯áłłáł®áłµáł¢áł¯ áłłáł¯áł²áł¤
Ġáłµáłłáł©áłŃ áł¢áł¯áłłáłŃ
Ġáł´áł¢áł³ áłłáłªáł¤áł·
áłłáł® áłµáł¢áł²áłłáł¶
Ġáł²áł£áł¯ áł£áłŃ
Ġáłłáł¶ áłłáł¨
Ġáłµ áłłáłª
Ġáł¬áł¥áł® áł¥áł·áłŃáł¡
áł¢áł¯ áłłáłŃáł°áłłáł¨
Ġáł² áł¤áł¯áłŃ
Ġáłªáłłáł·áł¢áł® áł²
Ġáł¦áł¢áł¯ áł¡áł³áł¬áł¦
Ġáł¢áł¯áł¡áłŃ áł¦áł¦
Ġáł®áł¡áł¨ áł³áł¦
Ġáł°áł¢áł¶ áł¤áł¤
Ġáłłáłµáł¢áł¯áł ´áł¢áł¨
Ġáł¬áł¥áłŃáłµ áł¢áł®
Ġáł³áłłáłŃáłłáłŃ áłłáł´áł¢áł¯
Ġáł²áł£áłŃ áł£áł°
Ġáł² áł¢áł©
áł® áł§áł¨
Ġáł°áł¤áł· áł¤áł¯áłŃ
Ġáł²áł¡áł³ áł¡
áł¢áłŃ áł¦áł¯áł¬áł¦
ĠáłŃ áł¡áł¨
Ġáłªáł¥áł®áłª áł¥áłŃáł¡áł¨
ĠáłŃáł¦áł¶ áł´
Ġáłłáł· áł¢áłŃ
Ġáłªáł£áł¯áłŃ áłłáłŃáł°áłłáł¨
Ġáł¡áł¯áł§ áł®áł§áł¨
Ġáł¬áł¥áł³áł¡áł¯áłŃ áł¡áłŃáł¦áł·
Ġáłłáł·áłłáł¯áłµ áł¢áł¶áłłáł¨
áł¢áł² áł¤
Ġáł£áł ©áłŃ
Ġáłµ áł£áłª
Ġáł³áł¡áłŃáł¡áłŃ áł°áł¢
Ġáł¦ áł¯áł¢áłŃáł¡áł·
Ġáł¨áł¥áł¯áł¥ áłŃáł¡
Ġáłªáł¦áł° áł¡
Ġáł¨ áłłáłŃáłłáł³
ĠáłŃáłłáł· áł¤áłŃáł°áłłáł¨
áł¢áł ¯áłª
Ġáł´áł¡áł´ áł¡áł·
áłłáł° áł¬
Ġáł²áł¦áłŃáł°áł¢áłŃ áł¦áł·áł¢
Ġáł³áł¡áł®áłµ áł¢áł¨
Ġ R
Ġáł¬áłłáł®áł¢áł¶áłłáł· áł¬áł¤
áł¡áł¬ áł¦áł¯
Ġáł¯ áł¢áł¦
Ġáł¤áł© áł°
Ġáł´áł¢áł¯ áłłáłŃáł¤áł¨
Ġáł²áł¡áł®áł¦áł· áł¯áł¢áłŃ
Ġáł³áłłáł®áłµáł¢áłŃ áł¤áł¯áł¬áł¤
Ġáł¨áł¥áł¬áł¥ áłªáł¥áł·
áłłáłŃáł³ áłłáłµáł¤
Ġáł°áłłáł¯áł¬ áł¢áł¨
Ġáł¤ áł£
áłłáłŃáł³ áłłáł¨
Ġáł ĭ
Ġáł¥áł· áł¨áł¢áłŃ
Ġáł¾ áł§
Ġáł¬áł¦áł´ áł¦áł·áł¬áł¡áłŃ
ï¸ ¶
Ġáłµáł¢áł· áł¤áłµáł¤
Ġáł² áł¡áł¦
Ġáł°áł¡áłŃ áł¦áł³áł¡áł·
Ġáłłáł¶ áłłáł¯áłłáł¯
Ġáł¦áł¶áł¯ áł¡áł³
Ġáłłáł®áł¢áł³ áł¤
Ġáł¤áł³ áł¬
ĠáłŃáł£áł¸ áł¯áł³
Ġáł¬áł¥ áł¯
Ġáł² áłłáłŃ
Ġáł® áłłáł·
Ġáł¬áłłáł·áł¢áł¯áł´ áłłáłŃáłłáł¨
Ġáł¢áł¯áł¡áł· áł¡áł¯
Ġáł£áł¶áł¢áł¯ áłłáłŃ
Ġáł²áł¡áłŃ áł°áł¢
Ġáł²áł£áł³áł£áł· áł¬áłłáł¶áł¢áł¯
Ġáł´ áł¥áłŃáł¡áł¨
Ġáł² áłłáł¢
ĠáłªáłłáłŃ áł¤áł³áłłáł¯
Ġáł¨áł¢áłŃ áł¡áłªáł¦áł·áł¢
ĠáłŃáł¦áł¢áł´ áł¡áł³
a r
Ġáł¥áł¨áł¥ áł³áł¦áł·
Ġáł¨áł£áł· áł®
Ġáłªáł¦áł¬ áł¦áł¯áł¢
áł£áł¬ áł¢
Ġáł´áł¢áłŃ áł¯áł¡áł¯
Ġáł£áł·áł³ áł£
Ġáł¤áł· áłłáł¨
Ġáł® áłłáłŃáł¤
Ġáłªáł¥áł®áłª áł¥áł·
áł¢áłª áł¡áł¯
Ġáł²áł¡áł³ áł¦áł¶
Ġáł°áłłáł¶áł¢áł µáł¢áł·
Ġáł¬áł£áłŃáł£áł·áł£áł¨áł³ áł£áł¬áł¢
Ġáłªáł¦áł· áł¬
Ġáł¬áł¢áł² áłłáł³
Ġáłµáł¢áł± áł¢áł¶
Ġáłªáł¥ áł²
áł¦áł¯áł ª
Ġáł¡áł· áł²áł¡áł¨
áł£áłŃ áł°áłłáł¨
£áł °
áł´ áł¡
áł¤áłŃ áł¤áł·
Ġáł¶áłłáł® áł¤áł¨
Ġáł¬áłłáł·áł¢áł´ áłłáł¯
Ġáłªáł¡áł¶ áł¡áł²áł¦
¶áł¢áł µ
Ġáł¬áł£áł £áł·
Ġáł¦áł¢áł¯áł¡áł´áł¢áł¯ áł¡áłŃáł¡áł¨
áł¤áł¯áł ªáłłáł¯
Ġáłłáł©áłŃ áł¯áł¢
Ġáł³ áłłáł¯
Ġáłªáł¢áł´ áł¢áł¯
Ġáłªáł£áł·áł£áł¯ áłłáłŃáł¤áł¯áł¬áł¤
áł£áł µáł¤
Ġáłªáłłáł¶áł¢áł ªáłł
Ġáłªáł¥áł®áłªáł¥áł· áł´áł¡áłŃ
Ġáł± áł¢
ĠáłŃ áłłáł©
Ġáł¬áł¡áł ¸
Ġáł´áł¢áł¨ áł¦
Ġáł²áł¤áł·áł° áł¢áł¯áłŃ
áł¯ áłłáłŃáł°áłłáł¨
Ġáł®áł¡áł·áłŃáł¡áłµ áł¢áł¯áł²
Ġáłº áłłáł·áł²
Ġáł¬áłłáł³áłłáłŃ áłłáł¯
Ġáł¬áł¥áł³ áł¡áł¯áł
Ġáłªáł¥áł² áł¥áłŃáł¡áł¨
Ġáłłáł®áł¢áł°áł¬ áł¤áł¯
Ġáł° áłłáł¯
Ġáł³áł¡áłŃáł¡áłŃáł°áł¢áł¯ áł¡áłŃáł¦áł¯áł¬áł¦
Ġáłµáł¢áłŃ áłłáłµáł¤
Ġáł®áł¡áł³ áł¡áłŃáł¦áł¯áł¦áł¯áł²áł¡
Ġáł³áłłáł·áłłáłŃ áłłáł¬áł¢
áł² áłłáłŃ
Ġ N
Ġáł® áł£áł·
Ġáłªáł¡áł¶áł¡áł¯ áł¡áłŃáł¦áł¯áłµáł¦
Ġáł¬áł¡áł¯áł¬ áł¢áł¶
Ġáł²áł£áłŃáł² áłłáłŃáł°áłłáł¨
Ġáł³áł£áł· áł£áłŃ
Ġáł¬áł¦áł´ áł¢áł¯
Ġáł¡áł· áł¡áłŃáł²áł¡áł¶
Ġáł° áł¡áłŃáł¦áł¯
áł¢áł¶ áł£áł£
ĠáłŃ áł¡áł®
Ġáł¨áłłáł° áł¤áł²
Ġáł¨áł¢áłŃ áł¡áł´áł¡
ĠáłµáłłáłŃ áł¤áł´áł¢áł¯
e n
Ġáł°áł£áł©áłŃáł£áł µáł¤
Ġáłłáł¬ áł¤áł¢
Ġáł´áł¢áł·áł® áłłáł¶áł¢áł
Ġáł´áł¢áł³áłłáłªáł¤áł· áł¢áł²áłłáł¨
Ġáł¬áłłáł®áł²áł¤áł· áłłáł¯áł´
Ġáł¬áł£áł¯áłªáł£áłŃ áłłáł¨
áłłáłŃáł³ áłłáł¬áł¤áł¨
Ġáł°áłłáłŃ áł¤áł´áłł
áł¤áł· áłłáłŃ
Ġáłªáł£áł ¶áł¢áłµ
Ġáł¥áł·áł¢áł°áł¥áł¯áł³ áł¦áłŃáł¡áł¨
Ġáł³áł¡áłŃáł¡áłŃáł°áł¢áł¯ áł¡áłŃáł¦áł¯áłµáł¦
Ġáł°áł¢áł©áłŃ áł¡áłŃ
Ġáł³áłłáłŃ áłłáł·
Ġáł²áł¡áłŃ áł¡áłªáł¡áł¯
Ġáł¬áł¡áł¸ áł¬áł¡áł³
Ġáł²áł¡áł© áł´
Ġáł¬áł¡áł· áł¡áł¯
Ġáłµáł¢áłŃáł¤áł¯áł´ áł¢áł¯áłłáł¯
Ġáł¬áłłáł®áł²áł¤áł· áłłáł¨
Ġáł³áłłáłŃ áłłáł³áł¬áłłáł¯
Ġáł´ áł§áł¨
Ġáł¦áłµáł¡áłŃáł¦áł¯ áł¦áł¯áłŃáł¡
Ġáł² áłłáłŃáłłáł·
Ġ F
Ġáł¬áł¦áł· áł²áł¡áł¯
Ġáłµ áł¤áłŃáłłáł´
áłłáł« áł£áł¨
ĠáłŃáł¦áł¨áłµ áł¡áłŃ
Ġáł¤ áł´
Ġáł°áł¢áł¯áłµáł¢áłŃ áł¦áł¯áł¦áł¨
Ġáł°áłłáłŃ áł¤áłŃ
Ġáł¤áł¶ áłłáł¯áł³áł¤áłŃ
Ġáł£áł¨ áł£áłª
Ġáł¤áł® áł³áłłáłŃáłłáł¨
Ġáł¬áł£áł ¶áł¢áł¨
Ġáłªáłłáł ¯áłŃ
Ġáł£áł¶áł¢áł¯ áłłáłŃáłłáł¬áł¤
Ġáł¨ áłłáł³áłł
Ġáł¬áł¡áł·áł¡áłŃ áłµáł¢áłŃáł¦áł¯áł¬áł¦
Ġáł®áł¡áł·áłŃáł¡áłµáł¢áł¯áł² áł¡áł¨
Ġ H
Ġáł£áł¨ áł´áłł
áł² áł¢áł¨
Ġáł¬áł¦áł° áł¡áłµáł¦
áł¡áł³ áł²áł¡
áł¡áł² áł¡áł¯
áł¦áł ¯áł²
Ġáłµáłłáł³áłłáł¯ áł¤áł¯áł²áłł
Ġáł¤ áł¢
áł²áł¢áł¨ áł´áł¦
Ġáł´áł¢áł¬áł¤áł¯ áłłáł²áłłáł¶
áł¦áł¬ áł¦áł¨
Ġáł¨áł¢áłŃ áł¡áł´áł¢
ĠáłµáłłáłŃáł¤áł´áł¢áł¯ áłłáłŃáł¤áł·
Ġáł¬áłłáłŃ áł¤áł³
Ġáł¶ áłłáł«áł£áł¨
Ġáłµáł¢áł¶ áłł
Ġáł ¶áł¢áł·
Ġáł³áłłáł©áł° áłłáł¯
áł¢áł¯ áłłáłŃáł´áł¢
Ġáł¶áłłáłŃ áł¤áł®
®áł¦áł· áł¬áł¦
Ġáł¶áł¢áł· áł²áł¢áł¨áł´áł¦
ĠáłŃáł¡áł° áł¢áłŃáł¦áł¨
ĠáłłáłŃ áł¤áł¯áłł
Ġáł£áł©áłŃ áł£áł´
Ġáł°áł¡áł·áłŃáł¡áł¶áł¢áł¯ áł¡áł¨
Ġáł°áł¢áł¶ áłłáł©
Ġï¸ ĸ
áł¬áł¦áł¯ áł¡áł©
Ġáł¬ áłłáł¶áł¢áł
Ġáł¡áł· áł²áł¡
Ġáł¬ áłłáł¯áł³
áłµ áł§áł¦
Ġáł´ áł£áł¬
áł¤áł¯ áł¤áłŃáł´áł¢
Ġáł£áł Ń
Ġáł¡áłŃáł¦áł³ áł¡
Ġáł¤áł· áłŃ
Ġáł¬áł¡áłª áł´
Ġáł£áł·áł£áł¯áł´ áłłáł¬áł¤
Ġáł¬áł¡áłªáł´ áł¢áł¶áł¡áł¨
Ġáł¬ áł£áł¨
Ġáł£áł ¬áł£áł·
Ġáł¬áł¡áł³ áł¦áł¶
Ġáł´áł¡áł´áł¡áł· áł¯áł¢áłŃ
o r
Ġáł´áł¢áł¨ áłłáłŃ
Ġáł²áłłáł¶áł¢áł ¯áłªáł¤áł·
Ġáł³áł¥áł· áłªáł¡áł¨
Ġáł¬áł¥áł³ áł¡áł¯
áł¢áł¯ áłłáł¯áł²áłł
Ġáł¬áłłáłŃ áł¤áł´áł¢áł¨
Ġáł¬áł£áł· áł¢áłŃ
áłłáł©áłŃ áłłáł©
Ġáł°áł¤áł·áłªáł¤áł¯áłµ áł¢
Ġáłłáł¬áł¢áłŃ áł¤áł¯áł¬áł¤
Ġáł¡áł¯áł° áł¡áł¬áł¦
Ġáł¡áł· áł¢áłµáł¦
Ġáł¡áł¶áł¢áł ®áł¦áł·áł¬áł¦
Ġáł´áł¢áł¬áł¤áł¯ áłłáł´áł¢áł¯
Ġáł¡áł® áł´áł¢
áł² áłłáłŃáłłáł¨
Ġáł²áł£áł° áł£
Ġáł¦áłµ áł¡áłŃáł³áł¡áł¯
Ġáł®áł¡áł³ áł¡áłŃáł¦áł¯áł¬áł¦
áł¤áł¯áł³ áłłáłŃ
áłłáł¯áł³ áłł
Ġáł¯ áł¢áł¨
Ġáł°áłłáł¯áł¬ áł¢
Ġáł«áł· áł¤áłŃ
Ġáł²áłłáł¯áłłáłª áłłáł¢
Ġáł ¯áł
áłª áłłáł¯
Ġáł²áł£áłŃáł² áłłáłŃáł¤áł¨
Ġáł²áł¥áł¯áł¥áłª áłµáł¢áłŃ
Ġáłłáł® áł²áłł
Ġáłµáł¥áł· áł¢áł¶
áłłáł² áłłáł¨
Ġáłµáł¢áłŃ áł¡áł¯
Ġáł¨áł¢áł° áł¬áł¡áł¯
Ġáłłáłµáł¢áł¯áł¯ áłłáłŃáłłáł¨
Ġáł£áłª áł£áłŃ
Ġáł¨ áł¤áł·
Ġáł¬áł¢áł¨ áłłáł¯áł²áłł
Ġáł²áł£áł¯áł£áłŃ áłłáł¶
Ġáłµ áłłáłªáłłáł¯
Ġáł¹ áł¦
Ġáłµáł¥áł· áł¢áł´
Ġáł¶ áł¦áł¨
áł¤áł² áł¤
Ġáł¨áł£áłŃ áł£áłŃ
Ġáł°áł¢áł¯áłŃ áłłáł¬áł¤
Ġáł²áł£áł° áł£áł¨
Ġáł±áłłáł© áł¬áłłáł¶
Ġáł°áł¤áł·áł¤áł¯áł´ áłłáł¬áł¤
áłłáłª áł´áł¢
Ġáłłáłª áł¤áłŃáł°áłłáł¨
Ġáł¡áłµ áł¡áł¨
Ġáł¡áł·áł¬ áł¢áł®
Ġáłłáł¯áł³ áłłáł·
áłłáł¶áł¢áł ²
Ġáł´áł£áłŃ áł´
ł ¼
á ł¼
Ġáł¤áł· áł²áł¤
áł£ áł¢
Ġáł¥áłŃ áł¦áł¯
Ġáłªáłłáł ´
Ġáł¬áł¤áł· áł¢áł¶áłłáł¬áł¤
áł¦áł ¶áł¢áł¯
Ġáł²áł¤áł ²
áł¡áł¶áł¢áł ·
Ġáł³ áł¥
Ġáł²áł£áł¬áł¢áł· áłłáłŃáł¤áł¯áł¬áł¤
Ġáł¨áł¢áłŃ áł²áłł
Ġáł²áł¦áł° áł¢áłŃ
áł¢áł¯áł ¥
Ġáł¶ áłłáł¨
Ġáł°áł¢áł¨áłµ áł¢áł¯
Ġáł²áłłáł¯áłª áł¢áłµáł¤
áł¦áł¯áł ´áł¢
Ġáł¢ áł¦áł¶
Ġáł¬áł¡áł ¯áł²
áł¦áł¯ áł¦áłŃáł°áł¡áł¨
Ġáł²áł£áł¬ áł¢áł¶áłłáł¯
Ġáł® áłłáłŃáłłáł³
áł¡áł° áł¬áł¦áł¯áł¡áł©
Ġáłµ áł¢áłª
áł¢áł¬ áł¢áł¨
Ġáł´ áł¢áł¯áł¥
Ġáł¢áł· áł¡áł¬áł¦
Ġáł°áł¡áłŃ áł¦áł¯áł´áł¢
Ġáł¬áł¤áł³áłłáł¯áł³ áł¤áł¬áł¤
áłłáł· áłłáłŃáł¤áł¯áłµáł¤
áł¯áł¸ áł¢áł°
Ġáł¬ áł¢áł¯
ĠáłŃáł¦ áł¢áł¯áłŃ
áł¡ áłł
Ġáł£áł·áł£áł° áł¢áłµáł¤
Ġáł£áł¨áł£áłª áł´
Ġáł¦áł¨áł³áł¦áł°áł¦áł¯ áł¡áłªáł¡áł¯
Ġáłłáł©áł¬áłłáł· áł¬áł¤
Ġáł²áł§ áł¯áł¸áł¢áł°
áł¢áłŃ áł¤áł·
Ġáł²áł¦áł· áł¢áł¶
Ġáł¨ áłłáł¢
Ġáł¦áłµ áł¡áł°áł¬áł¦áł¯áł¡áł©
Ġáł¡áł° áł¡áł¬áł¦áł¯
Ġáł² áł¡áł¯
Ġáł²áł¡áł®áł³áł¡áłŃ áł¯áł¡áł¯
Ġáł¨ áł¡áł¬
Ġáł¡áł· áł¡áłŃ
Ġáł³áłłáłªáł² áłłáł®áłµáł¢
áłłáł¯áł ¯
ĠáłŃáł¡áł· áł¡áł´áł¢áł¯
Ġáł°áł¤áł·áłŃ áłłáł¯áł²áłł
Ġáłªáłłáł ¬
ĠáłŃáł¤áł· áłªáłł
Ġáłµáł£áł´ áł¢áł³
Ġáłªáłłáł¶áł¢áł¯áł³ áł¤áł¬áł¤
Ġáłµáł¥áłª áł¯áł¡áł¯
áł¦áł¸ áł¸
Ġáłªáł£áłŃ áł£áł³
áł¦áł° áł¦áł¨
Ġáł¬áł¦áł· áł¦áł¯áł
Ġáł¬ áłłáł³
Ġáłµáł£áł¬ áł¢áł°
Ġáł¡áłŃ áł¡áł¯áłµ
a t
Ġáł¨áł¢áłŃ áł¤áł´áłł
áł¡áłŃ áł¡áł¯
Ġáł¬áł¦áł· áł¬áł¦
Ġáłªáłłáł¶áł¢áłŃáł¤áł¯ áł¤áłŃáł°áłłáł¨
Ġáł°áł¢áł¬ áł¢áł·
áł¤áł³ áłłáłŃ
Ġáł°áłłáł¨ áłłáł¯
Ġáł°áłłáłŃáł¤áł· áł¢áł¨
ģ áł¢
áłłáł® áłłáł³
Ġáł²áłłáł¯áłª áł¢áł¬áł¤
Ġáł¥áłŃ áł´áł¦
Ġáłªáłłáł´ áł¢áł®
Ġáł¬áł¤áłª áł¢áł¶
Ġáł¨áł¡áł¶áł¢áł²áł¡áł¯ áł¡áłŃáł°áł¡áł¨
Ġáł³áłłáł· áłłáłŃáłłáł¯
áł¤áłª áłłáł¯
Ġáł³áłłáłªáł¬ áł¤áł·
Ġáł¡áł°áł¡áł·áłŃáł¦áł´ áł¡áł¬áł¦
Ġáł¡ áłµáł¢
Ġáł´ áłłáł©
Ġáł°áł¢áł· áł¢áł°
áłµ áł¤
Ġáłªáłłáł¶áł¢áłŃ áłłáł³
Ġáłªáłłáł¶áł¢áł ¯áłŃ
Ġáł¬áł¡áł¯ áł¡
Ġáłªáłłáł²áł¤áł¯ áłłáłŃ
Ġáł¥áłªáł¡áł· áł®
Ġáłªáł¦áł·áł¢áł¯áł³ áł¦áł¬áł¦áł¨
áł¤áł¯ áł¢áłŃ
Ġáłªáłłáł² áł¤
Ġáł¤áł¶áł¤áł¨ áł²áł¤
Ġáł³áłłáłŃ áł¤áł¤
Ġáł²áł£áł £áł·
áł¤áł¯áł ªáłł
Ġáł¢áł²áł¡áłŃ áł¡áł¯
áł¬ áł¥áł·
Ġáł¯ áł¦áł©
Ġáł¢áł¯ áłłáł©áłŃáł¤áł¶
Ġáł¬áłłáł©áłŃ áłłáł¯áłŃ
ĠáłŃ áł¡áł³
Ġáł¬áł¦áł¯ áł¢áł¶áł¡áł¨
Ġáł¶ áłłáłŃáł¤áł¨
Ġáł¬áł£áłŃáł£áł·áł£áł¨áł³ áł£
Ġá¡ ģáł¢
Ġáł¬áł£áł £áł°
Ġáł²áł£áłŃáł² áłłáł®áłłáł¯
Ġáłª áł¦áł¦
Ġáł¬áł¥áł©áłŃ áł¡áł¨
Ġáł¬áł¥áłŃ áłµáł¢áłŃáł¦áł¯áł¬áł¦
ĠáłłáłŃ áłłáłµ
áł¦áł¶áł¢áł¯ áł¡
Ġáł¬áł¦áł· áł¢áł¶
áł¢áłŃ áłłáł³
Ġáł¬áł¦áł· áłªáł¡áł¯
Ġáł¬áłłáłªáł°áł¤áł· áł¤áł¨
Ġáłµáłłáł¯ áłłáłŃáł¤
Ġáłªáł¦áł¬ áł¦áł¶áł¢áł¯áł¡
ĠáłłáłŃáłłáłµ áł¢áł®
Ġáł¥áłŃáł¡áł·áł¡áł´áł¢áł¯ áł¡áł¯áł²áł¡
Ġáł¬áł¦áł° áł¦áł¨
Ġáłµáłłáł¬ áł¢áł¶áłłáł¯
áł¢áł¶ áłłáł¯áł³
Ġáł¬áł¦áł°áł¦áł¨ áł¦áłŃ
áł¦áł¨ áł¢
Ġáł¡ áł¬áł¢áł¨
Ġáł¬áłłáł¶ áłłáłŃáł³
áł¬áłłáł¨ áł¢áłŃ
Ġ1 8
Ġáł°áł¡áł· áł¡áł¯
Ġáł¬áł¥ áł·
Ġáł°áł¢áł¶ áłłáł©áłŃáłłáł©
Ġáł¬áł£áł ©
Ġáł¥áłªáł¡áł·áł® áł¢áł´áł¡
Ġáł¦ áł¬áł¡áł·
Ġáł¨áł¡áł· áł¡áł¨
Ġáł®áł§ áł¬áłłáł¨áł¢áłŃ
Ġáł¡áłŃáł¦áł³ áł¦áł¨
Ġáł¦áłµ áł¡áł¯
Ġáł¦áł· áł³áł¡áłŃ
Ġáł¡áłŃáł¦áł³ áł¡áł¨
Ġáł¬áłłáł·áłłáłŃ áłłáł¯áłµ
Ġáł¦áł¯ áł¡áł³
Ġáł³ áł¦áł·áł¢
Ġáł¥áł· áł²áł¡áłŃáł¡áł¨
Ġáłµáł¢áł¯áł£áłŃáł£áł³ áł¬áł¤
Ġáł¬áł¦áł·áłŃ áł¡áł¬áł¦
áł³ áł¬
áł£áł¬ áłłáł¶
l e
Ġáł¬áłłáł© áł°áł¢
Ġáłłáł¬áł¢áłŃ áł¤áł¯áłµáł¤
Ġáł¤áłŃáł°áłłáł· áłłáł¬áł¤
áł¡áł¯ áł¢
Ġáł¬ áłłáłµ
Ġáł¬áł¡áł² áł¦
Ġáł¨ áł¢áł®
Ġáł¶áłłáłª áł¤áł¬áł¤
Ġáł° áł¦áł¨
Ġáł¨ áł£áł´
áł¡áłŃáł³ áł¡áł¬áł¦
Ġáł³áł¦áł· áł¢áł®
Ġáł¬áł£áłŃáł£áł¯ áłłáł¨
áł¬áł¥ áł®
Ġáł¨áł£áłŃ áł£áłŃáłłáł¨
Ġáł¢áł¨ áł²
Ġáł£áł· áł´áł¢áł®
Ġáł² áł¤áł®áł¤
Ġáłµáł¡áłŃ áł¡áł¯áł¢
Ġáł¬áłłáł¶áłłáłŃáł³ áłłáł®áłłáł¯
Ġáł¬áłłáłŃáł¤áł³ áłłáł°áł¤
áł¡áł® áł¡áł¯áłµ
Ġáł¶áłłáł· áł¢áł¶áłłáł¨
Ġáł¨ áł¥áłŃ
áł¬áł¡ áł¢
Ġáł® áłłáł¬
Ġáł²áł¡áłŃáł¡áłŃ áł¡áłªáł¦áł·áł¢
Ġáł°áł¢áł¨áłµáł¢áł¯ áł¡áłŃáł¡áł¨
Ġáł¡áł¨ áł³áł¡
áł¡áł° áł¦áł²
Ġáłłáł·áłª áł¢áł¨
Ġáł¦ áł³áł¡
Ġáłłáł ½
ĠáłŃ áł¡áłµáł¡áł¶
áłłáł º
Ġáł¦áłµ áł¡áł¯áł²áł¡
ł ¹
á ł¹
Ġáł¬áł¡áł®áłµáł¢áłŃáł¦áł· áł¯áł¢áłŃ
áłłáłŃáł³ áłłáłŃáł°áłłáł¨
Ġáł³áłłáłŃáłłáłŃáłłáł´áł¢áł¯ áłłáł¯áł²áłł
Ġáł¢áł³áł¡áłªáł¬ áł¢áł²áł¡áł¶
Ġáł¬áł¡áł·áł¡áłŃáł¯ áł¡áł³áł¡áłŃ
Ġáł¬ áł¤áł¯
Ġáłºáł£áł®áł« áł¢áł¦
áł¡áł¯áłµ áł¢áł¨
Ġáł¬áłłáł· áłłáłŃáłłáł¨
Ġáł¡áłŃáł¦áł· áłŃáł¡áł¯
Ġáłłáł® áł²
Ġáłµáł¢áł® áł¢áł°
áłłáłŃáł¤áł¯ áł¤áł¯
Ġáł´áł¢áł¨áłłáłŃ áł°áł¢áł¯
Ġáł³áł£áłŃ áł¢áł·
Ġáł® áł¢áł©
áł´ áł¥áłŃ
áł¤áłŃ áł¤áł³
áł¦áł¬ áł¡áł¶
Ġáł¡áłµáł¡áł® áł°
Ġáł¤ áł²áłłáł°áł¤áł¨
Ġáł²áł¡áł¦ áł¬áł¡
Ġáł¤áł· áł¤áłŃáł°áłłáł¨
Ġáł¶áł¡áł·áł¦áł©áł¬áł¡áł¶áł¢áł¯ áł¡áłŃáł°áł¡áł¨
Ġáł²áł£áłŃ áłłáł´
Ġáł´áł¢áł¨ áł¢
áł¢áł³ áł¬
áł¤áłŃ áł¤áł¯áłµáł¤
Ġáł¨áł¡áł¶áł¢áł²áł¡áł¯ áł¡áł¬áł¦
Ġáłµáłłáł° áłłáłµáł¤
Ġáłłáł ¯áł²
Ġáł¬áł¡áł· áł¡áł®
áł² áł¥
Ġáł²áł¤áł° áł¢áł¶áłłáł¯
Ġáł²áł¢áł© áł¬áł¢áł®
Ġáł¡áł®áł¦áł¨ áł¡áł²áł¦
Ġáłłáł¬ áłłáł®áłłáł³
Ġáł¬áł¡áł®áłµ áł¢áł¯áł²áł¡
Ġáł¬áł£áłŃáł£áł¯ áłł
Ġáł¢áł³ áł¡áł¬áł¦
Ġáł³áł¥áł·áłª áł¡áł¯áłµáł¢áł¨
Ġáłłáł· áł¢áł¬áł¢
Ġ1 00
Ġáł² áł¢áłª
Ġáł¥áłŃáłŃ áł¦áłŃáł°áł¡áł¨
Ġáł°áł£áł©áłŃáł£áł ¯áł²áłł
áł¤áł´ áł¢
Ġ W
Ġ1 3
áł¡áł¯ áł¡áł¯áł²áł¡
áł° áłł
áł³ áłł
Ġáłª áł¢áł¯áł
áł¡áł¶áł¢áł ³
áł° áłłáłŃ
Ġáłµáł£áł¬áł¢áł° áł²áłłáł¶
Ġáł´áł¢áł° áł¤áł¨
Ġáł¤áł´ áłłáł·
áł¯ áłłáłŃ
ĠáłªáłłáłŃáł² áłłáł¨
Ġáłłáł¯áł² áłłáł¨
a l
Ġáł¬áł£áł µ
Ġáł² áłłáł¶áł¢áł¯
áł¢áłŃ áł¤áł¯áł¬áł¤
áł¤áł ¶áł¢áł
Ġáł´áł¢áł®áł¡áłŃ áł¯áł¡áł¯
Ġáłµáł¢áłŃáł¡áł¯ áł¡áł¯áłŃáł¡
Ġáł³áł£áł ¯áłŃ
Ġ1 6
ĠáłŃ áł¡áł²áł¡áł¯
ª áł¡áłŃ
Ġáł²áł£áłŃáł² áłłáłŃáłłáłµáł¤
Ġáłµ áł¤áł·
Ġáł® áł¢áł©áłŃ
Ġáłłáł·áł¢áł¯áłŃ áłłáł¬áł¤
Ġáł¢áł¯ áł¡áł³áł¬
Ġáł¦áł¶áł¯áł¡áł³áłªáł¦áł· áł¢áł¯áł¡áł¯
Ġáł¤ áł¤áłŃ
Ġáł²áł£áłŃáł² áłłáłªáł¤áł·
Ġáł²áł¦áł· áł¦
Ġáłłáł°áł¢áłŃ áł¯áłłáł¨
áł¤áłŃáł³ áłłáłµáł¤
Ġáł³áł£áł¸áł· áłłáł¬áł¢
Ġáłµáł£áłŃáł° áł£áłŃ
áłłáłŃ áł³áłłáł¯
áłłáł¯áł µáł¤
Ġáłªáł¢áł´ áł¢áł¬áłłáł¨
Ġáł¢ áłµáł¢
Ġáł²áł¥ áł·áł¥áłŃ
áł¤áł ¹
Ġáłªáł£áł¯ áł£áł³
ĠáłŃáłłáł³áłłáłŃ áł°áł¢áł¯
Ġáł¬áł¡áł®áłµáł¢áłŃ áł³áł¡áł¯
Ġáł³ áł¦áłŃáł¦áł·
Ġáł¨áł¡áł®áł¡áłŃáł³ áł¡áł¯
Ġáł¬ áł¡áł³áł¦
Ġáł¬áł¤áłªáł¢áł¶áłłáł· áł¢
Ġáł²áł¥áł¯áł¥áłªáłµáł¢áłŃ áł¦áł¯áłŃáł¡
Ġá¡ º
ĠáłŃáł¦áł¶ áł¯áłŃ
µ áłłáł¶
áł¯áł ¬
Ġáł°áł¤áł·áłªáł¤áł¯áłµ áł¢áł¯áłłáłŃáł´áł¢
Ġáł¡áł¯áł ªáł¡áłŃ
Ġáł´áł¤áłŃáł¯ áłłáłŃáłłáł¨
áł² áłłáł¨
Ġáł¬áł¥áł³áł¡áł¯áłŃ áł¡áł¬áł¦
áł¢áł° áł¤
° áł¤áł¨
Ġáł²áł£áł¬áł¢áł· áłłáł®áłµáł¢áł²áłłáł¶
Ġáł¡áłŃáł¡áł¯áłµ áł¢
áł¤áł ©áłŃ
áł¦áł¯áł³ áł¡áłŃ
Ġáłªáłłáł²áł¤áł¯ áłłáłµáł¤
Ġáł¬áł£áłŃ áł£áł°
Ġáł°áł¥ áł¨áł¢
áł¡áł¨ áł¡áłŃ
Ġáł¬ áłłáłŃáłłáł¨
Ġáł¬áłłáł® áłµ
Ġáł¬ áł¦áł¶
Ġáłłáł¯ áł¢áłªáłł
Ġáłªáł¤áł³ áł¤áł¯
áł¡áłŃáł³ áł¡áłŃáł°áł¡áł¨
Ġáłłáł·áł¢áłŃ áł¤áł¨
áł¡áł° áł¢
Ġáł¬ áł¤áł¸áłłáł©
Ġáł²áł¦áłŃ áł¦áł¬áł¡áł¶
áł° áł¤áł¨
Ġ202 1
Ġáłµáł§ áł¸
Ġáł° áłłáł´
Ġáł¬áł¡áł·áł¡áłŃáł¯ áł¡áłŃáł°áł¡áł¨
Ġáł¬áłłáł®áłµ áł¢áł¯áł´
Ġ V
áłª áł¤áł°
Ġáł° áł¦áł¶
Ġáł¬áłłáł·áł¢áłŃ áł¤
áłłáł¯áł ¬áł¤
Ġáłªáł¤áł³ áł¤áłŃ
áł¡áłŃáł³ áł¡áłµáł¦
áł£áł ¯áłŃ
áł² áłłáł¢
áł¡áł³ áł¦áłŃáł¡áł·
Ġáłªáł¡áł¶áł¡áł¯ áł¡áłŃáł¦áł¯áł¬áł¦
e s
Ġáł± áł§áł©
áł¤áł¸ áłłáł¢
Ġáłªáłłáł¶áł¢áł· áł¢áł¯
Ġáłµáł¥áłª áł¯
áł¦áł¯ áł¡áł¬áł¦
Ġáł²áł£áł¬áł¢áł· áłłáłŃáł¤áł¯áł¤áł¯áł²áłł
Ġáł³áł£áł¯áłŃ áł¢áł¶áłłáł¨
Ġáł²áł¤áł° áł¢áł¶
áł¤áł ¯áł²
Ġáł°áł¢áł· áł¬áł¡áłŃ
Ġáłµáł¢áł± áł¢áł¯áł²áł¡
Ġáł¬áłłáłŃáł¤áł· áłłáł¶
Ġáł³áł¡áłŃáł¡áłŃ áł°
Ġáł²áł£áłª áł´áł¢
áłłáł´ áł¢áł¨
Ġáł²áł¤áł¬ áłłáł¢
áł¢áł £
Ġáłłáłµáł¢áł¯áł¯ áłłáłµáł¤
áłŃ áłŃáł¡
Ġáł° áłłáł®
Ġáłµáł¥ áł©
Ġáł¬áł¡áł®áłµ áł¢áł¬áł¦
Ġáł³áłłáłŃ áł¤áł·
Ġáł¡áł®áł¨ áł¡áł¨
áł¡áł°áł¦áł² áł¥
Ġáł² áł¤áł¨áł¤áłŃ
áłŃ áł£áłŃ
Ġáłµáł¥áłªáł°áł¢áł¶áł¡áł· áł¡áł¯
Ġáł£áł¨áł£áłªáł´ áł¢áł²áłłáł¶
Ġáł¢áł· áł¡áł¯áł²áł¡
áł¡áłŃ áł¦áł¯áłª
Ġáł¹ áł¸áł©
Ġáł¦áł¯ áł¡áł³áł¡áłŃ
Ġáł¬áł£áł¶áł¢áł °
Ġáł²áł£áł ¯áłª
áł¢áł· áłłáłŃ
Ġáł³áł¤áł·áłłáł³ áł¤áłŃáł°áłłáł¨
Ġ1 4
Ġáł²áł£áł¬ áł¢áł¶áłłáł¯áł³
Ġáł± áł¦áłŃ
Ġáł¨áł¢áł³ áł¦
Ġáł¬ áłłáł¶áł¢áł¨
1 0
Ġáł°áł¢áł· áł¬
áł¦áł¯ áł¢áł¶áł£áł£
áł£áł³ áłłáłŃ
Ġáłµáł£áł· áł¢áł¯áłŃ
Ġáłªáł¤áł³ áł¤áłµáł¤
áł° áł¡áł³
³ áłłáłŃ
Ġáł¦áł¶áł¯ áł¡áł³áł¬áł¦
Ġáł² áł¦áł©
Ġáł¯áł ¸
Ġ O
áł¤áł° áł¤
Ġáł¨áł¡áłŃáł¦áł· áł¡áł°áł¦áł²áł¥
Ġáł°áł£áł· áłŃáł£áłŃ
Ġáł£áł·áł£áł¯áł´ áłłáłŃáł°áłłáł¨
Ġáł¨áł¢áł³ áł¦áł¨
áł¡áł³áł¡áłŃ áł¡áł·
Ġáł®áł¥ áł¬áł¥
Ġáłµáł¢áłŃ áłłáł¬áłłáł¨
Ġ202 0
Ġáł¡áłµáł¡áł® áł°áł¢áł¯
áłłáł® áł³
Ġáł° áł¦áł¯áł¢áł¶áł£áł£
Ġáł£áł¶áł¢áł¯ áłłáłŃáłłáłµáł¤
áłłáłª áł£áł³
Ġáł®áłłáł¬ áłłáłªáł£áł³
Ġáł´áł¢áł³ áłłáłª
áł¤áł¯ áł¤áł¯áł²áłł
Ġáłµáł¦áł¢áł¯ áł¡áł°
Ġáł« áł¢áł©
Ġáł³ áł¡áł®
Ġáłµáł¢áł¶ áł¦
ï¼ ħ
Ġáł¨áłłáł¶áł¢áł³áłłáłªáł¤áł· áł¢áłµáł¢áłŃ
Ġáł²áł¤áł° áł¢áł¶áłłáł¬áł¤
Ġáł°áłłáł¶áł¢áł² áłłáł¶
Ġáł´áł¢áł³ áłłáł¯
Ġáł¨áł¡áł· áł¡áł°
áłªáł¦áł· áł¢
âĢ Ķ
Â ·
Ġáł° áł¢áł¸
Ġáł´ áł¡áł©
Ġáłµáł¡áłŃ áł¦áł³
áł¢áłŃ áł¡
Ġáłªáł£áł· áł£áłŃáłłáł¨
Ġ U
Ġáł¬áł£áł¯áłªáł£áłŃ áłłáł²áł¤
Ġáł£áł·áł£áł¯áł´ áłłáłµáł¤
Ġáł²áł¥áł° áł¦áłª
Ġáł³áł¥áł·áłª áł¡áł³áł¦áłŃáł¡áł·
Ġáł°áł¡áł³áł¬ áł¢áł´áł¡
Ġáł´ áłłáł¶
Ġáł¡áł·áłŃ áł¢áł¯áł²áł¡
Ġá¡ ¼
Ġáł¤áł· áł®
áłº áł¦
Ġ5 0
Ġáł¬áłłáł· áł¢áł¶
Ġáłªáł¤áł· áł¤áłŃáł¤
Ġáł¯ áł¢áł©
ĠáłŃ áł¦áł¸áł§
Ġáłµ áł§áł©
Ġáłłáł·áłłáł¯áłµ áł¢áł¶
Ġáł¬áł¡áł¯áł² áł¡áł°
Ġáł¦áł¢áł¯ áł¡
Ġáł² áł¡áł³áł¡áłŃáł¡áł·
Ġáłªáł£áł¯áł ´
áłłáł® áł°áł¢áłŃ
Ġáłµ áł¡áł·áłŃ
Ġáł¬áł¡áł¯ áł¡áłŃáł°áł¡áł¨
Ġáł´áł¢áł©áłŃáłłáł³ áł¬áłłáłµáł¤
Ġáł¡áł¶áł¢áł®áł¦áł·áł¬áł¦ áł¦
Ġáł± áł§áł¨
Ġáł° áł¦áłª
Ġáłªáł£áłŃ áł£áł®
Ġáł¤áł· áłłáł¯áłłáł¯
Ġáł´áł¢áłŃ áł¯
Ġáł°áłłáł¨áłłáłŃ áłłáł´áł¢áł¯
áł°áł¢áłŃ áł¦áł¯áł¬áł¦
áłłáł· áł¢áłŃ
Ġáł°áłłáłŃ áł¤áłµáł¤
áłŃ áł¦áł¶
Ġáł²áł¤áł° áł¬áłłáł¢
i t
Ġáł¬áłłáłµ áłłáłŃáł¤
ĠáłŃáł¦áł¢áł¯áłŃ áł¡áłŃáł¡áł¨
Ġáł³áł¡áł¯áłŃ áł¡áł¨
áł¡áłª áł¦áł·
Ġ2 5
Ġáłµáłłáł¬áł¢áł· áłŃáłłáł¨
Ġáł²áł¥áł·áł¥ áł¯áł¬
áł£áł· áł¢
áł¤áłŃ áł¤áł¨
Ġáł²áł¥ áł¬áł¥áł®
Ġáł²áł£áłŃáł£áł° áł£
áł¤áł¯ áł¤áł¯
Ġáłł áł¶áł¢áł
Ġáłªáł¡áł¯ áł¡áł³áł¬áł¡áł¯
Ġáłªáłłáł º
áł¸ áł²
Ġáł¨áł¥áł¯áł¥áłŃáł¡áł¯ áł¡áł¬áł¦
Ġáł´ áłłáłª
Ġáł¬áłłáł¨áł³ áł¤áł°áł¢
Ġáł¬áł¦áł¨ áł³
Ġáł¶áłłáł®áłłáł· áłªáłł
ĠáłŃáł¡áł¨ áł¡áł³áł²áł¡
Ġáłµáł¤áł· áłªáł¤áł°
Ġáł° áłłáł¯áłŃ
Ġáł¬áł£áłŃáł£áł° áł£áł¨
Ġáł°áłłáłŃ áł¤áł¬áł¤
Ġáłłáłµáł¢áł¯áł² áłłáł³
Ġáł²áł¦áł® áł¡
Ġáł¨áł¤áł· áł®
Ġáł¬áł¥ áł²áł¥
Ġáł°áł£áł¯ áł¢áł¬áł¤
i c
Ġ +
Ġ202 3
Ġáł²áł£áłŃ áłłáł´áł¢áł¯
Ġáł¨áł¡áł¶áł¢áł ´
Ġáł²áł¦áł· áłŃ
Ġáł²áł¤áł° áłłáł¯áłłáł¬áł¤
Ġáł³áł¤áł®áł³ áłłáł´áł¢
áł¸ áł§
áł¢áł³ áłł
Ġáł²áł¡áłµáł¢áłŃ áł¡áł¯
áł¦áł® áłµáł¢áł¯
áł± áłłáł¨
Ġáł°áł£áł©áłŃ áł£áł¨
Ġáł¤áł® áłłáł·
Ġáł³áłłáł® áłµáł¢áł¨
Ġáł¬ áł¦áł©
áł¦áłŃ áł¦áł¨
Ġáłł áł´
Ġáł¤áł·áł¤áłŃ áł°áł¢áł¯
ĠáłŃ áł¤áł¸
Ġáłªáłłáłº áł²
áł§áł· áł¢
Ġáł´ áł¡áł¨áł¡áłŃ
Ġáł²áł¡áł® áł¡áł´
Ġáł´áł¡áłŃ áł¡áłµ
Ġáł£áłªáł£áłŃ áł²áł¤
áł¡áł¶áł¢áł ´
Ġáł²áłłáł² áłłáł¬áł¤
áłłáłŃ áłłáł¶áł¢áł¯
áłµáł¢áł¶ áłłáł©
áł°áł¥ áł¨
Ġáł´ áłłáł·
áł¡áł¯áłŃ áł¡áł¨
Ġáł¬áł¥áłŃ áł¡áł·áłŃáł¡
Ġáłłáłµáł¢áł¯áł ³
áł¡áłŃ áł¦áł¨
áł¡áł¯ áł¡áłµáł¦
Ġáłłáłµ áł¢áłŃ
Ġáł¬áł¡áł·áł¡áłŃáł¯ áł¡áł¯áł²áł¡
áł£ áł¤
áł¤áł³ áł¤áłŃáłłáł·
Ġáł® áł¢áł¬
Ġáł¬ áł¤
áł¢áł¶ áłł
áł¬ áłłáłŃ
Ġáł¬áł¥áłŃ áł¡áłŃ
Ġ â
áł¢áł® áł¡áł¯
Ġáł®áł¥áł¬áł¥ áł¯áł¢áłŃ
áł¢áłµ áł¢áł·
Ġáłłáł® áłł
Ġáł´áł¢áł³áłłáłª áł¬áł¢
Ġáł°áł¦áł¶ áł³
Ġáł¶áłłáł· áł¢áł¶
Ġ2 4
Ġáł´ áł£áł©
Ġáł¨áł¢áłŃáł¡áł³ áł¦áł¯áł²
ĠáłŃ áł¥áł·
Ġáłµ áł¤áłµ
ĠáłŃáł¡áł® áł²
Ġáłµáłłáł¯áłŃ áłłáłŃ
Ġáł²áł¦áł·áł¢áł¶ áł¡áł°
Ġáł¡áł´ áł¢áłŃáł¡
Ġáł¬áł¦áł°áł¦áł¨áł¦áłŃ áł²áł¦
ĠáłªáłłáłŃ áł¤áł¯áłŃ
Ġáł¬áł¤áłª áł¢áł¶áłłáł¨
Ġáłłáłª áł¤áł·
Ġáł¨áł¡áłªáł²áł¡áł· áł¡áł¬áł¦
Ġáł²áł¤áł° áłł
Ġáł¬áł¤áłª áł¢áł°
Ġáł´áł¢áł¨áłłáłŃáł°áł¢áł¯ áłłáłªáłłáł¯
áł´ áł¢áł¯áł¡áł¬áł¦
Ġáł¬áł¦ áł¦
Ġáł ģ
Ġáł± áł¤
Ġáł¬áł£áł ¬áł¢áł·
áłłáł² áł¤áł·
Ġ1 7
Ġáłªáł¦áł³ áł¦áłŃáł¡áł¨
Ġáł¢áł¯áł¡áł· áł¡áłŃáł¦áł¯áł¦áłŃáł°áł¡áł¨
Ĥ áł¢
ł ½
á ł½
áł¤áł¯áłµ áłłáł¶
Ġá¡ Ĥáł¢
Ġáł®áł¡áł³ áł¡áłŃáł¡áł¨
áł£áł ¶áł¢áł
ĠáłŃ áł£áłŃ
Ġáłłáł¶ áł¤áł¯áłŃ
Ġáł¬áł¤áł· áłłáł®áł³
Ġáł°áł¦áł¶áł³ áł¬áł¡áł¯
Ġáł¨áł¡áł® áł¡áłµáł¦
Ġáł¡áł°áł¡áł·áłŃ áł¦
Ġáł°áł¦ áł¢áł³áł¬áł¡áł¯
áł¦áł² áł¡áł¨
áł¢ áł¢áł¨
áł° áłłáłŃáłłáł·
áł¤áłŃ áł¤áł¯áł¤áł¨
o o
Ġáłª áł¡áł¬
ĠáłªáłłáłŃ áłłáł²áł¤áł·
Ġáł²áłłáł¶áł¢áł ª
Ġáł¬áł¡áł¯ áł¡áł¯áł´
Ġáłµáłłáł¶áł¢áł¯ áłłáł°áł¬
ĠáłŃáł¦áł¶áł¯áłŃ áł¡áłŃáł¡áł¨
Ġáł²áł¤áł² áł¤áł®
Ġáł¬áł¢áłµáłłáłŃáłłáł· áł¯áłłáł¬áł¤
Ġáł¶áłłáł© áłµáł¤
Ġáłªáłłáł¶áł¢áł¯áł³ áł¤áłŃáłłáł¨
Ġáł¸ áł¸áł¨
Ġáł²áł¡áł¯ áł¡áł¶
Ġáł² áłłáł¬
Ġáł¦áł¨áł¡áł¨ áł´áł¢
Ġáł¨áłłáł® áłªáłł
ĠáłŃáł¦áł¨áłµáł¡áłŃ áł¡áł¶
Ġáł¯ áł¦
Ġáł´áł¢áłŃ áł¢áł·áłłáłŃ
Ġáł° áłłáł
Ġáł¬ áł¡áłµ
Ġáł¤áł¨ áł²
Ġáł® áłłáł©
Ġáł¬áł¢áł¯ áł¢
Ġáł°áł¡áł·áłŃ áł¦áłŃ
Ġáłªáł£áłŃáł£áł® áł²áłł
Ġáł°áłłáł¬ áł¢áłŃ
áłłáł® áł°áłłáł·
Ġáł¨ áłłáłŃáł¤áł·
Ġáł£áł·áł£áł ¶
Ġáł£áł³ áł£áł¨
Ġáł¬áł¡áł·áł¡áłŃáłµáł¢áłŃ áł¦áł¯áłµáł¦
Ġáł¨áł¡áł¶áł¢áł²áł¡áł¯ áł¡áłµáł¦
áł³ áł¡áł¨
ł ¯áł²
á ł¯áł²
Ġáł³áłłáłŃáłłáłŃ áłłáł®áłłáłŃáłłáł¶
áł¬ áł¢áł·
áł¸ áł°
áł¬ áł£
áł¢áł³ áł¦
Ġáł¬áł¦áł´ áł¦áł¯
Ġáł³ áł¡áłªáł²áł¡áł·
áł¢áł´ áłł
Ġáł¯áłłáłª áł²áłłáł¶
Ġáł±áł§áł¨ áłµáł§áł¨
áłłáł° áł¢áł¨
ĠáłŃ áłłáł¶áł¢áł
áł¤áłŃáł³ áłłáłŃáł°áłłáł¨
Ġáł¦áłµ áł¡áłŃáł¦áł¯áłµáł¦
Ġáł°áł¤áł· áł²
áł¨ áł¡áł·
Ġáł¬áłłáł· áł¢áł¶áłłáł¯
Ġáł¤áł· áł³áł¤
áł² áł¡áł¢
Ġáł®áł¡áł³ áł¡áłŃáł¡áł¯
Ġáł°áł¤áł· áł¤áłŃáł´áł¢
ĠáłŃáłłáł³áłłáłŃ áł°áł¢
Ġáł¬ áłłáł¶áł¢áł¯
áł£áł¯ áłłáł¯
Ġáł° áł¡áł¯
Ġáł´ áł¤áł¬
áł´ áł¡áł¶
Ġáł¯áłłáłª áł¯áłłáł¯áł²áłł
Ġ201 9
áł¯ áł¡áłŃáł°áł¡áł¨
Ġáł¨áł¢áłŃáł¡áł³áł¦áł¯áł² áł¡áł¶
Ġáł°áł¢áł¨ áłµáł¢
Ġáł¨áł£áł´ áł¢áł²áłłáł¶
Ġáłµáł¤áłµ áłłáłŃáłłáł¨
áł¢áł® áł¦áł°áł¦áł¨
áł¤áł² áłł
Ġáł²áłłáł² áłłáłµáł¤
Ġáłªáł¦áł· áł¢áł®áł¦áł°áł¦áł¨
áł¤áł¸ áłł
Ġáł¢ áł¦áł¢
Ġáłªáłłáł¶áł¢áł· áł¢áł°
Ġáłłáłª áł¤
ĠáłŃáł£áł£áł¯áł³ áłłáł¯áłŃ
Ġáł²áł£áł¬áł¢áł· áłłáłŃáł¤áł¯áłµáł¤
áł¢áł¨ áłµáł¢áł¨
Ġáłº áł¢áł¯
áł¦áłŃ áł¡áł³
ĠáłŃáłłáł· áł¤áł¯áł²áłł
Ġáłłáł³áłłáł¯ áł¢áł¬áłłáł¨
Ġáł¬áłłáł®áłłáłŃáłłáł¯ áłłáł¯
Ġáł³áłłáłŃ áł¤áł¨
e l
Ġáłµ áł¢áł¶áłłáł¨
Ġáł¬áł¦áł·áł¦áł¯áł ´áł¡áł¬áł¦
Ġáłłáłµáł¢áł¯áł³ áłłáł¨
Ġáł¬áł¡áł²áł¦áł· áł¬áł¡áł¶
Ġáł¤áłŃ áł²
Ġáł£áł´ áł¢áłµáł¤
Ġáł³áł¡áł¯áłŃ áł¡áł´áł¡
® áł¦áł·áł¢
Ġáł®áł£áł³ áł£
Ġáłłáł·áłŃ áłłáł´
Ġáł²áł£áł¯áłª áł£
Ġáł½ áł¢
Ġáł¨ áł¤áł¨
áł¤áł¯áł °áł¤áł¨
áłª áł¢áł°
áłŃáłłáł¨ áł¢áłŃ
Ġáłłáł°áłłáł· áłłáł®áłµáł¢
Ġáłµ áł¤
ĠáłłáłŃáł¤áł¯ áłłáł¨
Ġáł® áłł
áłłáł¶áł¢áł ´
Ġáł¬áł¤áłªáł¢áł· áłłáłŃáł¤áł¯áł¬áł¤
Ġáł¡áłŃ áł¦áł¯áł¡áł¨
Ġáł² áł£áł·
áł³ áłłáłŃáł°áłłáł¨
áł¤áł´ áł¤áł³
áł² áł¤áł·
áł¦áł® áł¡áł¯
áłłáł¯ áłłáłŃáł°áłłáł¨
Ġáł¨áł¤áł¨ áł²áłłáłŃ
áł¡áł· áł¡áł¬áł¦
Ġáł¥ áł¬áł¢áł¨
¯ áłłáł·
Ġáł¸ áłłáł¨
Ġáł¬áł¤áł· áł¢áł¶
Ġáł³áł¡áł®áłµ áł¢áł¯áłŃáł¡
ł ¾
á ł¾
Ġáł¬ áłłáłªáł¤áł·
Ġáłµáł£áł¬áł¢áł¶ áłłáłŃáł´áł¢
Ġáł¢áł³ áł¡áłµáł¦
Ġáł£áł· áłŃáłłáł¨áł¢áłŃ
Ġáł³áłłáłŃáłłáłŃ áłłáł®áłłáł¯
áłłáł¨ áł²
áł£áł¯áł ¯áłłáł·
Ġáłµáł¢áł·áłŃ áł¤áłŃáłłáł¨
Ġáł¬áłłáłª áł²áłłáł°áł¤áł¨
ĠáłŃáł¦áł¢áł´ áł¡áł³áł¬áł¡áł¬áł¦
Ġáł²áł¤áł ©
Ġáł¡áłª áł¦áł¯
Ġáłłáł®áłłáł· áłłáł¯áł²áłł
Ġáłªáł¥áłŃ áł¡áł®
¯áłªáł¤áł· áł¢
áł¢áł ½
Ġáł°áłłáł¬áł¢áłŃ áł¤áł¯áł°áł¤áł¨
Ġáł¬áł¥áł®áł¦áłµ áł¢áłŃáł¦áł¯áł¬áł¦
Ġáł¬áł£áł¨ áłµ
ĠáłŃ áł¦áł·
Ġáł¶ áł§
r o
Ġáł´áłłáłŃ áłłáł·áł¢áłŃ
Ġáł²áł£áłŃáł¯ áłłáł¯áł²áłł
Ġáł°áł£áł· áł¢áł¨áłµáł¢áł¨
Ġáłº áł£áł³
Ġáł¬ áł¡áł¨
áłłáł® áłłáłŃ
Ġáł´áł¢áł° áł¤
Ġáł¨áł¥áłŃ áł¥áłŃáł¡
Ġáł® áł¤áł·
áłłáłµ áł¢áłŃ
Ġáł¬áłłáł©áłŃ áłłáłŃáł°áłłáł¨
Ġáł¤áł¨ áł²áłłáł·
Ġáł¬áł¥áł³áł¡áł¯áł ®áł¦áł·áł¢
Ġáł¨áł¡áłŃáł¡áłŃ áł¡áłµáł¦
Ġáł¬áł¥ áł¬áł¡
Ġáł¡ áł¶
Ġáł£áł©áłŃáł£áł´ áłł
s t
Ġáłµ áł£áł¯
Ġáł¡áł·áł³ áł¡áł¨
Ġáł¡áł·áł¬áł¢áł¯ áł¡áłŃáł´áł¢
áłłáł· áłłáłµáł¤
Ġ K
Ġáł¥áł® áł´áł¢áł¯
áł¦áł¯ áł¦áł¯áł²áł¡
áłłáł® áłµáł¢áł¯
Ġáł²áł£áłŃáł² áłłáł´áłł
Ġáł¬ áł¢áł¯áłª
Ġáł¬áłłáł· áłŃ
Ġáł¬áł¢áł¯áłª áłłáł·
Ġáł¥áł·áł¨áł¢áłŃ áł¦áł¯áłµáł¦
áłłáłŃáł¤áł¯ áłł
Ġáłłáł· áł¢áł¬áł¢áł¨
Ġáł¶áł£áł° áł£áł¯áłłáł¯
áłłáłŃ áł°áłłáł³
Ġáł°áł¢áłŃ áł¦áł¬áł¦
Ġáł³áł£áł·áł£áłŃ áł°áł¢
áł¦áłµ áł¢
Ġáł¢áł©áłŃ áł¢áłªáł¡áł¯
Ġáł²áł¤áł° áłłáłŃáłłáł·
Ġáłªáł¤áł³áł¤áł¯ áł¢áł¶áłłáł¨
Ġáł² áłłáł¬áł¢áł¨
ĠáłŃáłłáł¶áł¢áł ¬
áł¨ áłłáł¨
Ġáł¬áł¦áł´áł¦áł¯ áł¡áł´áł¡
¯áł ¯
Ġáłłáł®áł¢áł³ áł¤áł·
Ġáłªáł£áłŃáł£áł³ áłłáł¯
Ġáł¡áł· áł¡áł®áł¡áł¯áłµ
Ġáłłáł½ áł¢áł¶
ĠáłłáłŃáł¤áł· áł¬áłłáł¶
ĠáłµáłłáłŃ áłłáł¯áł³
Ġáł¦áł¨áł³áł¦áł° áł¦áł²áł¡áł¨
Ġáł¬áłłáł·áł¢áłŃ áł¤áł¯áł²áłł
ĠáłłáłŃ áł¤áł¯áłµ
áł´áł¢áł¯ áłłáł¯
ĠáłŃáł¤áł¸áłłáł© áł³áł¦
Ġáł¶áł¡áł·áł¦áł© áł¬áł¡áł¢
m m
Ġáł¢áł¯áł¡áł·áł¬áł¡áł¶áł¢áł¯ áł¡áł¬áł¦
Ġáł°áł¢áł¶áł³áłªáł¦áł· áł¢áł¯áł¡áłµáł¦
Ġáł°áłłáłŃ áłłáł³
Ġáł²áł£áłŃáłłáł´áł¢áł¯ áłłáłŃáł°áłłáł¨
Ġáłµ áłłáł¯áłłáłŃ
áłłáł° áł¢áł·
Ġáł° áłłáłªáłł
Ġáłªáł£áł °
Ġáłł áł³áł¬
Ġáł®áł¢áł©áłŃ áłłáł¨
ĠáłŃáł£áł£áł ¯áł¯
Ġáłªáłłáł¯áłŃ áłłáł°áł¤áł¨
áł¤áł° áł¤áł¨
Ġáł² áł¤áł¯
áł¸ áł¤
Ġáł¨áł¡áł® áł¡áł¬áł¦
Ġáł¬áł¥ áł·áł¥áłŃ
Ġáł£áł¶áł¢áł¯áłłáłŃ áłłáłŃáł³áłłáł¬áł¤áł¨
Ġáł¥áł©áłŃáł¡áł· áł¡áłŃ
Ġáł°áłłáłŃáł¤áłŃ áłłáł¯áł¢
ĠáłŃáł£áł¸áł¯áł³ áłłáł¯áłŃ
Ġáł³áł¤áł®áł³ áłłáł¬áł¢
Ġáł¢ áł®áłłáłŃ
Ġáł¨áł¡áł· áł¡áł²áł¦
áł¡áł´ áł¢áł¨
Ġáł¦áł· áłªáł¢áł°
Ġáł²áł¤áł¬ áł¢áł·
áł¸ áł¯
áł£áł ¯áł²áłł
Ġáł¨ áł¢áł·
Ġáłłáł· áłłáł°áł¤
Ġáł´áł¡áł© áłŃáł¡áł¯
Ġáł¦áł¨ áł¡áł¯áł¡áł¯áł²áł¡
² áł¤
Ġáł²áł£áłŃ áł£áłŃáłłáł¨
Ġáł³ áł¡áł¯áł¡áł¬
ĠáłŃáł£áł ¶
Ġáł¦áł·áłªáł¢áł° áł¦áł¯
áł° áł¡áłŃ
áł¯áł¥ áłŃáł¡
Ġáłª áł¢áł¯áł¢áłŃ
Ġáł£áł·áł£áł° áł¢áł¨
Ġáł°áł¡áł¯áłª áł¢áł¨
5 0
ĠáłŃ áł¥
Ġáł¡áłŃáł¦áł°áłŃ áł¡áłŃáł´áł¢
Ġáł¬áł£áł· áł£áłŃ
áł° áł²
Ġáł¬áłłáł¯ áł¢áł°áł¤
Ġáł¡áł´ áł¡
Ġáł®áł§ áł¶
áłŃáł¡áł¯ áł¢áłŃ
áł¤áłŃ áł¤áł¯
Ġáł£áł¶áł¢áł¯ áłłáłŃáłłáłŃáł°áłłáł¨
Ġáłªáł¡áł· áł¬áł¡
Ġáł°áłłáł¨áłłáłŃáłłáł´áł¢áł¯ áłłáłŃ
Ġáł¬áłłáł³áłłáłŃáłłáł¯ áłłáł®áłµáł¢
ĠáłŃáłłáł·áłŃ áłłáł¨
e t
Ġáł²áł¡áł© áłŃáł¡áł¯áł¢áłŃ
Ġáł°áł¢áł¯ áł¦áłŃ
Ġáł¨áł¥ áł¬áł¥áł·
Ġáł£áł¶áł¢áł¯ áłłáłŃáłłáł¯áł²áłł
Ġáłªáł¢áł´ áł¢áł¬áł¦
Ġáł¡ áł¦
Ġáł¦áł¶áł¯áł¡áł³ áł¦áł¯
Ġáł¶áł¢áł °
Ġáł´áł¢áł¯áł¥ áłŃ
ĠáłŃ áł¤áł¯áłŃ
Ġáłªáł¤áł· áł¬áłłáł¨
Ġáł£áł·áł£áłŃ áł¤áł¯áł¤áł¨
ĠáłŃáł£áł¸ áł¯áł
Ġáł¥ áłª
Ġáł¬áł¤áł¨ áł³áłłáłŃ
Ġáł¡áłŃáł¦áł° áł¬áł¦
Ġáł¥áł· áł¯áł¥áłŃáł¡
ĠáłŃ áł£áł®
áł¥áłŃ áł¡áł¯
Ġáł¬áł¦áł´ áł¦áł³áł¡áł¯
Ġáł¬áł¦ áł¢áł²áł¡áł¨
ĠáłŃ áł¤áł¸áłłáł¨
Ġáł¢áł®áłłáłŃ áł²áłł
Ġáł¬áł¡áł·áł¡áłŃáł° áł¡áł¬áł¦
Ġáłµáł¤áłŃáłłáł´ áłłáł¯
Ġáł¡áł·áł³áł¡áł¨ áł¢
Ġáłªáłłáł¶áł¢áł´ áłłáłŃáłłáłµáł¤
Ġáł³áłłáłªáł² áłłáł¨
Ġáł¬áłłáł¯áł³ áłłáłªáł¤áł·
Ġáł¥áł¨ áł´áł¥áłŃ
Ġáł°áłłáłŃ áł°áł¤áł¨
Ġáł¦áł¢áł¯áł¡áł³áłªáł¦áł· áł¢áł¯áł¡áł¬áł¦
áł´ áł¢áł¬áł¦
Ġáł°áł¢áłª áł²
Ġáłµáłłáł¯áłłáłŃ áł¤áł´áł¤áł³
áł¢áłŃ áł°áł¡áł¨
Ġáł¬áł¥ áł¯áł¥
Ġáł¡áł· áł¢áł¬áł¦
Ġáłłáłµ áłł
Ġáł¢áł¯áłŃ áłłáł¨
Ġáł¦áł¨ áł¡áł²áł¦
áł¡áł³ áł¡
Ġáłªáł£áł¯áłª áłł
áłłáłŃáłłáł¶áł¢áł¯ áłłáł¨
áłµáł¢áłŃ áł¤áł¯áł¬áł¤
Ġáłªáłłáł·áł¢áł®áł² áłłáł¯áłłáłµáł¤
ĠáłªáłłáłŃáłłáł° áł¬áłłáł¬áł¤
Ġáł± áłłáł°áł¢áł¨
Ġáł¨ áłłáł°áł¢
a c
áłłáł¯ áł¢áł©
Ġáł®áłłáł© áł¯
ĠáłłáłŃáł¤áł¯ áł¤áłŃáł³
Ġáł¨áł¡áłŃ áł¡áł¯áł¡áł¬áł¡áł¶
Ġáł³áłłáłª áłłáłµáł¤
Ġáł¨áł¡áł®áł¡áłŃáł³ áł¡áłŃáł¦áł¯áł¬áł¦
Ġáłłáł©áł¬áłłáł· áł´áł¤
Ġáł¤áł·áłŃ áł¤áł®áłłáł¯
áł¸ áł¦
Ġáł¢áł²áł¡áłŃ áł¡áł®áłµáł¢
Ġáł¨áł¢áłŃ áł²
Ġáł¡áł²áł¡áłŃ áł¡áł·
Ġáłłáłªáł´áł¢áł· áłłáłµáł¤
Ġáł´áł¢áłŃ áł¢áłŃ
Ġáł´áł¤áłŃáł¯ áłłáłŃáł¤áł¯áł¬áł¤
áł¡áłŃ áł¦áł¯áł³áł¡áłŃ
Ġáł°áłłáł ¯áłªáł¤áł·áł¢
Ġáł²áłłáł¨áł¢áł¯áł´ áłłáłŃáł¤áł¯áłŃ
Ġáł¬áłłáł·áł¢áł´áłłáłŃ áł¤áł¯áłªáłłáł¯
áł¢áłª áłłáł¯
Ġ2 1
ĠáłªáłłáłŃáł¤áł· áłłáłŃáł¤áł¯áł¬áł¤
Ġáłµáł¦ áł¢
Ġ J
Ġáł¬áł¦áł·áłŃ áł¡áłµáł¦
Ġáłªáłłáł¶áł¢áł ¯
áł³ áł¦áł¨áł¢
Ġáł´áłłáłŃ áłłáł°áł¤áł¨
Ġáł¦áłµ áł¡áłŃáł°áł¡áł¨
Ġáł´ áłłáł¯áł¢áł©
ĠáłŃáł¤áł¸áłłáł© áłµáł§áł¦
Ġáł¨ áł¡áłª
Ġáł²áł¤áł· áł°áł¢
Ġáł²áł¥áł¯áł¥áłªáł¯ áł¡áł¬áł¦
Ġáł²áłłáł¯ áłłáł·
Ġáł¬áłłáł·áł¢áł¯áł´ áłłáł¬áł¤
Ġáł°áł¢ áł¤áł¢
Ġáł£áł¨ áł£áł°
Ġáł¦áł¨áł³áł¦áł° áł¦
Ġáł¤áł¬ áł¢áł¶áłłáł¬áł¤
¸ áłłáł¨
Ġáł¬áł£áł¶áł¢áł ²áł¤
ĠáłŃáł¤áł¶áł¤áł´áł¢áł¯ áłłáł¯
ĠáłŃáł£áł¶ áł£
Ġáł²áł¡áłŃ áł¤
Ġáłªáłłáł¶ áł¬áł¤
Ġáł²áł¤áł ©áłŃ
Ġáł¢ áł¯áł²
§ áł²
Ġáłªáłłáł· áł¢áł¬áł¤
áł¤áłŃ áł¤áł¯áł¤áłŃáł°áłłáł¨
Ġáł³áłłáł· áł¤áł®
Ġáłªáł£áł¯áł´ áł¢áł¬áłłáł¨
Ġáł¨áł¡áł¶áł¢áł ³
Ġáł®áł¡áł³ áł¡áłµáł¦
ĠáłŃáł£áł¸áł¯áł³ áłłáłŃáł¤
Ġáł´áłłáłª áłłáł¤
Ġáł¤áł¬ áłłáł®áł°áłłáł·
Ġáłłáł¶áł¤áł¯áłŃ áł¦áł¶
Ġáł£áł¶áł¤áł¨ áł´áł¢
Ġáł¡áłª áł¯áł¡áł¯
° áł¢áłŃ
Ġáł¤áł®áłłáł· áłłáł²áł¤
Ġáł¬ áł¡áł¶
Ġáł°áł¢ áł¢áł³
Ġáł³ áłłáł¯áł³áłł
Ġï ¹
Ġáł® áłłáł¯
Ġáł¨áł¡áł®áł¡áłŃáł³ áł¡áłµáł¦
Ġáł¡áł·áł¡áł®áł¡áł¯áłµ áł¡áł¯
áł¡áł³áł¬ áł¡áł¨
Ġáł¯ áłłáł¨
Ġáł°áł£áł¨áł¢áł· áł¬áłłáł¯
Ġáł¤áł³áł¤áł·áł¢áł³ áł¤áł¯áłŃ
áł¢áł³ áł¡
Ġáł³ áł¤áł¨áł¤áłŃ
Ġáł« áłłáł¶áł¢áł
áł¦áł© áł¨
Ġáł¢áł¯áł¡áł· áł¬áł¡áł¶
áł¡áł· áł¡áł¯
áł³ áł¡áłŃáł°áł¡áł¨
Ġáł¬ áłłáł¢
Ġáł¤áł©áł° áł¢áł¬áł¤
Ġ4 0
Ġáł°áł¤áł·áł¤áł¯áł´ áłłáł¯áłŃ
Ġáł¬áł¦áł¯áł¢áł¶ áł¡áł¬áł¦
Ġáł°áł¢áł¶áł³áłªáł¦áł· áł¢áł²áł¦
Ġáł²áł£áłŃáł² áłłáłŃáłłáł¯áł²áłł
Ġáł³áłłáł·áł¤áł® áłłáł¯áł¯
Ġáł¶áł¢áł ©
Ġáł¨áł¢áł³ áł¤áł¨
Ġáł°áł¤áł³ áł¤áł¯áł¬áł¤
Ġáł¬áł£áł¶ áłłáłŃáł¤áł¯áłł
Ġáł° áł¤áł¯áłł
Ġáłłáł® áł¢áł²áłłáł¨
Ġáł¨áł¡áł® áł¡áł·
Ġáł¬áłłáł·áł¢áłŃáł¤áł´áłłáł¯áłŃ áłłáł²áłłáł¨
áł¤áł·áłŃ áł¤
Ġáł°áł¢áł¢áł³ áłªáł¦áł·
áłłáł¯áł² áłłáł¶
áł¡áł² áł¡áł¨
Ġáł²áłłáł¶áł¢áł¯ áł¤áł¨
Ġáłªáł¥áłŃ áł¡áłŃáł¡áł¨
ĠáłªáłłáłŃáł² áłłáłŃáłłáłŃáł°áłłáł¨
Ġáłł áł´áł¢
Ġáłªáł£áł¯áłŃ áłłáł³áłłáłŃ
Ġáł°áł¢áł¶ áł¦
Ġáłªáł¦áł²áł¦áłŃ áł¡áł¬áł¦
Ġáł² áł¦áł¯áł¬
Ġáł´áł¢áł³ áł¬
áł¡áł´áł¢áł¯ áł¡áł¨
Ġáłµáłłáł· áł´áł¢áł®
Ġáłª áł£áł¢
Ġáł³ áł¡áł©
Ġáł«áłłáł¶áł¢áł °áłł
Ġáł¬áł¦áł´ áł¢áł¯áł²
áł³ áłłáłµáł¤
Ġ201 8
Ġáł¬áłłáł·áł¢áł´ áłłáł©áłŃáł¤áł¶
áł¡áł´ áł¡áł¯áł³
Ġáł¨áł¢áł® áłª
Ġáł¬áł£áł¬áł¢áł· áłłáł¯
Ġáł£áł¨áł´ áłłáłŃáłłáł¶áł¢áł¯áłłáł¨
áłŃ áł¢áł¯
áł¢áłª áł£áł·áł¢
Ġáł¬áł£áł¨áłµ áł¢áłªáł£áł·áł¢
Ġáł¬áł£áłµ áł¢áł®
Ġáł¬áł¥áłŃáł¡áłŃ áł¡áł´áł¡áł¯áł³
ĠáłªáłłáłŃáł² áłłáłŃ
Ġáłªáł£áł¯áł ³áłłáłŃ
Ġáłªáł¢áł¯áł §áł²
Ġáł° áł¢áł¦
áłłáł° áłłáł·
Ġáł²áł¥áł·áł¥áł¯áł¬ áł¢áł²áł¡áł¨
Ġáł²áłłáł®áł¢áł· áł´áł¢áł¨
³ áłł
Ġáłłáł¶áłłáł¨ áł³áłłáłŃáłłáł¨
Ġáł¢áł¯áł¡áł· áł¡áłŃáł¦áł¯áłµáł¦
Ġáł²áłłáł· áł¢áł¶
Ġáł¶áłłáłŃáłłáł¬ áł¢áłµáł¤
Ġáł¬áł¦áł· áł¦áł¨
Ġáł°áł¤áł· áł¬áł¤
ï¸ µ
áł¦ áłł
Ġáł°áł¢áł¶áł³áłªáł¦áł· áł¢áł¯
Ġáł´áł¢áł¯ áłłáłŃáł¤
Ġáł®áłłáł¨ áł³
Ġï¸ ķ
áł¢áł² áł¡áł¢
Ġáł¨áł¡áł¶áł¢áł ´áł¡áł¬áł¦
Ġáłµ áł¦áłŃ
áł² áł£áłŃ
Ġáł¬áł¦áł´áł¢áł¯áł² áł¥
Ġáł£áł ®
Ġáłłáł® áłłáł°áłłáł·
Ħ ĥ
Ġáłªáł¥ áł¸áł§
Ġáł¬áł£áł· áł£áł¬áłłáł¶
Ġáłªáł£áł¯áłªáłłáł°áł¤áł· áłłáłŃáł¤áł¯áł¤áł¯
áł¢áł® áłłáłŃ
Ġáł³áłłáłŃ áłłáłµáł¤
Ġáł³áłłáłŃ áł¤áł¸
Ġáłłáł°áł¢áłŃ áł²áłłáł¶
áłłáł² áłłáł¢
Ġáł¤áł¢ áł¢áł·
Ġáł¦ áł³
â Ħĥ
Ġ c
Ġáłµáł¥áłªáł°áł¢áł¶áł¡áł· áł¡áł¬áł¦
Ġáł¨ áł¢áł©
Ġáł³áłłáł©áł°áłłáł¯ áłłáłŃáł¤áł¯áł¤áłŃáł°áłłáł¨
Ġáł¶áłłáł·áł¢áł¯áł´ áłłáł¬áł¤
Ġáł¨áł¥áł¬áł¥áłªáł¥áł· áł¢
ĠáłŃáłłáł³áłłáłŃáł°áł¢áł¯ áłłáłŃáł¤áł¯áł¬áł¤
Ġáł°áł¡áł¯áłª áł¢áłŃ
áłłáł¶áł¢áł °
Ġáł²áłłáł¶áł¢áł ¸áłłáł¨
Ġáł¬áł¤áł· áł´áłł
Ġáł²áł¦áł·áł¦áłŃ áł¦áł¦
áłłáł® áł§áł²
r e
Ġáł¤áł¶áłłáł¯áł³áł¤áłŃ áł¤áł¯áł¤áł¨
Ġáł¬áł£áł °áł¢áłŃ
Ġáł¬áł¤áłªáł¢áł¶ áłłáł¯áł´
Ġáł²áł¤áł° áłłáł¯
Ġáł®áł¥áł· áłŃ
Ġáł¨áł¡áłªáł²áł¡áł· áł¡áłŃ
Ġáłłáł°áł¢áłŃ áł¯áłłáł¬áł¤
Ġáł³áł¡áł® áł¡áł¶
Ġáłµáłłáłª áł°áłłáł·
Ġáł¡áł© áł¨
Ġáł¡áł¨ áł¡áł¬áł¦
Ġáł°áł¦áłª áł¡áłŃ
Ġáł®áł¡áł³ áł¡áłŃáł°áł¡áł¨
áł´ áł¤áł¸áłłáł¨
Ġáł¶ áłłáł¯
Ġáł¶ áł¦áł©
Ġáł¹ áłłáł©
Ġáłµ áł¤áł¨
áł¡áł¶áł¢áł °
Ġáł¤áł¬ áłłáłŃáł¤áł¯áłŃ
Ġáł¬áł£áł¯ áłł
Ġáłłáł·áłª áł¢áł¯áłłáł¬áł¤
Ġáł¬áł¥ áł¯áł³
áł¬ áł¤áł¸áłł
Ġáł± áł¦áłµáł¢
Ġáłª áłłáłŃáłłáł¨
Ã Ĺ
Ġáł¢áł· áł¡áłµáł¦
áłłáł³ áłłáł¬áł¢
Ġáł¬áł¥áłŃ áł¥áł·áłŃáł¡
áł¦áłŃ áł¦áł¯áł¬áł¦
Ġáł¡áł® áł¦áł°
Ġáłªáłłáł¶áł¢áł ©áłŃ
Ġáł¬áłłáłª áł²
ĠáłŃáłłáł· áłłáł®
Ġáłµáł¢áłŃáł° áłłáłŃáłłáł¯áł²áłł
Ġáł² áł¢áł²
Ġáł²áłłáł¨ áł¢áł¬áł¤
Ġáł¬áłłáł©áłŃ áłłáł¨
Ġáł¬ áłłáł¯áł¬
Ġáłµ áł§áł¨
áł£áł´ áł¢
Ġáłµ áł§áł¦
Ġáł³ áł¡áł¶áł¢áł¯
Ġ2 2
Ġáł£áł¯áłŃ áł£áł¬áł¤
Ġáł¨áł¢áł³áł¤áł¨ áł¤áł¨
ĠáłłáłŃáł¤áł° áł¤áł¯áł´
áł¯ áł¦
ĠáłŃáł¡áł· áł¡áł¯áł²
áł¢áł³ áłłáł¯
Ġáł¥áł· áł¥áłŃáł¡áł¨
Ġáł°áł£áł¯áł¢áł¯áł´ áłłáłŃ
Ġáł¤ áł²
áł¢áłŃ áł¦áł¯
Ġáł¨áł¡áłªáł²áł¡áł·áł¡áłŃ áł¦áł¯áłŃáł¡
Ġáł´áł¢áł· áłłáł¶
áł¤áłŃ áłłáł¶
Ġáł¹ áł·
Ġáł¬áłłáł² áłłáłŃ
Ġáł³áł¡áłŃ áł¦áł¦
Ġáł°áł¡áłŃáł¦áł¯ áł¡áł·
Ġáł¬áłłáł®áł²áł¤áł·áłłáł¯áł´ áłłáłŃáłłáł¨
Ġáł¡áł® áł¡áłŃ
Ġáł¬áł¡áł ¯áłª
Ġáł®áł¥áł· áł¡áł¨
Ġáł¡áłµáł¡áł©áł¨ áł¡áł¨
Ġáłªáł¦áł² áł¦áł¨
áł¡áł¶áł¢áł´ áł¦áł³
áł¡áłŃáł¦áł¯áłª áł¡
ĠáłŃáł¡áł· áł¡áł´áł¢
Ġáłªáł¤áł³áł¤áł¯áł¢áł¶áłłáł¨ áł²áłłáł¶
Ġáł¨áł¡áł¶áł¢áł³ áł¡áł®
Ġáł¢áł¯ áł¢áł³áł¦
Ġáł³ áłłáłŃáł¤áł¯
áł² áł¡áł¶áł¢áł´áł¦áł³
Ġáł³áłłáłŃ áłłáłŃáł¤áł¯áł¤áł¨
Ġáłµáł¥áł·áł¢áł´ áł¡áłŃáł°áł¡áł¨
Ġáł³áłłáłŃáłłáł· áł¢áł¯áł²áłł
áł´ áłłáł¶
Ġáł² áłłáł©áłŃ
áł¢áł³ áłłáłŃ
Ġáłªáł¤áł´ áłłáłµáł¤
Ġáł¶áłłáłª áł¤áłµáł¤
Ġáł±áłłáł¨ áł³áł¦
Ġáłªáłłáł³ áłłáł·áłłáłŃáł¤áł¯áłµáł¤
Ġáłµáł£áł¬ áł¢áł¨
Ġáł°áłłáłŃ áł¤áł³áłłáł¯
Ġáł¬áł£áł¯áłªáł£áłŃ áł³áłłáł¬áł¤
Ġáł³áł¡áłŃáł¡áłŃáł° áł¢áł¬áł¢
áłłáł· áłłáłŃáł°áłłáł¨
Ġáł¨áł¡áłŃáł¦áł· áł¡áł°áł¦áł¨
áł¡áł¯ áł¡áł¯
Ġâ ĳ
ĠáłŃ áł·
Ġáł¨áł¡áł¶áł¢áł¯ áł¡áł®áł¡áł¯
áł¡áł ¯áłªáł¡áł·
Ġáł¥áłŃáł¡áł· áł¡áł´áł¢áł¯áł¡áł¬áł¦
Ġáł£áł·áł£áłŃáł¤áł¯ áł¤áłŃáł´áł¢
Ġáł°áł¤áł· áłłáłŃ
áłłáłŃáłłáł· áłłáł¶
áł¤áłª áłł
Ġáł¬áł¤áł¸ áłłáł·
Ġáł´áł¢áł·áł® áłłáł¶áł¢áł¨
ł ¯áł²áł¡
á ł¯áł²áł¡
Ġáł³áł£áł ¯
Ġáł¡áłª áł³
Ġáł¬áł£áł ª
Ġáł° áł¡áłµáł¢áłŃ
Ġáł¨áł¡áłªáł²áł¡áł· áł¡áłŃáł¦áł¯áł¬áł¦
Ġáłµáłłáł· áł¯áł¢áłŃ
Ġáłªáłłáł¶áł¢áłŃáł¤áł¯ áł¤áł¨
áł¡áł·áłŃ áł¦
Ġáłªáł£áł³áł£áł¯áł¬ áł¢áł¯áłłáł¬áł¤
Ġáłµáł¡áłŃáł¦áł³ áł¦
Ġáł¡ áł¯áłŃ
Ġáł¤áł¸ áł¯
Ġáł¬áł£áł·áł£áłŃ áł³áłłáł¯
áł´áł¢áł¯ áłłáłŃáł°áłłáł¨
áłĤ ï¸½
Ġáł£áł¨ áł³
áł° áł¢áł¶áłłáł¨
áł¢áł· áł¦
ĠáłŃáłłáłŃ áł´
Ġáłª áł¤áł¯áł´
Ġáł¶ áłłáł³áłłáłŃ
Ġáł¬áł¦áł· áł³
Ġáłµáł¢áłª áł¡áł·áł¡áł¬áł¦
áł¤áł´ áł¢áł¯áłłáł¬áł¤
Ġáł± áłłáłŃ
Ġáł¨áł¡áł· áł¡áł¶áł¢áł³
Ġáł¯ áł¢áł¶áłłáł©
Ġáł°áł¢áł©áłŃáł¡áłŃ áł¡áł¯áł²áł¡
Ġáł¬áłłáłŃáł¤áł· áł®áłłáłŃ
Ġáłªáł£áł· áł£
Ġáłµáł¦áł¶áł¯ áł¡áł°
Ġáł²áł£áłŃáł² áłłáłŃ
Ġáł¬áłłáł· áłłáłŃáł¤áł¯áłµáł¤
Ġáł¥ áł¯áł¥
Ġáł¢áł¯áł² áłłáł°áł¤
Ġáł¡áł¬áł¢áł¯ áł¡áłµáł¦
áłłáłŃáł³ áłłáł³áłłáłŃ
Ġáł¡áłŃáł¦áł° áł¦áłŃáł°áł¡áł¨
Ġáł®áłłáł· áłŃ
áłłáł° áłł
áł¡áłŃ áł¡áł¬áł¦
Ġáł²áł¤áł¯áłŃ áłłáłŃáł¤áł·
Ġáł¦áł¨ áł¡áł¯áł¡áł¨
Ġáł´áł¢áł¨ áł°áłłáłŃ
Ġáł¡áł® áł¬áł¢
áł¬áłłáł¶áł¢áł¯ áłłáł¨
Ġ2 3
áł¢áł¯áł ¬
áł´ áł¢áł©
áł³ áłłáł·
áł¢áłŃ áł¤
Ġáł¦áłµ áł¡áłŃáł´áł¢áł³
Ġáł¶áł£áł° áł£áł²
Ġáłµ áł¢áł°
Ġáłªáł¦áł·áł¬ áł¦áłŃáł¦áł¯
Ġáł²áł¤áł° áł¬áłłáł¶áł¢áł¯áłłáł¨
Ġáł° áłłáł¯áłµáł¤
Ġáł³áł¡áł¯áł¡áł¬ áł¡áł¢
Ġáłªáłłáł¶áł¢áł©áłŃ áł¤
áł¡áłŃáł¦áł¯ áł¦áł¯
Ġáłµáł¢áł·áłŃ áłłáł¯
Ġáłłáł·áłŃáłłáł´ áłłáł¬áł¤
Ġáł® áł¡áł°
Ġáł¬áłłáł³áłłáłŃ áłłáł¯áłłáłµáł¤
Ġáł¢áł©áłŃ áł¢áłµáł¦
Ġáł³ áł¡áł¯áłªáł¡áł·
Ġáł¶áł£áł° áł£áł¨
áł¬ áłłáłŃáł°áłłáł¨
Ġáł²áł¦áł°áł¢áłŃ áł¯áł¡áł¨
Ġáł¬áł¦áł´ áł¦áł²
Ġáł°áłłáł¨áłłáłŃ áł¤áł¯áłŃ
Ġáł´ áł¢áł¶
Ġáłµáłłáł° áłłáł®áłłáł¯
Ġáłłáł® áł¤
1 2
Ġáłªáł¢áł²áł¡áłŃ áł¦áł®áłµáł¢áł¯
Ġáł² áł¡áłª
Ġáł¤áł¨áł²áłłáł· áłłáłŃáłłáł¬áł¤
Ġáł¢áł¨ áł¢áł¶
Ġáł® áłłáł·áł²
Ġáłªáłłáł¶áł¢áłŃ áł¤áł¯áłŃ
ĠáłŃáł¡áł®áł² áł¦áł¯
Ġáłµáł¢áł¯áł£áłŃ áł£áł´áł¢
Ġáłµáłłáł¬ áł¢áł³áłłáł¯
Ġáł¶áłłáłª áł¤áłŃáł³
Ġáł¢áł· áłłáłŃáł¤
Ġáł¬áłłáł·áł¢áł¯áł´ áłłáłŃ
Ġáł¡áłª áł¬
Ġáł²áł£áł¨áł£áłŃ áł¯áłłáł¯
áł® áł¦
Ġáł²áł¡áł©áł´ áł¡áłŃáł¦áł·
Ġáłłáł´ áł¢áł¶áłłáł¯
Ġáł°áłłáł¶áł¢áłµáł¢áł· áłłáłŃáł¤áł¯áł¬áł¤
Ġáł´áł¢áł® áł¡áłŃáł¡
Ġáł¢áł¨ áłłáłŃ
Ġáłµáłłáł· áł¤áł´
ï¼ī áłĤ
Ġáł¤áł¬ áł¢áł¶
Ġáł² áł¤áłŃ
Ġáł³áłłáł¯ áłłáł¶
ĠáłŃáł£áł¸áł¯áł ¯
Ġ201 7
Ġáł¥áłªáł¡áł· áł²áł¡áłŃáł¡áł¨
Ġáłłáł¨ áłŃ
a m
Ġáł´áł¢áłŃáł¯ áł¡áłŃáł¦áł¯áł¦áł¨
Ġáł± áłłáł²áł¤
Ġáłłáłª áł¢áł¶
áł² áł¡áł·
Ġáł¡áł¬áł¢áł¯ áł¡áł¯áł²áł¡
Ġáł²áł¤áł©áłŃ áłłáł¯áłłáłŃ
áł¡áł¬ áł¡áł¶
áł¡áł¬ áł¦áł¶
Ġáł²áłłáł·áł¬ áłłáłŃáłłáł¬áł¤
Ġáłµ áł¦áł©
Ġáł¶ áł¤áł¸áłłáł¢
Ġáł¬áłłáłªáł² áłłáłŃáłłáł¶
Ġáłªáłłáł¬ áłłáł·
Ġáł¬áł¦áł¯áł¢áł¶ áł¡áłµáł¦
Ġáł£áł· áłŃáł¢áł¯
Ġáł¥áł©áłŃáł¡áł· áł¡áł¯áł²áł¡
Ġáł¨áłłáł¶áł¢áł· áłłáłŃáł¤áł¯áł¤áłŃáł´áł¢
° áłłáł¨
Ġáł¶áłłáł· áł¢áł¬áł¤
Ġáł²áł¥ áł·
ĠáłŃáł¦áł¶áł´ áł¡áł³
Ġáł³áł£áł ¬
Ġáł¬áł¦áł© áłŃáł¡áł¨
Ġáł¶ áłłáł³
Ġáł¦áł¯ áł¢áł¶
Ġáł²áł¤áł· áł°áł¢áł¨
Ġáł¬áł¥áł¨ áł¥áłŃáł¡áł¯
áł³ áł¡áłŃáł¡
Ġáł¡áł·áłŃ áł¢áł¯áł³
Ġáł¦ áł¬
a s
Ġáł®áł¡áł³ áł¡áłŃáł³áł¡áł¯
Ġ6 0
Ġáł¢áł° áł¬
Ġáł³áłłáł·áłłáłŃáłłáł¯ áłłáł¯
áł¤áł¯áł´ áłłáłŃ
Ġáł¶áł£áł°áł£áł² áłłáł¶
áł¡áł ¸
Ġáłªáłłáł¶áł¢áł¯áłŃ áłłáł¬áł¤
Ġáł¬áł¤áł³áłłáł¯áł³ áł¤áłŃ
Ġáł¥áł©áłŃ áł¡áł²áł¦
ĠáłŃ áł¤áł³
Ġáł¶áłłáł³áłłáłŃ áł¤
Ġáłªáł¥áłŃáł¡áłŃáł¡áł¨ áł¡áł·áł¡áł¯
Ġáłµ áł¤áłŃ
Ġáł³áłłáł· áł¤áłµáł¤
Ġáł¥ áł³
p p
Ġáł¹ áł¢áł½
áł¡áł¯áł ´áł¢
Ġáłµáł§ áłµáł¢áł¶áłłáł©
Ġáł³áłłáłª áłłáłŃáł°áłłáł¨
Ġáł¦áł° áł¦áł¨
Ġáł°áł¡áł³áł¬ áł¦áł¯
Ġáł¨áłłáł® áł¤áł·
Ġáł³áł¤áł· áłłáł¯áłłáł¯
Ġáłª áł¢áł·
áł¥ áł¨
Ġáłłáł°áł¢áłŃ áł¯
ĠáłŃáłłáł© áł¨
áł¦áł¯áłµ áł¡áł¶
Ġáł²áł¥áł¯áł¥áłŃáł¡áł¯ áł¡áłŃáł´áł¢
Ġáł³áł£áł² áł£áł¨
Ġáł¬áł¦áł¨áł³ áł¦áł³
Ġáłªáł¥ áłµáł¢áłŃ
áł¼ áł¢
Ġáł®áł¡áł° áł¡
Ġáł³áł¥áłŃáł¥áł® áł¬áł¡áł¨
Ġáł¹áł· áłłáł¨
Ġáł²áłłáł¶áł¢áł °áłłáł¨
Ġáł²áłłáł© áł°áłł
Ġáł¡ áł¬
Ġáłµáł£áłŃáł° áł£áł¬áł¤
áł³ áł¤áł·
Ġáł¤áł· áłª
Ġáł¯ áł£áł©
Ġáł¤áł¯ áł¡áłł
ĠáłłáłŃáł¤áł¯áł¤áłŃáł³ áłłáł´áłł
Ġáł¯áłłáłª áł³
Ġáł´ áł£áł¯
áł¢áłŃ áł¦áł·
Ġáł´áłłáł¬ áł¢áłŃáł¤áł·
ĠáłłáłŃ áł¤áł³
Ġáł³áł¤áł· áłłáł°
áł¤áł¨ áł¢
Ġáłªáł¦áł· áł¢áł³áł¬áł¡áł¯
áłłáł´ áł¤áł³
Ġ2 8
Ġáł´áłłáłŃ áłłáł°áł¤
o m
ãĢ Ĭ
Ġáł² áłłáłŃáłłáł¯
áłłáł¯áł³ áł¤áłŃáłłáł¨
áłłáł³áłłáłŃ áł´áł¢
Ġáł³áł¦áł· áł°
Ġáł¸ áłłáłŃáłłáł·
Ġáł°áł¢áł· áłŃ
Ġáł´áł¡áłªáł¡áł· áł¯áł¡áł¬áł¦
Ġáł¬áł¤áł¨áł³áłłáłŃ áłłáł²áł¤
Ġáłłáłª áł¤áłŃáłłáł³
Ġáłµáłłáł¬áł¢áł· áł¤áł¯
Ġáł¬áłłáł® áł¢áłŃ
Ġáłµáł¢áłŃ áłłáł°áł¤
Ġáł¨ áł£áłª
3 0
Ġáł°áł¢áł· áłª
Ġáłªáł¦áł²áł¦áłŃ áł¡áł¯áł´áł¢
Ġáł· áłłáł³
Ġáł¨áł¡áłŃáł¦áł· áł¡áł°áł¦
áł¤ áł¤áł·
Ġáł¡áłµ áł¡áł¯áł¡áł¬áł¦
áł²áłłáł· áłŃ
i s
ĠáłªáłłáłŃáłłáł° áł¬áłłáłµáł¤
Ġáł£áł·áł£áł¯ áłłáł¨
Ġáł³áłłáłŃ áłłáłŃáłłáł¬áł¤
Ġáł¬áł¥áł¨áł³ áł¡áł¶
áłłáł· áł¬áłłáł¶
Ġáł¡áłŃ áł¡áł¯
Ġáł¥áł®áł´áł¢áł¯ áł¡áł¯
Ġáł´ áł¥
áł¦áł© áłŃáł¦áł¶
Ġáł¬áł¡áł·áł¡áłŃáł¯ áł¡áłŃáł¡
Ġáłª áł¤áłµ
Ġáł²áł£áłª áł´áł¢áł¯áłłáł¯
áł£áł ¯áł³
Ġáł¡áłªáł¬ áł¡áł®áł¡áł¯
áłłáł· áłłáł¯
Ġáł´ áł¦áł©
ãĢĭ áłĤ
Ġáł¬áł¡áł¯ áł¡áł¯áłŃáł¡áł¨
áł£áł µ
Ġáł°áł¢áł¬ áłłáł®
Ġáłłáł®áł¢áł³ áł¤áł¯áł¢áłŃ
Ġáł³áł¡áłª áł°
Ġáł°áł¢áłª áłłáł·
ĠáłªáłłáłŃáł²áłłáłŃ áłłáł®áłµáł¢
Ġáł¬áł¡áł·áł¡áłŃáł¯ áł¡áłªáł¡áł¯
Ġáł£áł· áł´áł¢áłŃ
Ġáł¦áł¯ áł¦
Ġáł¬áł¦áł· áł¦áł©
Ġáł£áł¯áłŃ áł£áłŃáł°áłłáł¨
áłłáłª áłłáł·
1 1
Ġáł· áł¦áł¢
áłłáł¯áł² áłłáł¨
Ġ X
Ġáł°áł£áł¯ áł¢áłµáł¤
Ġáł¨áł¢áł®áłª áłłáł¶
Ġáłłáł©áł¬ áłłáł³áłłáłŃáł´áł¢
Ġáł£áłŃ áł²áłłáł·áłŃ
áł¡áłªáł¦áł· áł¢áł¯áł¡áł¬áł¦
Ġáł´ áł£
Ġáł¯ áł¦áł¸áł§
Ġáł¨áł£áłª áł°áł¢
Ġáł¯áłłáłªáł³ áłłáłŃáł¤áł¨
o u
6 0
Ġáł²áłłáł¶áł¢áłª áł¤áł©
ĠáłµáłłáłŃ áłłáłŃ
Ġáł¨áłłáł® áł²áłłáł·
áłłáł¯ áłłáł©
Ġáł² áłłáłŃáł¤áł¨
Ġáł²áł¡áł· áł¡áłŃ
Ġáł³áłłáł®áłµáł¢áłŃ áł¤áł¯áł¤áłŃáł´áł¢
áłĭ áłĤ
Ġáłªáł¡áł¯ áł¡áłŃ
i on
Ġáłªáłłáł¯áłŃ áłłáł°áł¤
Ġáłµáłłáłª áł°áł¢áł¶áłłáł¨
ĠáłŃ áł¦áł©
Ġáłµáł¢áł· áł®
áłłáłŃ áł¤áł¯áł³áłłáłŃ
Ġáł°áł¢áł¯áłµ áł¢áł®áł¡áł¯
Ġáł°áł£áł¨áł£áł° áł¬áł¤
áł³áł¡áłŃ áł¦áł¦
Ġáłªáł¤áł¯ áł¤áł©
Ġáł®áłłáł©áł¯ áłłáł¶
ĠáłŃáłłáł· áł¤áł¢
Ġáł²áłłáłª áłłáłŃ
áłŃ áł¨áł¢áłŃ
Ġáł¬áł¡áł¯áł¡áł¯áł´ áł¡áłŃáł¡áł·
Ġáł¤áł· áł¢áłµáł¤
Ġáł¤ áł³áłłáł¯
Ġáł¬áł¥ áł¬
áł¤áł ±
áł¢áł¯áł³ áłł
Ġáł°áł§ áł´áł¤áł¸áłłáł¨
Ġáł²áł§ áłŃáł¨áł¢áłŃ
ĠáłŃ áłłáł®áł°áł¢áłŃ
Ġáł¬áłłáł®áł²áł¤áł·áłłáł¯áł´ áłłáłŃ
Ġáł´áł£áł¯ áłł
Ġáł³áł¡áł®áłµ áł¢áł¬áł¦
Ġáłªáłłáł²áł¤áł¯ áłłáł¨
Ġáł¢áł¯áł¡áł· áł¡áłŃáł¦áł¯áł¬áł¦
Ġáł¬áł¥áłŃáłµáł¢áłŃ áł¦áł¯áł¦áł¯áł²áł¡
áł¡áł° áł¢áł¯
Ġáł¬áł¥ áł°áł¢áłŃ
Ġáł¶ áłłáłŃáłłáł·
Ġáł¡áłŃáł¦áł³ áł¦áł¯áł²áł¡
Ġáł¸ áł¢áł·áł¦
Ġáł²áł£áłŃáł¯ áłłáłŃáł´áł¢
Ġáł¡áłµáł¡áł® áł°áł¢áłŃ
Ġáł³áłłáł¬áł¢áł¨ áł²áłł
Ġáłłáł· áłłáł´áł¢áł¯
Ġáłªáł¢áł´ áł¢áłµáł¦
áł¢áł³ áł¢áł£
Ġáł°áłłáł´ áł¤áł·
Ġáł¬áł£áł¯ áł¢áł®áłłáłŃ
áł¡áłµ áł¡áł¢
áł¡áł° áł¢áł¨
Ġáł² áł¤áł¨
in g
áł£áł· áł¢áł¶áłł
áł¤áłª áłłáł·
Ġáł£áł· áł£
Ġáłªáłłáł¶áł¢áł·áł¢áł¯ áłłáłŃáł¤áł¯áł¤áł¯áł²áłł
c h
Ġáłº áłłáł³
Ġáłµ áłłáłŃáł¤áł·
áł°áł¥ áł¯áł²áł¡
Ġáłłáł®áł² áłłáł²áł¤
Ġáł¥áł® áł¡áł¨
Ġáł´áł¤áł¬ áł¤áł®
Ġ Â·
Ġáł³ áłłáł³áł¬áłłáł¯
Ġáłłáłª áł¤áłŃáłłáł¶
Ġáł®áł¥ áł´áł¡
Ġáł¥áł° áł¥áłŃ
Ġáł°áłłáł¯ áłłáłŃáłłáł¨
i l
Ġáł¤áł¬áłłáłŃáłłáł¨ áł´áł¢
Ġáłª áł¡áł¯áłŃáł¡
Ġáł¸ áł¢áł³áł¢áł£
Ġáł¡áłµáł¡áł® áł³áł¡áłµáł¦
áłµáł¢áłŃ áł¦áł¯áłµáł¦
áł¬ áł¡áł¬áł¦
î ī
ĠáłŃáł¡áł·áł¡áł´áł¢áł¯ áł¡áł¯
Ġáłªáłłáł· áłłáłŃáł°áłłáł¨
áł¤áł¯ áłłáł¬áł¤
Ġáł¬áłłáł®áł² áł¤áłªáłłáł·
Ġáł¨áłłáł¢ áł®áłłáł¨
áł£áł ©áłŃ
Ġáł²áł£áł³ áł£
Ġáłµáł¢áłŃ áłłáł°áł¤áł¨
Ġáł²áłłáł¨áł¢áł¯áł´ áłłáłŃáł¤áł¯áł¤áłŃáł°áłłáł¨
Ġáł°áł£áł©áłŃ áł£áł³áłłáłŃ
Ġáł° áłłáł©
Ġáł¤áł³áł¤áł·áł¢áł³ áł¬áł¤
Ġáłłáł¬ áł¢áł´áłł
Ġáł³áłłáłŃ áłłáłŃáłłáłµáł¤
Ġáłµáł¢áłŃ áł³áł¡
Ġáł²áłłáł©áłŃ áł¢áł°
Ġáł²áł¥áł¯áł¥ áłªáł¦áł·áł¢
Ġáłłáł¶áłłáł¨ áł´áł¢áł³
Ġáłº áł£áł·áł¢áł¶áłł
Ġáł¥ áł°áł¥áł¯áł²áł¡
Ġáł°áł¢áł· áł¦áłŃáł¦áł¨
Ġáł£áłŃ áł²
Ġáł¤áłŃ áł¤áł²áłł
áłłáł· áłłáłŃáł¤áł¯áł¤áł¨
áłłáł· áłłáł¬áł¤
Ġáł¬áł¦áł´áł¢áł· áł³áł¡áł¯
Ġáł°áłłáł¨ áłłáłŃáł¤áł¯
Ġáł®áł¡áł³áł¡áłŃáł¡áł¯ áł¡áł¯
Ġáł² áł¦áł¯
Ġáłªáłłáł¶áł¢áłŃáł¤áł¯ áł¤áłŃáł³áłłáłŃáł°áłłáł¨
Ġáł²áłłáł· áł¢áł¶áłłáł¨
Ġáł°áł¡áł³áł¦áłª áł²áł¦
Ġáł¨áł¡áł· áłª
Ġáł¬áł¡áł·áł¡áłŃ áł²áł¡áł¢
áł¡áłŃáł¦áł¯ áł¦áłŃáł´áł¢
Ġáł¡áł·áł¡áłŃ áł¦áł¯áłµ
Ġáł°áł¢áł¯áłŃ áłłáłŃáł¤áł¯áł¤áłŃáł´áł¢
ĠáłŃáł¦áł¨áłµáł¡áłŃ áł¡áł¶áł¢áł·
Ġáł¬áł£áł· áł¢áł¢
Ġáłµáłłáł¯áłŃ áłłáłŃáłłáł³
Ġáł± áłłáł¯
Ġáł°áł¤áł·áł¤áł¯áł´ áłłáłµáł¤
Ġáł¢áł¯áł¡áłŃ áł¦áł¸
Ġáł¬ áł¢áł¯áłŃ
Ġáłµáł£áł¬áł¢áł¶ áłłáł®áłłáł¯
Ġáł¥áł¨áł³ áł¡áłŃáł¡
Ġáł² áł¡áł¨
Ġáł« áłłáł·
áł¢áł´ áłłáł²
Ġáł£áłª áł£áł·
Ġáłªáł¢áł²áł¡áłŃ áł¡áł¶
áł£áł £áł
Ġ201 6
Ġáł´áł§áł© áł³áł¦
Ġáł¬áłłáł®áłłáłŃáłłáł¯ áłłáłµáł¤
Ġáł¬áł¢áł¨ áłłáł®áłłáłŃáłłáł¶
Ġáł¤áł¬ áł¢áł¶áłłáłµáł¤
Ġáł ¶áł¢áł¨
Ġáł¬áł£áł¶áł¢áł¨ áłłáł¬áł¢
Ġáł¨ áłłáł¶
áł¡áłŃáł¡áł· áł¡áł¶
Ġáł²áł¢áł² áł¢áł®
áł£áł® áł§áł²
Ġáł²áł¥áł·áł¥áłŃ áł³áł¡áł¯
Ġáł²áł£áłŃáł² áłłáłŃáłłáł¨
Ġáł²áł¡áł° áłªáł¦áł·
Ġáł¡áł¬ áł¢áł¯áł¡áł¬áł¦
Ġáłªáł¤áł· áł´áłłáłŃ
Ġáł¤áł© áł°áł¢áłŃ
Ġáł´áł¦áł© áł´áł¢áł©
Ġáłłáł°áł¢áłŃ áł¯áłłáł¯áł²áłł
áł¢áłª áł²áł¤áł·
Ġáł³áłłáłŃáł¤áł° áł¤áłŃáł°áłłáł¨
Ġáł¤áł¬ áłłáłŃáł³áłłáł¬áł¤áł¨
Ġáłµáłłáł¬áł¢áł¶áłłáł¯ áłłáłŃ
áł´ áł¤áł³
Ġáł²áł¥áłªáł¯áł¡áł· áł¡áłŃáł¦áł¯áł¦áł¨
Ġáłłáł³áłłáł¯ áł¢áłªáł²áł¤áł·
Ġáł°áł¤áł·áłªáł¤áł¯áłµ áł¢áł¯áłłáłŃ
Ġáł¨áł¡áł®áł¡áłŃáł³ áł¡áłŃáł¦áł¯áłµáł¦
Ġáł¹ áłłáł¨
Ġáł¸ áł¢áł´áłłáł²
Ġáł²áł¥áł· áł¬áł¦
¶áł¢áł ³áłł
áł§ áł¢
Ġáł® áł¢áłº
ĠáłµáłłáłŃ áł¤áł´áł¢
Ġáłªáł¥áł®áłª áł¥áłŃ
Ġáłªáłłáł·áł¢áł®áłµáł¢áł¶ áłłáł²áł¤
Ġáł® áł¡áł¬
ĠáłŃáł¤áł³ áł¤áł®áłµáł¢
Ġáł¡áł·áł¬ áł¢áł¯áł¡áł¬áł¦
Ġ2 6
Ġáł¡áłª áł¡áł³áł¬áł¦
Ġáł²áłłáłª áł¤áł³áł¤áłŃáłłáł·
Ġáł¦áłµ áł¡áł¶
Ġáł¥ áł´
Ġáł¹áł·áłłáł¨ áł¼áł¢
o l
áł¤áł·áłŃ áłłáł¨
Ġ2 7
Ġáłłáł¨ áłłáłŃáłłáł¬áł¤
Ġáłº áł¸
Ġáł³áł¤áł² áłłáłŃáł³áłłáł¯
Ġáł®áł¡áł³áł¡áł· áł¡áł¯
Ġáł¯áłłáłª áł¯áłłáł¬áł¤
Ġáł¬áł¥áł¨áł³ áł¡áł¶áł¢áł·
Ġáł¬áł¦áł· áł¦áłŃáł°áł¡áł¨
Ġáł¨áłłáł°áł¤áł² áłłáł¶
Ġáł¨áł¡áłŃáł¡áłŃ áł¡áłŃáł°áł¡áł¨
Ġáł¬áł¢áł® áł³áłł
Ġáł¢áł¯ áłłáł¯áł²áłł
áł« áł¢áł·
Ġáł¬áłłáłª áł¤áł³
Ġáłªáł£áł¯ áł¤áł¯áł´áłłáłŃ
Ġáł³áłłáł·áłłáłŃáłłáł¯ áłłáł¨
Ġáł¡áłŃáł¦áł³ áł´áł¦
áł¤áł¶ áł¢
Ġáł¬áłłáł·áłłáłŃáłłáł¯áłµ áłłáł¯
Ġáłłáł·áł¢áłŃ áł¤áł³
áłłáłµ áłłáł©
Ġáł¬áł¥áł¯áł¥ áł°áł¥
Ġ p
ª áł¤áł·
áłłáł¯áłµ áł¢
Ġáł° áł¤áł³áłłáł¯
ĠáłŃ áł¤áł¯
Ġáłª áł¤áł¯áłµ
Ġáł±áł¦áłŃ áł¦áł¬áł¦
Ġáłłáł© áł¬áł¢áł¯
Ġáł¥áł´ áł¦áł¬áł¡áł¨
Ġáł¦áłµ áł¡áłŃáł¡áł³
áł¡áł³áł¦ áł¢
Ġáł°áł¢áł¦ áł³áłłáł¨
Ġáł¬ áł¤áł¯áłł
Ġáł²áłłáł© áł¬áł¢áł®
ĠáłŃáł¤áł¶ áł¤áł´áł¢áł¯áłłáł¬áł¤
Ġáł¬áł¢áł´ áł¢áł¶
Ġáłªáł¦áł·áł¢áł¯áł³ áł¦áłŃ
Ġáłłáł¯ áłłáłŃ
Ġáł¡áł· áł¡áł°
ĠáłŃ áłłáł¬áłłáł¶
Ġáł¥áł· áł¥áłŃáł¡
Ġáłªáł¢áł´ áł¢áł¯áłŃáł¡
Ġáł¤áłŃ áł¤áł·áłłáłŃ
ãĢ ķ
Ġáł°áł¢áł² áłłáł®
Ġáł¡áł·áłŃ áł¢áł´
Ġáł¢áł¯áłŃ áłłáłŃ
Ġáł´áł¢áł·áł®áłłáł¶áł¢áł µáł¤
Ġáł²áł£áłŃ áł£áłŃ
Ġáł²áł¤áł° áł¤
Ġáł¶ áłł
Ġáł¥áłŃáłŃ áł¦áł¨
áł¡áłµáł¢áłŃ áł¦áł¯áł¬áł¦
Ġáł³áłłáł¯ áłłáł¢
áłµ áł¦
Ġáł¹áł¢áł½ áł¢áłº
Ġáł¬áłłáł· áłª
Ġáł³áł£áł·áł£áłŃ áł°áł¢áł¯
Ġáł¡áłµ áł¡áł¯áł¡áłµáł¦
Ġáł£áł©áłŃáł£áł´ áłłáł¨
Ġáł² áł¡áł¸
Ġáłµáłłáł¯áłŃ áłłáł¬áł¤
Ġáłłáł©áł¬áł¢áł¯ áł¤áł®
Ġáłµáł£áłŃáł°áł£áłŃ áłłáł¬áł¤
Ġáł®áł¡áł³ áł¡áłŃáł´áł¢áł³
ĠáłªáłłáłŃ áłłáł´áł¤áł³
áłłáł³ áł¦
Ġáłµáł¥áłŃ áł¡áłŃ
ĠáłŃáł£áł ¶áł¢áł³áłł
Ġáł¬áł¦áł·áł¦áł© áłŃáł¡
Ġáłªáłłáł· áł¢áł¯
Ġáł¾ áł¤áł¶áł¢
Ġáłªáłłáł¶áł¢áł· áł¢áł¨
Ġáł· áł¦áł©
ĠáłŃáł¤áł¯ áł¢áł·
Ġáłµáł¢áłŃ áłłáł¯áł²áłł
áłłáł¶ áł¢
Ġáłªáł£áł¯áłª áłłáł°áł¤áł¨
Ġáł¬áł¡áł¯ áł¡áłªáł¡
Ġáł¦áł¢áł¯áł¡áł³ áł¦áł¯áłŃáł¡
Ġáł¨áłłáł¢ áł®
Ġáł´áł£áł© áł¬áł£
Ġáł±áłłáłŃ áłłáłµáłłáł©
Ġáł² áł¡áł³áł¬
Ġáł°áł¤áł·áł² áłłáł¯
Ġ îī
Ġáłªáł¤áł¯áłµ áł¦
áłŃ áł¡áłµáł¦
Ġ19 9
Ġáł¡áł®áł´áł¢áł¯ áł¡áłŃáł¡
Ġáł¬áł¥áłŃáłµ áł¢áł¬áł¦
Ġáł¦áł¨ áłŃáłŃáł¡
Ġáł£áł· áł´áł¢áł¯
Ġáłµáł¢áł¶áłłáł© áł°áł¦
ĠáłŃáł¡áł° áł¢áłŃ
áł¢áł¶áł¡áł³ áł¡
áł¢ áłł
e d
Ġáł®áłłáłŃ áł¤áł³
Ġáł®áł¢áłº áł·
áł² áł¤áł¨áł¢
Ġáł¾ áł¸
Ġáłłáł· áłłáł¯
Ġáł°áł¦áłªáł¡áłŃ áł´áł¢áł¯
Ġáłªáł¤áł³ áłłáłŃ
Ġáłªáł¡áł¯ áł¡áł¨
Ġáł´ áł£áł®
Ġáł¬áł¡áłµ áł¢áł¶áł¡áł³áł¡
Ġáł¬áł¥áł³áł¡áł¯áłŃáł¡áłŃáł¦áł· áł²áł¦
ĠáłŃ áł¸
Ġáł³áł¡áłª áł°áł¢áłŃ
Ġáł¨áł¡áłªáł²áł¡áł· áł¡áł¯áł´
Ġáł°áł¡áł·áłŃáł¦áłŃ áł¡áł¬áł¦
áł£áł³ áł£áł¨
áł° áł¦áłŃ
áł´ áłłáłµáł¢áłŃ
Ġáł´ áł¢áł¦
Ġáł¬áł¥áł¨áł³ áł¡áł¯áł¡áł¨
Ġáłªáłłáł¶ áłłáł°
Ġáł¬áł¦áł¶ áł¦áł³áł¡áł¯
Ġáł¬áł£áł· áł¢áł¨
Ġáł´ áłłáł¶áł¢áł·
Ġáł°áł¢áł·áł¬ áłłáł²
Ġáł°áł¢áł©áłŃáł¡áłŃ áł¡áł¬áł¦
Ġáł¡áł®áł¡áłŃ áł²áł¡áł¶áł¢áł´áł¦áł³
Ġáł® áłłáł¯áł²
Ġáł¬áłłáł®áł¢áł¶áłłáł· áł¤áłŃáł´áł¢
Ġáł²áł¦áł·áł¦áłŃ áł¦áł¸
Ġáł°áł¢áłŃ áł¤áł¶
1 5
Ġáł³áłłáłŃ áł¤
Ġáł¤áłŃáł°áłłáł· áłłáłµáł¤
Ġáłµáł¢áł¯áł£áłŃáł£áł³ áł´áł¤
áłłáł ½
Ġáł¨ áł£áł
Ġáł´áł¢áł·áł®áłłáł¶áł¢áł ¯áłŃ
áł£áłª áł´áł¢
Ġáł¢áł¯áł¡áł· áł¡áłµáł¦
ãĢ ī
Ġáł²áłłáł¯ áłłáł°
ĠáłªáłłáłŃáł² áłłáłŃáłłáł¨
Ġáłªáłłáł¶áł¢áł µáłłáł¶
áł¦áł¬ áł¦áł·
Ġáł¬áłłáł· áłłáł®
áłłáł¶áł¢áł° áł§áł·
Ġáł³ áłłáł¬
Ġáł³áł¡áł© áł³áł¡áłŃáł¦áł¦
áł¦áł®áłµ áł¢áł¯áł¡áł¬áł¦
Ġáł´ áł¢áł¶áłłáł¨
Ġáł¯ áł£áł£
Ġáł¡áł® áł¬áł¢áł¯
Ġáłµáł¢áł¶ áł§
Ġáł¢áł²áł¡áłŃ áł¡áłµáł¦
Ġáł¯ áł¢áł¶áłłáł¨
ï¼ Ī
Ġáł¬áł¡áł¦ áł¬áł¡áł¨
Ġáłµáł£áł·áł¢áłŃ áłµáł¢áłŃ
Ġáł¢áł· áłŃáł¡áł¨
Ġáł¬áł¤áł· áł³áł¤áł¨
Ġáł¢áł· áł¡áłŃ
Ġáł¶áłłáłŃáłłáł¬ áł¢áłŃáłłáł³
Ġáł¤áł·áł¤áłŃ áł°
Ġáł¢áł· áł£áłŃáłłáł·
áł¬ áłłáł·
Ġáł¡áł¯ áł¡áł°áł¦áł¨
Ġáł³áł¤áł² áłłáłŃáł³áłłáłµáł¤
ï¸ Ķ
Ġáłµ áł¡áł®
Ġáł²áł¥áł¯áł¥áłªáł¯ áł¡áłŃáł¡áł¨
áł¦áł² áł¦
Ġáł¬áł¦áł´áł¦áł² áł¡áł¶
Ġáł® áłłáł¶áł¢áł
Ġáł¥áłŃáł¡áł·áł¡áł´áł¢áł¯ áł¡áł¨
Ġáłµ áł£áł£
áł¢áł¨ áł¢
Ġáłªáł¥áł®áłªáł¥áłŃ áł¡áł´áł¢áł¨
Ġ201 5
Ġ a
Ġáł¯ áłłáł¶áł¢áł°áł§áł·
Ġáłłáł·áł¢áł¯áłŃ áłłáłµáł¤
áłłáł° áłłáł¨
Ġáł¤áł¤áłŃ áł¤áł¬áł¤
áł§áł¨ áłłáł¨
áł¤áł º
áł¨ áł¤áłŃáł¤áł³
Ġáł¬áł¦áł´áł¢áł· áł²áł¡áł¶
Ġáł¨áł¡áł®áł¡áłŃáł³ áł¡áł¬áł¦
Ġáł¬áłłáł® áł¤áł·
Ġáł³áłłáł®áłµáł¢áłŃ áł¤áł¯áłµáł¤
áł¡ áł¡áłŃ
8 0
ł Ĭ
á łĬ
Ġáł²áłłáł¨ áł¢áł¯áł²áłł
Ġáł¨ áł£áł¬áłłáł¶
ï¸ ĸ
Ġáł´áł¢áł¬áł¤áł¯áłłáł´áł¢áł¯ áłłáłµáł¤
Ġáłłáł© áł¬áł¢
Ġáłłáł°áł¢áłŃáł¯ áłłáł®áłµáł¢
áł¡áł³áł¬ áł¡áłŃáł°áł¡áł¨
Ġáł¨áł¡áł·áł¡áł¶áł¢áł³ áł¦áł¯
áł® áłłáłŃáłłáł¶
Ġáł¬áłłáł¶áł¢áł¯ áł¤áł°áł¢
áł¡áł®áłµ áł¢áł²áł¦
Ġáłłáł® áłłáł¨
Ġáł²áł¤áł° áł¬áłłáł¯
1 9
Ġáł¤áł· áłªáłłáł¯
Ġáłµ áłłáłŃáł¤
Ġáł¨áłłáł¶áł¢áł· áłłáłŃáł¤áł¯áł¤áł¨
Ġáł¡ áł¯áł¢áłŃ
Ġáłłáł°áłłáłŃ áł¤áł¯áł²áłł
Ġáłª áł¡áł¯áłŃ
Ġáł°áł£áł©áłŃ áł£áłŃáł°áłłáł¨
Ġáł¡áł· áł¦áłŃáł¡
Ġáł± áł¤áł·áłłáłŃ
Ġáł´áł¢áł³ áłłáłŃáł°áłłáł¨
Ġáłªáł¢áł³ áłł
Ġáłªáłłáł¶áłłáł· áł¯áłłáł¨
Ġáł²áłłáł· áł¢áł¬áł¢áł¨
Ġ Q
Ġáłªáł¡áł· áł¬
Ġáł£áłŃáł²áłłáł·áłŃ áł¤áł¶
Ġáł¦áł· áł³áł¡áłŃáł¡
ĠáłŃ áł¢áł¯
Ġáł°áł¤áłª áł¤áł·áłŃ
Ġáł¬áł¤áłª áł¢áł¶áłłáłµáł¤
Ġáł¡áłŃ áł¡áł³
Ġáł³ áł¡áłªáł²
Ġáł¡áł©áł¨ áł¡áłŃáł¡
áł¡áłª áł°áł¡áłŃ
Ġáł¬áł¦áł° áł¡áł¨
Ġáł¬áłłáłªáł°áł¤áł· áł´áł¤
Ġáłµáłłáł¶ áłłáłŃ
Ġáłºáł¢áł¯ áł£áł®áł§áł²
2 2
Ġáł¤áł· áł¢áł²
Ġáł¬áł¤áłªáł¢áł· áłłáłŃáł¤áł¯áłµáł¤
Ġáł´áł¢áł©áłŃáłłáł³ áł¬áłłáł¬áł¤
Ġáł¤áł¨ áł¤áł¯
Ġáł¬áł£áł ³
Ġáł¬áł£áł³ áł£áłŃ
Ġáł®áłłáłŃ áł²
Ġáł¥áł©áłŃ áł¡áł¨
ĠáłªáłłáłŃáł¤áł¯áłŃ áłłáł¬áł¤
Ġáł¤áł¬áł¢áł¶ áłłáł¯áłŃ
Ġáłªáł¥áłŃ áł¡áł·
Ġáł°áł¢áł¶ áłł
Ġáł¨ áłłáłªáł´áł¢
Ġáł¨áł¡áł¶áł¢áł´ áł¡áłŃáł°áł¡áł¨
Ġáł³áł¡áłŃáł¡áłŃáł°áł¢áł¯ áł¡áłŃáł¦áł¯áł¦áł¨
Ġáł¥áł·áłŃ áł¡áł³áł¬áł¡áł¬áł¦
ĠáłªáłłáłŃáł¤áł· áłłáłµáł¤
Ġáłµ áł¦áłŃáł¡áł·
Ġáłµ áł¡áłªáł°áł¡áłŃ
Ġáł¢áł³ áł¡áł°áł¢áł¨
ĠãĢ Ī
Ġáł¤áł· áł¤áł¢
Ġáłµáłłáł³ áłłáł¯áł¬áł¤
áł² áł¤áł°
Ġáł¦áłµ áł¡áł³áł¡áłŃ
Ġáłºáł£áł® áł¢áł°
Ġáł¥áł©áłŃáł¡áł· áł¡áł¬áł¦
Ġáł· áł§áł¨
Ġáł¡ áł°áł¢
Ġáłłáł° áłłáłŃáł¤áł¨
ĠáłŃáłłáł· áł´áłłáłŃ
Ġáł¡áłŃáł¦áł·áłŃáł¡áł¯ áł¡áł¬áł¦
Ġáł¶áł¡áł¬ áł¡áł³áł¡
Ġáł¢áł¯áł¡áłŃ áł¦áł¬áł¡áł¨
Ġ s
Ġáł²áłłáłŃáłłáł¯ áłłáł®áłµáł¢áł²áłłáł¶
Ġáłµáł¢áł· áł¤áł¬áł¤
áł¢áł «
áł¢áł¬ áł¦áł¶
Ġáłłáł¯áł¤áł° áł¯áłłáłŃáł°áłłáł¨
áłłáłŃ áł¤áł¯áłªáłł
Ġáł²áł¤áł°áłłáł¯ áłłáł®áłµáł¢
Ġáł²áł¡áłŃáł¤ áłł
Ġáłµáłłáł¶áł¢áł¯áłłáł°áł¬ áł¢áł¬áł¦
áł¢áłµ áł¢áł¯áł²áłł
Ġáł°áłłáłŃ áłłáł²
Ġáł®áł¡áł³ áł¡áłŃáł¦áł¯áł¦áłŃáł°áł¡áł¨
áłłáł¶áł¢áł´ áł¤áł³
Ġáł¨áłłáł¶áł¢áł³áłłáłªáł¤áł· áł¢áł²áłłáł¶
Ġáł´áł£áłŃáł´ áłłáł¯áłłáł¬áł¤
Ġáł¨áłłáłŃ áłłáł¯áł³áł¤áłŃ
Ġ8 0
Ġ5 00
Ġáł¾ áł§áł©
Ġáł¬áł¤áłŃáł¤áł´áłłáłŃ áłłáł²áł¤
Ġáł²áł¡áł· áł¢áłŃáł¦áł¯
¸ áł°
áł¤áłª áł´áł¢
Ġáł¬ áł¡áłŃáł¡áł¨
Ġáł²áł¤ áł¢áł·
Ġáł¨áł¢áł® áłŃáł¡áł¨
Ġáł²áłłáł¨áł¢áł¯áł´ áłłáłŃáł¤áł¯áł¬áł¤
Ġáł¨áłłáł¨ áł³
Ġ3 1
Ġáł¡áłª áł¡áł°áł¦
áłµ áł¢áł·
Ġáł²áł£áłŃáł£áł° áł¬
Ġáł¨áł¡áł¬ áł¡áł®áł¡áł¯
áł¢áłŃ áł¤áł¯áłµáł¤
ĠáłŃáłłáłŃáł´ áłłáłŃáłłáł·
ĠáłŃáł£áł ¶áł£áł¯
Ġáł²áłłáł¯áłłáł° áł²áł¤
Ġáł¢ áł³áł¡áłŃ
áł² áłłáł¬áł¢
Ġáł¬áł£áł·áł¢áłŃ áł¯áłłáł¬áł¤
Ġáłªáł£áł¯ áł¤áł°áł¢
Ġáł°áł¤áł³ áł¤áł¯áł¤áł¯
áł¤áł° áł¢áł²áłłáł¶
Ġáł¡áłŃáł¦áł° áł´áł¦
Ġáłµáłłáł©áłŃ áł¢áłµáł¢áł¯áł²áłł
áłłáłµ áłłáł¢
áł¬ áł¡áłµáł¦
Ġáłµáł¢áł° áł¦
Ġáłªáłłáł¶áł¢áł·áł¢áł° áł¢áł¯
Ġáł¬ áłłáł´áł¢áł¨
Ġáł¬áł£áł ¸áł·
Ġáł¤áł· áł²
Ġáł¦áł¶ áł¡áł¯áł¡áł¯
Ġáł¹ áł¦áłµ
Ġáł¬áł¥ áł°
ĠãĢ Ķ
Ġáł¨áł¥áł¬áł¥ áł³
áłłáł¤ áł·áł¢
Ġáłłáł¯áł³ áłłáł¬áł¤
áł¦áł³ áł¡áłŃ
Ġáł¨áł¡áłŃáł¡áłŃ áł¡áł¯áł²áł¡
Ġáł¬áł¡áł¯áłª áł¡áł¯áłµ
Ġáł¬áł¡áłŃáł¡áł¨ áł´áł¢áł·
Ġáł¬áł£áł ¯áł¬
áł¡áł° áł¦áłª
áł¡áł°áł¦áłª áł¡áł¨
Ġáłªáł£áł¶áł¢áłµ áł¢áł¯áł²áłł
Ġáł° áłłáł¤áł·áł¢
Ġáł¬ áł¡áł¶áł¢áł°
ĠáłŃáł¡áł°áł¢áłŃ áł¦áł³
Ġáłªáł£áłŃáł£áł³ áłłáł¯áł¯
áłłáł¯áł´ áłłáłŃ
Ġáł¬áł¤áł· áł¤áłŃáł¤
áł¶ áłłáł©
Ġáł¬áł¢áłµáłłáłŃáłłáł· áł¯áłłáł¯
Ġáł¥áłª áł¡áł°áł¦áłªáł¡áł¨
Ġáł°áł£áł¨áł¢áł· áł¬
Ġáł±áł¤ áł¤áłŃ
ĠáłªáłłáłŃ áł¯áłłáłŃ
Ġáłłáł¯áł ®
Ġáł°áł¤áłª áł¢áł¯áłłáł¯áł²áłł
Ġáł¹ áł¸
áł¢áł² áłłáł¢
áł¨áł¢áłŃ áł¡
ĠáłłáłŃáł¤áł³ áłłáł®
Ġáł«áł· áł¤áł¹
Ġáł²áł¤áł¬áłłáł¶áł¢áł¯ áłłáłªáłłáł¯
Ġáł¯ áł¤áł²áł¤
Ġáł¨áłłáł¶áł¢áł· áłłáłŃáł¤áł¯áł¬áł¤
Ġáł£áł ¶áł¢áł
Ġáł²áł¡áł©áł´ áł¡áłŃáł°áł¡áł¨
Ġáł¢áł¯áł µáł¢áł·
Ġáł¬áł¥áł²áł¥ áł¯áł¥
Ġáłº áłłáł©
áłłáł° áł¢áłŃ
Ġ2 9
ĠáłŃáł· áłłáł³áł¦
r i
Ġáł¦áł¶áł¯ áł¡
ĠáłŃáł£áłŃ áł£áłµ
Ġáł® áł¢áł¬áłłáł¨
Ġáł¬áłłáłªáł°áł¤áł· áł¤áł¯áłŃ
Ġáł¢áł¯ áł¡áł³áł²áł¡
áłª áł¢
Ġáłµáł¡áł·áłŃ áł¡áł´
áł£áłº áł²
Ġáł¥áłŃáł¦áł¯ áł¡áłªáł¦áł·áł¢
áł´ áł£áłŃ
Ġáłªáłłáł¶áł¢áł¯áłŃ áłłáłµáł¤
áł¦áł¯áłŃ áł¡áł¨
áłª áł¦
Ġáł°áł¡áł³áł¬ áł¢áł¬áł¦áł¶
Ġáł¨áł¡áł®áł¡áł· áł¢
Ġáł°áł¡áł¯ áł¡áłŃ
Ġáł®áł¡áł³áł¡áł· áł¡áł®áłµáł¢
Ġáł²áł¦áł·áł¢áł¶áł¡áł° áł¦áł¯
Ġáłµáłłáł° áłłáł¯áł²áłł
Ġáł¤áł·áł¢áł³ áłłáłªáłłáł·
Ġáł¬áł¥áłŃáłµáł¢áłŃ áł¦áł¯áłµáł¦
áł° áł§
Ġáł³áłłáłŃáł¤áł· áł¢áł¶
Ġáł°áł¤áł· áł´áł¤
Ġáł´ áłłáł¶áł¢áł
Ġáł¦ áł°áł¦
Ġáł¢ áł¶
Ġáł¢áł¯ áłłáłµáł¤
Ġáł²áł¦áł· áłªáł¡áł¨
Ġáł¥áłŃáł¦áł¯ áł¡áł¯
áł¡áł¯ áł¡áłŃáł°áł¡áł¨
Ġáłłáł¨áłŃ áł¬áł¢
Ġáł° áłłáłªáłłáł¯
Ġáł¡áłµáł¡áł®áł° áł¢áłµáł¦
Ġáł¬áł¢áł¨ áł¢
E D
Ġáł£áł¯áłŃ áł£áłµáł¤
Ġáł° áłłáł¯áł¬áł¤
Ġáł²áł¡áłŃáł¦áł° áł¬áł¦
Ġáłªáł£áł³áł£áł¯áł¬ áł¢áł¯áłłáłµáł¤
Ġáł²áł¢áł¶áłłáł¨ áłµáł¢áł¨
Ġáł°áł£áł©áłŃ áł£áłŃ
áł¦áłŃ áł°áł¡áł³
Ġáłªáł¦áł²áł¦áłŃ áł¡áłŃáł°áł¡áł¨
áł¢áł¯ áł¢áł®
áł¥ áł°áł¥
ĠáłŃ áłłáłª
Ġáł¡áłµáł¡áł® áł³áł¡áł¯
Ġáł°áł¡áł·áłŃáł¡áł¶áł¢áł¯ áł¡áł¯áł²áł¡
áł¡áł¢ áł¢áłł
Ġáłªáłłáł¶áł¢áł´ áłłáłŃ
Ġáł³áłłáłŃ áł¤áł³
ĠáłŃ áł¢áł¯áłª
Ġáł¬áłłáłªáł¤áł³ áłłáł·
Ġáłªáł¢áł²áł¡áłŃ áł¦áł®áłµáł¢áł¯áł¡áł¬áł¦
Ġáł¬ áł¡áłŃáł¡áł·
½ ŀ
Ġáł¬áł¥áłŃáłµ áł¢áłµáł¦
Ġáł´áł¢ áł¤áł¸áłłáł¨
áł£áł¶áł¢áł ²
Ġáłªáł¢áł° áł¢áł·
áł¢áł® áłłáł¯
Ġáł¢áł³ áł¡áłŃáł³áł¡áł¯
áłłáł ¯áłª
Ġáł¤áł·áł¤áłŃáł° áł¢áł²áłłáł¶
Ġáł¬ áł¦áł¬áł¦áł·
Ġáł°áł£áł¯áł¢áł¯áł´ áłłáłŃáłłáł¨
áł¡áł®áłµáł¢ áł¢
Ġáł° áł¦áł®
Ġáł¢áł·áł¡áłŃ áł¡áł³áł¦áł¢
Ġáł¬ áł¡áł®áłµáł¢áł¢
Ġáł²áł£áł· áłŃ
áł¯ áł¤áłŃ
Ġ t
Ġáł¢ áł²
Ġáłµáł£áł¬áł¢áł´ áłłáł©áłŃáł¤áł¶
Ġáł¦áł¢áł¯áł¡áł³áłªáł¦áł· áł¢áł¯áł¡áłŃáł°áł¡áł¨
Ġáł²áł¥áł¯áł¥áłªáł¯ áł¡áłµáł¦
ĠáłŃáłłáł· áł®áłłáłŃáłłáł¶
áł³ áł¤áłŃ
Ġáł¬áł£áł¶áł¢áł° áł¢áł³áłł
Ġáł¦áł¨ áł¡áł¯áł¡áł¬áł¦
Ġáł¶áłłáł· áł¢áłµáł¤
Ġáł¡áł° áł¡
Ġáł¨ áł¢áł¯áł¬
Ġáłªáł¦áł· áł¢áł³
Ġáł¬áł¦áł· áł³áł¦
Ġáł£áł¨áł³ áł£áł£
áł¡áł³ áł¦áł·
ĠáłłáłŃ áł¤áłµ
Ġáł¬áł£áł¯áł¬ áł£áłªáł´áł¢
Ġáł¨áłłáł°áł¤áł² áłłáł¨
Ġáł°áł¢áł¯áłŃ áłłáł·áłłáłŃáł¤áł¯áł¬áł¤
Ġáł²áł£áł¬áł¢áł· áłłáłŃáł¤áł¯áł¤áł¨
Ġáł¢áł¯ áł¡áł³áł¬áł¡áł¬áł¦
Ġáłªáł£áł¯áłªáłłáł°áł¤áł· áłłáł©áłŃáł¤áł¶
áł¯ áł¢áł´áł¢
Ġáłµáłłáł° áłłáłªáł¤áł·áł¢
Ġáł³áł¡áłªáł° áł¢áł¬áł¦
Ġáł³áłłáł©áł°áłłáł¯ áłłáłŃáł¤áł¯áł¬áł¤
Ġáł²áł£áł³áł£áł·áł¬áłłáł¶áł¢áł¯ áłłáł¯áł²áłł
Ġáł¨áłłáłŃáłłáł³ áł¬áł¤
Ġáł³áłłáłª áł¤áł°áł¤
Ġáł¨áł¥áł¬áł¥áłªáł¥áł· áł¢áł¯áł¡áł¬áł¦
Ġáł²áł¤áł° áł¤áł¨
Ġáł¢áł¯áł¡áł· áł¡áłŃáł°áł¡áł¨
Ġáł¤áł·áł² áł¤áł³
ĠáłłáłŃáł¤áł° áł¬áł¢áł¨
Ġáł± áł¸áł¨
Ġáł¡áłŃáł¦áł°áłŃ áł¡áł¬áł¦
Ġáł¶ áł£áł£
ĠáłŃ áłłáł¯áł²áł¤
Ġáł¬áł¤áłªáł´ áłłáł°áł¤áł¨
Ġáł° áłłáł³
ĠáłŃáł¦áł¶áł´ áł¡áł³áł¬áł¡áł¬áł¦
ĠáłŃáł£áłŃ áł´áł£áłŃ
Ġáł²áł¡áł©áł´áł¡áłŃáł¦áł· áł¢
Ġáł¬áł¥áł³áł¡áł¯ áł¦áł©áłŃáł¦áł¶
Ġáł°áłłáł¯áłŃ áłłáł¬áł¤
áłª áł¸áł¢
Ġáł¡áłµáł¡áł®áł° áł¢áł¬áł¦
Ġáłµáł¢áł¶ áłłáł°áłł
Ġáł¬áł£áł ¸áł°
Ġáł²áł¦áł·áł¢áł¶áł¡áł° áł¦áł¯áł¡áł¬áł¦
Ġáł® áł¸
Ġáł« áł¦
Ġáł´ áł¦áł¨
Ġáł¤áł¨áł² áłłáł¬áł¤
Ġáł¥ áł¯áł¢áłŃáł¡áł·
Ġáł± áłłáł¬áłłáł¶
Ġáł°áł§ áłºáł¦
Ġáł³áłłáłŃ áłłáł¤
áłŃ áł¡áłŃ
áł¬ áł£áł
áłŃ áł¤áł·
Ġáł¬áłłáł· áł°áł¢áł¯
Ġáł¬áł¥áł³áł¡áł¯áł ¬áł¦
Ġáł£áł· áł¢áł¶
Ġáł¬áł¦áł·áł¦áł¯áł ´
a d
Ġáł³ áłłáł³
Ġáł´áł¢áł¯áł¥áłŃ áł¡áł²áł¡áł¶
Ġ i
Ġáłłáłªáł´áł¢áł· áłłáł¬áł¤
Ġáł°áł¡áłŃáł¦áł³áł¡áł· áł¯áł¡áł¬áł¦
áł¢áł¬ áł¡áł¨
Ġáł¦áł·áłŃáł¦áł¯áłµ áł¢áł¯áł¡áł¬áł¦
Ġáł²áłłáłª áł¤
Ġáł¬áł¦áł·áł¦áł¨ áłŃáłŃáł¡
Ġáł¨áłłáłŃ áłłáł³áł¤
Ġáł¬ áłłáł°áł¢
ĠáłŃáł¥ áł¯
áł¤áł¯áł² áłłáł²áł¤
Ġáłªáł¤áł´ áłłáł¯áłŃ
Ġáłªáł¡áł¶áł¡áł¯ áł¡áłŃáł¦áł¯áł¦áłŃáł°áł¡áł¨
Ġáł°áłłáł¬ áł¢áł¯áłŃ
Ġáł¬áł£áł¯áłª áł£áł¯áł³
P P
Ġáłµáł¢áł¯áł£áłŃáł£áł³ áł£áł¯áłŃ
Ġáłªáłłáł· áł¢áłµáł¤
Ġáł°áł¢áł²áłłáł® áłłáł¬áłłáł¶
áł¡áł¯áł² áł¡áł¶
áł¦áłª áł³
áł¡áł¯ áł¢áłŃ
Ġáł¨áłłáł°áł¤áł² áłłáł¶áł¢áł´áł¤áł³
Ġáł¦áł· áł¦áłªáł³
Ġáł²áłłáł² áłłáłŃáłłáł¯
áł¤áł¶ áłłáłŃ
áł¡áłŃáł¡ áł¢
Ġáł³ áłłáł¶áł¢áł¯
Ġ b
Ġ m
Ġáł¥áłŃ áł²áł¡áłŃ
Ġáł³áłłáł· áł¤áł¯áł²áłłáł²áł¤
Ġáłª áł¢áł¨
ĠáłŃáł¥áł¯ áł¢áł¶áł¡áł¨
Ġáł¡áł· áł´áł¢áł®
Ġáł³áł¦áłŃáł¦áł· áł¡áł©
Ġáł°áł¢áł·áł¬áł¡áłŃ áł¯áł¢áłŃ
ï¸¾ áłĭ
Ġ3 00
Ġáł¦áł° áł¦áł·
Ġáł¬ áłłáłŃáłłáł·
áł¢áł°áł¬ áł¡áł·
Ġáł° áł¦áł©
Ġáł¬ áł¦áłª
Ġáł³áł¡áłª áł¢áł°áł¬áł¡áł·
Ġáł¨ áł¡áł¢
Ġáł¬ áłłáł¨áł¢
Ġáł°áł¡áł·áłŃáł¡áł¶áł¢áł¯ áł¡áłµáł¦
Ġáł·áłłáł³ áł¢áł£
Ġáł³áł£áł²áł£áł¨ áł£
Ġáł°áłłáł¶áł¢áł ³
Ġáł¢áł¯áł¡áł·áł¬áł¡áł¶áł¢áł¯ áł¡áłŃáł°áł¡áł¨
Ġáłłáł¯áł³ áłłáłŃáł°áłłáł¨
Ġáł´áł£áłŃáł´ áłłáł¯
ĠáłŃáłłáł· áł¤áł¨
Ġáłµáłłáł¶áł¢áł¯áłłáł°áł¬ áł¢áłµáł¦
Ġáł³áłłáłª áł°
Ġáł¡áł·áłŃ áł¢
Ġáł£áł¯áłŃ áł£áł¯áł²áłł
áł³ áł¤áł®áł³
Ġáł¨ áł¦áł¬áł¡
ĠáłŃáłłáł¶áł¢áł¬ áłłáł®áł°áł¢áłŃ
ĠáłŃ áł¡áł³áł¦
Ġáł¢áł¯áł¡áł·áł¬áł¡áł¶áł¢áł¯ áł¡áł¯áł²áł¡
Ġáł¦áł¶áł¯áł¡áł³áłªáł¦áł· áł¢áł¯áł¡áł¬áł¦
Ġáł¼ áłłáł¢
áł¯áł µ
Ġáł¥áł·áł¨áł¢áłŃ áł¦áł¯áł¬áł¦
Ġáł²áł¡áł¸ áł¬áł¡
áłµ áł¢áł©
Ġáł´áłłáłŃ áł³áłłáłŃ
Ġáł¼ áł¤áł¤
áł§ áł¯
Ġáł²áł¥áł¯áł¥áłªáł¯ áł¡áłŃáł°áł¡áł¨
ï ½ŀ
Ġáłµ áł¡áł°
Ġáłµáł¢áł·áłŃ áł¤áł³áł¤áłŃáłłáł·
Ġáł¨áłłáł° áł¤áłµ
áł¯ áł£áł·
Ġáł¬áłłáł· áłłáłŃáł³áłłáł³áłłáłŃ
Ġáł®áł¡áł³ áł¡áł³áł¡áłŃ
Ġáł¯ áł¢áł¶
Ġáł¨áł¡áł®áł¡áłŃáł³ áł¡áłŃáł¦áł¯áł¦áł¨
Ġáłłáłª áł³áłłáł·
Ġáł¶áłłáłŃáłłáł¬ áł¢áłŃáł°áłłáł¨
ĠA I
Ġáł¨áł¢áłŃáł² áłłáł¯áłłáł¨
Ġáł³áł¡áł¯áłŃáł¡áł· áł¡áłŃáł¦áł¯áł¬áł¦
áł¡áłŃ áł¦áł¯áłµáł¡áł¶
Ġáł¨ áłłáłª
Ġáł¦áł¯áł¢áł¶ áł¡áłŃáł¦áł·
Ġáł´áł¢áł¨áłłáł· áł²áłłáł¢
Ġáł¬áłłáł·áł¢áł¶áłłáł¯ áłłáłŃáł³áłłáł¬áł¤
Ġáł° áł¡áł¢áł¢áłł
Ġáłªáł¤áłµ áłłáł·
áł¢áł¶ áłłáł®áł§áł²
Ġáł¬áł¤áł³ áł¬
áł¡áłŃáł³ áł¡áł¨
Ġáł°áł¢áłªáł² áł¦áł·
Ġáł®áłłáł· áł¢áł¶
Ġáł¬áł¡áł¯ áł¡áł³áł¡áłŃ
Ġáłªáł¦áł·áł¢áł¯áł³ áł¦áłŃáł°áł¡áł¨
Ġáł³áł¡áłŃáł¡áłŃáł° áł¢áł¯áł¡áł¬áł¦
Ġáł¯ áłłáł©
áł¬ áłłáł°áłłáł¨
áł¦áłª áł´áł¢
Ġáł²áłłáł² áłłáłŃáł°áłłáł¨
Ġáł°áł¢áł¯áłµáł¢áłŃ áł¦áł¯áł¬áł¦
Ġáł¬áłłáł¯ áłłáł®áłµáł¢áł¯
Ġáł¬áłłáł° áł¤áłµáł¤
Ġáł¤áł¶ áłłáł¨
Ġáłµáł¢áł· áł¦áł¬áł¡áł¨
Ġáł¡áł·áłŃ áł¢áł¯áł¡áłŃáł°áł¡áł¨
Ġáł£áł·áł£áł¯ áłłáł¬áł¤
áł£áł³ áł£
Ġáłµáł¢áł· áł¦áł¬áł¡
Ġáłłáłªáł´áł¢áł· áłłáłŃáł°áłłáł¨
Ġáłªáł¤áł´ áłłáłŃáłłáł¬áł¤
áł« áł¢áłº
Ġáł¡ áł¸
Ġáłº áł¦áł¨
Ġáłªáł£áł·áł£áł¯ áłłáłŃáł¤áł¯áł¤áł¯áł²áłł
áł£áł ¸
Ġáł¬áłłáł³ áł¬
Ġáł²áł¥áł·áł¥áłŃ áł°áł¡áł¨
o t
Ġ3 5
Ġáł° áłłáłª
ĠáłŃ áł¢áł¨
4 0
Ġáł´áł£áł© áł¬áł£áł¨
Ġáłµáł¢áłµáł¢áłŃ áł¯áł¡áł¨
áł¡áł° áł¢áł¶áł¡áł¯
Ġáł¦ áł¬áłłáł¨
áł¸áł° áł°áł¤áł·
Ġáł¡áł¬áł¢áł¯ áł¡áłŃáł°áł¡áł¨
Ġáł¬áł£áłª áł£áł·
Ġáł¡áł·áłŃ áł¢áł¯áł¡áł¬áł¦
Ġ7 0
Ġáł¥áł·áłŃ áł¡áł³áł¬áł¡áłµáł¦
Ġáł¨áł¢áł· áł¤áłŃáł¤
Ġáł³áłłáł® áłµ
Ġáł£áł´ áł¢áł¬áł¤
Ġáł®áłłáł¨ áłłáł¨
Ġáł³áł¡áłŃ áł¡áł³
Ġáł¬áłłáł· áłłáł¬áł¤
Ġáł¸ áł§áł¢
Ġáłª áł¤áł¬
Ġáł²áł¤áł°áł¢áł¶ áłłáłŃáł°áłłáł¨
áł¡áł© áłŃáł¦áł¶
Ġáł²áł¤áł·áł° áł¢áłµáł¤
Ġáł²áł£áł ¸áł·
Ġáłªáł£áł¯áłŃ áłłáłµáłłáł¶
Ġáłªáł¢áł´áł¢áłŃ áł°áł¡áł¨
Ġ1 000
Ġáł®áł£áł· áłłáł¯
Ġáł¬áł¦áł· áł²áł¡áłŃ
Ġáł´áł¡áłŃ áł´
Ġáł² áł¤áł³
áł¥ áł¯áł¥
Ġáłłáłª áł¤áłŃáł´áł¢
Ġáł¬áł¦áł·áł¢áł¶áł¡áł¯ áł¡áł¯
Ġáł°áłłáł¶áł¢áł °
áł· áłłáł¯
ĠáłŃáłłáł³áłłáłŃ áł¤áł·
Ġáł¡ áł²
Ġáł¢áł¶ áł£áł¨
Ġáł°áł¢áł¯áł¢áł³áł¡áłŃ áłµáł¢áłŃáł¦áł¯áł¬áł¦
Ġáłµáłłáł¯áłŃ áłłáł®áłµáł¢áł¯
Ġáł¤áł° áł¤áł²
Ġáł¬áłłáł¨ áł¢áł²áłłáł¨
Ġáł¬áł¥áł· áł¬áł¥
Ġáłªáł¤áł¯áł´ áł¢áł©
áł¤áł´ áłłáł²áł¤
Ġáł³áł¥ áł¯áłŃ
ĠáłŃ áł¤áł¤
Ġáłµáł£áłŃáł° áł£áłµáł¤
a y
Ġáłłáł° áł«áł¢áł·
áł¦áł¯áł² áł¦
Ġáł¨áł¡áł® áł¡áł¯áł²áł¡
Ġáł²áł¦áł·áł¦áłŃ áł³áł¡áł¯
Ġáł¡áłŃ áł¡áł´áł¢
Ġáł¬áłłáł®áł¢áł¶áłłáł· áł´áł¤
Ġáł´áł¡áłŃáł´ áł¡áł¯áł¡áł¨
Ġáł²áł£áł¬áł¢áł· áłłáłŃáł¤áł¯áł¤áłŃáł´áł¢
Ġáł°áłłáł® áłªáłłáł·
Ġáł¶áł¡áł·áł¦áł©áł¬áł¡áł¶áł¢áł¯ áł¡áł¨
Ġáł¬ áł¢áł³áł¡áłŃ
Ġáł³áł¡áł®áłµ áł¢áłµáł¦
Ġáł¦áłµ áł¡áł¨
áł·áł£áł¨ áł²
1 6
Ġáł¬áł¤áł· áł¢áł¶áłłáł¨
áł¡áł¯áł² áł¦
Ġáł¹ áł·áł£áł¨áł²
Ġáł¢áł° áł¦áł¯áł³
Ġáł¬áł¦áł·áł³ áł¦áł¨
Ġáł²áł¤áł ¸
Ġáł¦áłµ áł¦áł®
Ġáł³áł¤áłŃ áł¤áł¶
Ġáł¥áł® áł´áł¢áł¯áł¡áł¬áł¦
Ġáłµáł¢áłŃ áł¤áł·
Ġáł²áł¡áłŃáł¦áł° áł¦áłŃáł°áł¡áł¨
Ġáł¡áł· áł¬áł¢áł¨
Ġáł³áł¡áł¯áłªáł¡áł· áł¡áł¯áł²áł¡
ĠáłŃ áł¬áł¢áł·
Ġáł³áłłáłŃáłłáłŃ áłłáł´áłł
Ġáłłáł°áł«áł¢áł· áłłáł¨áł²
Ġáł¬áł£áłµ áł¢áł³
Ġáł¢ áłª
Ġáł± áł¥áł¯áł¥
áł´áł¢áł¯ áł¡áłŃáł°áł¡áł¨
Ġáł¡áł® áł¬
Ġáł¦áł¢áł¯ áł¡áł´áł¢áł¯áł¡áł¬áł¦
Ġáł¬ áł¤áł¤
Ġáłµáł¤ áł¤áł¬
Ġáłłáłªáł¢áł¶ áłłáł°
ĠáłªáłłáłŃáł¤áł· áłłáł¶
Ġáł´áł¤áłŃáł¯ áłłáłŃáł¤áł¯áłµáł¤
ĠáłŃ áł·áłłáł®
Ġáł®áł¡áł³ áł¡áłŃáł¦áł¯áłµáł¦
Ġáł¡áł¯ áł¡áłŃáł³áł¡áł¯
Ġáł£áł·áł£áłŃáł¤áł¯ áł¤áłŃáł´áł¢áł³
en t
Ġáłªáłłáł¶áł¢áł· áł¢áł¯áłłáłµáł¤
Ġáł¶áł¢áł° áł¦áł¨
Ġáł´áł¢áł³ áłłáł³áłłáłŃ
1 8
Ġáł¬áł¡áłµ áł¢áł¶
ĠáłŃáłłáł· áł³áłłáłŃ
Ġáłłáł·áłª áł¢áł¯áłłáłµáł¤
Ġáłªáł¦áł²áł¦áłŃ áł¡áł¨
Ġáł³áł¡áłŃ áł¡áł°áł¦
Ġáłªáł£áł³ áł£áł¯
B A
Ġáł¡áłŃáł¦áł·áłŃáł¡áł¯ áł¡áłµáł¦
Ġáł¨áłłáł¶áł¢áł³áłłáłªáł¤áł·áł¢áłµáł¢áłŃ áł¤áł¯áłµáł¤
Ġáł¾ áł§áł¨áłłáł¨
Ġ 00
o w
Ġáłµáł¢áłŃáł° áłłáłŃáłłáł¯
Ġáłłáł¯áł³áłłáł· áł²áł¤
Ġáł¬áł¥áłŃáłµáł¢áłŃ áł°áł¡áł¨
Ġáł¡áł·áłŃ áł¢áłŃ
Ġáł°áł¢áł¢áł³áłªáł¦áł· áł¢áł¯áł¡áł¬áł¦
Ġáł°áł¢áł³ áł¤áł·áłŃáł¤
áł¤áł¯áł ªáł¤áł·
ĠáłŃáł¦áł© áł°áł§
Ġáł° áł¤áł¯
áł¤áł ¬áłłáł¨
áł£áł¯áł §
Ġáł³ áł¡áł¯áłª
Ġáł³ áł¤áł°
áł£áł¯áł§ áłºáł¦
áł¢áłµáł¢áł· áłłáł¯
Ġáł¤áł° áłłáł³
Ġáł¬áł¤áł· áł¢áł®
áłłáł° áł¤áł²áł¤
Ġ9 0
Ġáł¬áłłáł¶ áłłáłµáł¤
Ġáł¡áł·áł¬ áł¡áł²áł¡áł¨
Ġáł³áł¡áłŃáł¡áłŃáł°áł¢áł¯ áł¡áłµáł¦
Ġáł¬áł¥áł®áł¦áłµ áł¢áłŃ
Ġáł²áł£áłŃáł²áłłáłªáł¤áł· áł¢áłµáł¢áłŃ
Ġáł¬áł¤áłªáł¢áł· áłłáłŃ
e b
Ġáł°áłłáł¶áł¢áł² áłłáł¢
i d
Ġáł¬áłłáł®áłµáł¢áł¯áł´ áłłáł¨
ĠáłŃáł¤áł¶áł¤áł´áł¢áł¯ áłłáłŃáł´áł¢
Ġáł® áł£áł¯áł§áłºáł¦
Ġáł²áł¤áł¯áłŃ áłłáł·áłłáłµáł¤
Ġáł¨áł¡áł¶áł¢áł²áł¡áł¯ áł¢áłŃ
Ġáłªáł¦áł·áł¬ áł¦áłªáł´áł¢
2 3
áł° áł¡áłŃáł¡áł·
áł§áł· áł®áłłáł¨
áł¡áł¯áł³ áł¡
Ġáł¬áłłáł· áłłáłµáł¤
áłłáł¯ áłłáł¯áł²áłł
Ġáłªáł£áł³áł£áł µáł¤
Ġáłłáł³áł¬ áł¤áłµáł¤
áłŃ áł°áłłáł¨
Ġáłłáł® áł¢áłµáł¢áł·áłłáł¯
Ġáł²áł¥áł¯áł¥áłŃáł¡áł¯ áł¡áłŃáł´áł¢áł³
Ġáł´áł¢áł¬ áł¢
Ġáł³ áł£áł·áł£áł¨
Ġáł²áł¦áłŃ áł¡áł®áł¡áł¯áłµ
áłµ áł§
Ġáłµáł¢áłª áł¬
Ġáł°áłłáł· áłłáł¨
Ġáł¬áł¤áł³ áł³áł¤áłŃ
Ġáł®áł¥áł·áłŃ áł¥áł¯áł³
Ġ ~
áł³áł¤áł®áł³ áłłáł³áł¤
Ġáł£áł¶áł¢áł· áłłáł¯áł´áłłáłŃ
áł° áł¢áł¶
Ġáł¦áłµ áł¡áłŃáł¦áł¯áł¦áłŃáł°áł¡áł¨
Ġáł³áłłáł· áł¤áł¬áł¤
Ġáł¡ áł¬áł¡áł¨
Ġáł¡áł¬áł¡áł¨ áł¡áł·
Ġáł¡áłŃáł¡áł³ áł¡áł©
Ġáłµáłłáł· áł¤áł¯áłŃ
Ġáł¨áłłáł°áł¤áłµ áł¢áł¯
ĠáłŃáł¡áł·áł¡áł¯áł² áł¦áłŃ
ĠáłŃáł¤áł¶ áł¤
Ġáł¨áł¡áłŃáł¡áłŃ áł¡áł¯áłŃáł¡
Ġáł¬áłłáł· áł°áł¢
Ġáł´ áłłáł°áł¤áł¨
Ġáł´ áł£áł·
* *
ĠC h
Ġáł¨áł£áł®áł§áł· áł²áł¤
Ġáł´áł¡áł¨áł¡áłŃ áł¯áł¡áł¬áł¦
áł¡áłŃáł¦áł¯áłª áł¡áł¯
Ġáł£áł³áł£áł¬ áł¢
Ġ201 4
áłµ áł¤áł¨
Ġáł°áłłáł¨ áł°áłłáł·
Ġáł¦áł· áł¡áłµ
Ġáł¬áł¤áł¨ áłłáł¨
ĠáłŃáł¦áł¨áłµ áł¡áłŃáł¡áł¢
áł·áłłáł¯ áł¢áł¶
Ġáł°áł¢áł³ áł¦áł¨
áł¥ áł©
Ġáł¬áł¥áł·áł¥ áł°áł¥
áł¢áł¯áł³ áł¦
Ġáł¢áł° áł¦áł¯
Ġáłµ áł£áł¯áłŃ
Ġáłłáłµáł¢áł¯áł¯ áłłáłŃáł¤áł¯áł¬áł¤
Ġáł¬áł¡áł¯áłªáł¡áł· áł¢áł²áł¦
¬ áł¡áłŃ
áłŃ áł¡áł¬áł¦
Ġáłµ áł¦áł·
Ġáł¬ áł¤áł°
Ġáł¡áłŃáł¦áł° áłŃáł¡áł¨
áł¤áłŃáłłáł· áłłáł¶
Ġáłªáł£áł¯áłŃ áł£áł®
Ġáł°áł£áł ´
ĠáłŃ áł¡áłµáł¢áłŃ
Ġáłµáł¢áłŃ áłłáł¬áł¤
Ġáłµáł¢áłŃáł° áłłáłŃ
2 5
Ġáłªáł£áł· áł³
Ġáł²áł¡áł¦ áł¬áł¡áł¨
Ġáł°áł¢áł· áł¡áłŃáł¡áł¨
Ġáł²áłłáł¬ áł¢áł¶áłłáł¨
Ġáł¬áłłáł·áł¢áłŃáł¤áł´ áłłáłµáł¤
Ġáł²áł¡áł®áł³áł¡áłŃ áł¯áł¡áł¬áł¦
áł¦áłŃ áł¦áł³
áł¢áłŃ áł¤áł¯áłŃ
áłłáł´ áł¢áł¬
Ġáł± áł¤áł¸
Ġáł²áłłáł¯áłłáł· áł¬áłłáłµáł¤
áł¤áłŃ áł°áłłáł³
u n
ĠáłŃ áł§áł·áł®áłłáł¨
Ġáł¯ áł¢áł²
áł¡áłŃ áł´áł¡
Ġáł³áł¥áł¯áłŃ áł¢áł¨
Ġáł²áłłáł¯ áłłáł¢
Ġáł°áł£áł¨áł£áł° áł´áł¤
Ġáł²áł£áłŃ áłłáł²áł¤
Ġáł¬áł¢áłµáłłáłŃáłłáł· áł¯
Ġáł³áłłáłŃ áłłáł¯áł³áł¤áłŃ
Ġáłµáł£áł· áł¢áł¯áł²áłł
áł° áł¡
Ġáł¬áł£áł°áł¢áłŃ áł¤áł´áł¢
Ġáł± áł£áłŃ
Ġáł¬áł¤áłªáł¢áł· áłłáł¬áł¤
Ġáł¹ áł¸áł¢
Ġáł²áł¥áł¯áł¥áłªáł¯ áł¡áł¨
áł³áł¬ áł¡áł´áł¡
Ġáł´áł¤ áł¤
Ġáł²áł¤ áł¢áł¬
Ġáł¡áł® áłŃáł¡áłŃ
áł´áł¥áłŃ áł¡áł³áł¦áł·
Ġáł£áł³áł£áł¬ áł¢áł´
Ġáł² áłłáłŃáł¤
Ġáł¤áł³áłłáłŃ áłłáł°áł¢áł·
Ġáł¥ áł³áł¬áł¡áł´áł¡
Ġáł°áł¡áł· áł¡áłµáł¦
Ġáł²áł¤áł² áł¤áł·áłŃ
Ġáłº áłłáł¶
Ġáł£áł¨ áł£áł¯
Ġáł²áł¦áł· áł¬
Ġáłłáłª áł´
Ġáł¬áł¤áł·áł³ áł¤áł´áłłáł²áł¤
Ġáłłáł ¶áł¢áł¯
Ġáłµ áł¤áł¸áłłáł©
Ġáł²áł¤áł° áł¬
Ġáł¯áł¸ áł¢
ĠáłŃáł¡áł³ áł¡áł°áł¦áł¨
Ġáłª áł·
Ġáł³áł¡áłªáł² áł¦áłŃ
áł´ áł¢áłµáł¦
áłº áł¸
Ġáł¥ áł¬
Ġáł¬áłłáł®áł²áł¤áł· áłłáłŃáł°áłłáł¨
Ġáł²áł£áłŃáł²áłłáłªáł¤áł· áł¢áł²áłłáł¶
Ġáł²áł¤áł¢áł¬ áł¦áł®
áł¯áłłáłŃ áłłáł°áł¤
Ġáł®áł¤áł· áł¤áł¶
Ġáł²áł¥áłªáł¯áł¡áł· áł¡áłŃáł¦áł¯áłµáł¦
Ġáł¬áłłáł·áł¢áł¯áł´ áłłáłµáł¤
Ġáł¨áłłáłŃáłłáł³ áł¤áłŃáł´áł¢áł³
Ġáł¤áł³ áł¤áł®
Ġáł¢ áł®
áłłáł¨ áł³
Ġáł²áł£áł¨áł£áłŃ áł¯áłłáłŃáłłáł°áł¤
Ġáł¬áł¢áł¨ áłłáłŃáł´áł¢
Ġáł´ áł¤áłª
Ġáł°áł¢áł³ áł¦
Ġáł¶áłłáł·áł¢áł¯áł´ áłłáłµáł¤
Ġáł¤áł°áł¤áł² áł¥
Ġáł¤áł©áł° áł¢áłµáł¤
Ġáł¡áłµáł¡áł©áł¨ áł¡áł¬áł¦
áł¬ áłłáłŃáł´áł¢
Ġáł¬áłłáł· áłłáł¬áłłáł¨
Ġáłª áł¸áł²
Ġáł¤áł©áł° áł¢áł¯áłŃ
Ġáłªáłłáł· áł¢áłŃ
Ġáł´áł¢áł¶ áł£áł¤
Ġáł²áł¡áł· áł¡áł´áł¢áł¯áł¡áł¨
Ġáł¬áł¦ áł¢áł³
Ġáł¡áł°áł¡áł·áłŃáł¦áł´ áł¡áł¯
a g
áł¡áł® áł°áł¦áłŃ
áł¢áł¯ áłł
Ġáł¬áł¦áł· áł´áł¡áł¶
Ġáł¥áłŃ áł¡áł¬áł¦
Ġáł¦áł·áłŃáł¦áł¯áłµ áł¢áł¯
u s
i g
Ġáł¢áł³áł¡áłª áł¬áł¢
Ġáłµáł¥áłªáł¯ áł¡áł¯áłŃáł¡
Ġáłłáł°áł¢áłŃ áł¯áłłáłµáł¤
Ġáłłáł¶ áłłáł°
áł¤áł³ áłł
Ġáł²áłłáł¯áłª áł¢áł¨
Ġáł²áłłáł·áłłáłŃ áłłáł´áł¢
Ġáł°áł¢ áł¤áł¸áłłáł¨
Ġáł²áł£áł³áł£áł·áł¬áłłáł¶áł¢áł¯ áłłáł¬áł¤
Ġ Y
Ġáłªáł£áł° áł£áłŃ
áł¢áł° áł¢
Ġáł³áł£áł¬ áł¢áł¶
ĠáłŃ áł¤áłª
Ġ20 00
Ġáł¬áłłáł·áł¢áł¶ áłłáł²áł¤
áł¢áł¯ áł¡áłŃáł¡
Ġáł¨áł¢áłŃáł¤áł· áł²áłłáł¨
Ġáł²áł¡áł© áł´áł¡áłŃ
Ġáł°áłłáł³ áł¤áł¨
Ġáł¬áł¡áł®áłµ áł¢áł¨
Ġáłµáłłáł¶áł¢áł¯ áłłáł°áł¢
Ġáł¬áłłáł© áłµáł§áł¦
áłłáł® áł¢áł¨
Ġáłªáł£áłŃ áł£áł¨
Ġáł¨áł¢áłŃáł² áłłáł´áłł
áłłáł¬ áł¤áł¶
Ġáłłáłª áł¤áł·áłŃáł¤
Ġáł¨áłłáł¶áł¢áł³áłłáłªáł¤áł·áł¢áłµáł¢áłŃ áł¤áł¯áł¬áł¤
Ġáłłáł¯áłª áłłáł³
Ġáł¬áł£áł¶ áłłáł³áłłáł¬áł¢
Ġáł¥ áł´áł¥áłŃáł¡áł³áł¦áł·
Ġáłªáł¡áł¯ áł¡áł³áł¬áł¡áłµáł¦
Ġáłº áłłáł¨
Ġáł¨áł¡áł¶áł¢áł²áł¡áł¯ áł¡áłªáł¡
Ġáłªáłłáł¶áł¢áł ¬
Ġáł£áł¯áł µáłłáł¶
á ¡
áł¤áł¯áł³ áłł
Ġáł¨áłłáł¶áł¢áł· áłłáł®
Ġáł¬áł¤áłª áł¢áł¶áłłáł¬áł¤
Ġáł®áł¡áł·áłŃ áł¡áł°áł¢áł¯
Ġáłªáł£áł¯áłª áłłáł¯
Ġáł´áł¤áłŃ áł´áłłáłµáł¢áłŃ
ĠáłŃ áłłáł¨
Ġáł²áłłáł¶áł¢áł¯áłªáł¤áł· áł¢
Ġáł³áłłáłŃáł¤áł·áł¢áł¶ áłłáł®áłłáł¯
Ġáł¡áłŃáł¡áł¯ áł¢áł¯áł¡áłŃáł¡
Ġáł¬áłłáłª áł´áł¢áłŃ
Ġáł¡áł¨ áł³áł¡áł¯
Ġáł¢áł³áł¡áłªáł¬ áł¢áł²áł¡áł¢
Ġáł°áł¢áł¸ áł³áłłáł¨
Ġáł°áłłáł´ áł¤áł·áłłáłŃ
Ġáł¸ áł¢áł²
Ġáł²áł¥áł¯áł¥áłŃáł¡áł¯ áł¡áłµáł¦
Ġáł¬áł£áł¶áł¢áł° áł¢
Ġáł¬ áł¤áł¢
áłłáłŃ áł´áłł
áłµáł§ áł¸
Ġáł® áł¤áł¬
ĠáłŃáł¢áł¯áłª áłłáłŃ
Ġáł²áł¡áłµáł¢áłŃ áł¡áł¬áł¦
Ġáł¡áł®áł¬áł¢áł¯ áł¡áł¨
Ġáł´áłłáł· áł´
Ġáł¤áł¬ áł¤áł·
Ġáł° áł£áłŃ
áł¦áłŃáł¦áł¯ áł¦áłŃáł°áł¡áł¨
Ġáł¬áł¡áł¶áł¢áł° áłªáł¦áł·áł¢
Ġáł²áłłáłŃáłłáł· áłłáłŃáł¤áł¯áłµáł¤
ĠáłŃáłłáł· áłªáłłáł¯
Ġáłµáłłáł¬áł¢áł· áłŃ
Ġáł² áł¤áłŃáł¤áł·
áł·áł¥áłŃ áł´
Ġáłµáł¢áł·áł¤áł® áłµáł¢áł¯
Ġáł¬áł¦áł¶ áł²áł¡áł¨
Ġáłµáł¢áł± áł¢áł¬áł¦
Ġáł¬áł¤áł·áł¢áł¶ áłłáł©áłŃ
Ġáłªáł£áłŃáł£áł³áłłáł¯áł¯ áłłáł¬áł¤
Ġáł¬áł¥áł°áł¢áłŃ áł¡
Ġáł¨áłłáł¶áł¢áł³ áłłáł¯áłŃ
ĠáłŃáł¡áł³ áł¡áł·áłŃáł¦
Ġáł²áłłáł¯áłª áł¢áłŃáł°áłłáł¨
Ġáłªáł¦áł²áł¦áłŃ áł¡áłµáł¦
Ġáłµáłłáł© áłµáł¤áł¨
Ġáł¡áł¯ áł¡áł°áł¦
Ġáł´áł¡áłªáł¡áł· áł°áł¢áłŃáł¦áł¯áł¬áł¦
Ġáł¬áł¥áłŃáłµ áł¢áł¶áł¡áł¨
Ġáł´áł¢áł¯áł¥áłŃ áł¡áł²áł¦
ĠáłªáłłáłŃáł¤áł· áłłáłŃáł¤áł¯áłµáł¤
Ġ Z
Ġáł´áł£áł¬ áł¢áł¬áł¤
Ġáł²áł¥áł° áł¦áłŃ
Ġáłªáł¡áł¯ áł¡áł³áł¬
áł¢áłª áł¡
Ġáł´ áł¥áłŃ
Ġï¸ ¿
áł¨ áłłáł®
Ġáł¨áł¢áłŃ áł¤áł´
Ġáł¬áłłáł®áłłáłŃáłłáł¯ áłłáłŃáł´áł¢
ĠáłŃ áł¡áł¢
Ġáł¬áłłáł¨áł³ áł¤áł¬áł¤
Ġáł¤áł¯áłłáł®áłµáł¢áł¯ áłłáł¯
Ġáł°áł¢áł©áłŃ áł¡áłŃáł¡áł¨
Ġáł°áł¤áł·áł² áłłáł¬áł¤áł¨
Ġáł³áłłáł·áł¤áłŃ áłłáł°áł¤
Ġáł¬áłłáł·áł¢áłŃáł¤áł´áłłáł¯áłŃ áłłáł²áł¤
Ġáł¥áł° áł´áł¦
áłµáł¢áłŃ áł¦áł¯áł¦áł¨
Ġáł¬áł¡áłª áł²
Ġáł²áłłáł·áł¢áł¶ áłłáł´áł¢áł¨
Ġáł®áłłáł¶áł¢áł ®
Ġáłªáł£áł³ áłłáł²áłłáł¢
Ġáł°áłłáł¨ áł²
Ġáł²áł¤áł°áł¢áł¶ áłłáł¯áł²áłłáł¨
Ġáł¶ áłłáł°áł¤áł¨
áł·áł¥áłŃáł´ áł¢áł²áł¦
áł¯ áł¡áłŃáł¦áł·
o s
Ġáłµáł¥áłªáł°áł¢áł¶áł¡áł· áł¡áłŃáł°áł¡áł¨
Ġáł°áł¢áł¶áł³áłªáł¦áł· áł¢áł¯áł¡áłŃáł°áł¡áł¨
ĠI n
ĠI P
Ġáł¬áł¤áł³áłłáł¯áł³ áł¤áłµáł¤
Ġáł® áł¤áł¤
Ġáł¦áł¨áł³áł¦áł°áł¦áł¯ áł¡áłµáł¦
Ġáł¬áł¥áłª áł¥áł©
Ġáł¬áł¤áł·áł¢áł¶áłłáł©áłŃ áł¤áł¶áł¢áł¯
Ġáł¢áł¯áł¡áł· áł¡áł¬áł¦
Ġáł³áł¥ áł²áł¡
áłŃ áł£
Ġáłłáłª áł¤áł¨
áł£áł¬ áłłáł¨
Ġ d
Ġáłłáł· áłªáłł
e c
Ġáł¤áł¸ áłŃ
¯áł ¬áł¤
áł¢áł® áł«áł¢áłº
Ġáł¡ áł¢
ĠáłŃáł¤áł·áłª áłłáł³áłłáł¬áł¢
Ġáł° áł¡áłª
Ġáł¨áł¡áł¶áł¢áł¯ áł¡áłŃáł¦áł¯áł¬áł¦
Ġáłªáł¡áł·áł¬ áł¡áł°áł¢áł¶áł¡áł¯
Ġáł²áł¡áł·áł¢áłŃáł¦áł¯ áł¡áłŃáł´áł¢
Ġáłłáłªáł¤áł· áłłáł¨
Ġáł´ áł¥áł·
Ġáł¨áłłáł¶áł¢áł· áłłáł¯áłŃ
Ġáł¶áłłáł· áł¢áłŃáł°áłłáł¨
ĠáłŃáł¡áł·áł¡áł¯áł²áł¦áłŃ áł¦áł¯áłŃáł¡
ĠáłŃáł¦áł¶áł´ áł¡áł³áł¬áł¡áł¯
Ġáł¨áł¡áł¬ áł¡áł®áłµ
Ġáłµáł£áł¬áł¢áł´ áłłáłŃáł¤áł¯áł¬áł¤
Ġáłµáł£áłª áłłáł¯áłłáł©
Ġáł¬áł£áł£áł· áł²áł¤
Ġáł¦áł· áł²áł¡áłŃáł¡
Ġáł£áł¯ áł¢áł®áł«áł¢áłº
Ġáł²áł£áł¬áł¢áł· áłłáłŃáł¤áł¯áł¤áłŃáł°áłłáł¨
Ġáłłáł¯áł º
Ġáł²áł£áłŃáł²áłłáłªáł¤áł· áł¢áł²áł¤
Ġ4 5
Ġáł²áł¥áł¯áł¥áłªáł¯ áł¡áłŃáł´áł¢
Ġáł´áł¢áł¯áł¥ áłŃáł¡
Ġáłµáł£áłŃáł£áł° áł£áł¨
áłłáłŃáł¤áł¯ áł¤áł¶
Ġáł°áłłáłŃáł¤áłŃ áł³áłłáł¯
Ġáł°áł¤áł·áłªáł¤áł¯áłµ áł¢áł¯áłłáł¬áł¤
áł¦áłŃ áł¦áł¯áł¦áł¨
áł· áł¡áł¨
Ġáłµáł£áłª áłłáł¨
Ġáł°áłłáł¨áłłáłŃáł¤áł¯ áł¤áł®áłµáł¢
Ġáł¬áł£áł¯áłªáł£áłŃ áł³áłłáłŃáł°áłłáł¨
Ġáł°áł¢áłª áł²áł¤áł¯
áł¤áł¯ áłłáłŃ
Ġáł« áłłáł¨
áł£áł£áł ¯
8 8
1 3
Ġáł¨áłłáłª áł´áł¢áł¨
áł¥áłŃ áł¡áł³
Ġáł¢ áłµáł¢áł¯
Ġáł¢áł· áł¡áł¬áł¦áł¶
Ġáł¦ áł©áłŃáł¡
Ġáł²áł£áłªáł´áł¢ áł¢
Ġáł¡áłŃáł¦áł³ áł¦áłŃáł°áł¡áł¨
ĠáłŃáłłáł·áłŃ áłłáłµáłłáł¶
Ġáł¬áłłáł¶áł¢áł· áłłáł¯áłłáł¬áł¤
áł£áł³ áł¤áłŃáłłáł·
Ġáł²áł¥ áł®
Ġáłłáł¯áł³ áłłáłµáł¤
Ġáł¡áł³ áł¦áł¶
Ġáł¨áłłáł¨ áłµáł¢áł©
Ġáł³áł¤áł² áłłáł®áłłáłŃ
Ġáł¬ áł¡
áł¢áł® áłµáł¢
áł¢áłµ áłłáł¶
Ġáłªáłłáł· áł¢áł¯áł³
Ġáł¨áłłáłŃ áłłáł¯áł³
Ġáłłáł®áł² áłłáł²áłłáł¶
Ġáł¦áł¯áł¡áł³áł¡áłŃ áł¡áłµáł¦
Ġáłµáł¢áł·áł¤áłŃ áłłáł°áł¤
áł¦áł¯ áł¡áłŃáł°áł¡áł¨
Ġáł²áł¥áłª áł¡áł³
Ġáł°áł¢áłªáł²áł¤áł¯ áł¤áł¯áł²áłł
Ġáł¨áł¡áł®áł¡áłŃáł³ áł¡áłŃáł°áł¡áł¨
Ġáł¶áłłáłª áł¤áłŃáł¤áł¯áł¬áł¤
Ġáł²áł£áłª áł´
Ġáł²áłłáł· áł¢áł¬áł¢
Ġáł¦áł¢áł¯áł¡áł³áłªáł¦áł· áł¢áł¯áł¡áłµáł¦
Ġáł¤áł¶áłłáł¯áł³áł¤áłŃ áł¤áł¯áłµáł¤
Ġáł³áłłáł© áł°áłłáł¨
Ġáłµáłłáł³áłłáł¯ áł¤áł¨
Ġáł¥áł©áłŃ áł¡áł²áł¡áł¶
Ġáł¡áł° áł²
e m
Ġáłłáł½ áł£áł²
Ġáł± áłł
Ġáł³áł£áł¯ áł£áł³áł¤áłŃáłłáł·
Ġáł¡áł·áł¡áłŃáł¦áł¯áłµ áł¢áł¯
áł² áł¦áł¨áł¢
áł¤áł² áłłáł¨
áł£áłª áłłáł¯
Ġáł¦áł¨áł¦áł· áł²áł¦
Ġáłµáłłáł· áł¯áłłáł¬áł¤
áł¦áł ½
Ġáł¥áłŃáłŃ áł¦áł¶
Ġáł°áł¢áłªáł²áł¦áł· áł²áł¦
áłłáł® áłµ
Ġáł³áłłáł· áł¤áł´áłł
áł¢áł¨ áł¢áł³
ĠáłŃáł¦áł· áłªáł¡áł¯
Ġáł²áłłáł¶áł¢áł¯áłªáł¤áł· áł¢áł¯áłłáł¬áł¤
Ġáłłáł°áłłáłŃ áł¤áł¬áł¤
Ġáł¬áł¦áł´ áł¦áł¯áł¡áł¨
áł´ áł¢áł¯áł²áł¡
Ġáł¦áł·áł¦áłªáł³ áł¡áł°áł¦
ĠáłªáłłáłŃ áł¤áłµáł¤
Ġáł°áł¢ áł¤áł¸áłłáł¢
áł£áł¶áł¢áł² áłłáł¨
i v
Ġáłłáł®áł¢áł³áł¤áł· áłłáłµáł¤
Ġáł²áłłáł¶áł¢áł¯ áł¤áł®áłµáł¢
Ġáłłáłµáł¢áł¯áł¯ áłłáłŃáł´áł¢
Ġáł¢áł³ áł¡áłªáł¡áł¯
Ġáłªáł£áł¶áł¢áłµ áł¢áłŃáł¤áł¯áł¬áł¤
áł¤áłŃ áł¤áł°áł¢áł²áłłáł¶
Ġáł²áłłáł·áł¬ áłłáł¯áł²áłł
Ġáł®áł¤áł· áł¤áł¶áł¢áł
Ġáł°áł¦áł· áł¦áłŃ
ĠS t
9 9
Ġáł¬áłłáł¤ áł¯áł¢áł´áł¢
Ġáł® áł¸áł©
Ġáłµáł¢áłŃáł° áłłáł¯
Ġáł£áł¬áł£áł· áł¬áłłáł¨
Ġáł±áł¦áłŃ áł¦áłŃáł¦áł·
Ġáłµáł¢áł·áł® áł¦áł°
ĠáłªáłłáłŃ áł¤áł¬áł¤
Ġáł²áł¡áłµáł¢áłŃ áł¡áł¨
2 00
Ġáł²áł£áłŃáł² áłłáł¨
Ġáł¤áł· áł³áł¦
Ġáłµáł¢áł¯ áł¤áłŃáł¤áł³
áł¢áł³ áł¤
Ġáł°áł¡áł³áł¬ áł¢áł®áłµáł¢
Ġáł°áł£áł¯áł¢áł¯áł´ áłłáł¬áł¤
áł¡áłªáł¡áł¯ áł¢
Ġáł¤áłŃáł² áł¤áł¨
Ġáł¨ áł¡áł¡áłŃ
Ġáł´áł¢áł© áł³
Ġáł°áł¢áł¯ áł¤áłŃáł¤áł¨
Ġáł¬ áł¤áł²áłł
Ġáł¡áłŃáł¦áł°áłŃ áł¡áłµáł¦
Ġáł¨áł¡áł¶áł¢áł¯ áł¡áłŃáł¦áł¯áłµáł¦
áł¤áł¯ áłłáł©
Ġáł´áł£áłŃáł´áłłáł¯ áłłáłªáł¤áł·áł¢
Ġáł°áłłáł¨ áłłáłŃáł³áłłáł¨
Ġáłªáłłáł³ áłłáłŃ
Ġáł¨áłłáł¶áł¢áł·áłłáł® áł³áłłáł¬áł¤
Ġáł¬áł¥áłŃ áł¡áł·
Ġáł³áł¥áł· áłªáł¡
Ġáł²áł¡áłŃáł¡áłŃ áł¡áłªáł¦áł·áł¢áł¯áł¡áł¬áł¦
Ġáłµáł£áł¬áł¢áł¶ áłłáłµáł¤
Ġáłµáł£áł¬ áł¢áł¶áłłáł¬áł¤
Ġáł³áłłáłª áłłáł·áł¬áłłáł¶
Ġáł¨ áł£áł¶
Ġáł²áł¤áł¬ áł¢áł¶
Ġáłªáł¤áł¬ áł¢áł¨áł¢áł³
Ġáłµáł¡áłŃ áł¦áł¦
áł¦áł©áł¨ áł¡áł¯áł²áł¡
Ġáł³ áłłáł¶áł¢áł´
Ġáł¬ áł¤áł³áłłáł¯
Ġáł®áł¥ áł°áł¥
Ġáł¨ áł£áł¶áł¢áł²áłłáł¨
Ġáł¡áłŃ áł¦áł¯
1 4
Ġáłłáł¨ áł¾
Ġáł¢áł¯áłµáł¢áł· áł¡áł¬áł¦
áł¤áł¯ áłłáłµáł¤
Ġáł²áł¡áł³áł¬ áł¦áł¬áł¦
áł² áł¡áł¬áł¢
Ġáł°áł¤áłª áł¤áł³
Ġáł¡áł®áł¦áł° áł´áł¦
Ġáł¬áłłáł¯áł¬ áłłáłªáł´áł¢
Ġáł¬ áł¡áłªáł¡áł¯áł¢
Ġáłµáł¢ áł¡áł·
Ġáł¡áłŃáł¦áł· áł¢áł³áł¡
Ġáł² áłłáł¯áł¬
Ġáł¬áł¦áł¨ áł³áł¦áł·
Ġáł¤áł° áł¦áłł
Ġáłªáłłáł¶áł¢áł ²
Ġáł²áł¡áłŃ áł°
ĠáłŃáł¦áł¢áł¯áłŃ áł¡áłŃáł¡
Ġáł²áł£áłªáł´ áł¢áł¶áłłáł¨
Ġáłµáł¥áłª áł³
t er
Ġáłªáł¢áł¯áł ¬
Ġáłªáł¦áł²áł¦áłŃ áł¡áł¯áł²áł¡
Ġáł²áł¦áł·áł¢áł¶ áł¡áł°áł¦áł¨
Ġáł³ áłłáł¶áł¢áł¨
Ġáł°áł¡áł· áł¡áł®áłµ
Ġáłł áł´áł¢áł¶
Ġáł½ áł¸
Ġáł®áł¡áł¨ áł³
Ġáł°áł¤áł³ áł¤áł¯áł¤áł¯áł²áłł
® áł§áł¨
Ġáłªáł¤áł´ áłłáł¬áł¤
áł¥áł· áł¥áł®
Ġáł£áł¯áł µ
ĠL ED
Ġáłªáł£áł¯ áł¤áł®
ĠáłŃ áłłáł´
Ġáł°áł¢áłŃ áł¤áł·
Ġáł¶áłłáł·áł¢áł¯áł´ áłłáłŃ
Ġáł¡áł·áłŃ áł¢áł¯áł¡áłµáł¦
Ġáł²áł£áłª áł´áł¢áł¯áłłáł¨
Ġáł£áł·áł´áł¢áł¯ áłłáł©
Ġáł¯áł£áł© áł¬áł£
Ġáł¦áł¯áł¡áł³áł¡áłŃ áł¡áł¬áł¦
Ġáł²áł¤áł¯ áł¤áłŃáłłáł¨
áł¦áł ¶áł¢áł¨
Ġáł³áłłáł®áłµáł¢áłŃ áł¤áł¯áłŃ
Ġáłµáł¢áł·áł¤áł® áł¯áłłáł¨
Ġáł³áł¤áł² áłłáłŃáł¤
áł¡áł³ áł¡áł°áł¦
Ġáł¹ áłłáł°
Ġáłµáł£áł¬áł¢áł´ áłłáł¬áł¤
Ġáłµáł¢áł·áł¤áł® áłµáł¢áłŃ
Ġáł´áł¥áłŃ áł¥áł·áł¥áł®
Ġáł°áł¦áł· áł´áł¢áł¬áł¦
Ġáł°áł£áł¨áł¢áł·áł¬ áłłáł¯áł²áłłáł¶
Ġáł±áłłáł© áł¬áłłáł¢
Ġáłµáł¢áłŃ áł¦áł·
l o
Ġáł°áł¤áł·áłŃ áłłáł¬áł¤
Ġáł£áł·áł£áł¯ áłłáłŃáł´áł¢
ĠáłŃáłłáł·áłŃ áłłáł¯áł²áłł
Ġáłªáłłáł¶áł¢áłŃáł¤áł¯ áł¤áł¯áłŃ
Ġáł²áł¤áł° áł¦áłł
Ġáłµáł¥áłªáł³ áł¡áł¯áł´
áł´áł¢áł¯ áłłáł¬áł¤
Ġáł¶áł¡áł¬ áł¡áł²áł¡áł¶
Ġáł¦áł¯áł¡áł³ áł¡áłŃáł°áł¡áł¨
áł¡áł¯áł ¬áł¡áłŃ
Ġáł¬áł¦áł°áł¡áł¯ áł¡áł©
Ġáłªáł¤áł³ áłłáłŃáłłáł¨
Ġáłªáł¡áł¶ áł¡áł´áł¢
Ġáł²áłłáł· áł¢áł®áłłáł¯
Ġáł³áłłáł©áł° áłł
Ġáł² áł¤áł¤
áł¤áł¯áł² áłłáł¶
Ġáł¨áł¢áł° áł¬áł¦
Ġáł²áłłáł© áł°áłłáł¨
Ġáł¨áł¥áł¯áł¥áłŃáł¡áł¯ áł¡áł¨
Ġáł £
Ġáł£áł¯ áł¤áł¨
áł¡áł¯áł¡áł¬ áł¦áł¨
áł¡áł® áł¡áłŃáł´áł¡
Ġáł¬áł¥áł¬ áł¡áł®
Ġáł¸ áłłáłº
Ġáł¦áł· áł¡áłµáł¢áłŃáł¦áł¯áł¬áł¦
Ġáł¬áł¥áłŃáłµáł¢áłŃ áł¦áł¯áł¦áł¨
Ġáłªáł¥áł¬áł¥ áł³áł¡
Ġáł¬áł¤áł· áł¤áł¬
Ġáł¦áł¶ áł¡áł°
Ġáł²áł¡áł¨ áł³áł¡
Ġáł³áłłáł·áł¤áł®áłłáł¯áł¯ áłłáł¬áł¤
ĠáłŃ áł§áł¨
áł´áł¢áł¯ áł¡áł¨
áł¦áł³ áł¦áłŃáł¡áł·
Ġáł±áł¤áł¤áłŃ áł¢áł¶áłłáł¨
Ġáł³áłłáłŃ áłłáłŃáłłáłŃáł°áłłáł¨
Ġáł´áł¢áłŃáł¢áłŃ áł²
Ġáł¬áł¥áł¨áł³áł¡áł¶áł¢áł· áł¡áłŃáł¦áł¯áł¬áł¦
Ġáł¡áł³ áł¦áłŃáł¡
ĠáłŃáł¡áł· áł¡áł´áł¢áł¯áł¡áł¬áł¦
o d
Ġáł¡áłŃáł¦áł¯ áł¡
r a
Ġáł²áł¤áł° áł¢áł¶áłłáłµáł¤
Ġáł²áł£áł ©
áł¢áł ¹
Ġáł²áł¡áłŃáł¦áł¯áł³áł¡áł· áłµáł¢áłŃáł¦áł¯áłµáł¦
h e
Ġáł¡áłµ áł¡áł¯áł¡áł¬áł¦áł¨
Ġáłµáłłáł¯áłŃ áłłáłµáł¤
Ġáł¥áł¨ áł¢
áł¦áł· áł¡áł¯
Ġáł² áł¡áł¢
Ġáł¬áł¥áłª áł¡áłŃáł¡áł¨
Ġáł£áł £áł
Ġáł°áłłáłŃáł¤áł· áł¢áł¯áłłáł¨
Ġáł¹áł¦áłµ áł¢áł¶áłłáł¨
Ġáłł áł¯áłŃ
O S
áł²áł£áłŃ áłłáł¶áł¢áł¯
áł³ áłłáłŃáł¤áł¯áł¬áł¤
áł¤áłŃáłłáł´ áł¢
2 1
Ġáł· áł£áł®
Ġáł£áł® áł²áł£áłŃáłłáł¶áł¢áł¯
Ġáłªáł¢áł²áł¡áłŃáł¦áł®áłµáł¢áł¯ áł¡áłŃáł°áł¡áł¨
Ġáł£áł£áł ®áł§áł¨
áł¬áł£áł ¶áłłáł·
Ġáł¥áłŃ áł´áł¡áł¶
Ġáł¬áł¡áł¯ áł¡áłµáł¡áł¶
Ġáłµáł¢áłªáł¬ áł¤áłŃ
ĠáłªáłłáłŃáł¤áł· áłłáł¬áł¤
Ġáł¬áł¡áł¯áł¬ áł¢áł¶áł¡áł¨
Ġáł´áł¢áł©áł³ áł£áł¤
Ġáł£áł·áł£áł° áł¢áł¬áł¤
Ġáł® áł¤áł°
áł² áł¦áł·
áł¢áłŃ áł¡áł³
áł¢áł³ áł¤áłŃáłłáł·
Ġ201 3
Ġáł®áł¥áł· áł¥
Ġáł° áł¡áł¶áł¢áł¯
Ġáł±áłłáł¨ áł°áł¢
Ġáł´áł¥áł· áł¬áł¡áł¯
Ġáł¬áł¤áł¨ áłłáł·
Ġáł¤ áłª
Ġáł³áł¡áł¯áłŃáł¡áł· áł¡áłµáł¦
Ġáł¨áł¡áł¶áł¢áł¯ áł¡áłŃáł¦áł¯áł¦áł¨
áłłáł¯áłŃ áłłáł¨
Ġ4 00
Ġáł°áł¡áł¯áł¡áłŃ áł¦áł´
an d
Ġáł°áłłáł¨ áł³áł¤áł·
Ġáł¬áł¤áłŃ áł¤áł·
ĠáłªáłłáłŃáł² áłłáłŃáłłáłµáł¤
ĠáłŃáł¥áł· áł³áł¡áłµáł¦
Ġáł³áł¤áł¯ áłłáłŃ
Ġáł¬áł¡áł·áł¡áłŃ áł°áł¡áł¨
Ġáł³áł¡áł¶áł¢áł¯ áł¦áłŃ
Ġáł°áł¢áł¯áłµ áł¢áł¬áł¦
Ġáł® áł¦áł½
Ġáł¬áł¦áł· áłŃáł¡áł¨
Ġáł²áł£áł¬áł¢áł¶áłłáł¯áł³ áł¤áł³áłłáłŃ
Ġáłª áł¸
Ġáłµáłłáł³ áłłáł¯áłµáł¤
Ġáł²áł¤áł ¶áł¢áł
áł¼ áł¢áł¨
Ġáłł áł¯áłłáł¬áł¤
Ġáł³áłłáł®áłµáł¢áłŃ áłłáł³
Ġáł£áł·áł£áł¯áł´ áłłáłŃáł°áłłáł³
Ġáł³áł¤áł·áłłáł° áł¬áłłáł¯
Ġáł£áł¶áł¢áł· áłłáł³
Ġáłº áł¯áł¦
Ġáł²áłłáł° áł¤áł¯áł¬áł¤
Ġáł¬áłłáł·áł¢áłŃ áł¤áł¯áł¬áł¤
Ġáł¬áł¥áł²áł¥áł¯áł¥ áł¨
Ġáł¬áł¥ áł©
ĠáłŃáł¤áł¯áłŃ áł¤áłŃáł¤áł·
Ġáł°áłłáł¶áł¢áłµáł¢áł· áłłáłŃáł¤áł¯áłµáł¤
Ġáł²áł£áłŃáłłáł´ áłłáłŃ
áł¡áłŃ áł¡áł¶
Ġáł°áł¦áł· áł´áł¢áł¨
ĠáłŃáł£áł£áł¯áł¯ áłłáł¨
Ġáł°áł¤áłª áłłáłŃ
Ġáł¸áłłáłº áł¼áł¢áł¨
Ġáłµáłłáł· áłŃáł¤
áł¢áłŃ áł¤áł¯áł¤áłŃáł´áł¢
áłµ áł¸áł¤
Ġáł¶áłłáłª áł¤áłŃáł³áłłáłµáł¤
Ġáł¤áł¬ áł¢áł¶áłłáł¨
Ġáł´ áł¡áłŃáł¡áł·
Ġáł¶áł¦áł¨ áł¨áłłáł¨
Ġáłªáłłáł ¬áłłáł¨
Ġáł²áłłáł® áłłáłŃ
Ġáł²áłłáł¨áł¢áł¯áł´ áłłáłŃáł¤áł¯áłµáł¤
Ġáł³áł¥ áł¯áł¥
áł¢áłŃ áł¤áł¯áł¤áł¨
Ġáł¨áłłáł® áłłáł¶áł¢
Ġá¡ »
Ġáłµ áł¤áł¤
Ġáł´ áł¢áł¶áłłáł©
Ġáł¬áł¦áł¯ áł¡áł®áłµáł¢
Ġáł«áłłáł· áłłáł®áł§áł²
Ġáł³áł¤áł¯ áłłáłŃáłłáł¯
oo k
Ġáłµ áł¢áł¦
áł° áł¢áł¶áłłáł©
Ġáł´áł¢áł¬áł¤áł¯áłłáł´áł¢áł¯ áłłáł¬áł¤
áł¥ áł³
Ġáł³áł¡áłŃáł¡áłŃáł°áł¢áł¯ áł¡áł¯áł²áł¡
Ġáł¶áłłáłª áłłáłŃáłłáł¨
Ġáł±áłłáł¯ áłł
áł° áł£áłŃ
Ġáł¬áł¥áłŃ áł¡áł°áł¦
Ġáł¯áł£áł© áł¬áł£áł¨
Ġáł¯áł §
Ġáł¨áł¡áł· áł¡áł³áł¦
Ġáłªáł¡áł¯ áł¡áł³áł¬áł¡áł¬áł¦
Ġáł¡áł· áł¡áł¯áł¬áł¡áłŃ
áłłáł ¹
Ġáł°áł¥ áł©
áłłáł² áłłáł¯
Ġáł¤áłŃáł² áł¤áłµáł¤
Ġáł¶áł¢áł° áł¦áł³áł¦áłŃáł¡áł·
Ġáłªáłłáł· áł°
Ġáł¡áłª áł¦áłŃáł¡
Ġáłªáłłáł·áł¢áł®áł² áłłáł¯áłłáł¨
Ġáłłáł®áł¢áł³áł¤áł· áłłáł¬áł¤
áł¡áł¶áł¢áł ²
Ġ3 6
Ġáł¨ áł¤áłŃ
Ġáł´áł£áł® áł£
Ġáł°áł¢áł¶áł³áłªáł¦áł· áł¢áł¯áł¡áł¨
ĠáłªáłłáłŃ áł¤áł¯áłŃáłłáł¨
Ġáł²áłłáł·áł¬ áłłáłŃáłłáłŃáł°áłłáł¨
áł¡áłŃ áł°áł¡áł³
áłłáł¯áłµ áł¢áł¨
Ġáł²áłłáł° áł¤áł¯áłŃ
Ġáł¨áł¥áł¯áł¥áłŃáł¡áł¯ áł¡áłµáł¦
Ġáł°áł¦áł¨ áł¡áł°áł¦
áł£áł° áł¢áłŃ
Ġáł¬áł£áł¯áłª áł£áł¨
áł¦áł¯áłª áł¡
áłłáłŃ áł´áł¢áł³
áłłáłŃ áłłáł²áł¤
Ġáłµ áłłáł¢
Ġáł¥áł¬ áł¡áł¶áł¢áł³
ĠáłŃáłłáł·áłŃ áłłáłªáłł
áł¢ áł¤
Ġáł¡ áłªáł¡áł·
Ġáłłáł©áłŃ áł¢áłµáł¢áł·
Ġáł¡áł¯áł ³
Ġáł¬áł¡áł¯áł¬ áł¢áł¢
Ġáł²áłłáł¨ áł¢áłµáł¤
Ġáłªáłłáł¶áłłáł° áł¤áł¯
Ġáł¬áł¥áł³áł¡áł¯ áł¦áł¯
Ġáł°áłłáłŃ áł¤áł¯áłŃ
Ġáł¬áłłáł¯ áłłáłŃ
Ġáłªáł¦áł²áł¦áłŃ áł¡áł¯áłŃáł¡
Ġáł³áłłáłŃ áł¢áłµáł¤
Ġáł¬áł¢áł² áł¤áłŃ
áł¤áł¯áłªáł¤áł· áł¢
Ġáł³áłłáłŃ áłłáłŃáł¤áł¯áłµáł¤
Ġáł¨áłłáł¨áł³ áł¢áł¨
Ġáł¬áłłáł¶áł¢áł ´
Ġáł° áł£áł³áł£áł¨
ĠáłŃáł¤áłª áł¢áłŃáł¤áł¯áłŃ
Ġáł¡áł·áł³áł¡áł® áł²áł¡áł¨
Ġáł°áłłáłŃáł¤áł· áł¢áł¯áłłáłŃáł°áłłáł¨
Ġáł¬ áł¦áłµ
Ġáł¥ áł¯áłµ
Ġáł¬áłłáł·áł¢áłŃáł¤áł´ áłłáł¨
Ġáł¬áłłáł®áłµáł¢áł¯áł´ áłłáł¬áł¤
Ġáł¬áł£áł¯áłªáł£áłŃ áłłáł¯áłłáł¨
áłłáł· áłłáł¨
áł£áł² áł¤
Ġáł¬áłłáł° áł¤áł¬áł¤
Ġáł£áł ¬
Ġáł¡áłŃ áł´áł¡
Ġáł² áł¤áł¯áłł
Ġáł¨ áł¦áł¬áł¡áł¨
Ġáłłáł¯áł³ áłłáłŃ
Ġáł¬áł¡áł²áł¦áł· áł¡áłŃáł°áł¡áł¨
1 7
S O
Ġáł®áłłáł¨ áł³áłłáł¯
áłłáł¶áł¢áł µ
áł£áłŃ áł£áł·
Ġáł°áł¢áł¶áł³áłªáł¦áł·áł¢áł¯ áł¡áł¯áł²áł¡
áł¢áł° áłº
Ġáłµáł£áł¬áł¢áł¶ áłłáłŃáł°áłłáł¨
Ġáł¬áł¥áłª áł¡áłŃáł¦áł¨
Ġáł¡ áłŃáł¡
Ġáłłáł·áłłáł¯áłµ áł¢áł¶áłłáł¯
ĠáłŃáł£áł£áł ¯áł´
Ġáł²áłłáłŃ áłłáł°
Ġáłªáł£áł¯áłªáłłáł°áł¤áł· áłłáłŃáł¤áł¯áłµáł¤
Ġáł³ áłłáł°
Ġáł¬áłłáł®áł² áł¤áł¯áł¢áłŃ
ĠáłŃáłłáłª áł¢áł¶
Ġáł¤áł·áł¢áł² áłłáł¯
Ġáł´ áłłáł°áł¤
áł¦áł¯ áł¢áłŃ
áłłáł¯áł³ áł¤áłµáł¤
Ġáł¡áłªáł³ áł¡áł·
Ġáł´áł¤áłŃáł¯ áłłáł·áłłáł¯
i m
áł¦áł³ áł¡
Ġáł« áł¸
Ġáł¬áłłáł·áłłáł® áł°
Ġáł¬áł¡áł·áł¡áłŃáłµáł¢áłŃ áł¦áł¯áł¦áłŃáł°áł¡áł¨
Ġáł¬áłłáł²áłłáłŃ áł¤áłµ
Ġáł¬áłłáł¨ áł¤áł®
Ġáł¦áłµ áł¡áłŃáł¡áł·áł¡áł¶
Ġáłµáł£áł·áł¢áłŃ áł²áłłáł¶
áłłáłŃáł¤áł· áł¢
Ġáł¬áłłáł®áłłáłŃáłłáł¯ áłłáł¨
áł¬ áłłáł³áłłáłŃ
Ġáł° áł¦áłµ
Ġáł¡áł· áł²áł¡áł¬áł¡áł¨
Ġáł²áłłáł·áł¬ áłłáłŃáłłáłµáł¤
Ġáł¬áł¥áł²áł¥ áł¯
áł¡áłŃáł¡áłµ áł¢
Ġáłªáł¦áł² áł¦áłŃáł°áł¡áł¨
Ġáł²áł¤áł¨ áł¦áł¬
Ġáł¦áł¶áł¯áł¡áł³ áł¦áł¯áłŃáł¡
Ġáłªáł¥ áł°
Ġáł¦áł·áłŃáł¦áł¯áłµ áł¢áł¯áł¡áłŃáł°áł¡áł¨
Ġ f
Ġáłª áł¢áł©
áł¦áł· áł¢áłŃáł¦áł¯áł¬áł¦
Ġáł¬áłłáł· áłłáł©áłŃáł¤áł¶
Ġáł² áł¦
Ġáł¬áłłáł·áłłáłŃáłłáł¯áłµ áłłáłŃáł°áłłáł¨
Ġáł¬áł¤áł· áłłáł®áłłáł¯
áł¢áł° áł¤áł¨
Ġáł² áłłáł¶
áł¢áł® áłłáł¬áłłáł¶
Ġáł¤áł² áł¤áłŃ
Ġáł¬áłłáłŃ áłłáł¯áłŃ
áłłáłŃáł¤áł¯ áł¤áłŃáłłáł³
Ġáł¦áł³ áł²áł¡áł·
Ġáł®áł¥áł· áł¥áłŃáł¡áł³
áłŃ áł¡áł³
Ġáł°áł¡áł³ áł¦áł¯áł²áł¡
Ġáł¬áłłáłª áł°
Ġáł¬áł£áł¯áłª áł£áłµáł¤
Ġáł°áł£áł ¯áłª
Ġáł²áłłáł® áłłáł¬áł¢
áł° áł¢áł¬áł¤
Ġï¹ Ģ
Ġáł®áłłáł¶áł¢áł® áłłáł¶
Ġáł³áłłáłŃ áłłáłŃáłłáł¨
P S
Ġáł´áł¢áł³áł¬ áł¤áł¬áł¤
ĠáłŃáłłáł· áł¤áł¯
Ġáł² áł¸áł©
Ġáł¬áłłáł· áł¢áł®áłłáł¬áłłáł¶
Ġáł³áł£áłŃ áł³
Ġáłłáłª áł´áł¢áłŃ
áł¨ áł¦áłŃáł¦áł³
Ġáł°áł¢áłŃ áł¦áł°
Ġáłłáłª áłłáł´
áł£áł³ áłłáł¯
o f
Ġáłłáł¨áł¾ áł¦
Ġáłªáłłáł¶ áłłáł¨
Ġáł¶áłłáł· áł°áł¢áłŃ
Ġáłªáłłáł¶áł¢áłŃáł¤áł¯ áł¤áłŃáł³áłłáłµáł¤
áłª áł¡áł³áł¡áłŃ
Ġáł°áł¡áł·áłŃ áł¡áłŃ
Ġáł°áł¡áł· áł¡áł®áłµáł¢
Ġáł®áłłáłŃáłłáł³ áł¯áłłáł¨
Ġáł¦áłŃ áł¡áł°
Ġáłªáł¤áł¶ áłłáł¨
Ġáł¶áłłáłª áł¤áłŃáł¤áł¯áłµáł¤
áłłáł¯áł ¼
áł¦áł· áłŃ
Ġáł¡áł¯áł³ áł¡áłª
Ġáłµáł¢áł± áł¢áłŃáł°áł¡áł¨
Ġáłłáł¶áł¢áł µ
Ġáłłáłª áł°áłłáł·
Ġáł¬áłłáł¯áł³áłłáłªáł¤áł· áł¢áł¯áłłáł¯
N A
Ġáł¦ áłªáł¡áł³áł¡áłŃ
Ġáł¦áłªáł¡áł³áł¡áłŃ áł°áł¢
Ġáł® áł¦
Ġáłłáł ¯áł²áłł
Ġáł²áł¡áłŃáł¦áł° áł¬áł¡áł¯
áł¢áł¶áłłáł© áł¬áł¤áł¸áłł
Ġáłºáłłáł¨ áłłáł³áłł
u t
âĢ į
áł½ áł¢
Ġáł²áłłáł¬ áł¢áł¶
Ġáł®áłłáł¨áł³ áł¤áłŃáł¤áł¯áł¬áł¤
áł¦áł¯ áł¦áłŃ
Ġáł¢áł°áł¬ áł¡áłŃáł¦áł·
Ġáł¬áłłáł® áłłáł·
Ġáł´áł¢áł³ áłłáł®áłłáłŃáłłáł¶
áł¬ áł¦áł·
ĠA PP
áł¤áł· áłłáł³
Ġáłªáł£áłŃ áł£áł·
Ġáł°áł¢áł¯áłµ áł¢áł¯áł²áł¡
Ġáłªáł£áłŃáł£áł· áł°áł£áłŃ
i e
Ġáł´áłłáł¬ áł¢áł®
áł¡áł¯áł ¬áł¦
Ġáł¥áł· áł¨
ĠP C
Ġáł¦áł¯áł¡áł³ áł¡áłŃáł³áł¡áł¯
áłµáł¢ áłł
Ġáł²áł¡áł® áłµáł¢áłł
Ġáł³áłłáł· áł¤áłªáł´áł¢
Ġáł¬áłłáł³ áłłáł¨
Ġáł²áł¤áł³ áł¤áł®
Ġáł°áłłáłŃ áł°
Ġáł®áł¡áł³ áł¡áłªáł¡áł¯
Ġáł¤áł·áł¤áłŃáł°áł¢áł¯ áłłáłµáł¤
Ġáłµáłłáł¯áłŃáłłáłŃ áłłáł°áł¤
Ġáł± áł¦áł·áłŃ
Ġáłµáłłáł¯áłŃ áłłáłŃáł¤áł·
Ġáł¦áł¶áł¯ áł¡áł´áł¢áł¯áł¡áł¬áł¦
u r
Ġáł¬áłłáł· áł¢áłµáł¤
ĠáłŃáł¦áł¢áł´ áł¡áł³áł¬
ĠáłªáłłáłŃáł¤áł· áłłáł¯áł²áłł
áł¯ áłłáłŃáł¤áł·
Ġáł¨áłłáł· áłł
Ġáłłáł¶áł¢áłµ áłłáł®
Ġáł¤ áł¢áł·
Ġáłłáł³áłłáł¯ áł¢áł³áł¬
Ġáł° áł¤áł®áł¤
áł£áł¬ áł£áł·
Ġáł¬áł¥áł¯áł³ áł¡áłŃáł¡áł¬áł¦
áł³áłłáł¯ áł¢
Ġáł¬ áł¢áłªáł¡áł¯
Ġáł¬áłłáł¯áł³ áłłáłŃáł°áłłáł¨
Ġáł± áł£áł°áł¢áłŃ
Ġáł° áł¡áł¬
áłłáł ±
Ġáł²áł¥áł·áł¥áł¯áł¬ áł¢
Ġáł°áł¢áł¯áłŃ áłłáłµáł¤
Ġáł°áł¤áł·áłŃ áłłáł¯
Ġáł° áł¥áł·
áł°áł¢áłŃ áł°áłłáł¨
Ġáł¢áł· áłŃáł¡áł³
Ġáł´áł¥áł·áł¬áł¡áł¯ áł¡áłŃáł¡
Ġáłµáłłáł¬áł¢áł¶áłłáł¯ áłłáł¨
áł£áłŃ áł¢áłŃ
a b
áł¦áłŃáł¦áł¯ áł¢áłŃ
Ġáł´áł¤áłŃáł´áłłáłµáł¢áłŃ áł¤áł¯áł¤áłŃáł°áłłáł¨
Ġáłłáł®áłłáł· áłłáł¬áł¤
Ġáł¬áłłáł² áłłáłŃáł¤áł·
Ġáł°áłłáł¨ áł³áłłáł¯áł¢
Ġáł°áł¡áł·áł¡áł®áłµ áł¢áł¯
áłłáł¤ áł¯
Ġáł¬áł¡áłª áł°áł¢áłŃáł¦áł¯áł¬áł¦
Ġáł¥áłŃáł¡áł·áł¡áł´áł¢áł¯ áł¡áłµáł¦
áł« áłłáł¨áł¢
áł¡áł° áł¬áł¡
Ġáł³áłłáł¬ áł¢áłŃáłłáł³
Ġáł®áł¡áł³ áł¡áłŃáł³
Ġáł¬áł¦áł·áłŃ áł¡áł¯áł²áł¡
Ġáł´áł¤áłª áł¤áł·áłłáł¯
Ġáłªáłłáł¶áł¢áłŃ áł°áłłáłŃáłłáł·
Ġáł¬áł¡áł®áłµ áł¢áłµáł¦
Ġáł¨áł¡áł¶áł¢áł °
Ġáł¬áł¤áłªáł¢áł· áłłáłµáł¤
áł¯ áł¡áłŃáł´áł¢
áł¤áł©áłŃ áł¤áł¶
Ġáł³áłłáłª áłłáł¬áł¤
Ġáł³ áłłáł°áł¬
áł¡áł µáł¤
Ġáł¯ áł£áłŃáł¢áłŃ
áłłáł² áłłáłŃáłłáł¶
Ġáłµáł¢áłŃ áł¤áł²
Ġáł¹ áł¢áł¯áł¢áł®
ĠáłŃáł¤áł¸áłłáł© áł°áł¢
Ġáłłáł¯áłªáłłáł³ áłłáł¯áłŃ
Ġáłº áłłáł¯áł¼
Ġáłªáł¤áł¯ áł¤áł¤
7 0
Ġáł³áłłáł°áł¬ áłłáł¯áłµ
Ġ201 2
Ġáłłáł³áłłáł¯ áł¢áł³
Ġáłłáł¯áł® áł¤áł·áłłáł³
Ġáł£áł¶áł¤áł¨ áł¯áł¢áłŃ
Ġáł³ áłłáł¶áł¢áł
Ġáł®áł¤áł¬ áł¤áł¯áłłáłŃ
Ġáł£áł¶áł¢áł· áłłáł²
ĠáłŃáł£áł¸áł¯áł¯ áłłáł¨
Ġáłªáł¦áł³ áł¦áłŃáł¦áł¯áł¢áłŃ
Ġáł³áł£áłŃáł¢áł· áłłáł¬áł¤
áłµ áł¢áł±
Ġáł¬áł¢áłµáłłáłŃáłłáł· áł¯áłłáłµáł¤
Ġáł²áł¥áł® áł¥áł°áł¥
Ġáł¬áł¡áł®áłµ áł¢áł¯áł³áł¦
Ġáł¢áł¯áł¡áł· áł¡áł¨
Ġáł®áłłáł¯áł² áłłáł¬áł¤
áłłáłŃ áł¤áł¯áłªáłłáł¯
Ġáł¬áł£áł· áł¢áł³áł¤áłŃáłłáł·
Ġáł± áłłáł³áł¤
Ġáł³áłłáł°áł¬áłłáł¯áłµ áł¢áłŃáł¤áł¯áł¤áłŃáł´áł¢
Ġáłªáłłáł³ áłłáł·áłłáłŃáł¤áł¯áł¬áł¤
Ġáł¨áł¡áł¶áł¢áł° áł¯áł¡áł¯
Ġáł¬áł£áł³áł£áłŃ áł£áł³áł£
Ġáłªáł£áł¯ áł¤áł®áłµáł¢
Ġáł³áłłáł³ áł¤áł¯áłŃ
Ġáł¦áł¢áł¯áł¡áł³ áł´áł¦
Ġáł£áł¨ áł£áłŃ
Ġáł®áł£áł· áł¢
áłłáł· áł¤
Ġáł¨áł£áłŃ áł£áłŃáłłáł·
á¡ ģ
Ġáł² áł¢áłŃ
Ġáł° áł¸
Ġáłªáł¡áł¬ áł¡
áł¤áł² áłłáł¶
Ġáł°áł£áł¯áłª áł¢áł´
3 5
Ġáł± áł¦áł¨
Ġáł³ áłłáł¯áł³
Ġáł°áłłáł¬ áł¢áłµáł¤
Ġáł³áłłáłŃáł¤áł· áł¢áł¶áłłáł¯
ĠáłłáłŃ áł¤áł¯áłµáł¤
Ġáł¦áł¨áł³áł¦áł°áł¦áł¯ áł¡áł¯
Ġáł¢áł¯áł¡áł³áł¬ áł¡áł®áłµáł¢
áłłáł¯áł³ áł¤áłŃáł°áłłáł¨
Ġáłµáł¥áłŃáł¡áłŃ áł¡áłªáł¦áł·áł¢áł¯áł¡áł¬áł¦
1 00
2 4
Ġáł¤áł©áł°áł¢áłŃ áł´áł¢áł³
Ġáł° áł¡áł©
Ġáł°áł¢áł¨áłµ áł¢áł¶áłłáł©
Ġáł¢áł³ áł¡áł·
Ġ w
Ġáł¬áłłáł©áłŃ áłłáł³áłłáłŃ
Ġáł²áłłáł¶áł¢áł ¯áł¬áł¤
áł¡áłŃáł¦áł¯ áł¦áłŃáł¡áł³
Ġáł¤áł¨ áł´
áł¦áł¯áł³ áł¡
Ġáł²áłłáł¯áłª áł¢áłŃáł¤áł·
Ġáł¥áłŃ áł´
Ġáł¬ áł¦áł¬áł¡
Ġáł¬áł¤áł³áłłáł¯áł³áł¤áłŃáłłáł´ áł¢áł³
Ġáł³áł¡áłª áł°áł¢áłŃáł¦áł¯áł¬áł¦
Ġáł¤áł·áł¤áłŃáł°áł¢áł¯ áłłáł¬áł¤
ĠáłŃ áł¤áł¨
Ġáł¬áł¤áłªáł¢áł· áłłáłŃáł¤áł¯áł¤áł¨
at ion
Ġáłªáł¤áł¯áł¤áł¤ áłł
Ġáł¬ áł¦áł³áł¡áł·
Ġáł¬áł¡áł·áł¡áłŃáł´ áł¡áłŃáł¡áł¨
Ġáł¨áł¡áłªáł²áł¡áł· áł¡áłŃáł¦áł¯áłµáł¦
Ġáł²áł£áł¬áł¢áł· áłłáłŃáł¤áł¯áłŃ
Ġáł°áł¡áł³áł¬ áł¢áłŃ
Ġáł¬áłłáł·áł¢áłŃáł¤áł´ áłłáł¬áł¤
Ġáłªáłłáł¶áł¢áł´ áłłáłŃáłłáłŃáł°áłłáł¨
Ġáł® áł¤áł¤áł·
Ġáłªáł£áł¯áłªáłłáł°áł¤áł· áłłáł¬áł¤
Ġáł¬áł¤áł¯ áł¤áłŃáłłáł¨
áł¸ áłº
Ġáłµáł¤áłŃáłłáł´ áłłáłŃáł°áłłáł³
Ġáłªáł¤áł¯áł´ áł¢áł·
Ġáł¤ áł®áłª
Ġáł¬áł¦áł¢áł³ áł¡áł¨
Ġáłµ áłłáł¨
Ġáł¦áł¢áł¯áł¡áł´áł¢áł¯ áł¡áłŃáł¦áł·
ĠáłŃ áł¤áł´áł¢áł¨
Ġáł°áł¦áł¯áłµ áł¢áł¢
Ġáł®áł¡áł³áł¡áłŃáł¡áł¯ áł¡áłŃáł°áł¡áł¨
Ġáł³áł£áłŃáł¢áł· áłłáłŃáł¤áł¯áł¤áł¨
ĠáłŃ áłłáł°áł¢áłŃ
áł¢áł¯ áł¡áł¯áł²áł¡
Ġáł¡áłŃ áł¡áłŃáł¦áł¯áł¦áł¨
Ġáł°áł£áł· áł£áł¬áł¤
Ġáł°áł¡áł· áł¢áłŃáł¦áł¨
ï¸¾ áłĤï¸½
Ġáł¤áł¯áłłáł®áłµáł¢áł¯ áłłáł¨
Ġáł° áł¤áł©áłŃ
Ġáł£áł¯áł ³áłłáłŃ
Ġáłł áł²
Ġáł²áł¥áł°áł¦áłª áł¯áł¡áł¯
Ġáł± áł¦
áł¯áłŃ áł¡
Ġáłµáłłáł° áłłáł¨
Ġáł²áłłáł· áł¢áł¯áłŃ
Ġáł¤áł³áł¤áł·áł¢áł³ áł¤áł®áłµáł¢
Ġáł¬áł¥áłŃáł¡áłŃáł¡áł´áł¡áł¯áł³ áł¦áł¬áł¦
Ġáłµáł¢áł·áł® áł¦áł°áł¦áł¨
Ġáł¬áł¡áł· áł¡áł°áł¬áł¡
Ġáł³áł¡áłŃ áł¡áł°áł¦áł¨
Ġáł° áł£áł¬áł£áł·
ĠáłªáłłáłŃáł¤áł· áłłáłŃáł°áłłáł¨
Ġáł¬áł¦áł· áł³áł¡áłŃ
Ġáł±áłłáłŃáłłáł·áł³ áłłáłµáł¤
Ġáł°áł£áł¯ áł¢áłŃ
Ġáł®áł¡áł³ áł¡áłŃáł¡áłµáł¢
Ġáł¥áł·áł¢áł°áł¥áł¯áł³ áł¦áł¬áł¦
Ġáł¬áł¥áłª áł¦áł®áł¡áł¯
áłµáł¢áłŃ áł¤áł¨
Ġáł¥áł³ áł¬áł¡áł¨
¯áł² áł¤
Ġáłłáłµáł¢áłŃ áł¯áłłáł¬áł¤
áł¤áłµ áłłáł¶
Ġáł¨ áł¢áł¯áłª
Ġáłµáł¢áł·áłŃ áł¤áłŃ
Ġáł¬áłłáł¶áł¢áł Ń
Ġáł´ áł¤áł¸áłłáł¨
Ġáł² áł¡áł¬áł¢
Ġáłłáł¶ áł¤áł¬áł¤
áł¡áł³áł¬ áł¡áłŃ
Ġáł²áłłáł¨ áł¢áł¯
Ġáłłáł¨ áłłáł¶
Ġáł¬áłłáłªáł°áł¤áł· áł¤áł®áłµáł¢
Ġáł£áł® áł£áłŃ
Ġáł²áł¡áł¬áł¢ áłł
Ġáł® áł¢
áłłáł· áłłáłŃáł¤áł¯áł¤áłŃáł°áłłáł¨
ĠáłŃáł¡áłµáł¢áłŃ áł¡
Ġáł° áł¤áł¨
Ġáł¤áł·áł¤áł° áł´áłł
Ġáł¬áł£áł ´
ĠáłŃáł¦áł¶ áł¦áł¯áłŃáł¡áł¨
áł¡áł¯ áł¡áł·
Ġáł²áł¥áł¯áł¥áłŃáł¡áł¯ áł¡áł¬áł¦
áł¤áł ¬áł¢áł·
Ġáł¬áł¦áł´áł¢áł· áł³
Ġáł´áł¡áłŃáł¡áłµ áł¢áł¯áł¡áłµáł¦
Ġáł±áłłáłŃáłłáł·áł³ áłłáł¨
Ġáłªáłłáł¶ áłŃ
Ġáł³áł¤áł·áłłáł³ áł¬áł¤
áł£áł´ áł¢áł¯áłłáłŃáł°áłłáł¨
8 5
Ġáł¨áł¡áłŃ áł¦áł³áł¡áł¯
Ġáł®áł£áł· áł¢áł¨
Ġáł³áł¤áł·áłłáł³ áł¤áł¨
Ġáł³áł¡áłª áł¢áł°
Ġáłªáł¦áł·áł¢áł¯áł³áł¦áłŃ áł¦áł¯áłµáł¦
. .
u m
Ġáł´áł¤áłŃáł¯ áłłáłŃáł¤áł¯áł¤áłŃáł°áłłáł¨
ï¼ī áłĥ
Ġáł¥ áł©
Ġáłłáł¶ áł¤áłµáł¤
Ġáł¬áł£áł´ áł£áł·
Ġáł¾ áł¯áł£áł·
Ġáł¬áłłáł®áł¢áł¶áłłáł· áł¤áł¨
Ġáł¶áłłáł·áł¢áł¯áł´ áłłáłŃáłłáł¨
Ġáł¾ áł·
ĠáłŃ áł§
Ġáł² áł¤áł¯áł¬áł¤
Ġáł¬áłłáł²áłłáłŃáł¤áłµ áł¢áł¯áł²
Ġáłłáł ¹
Ġáł¡áł¯áł¢áłŃ áł¡áł¨
Ġ201 0
® áłª
Ġ v
ĠáłŃáłłáł· áł³
Ġáłªáł£áł¯áłŃ áłłáłªáłł
Ġáłªáł£áł¯áłŃáł£áł® áłµáł¢áł²áłłáł¶
ĠáłŃáł¦áł¢áł´ áł¡áł³áł¬áł¡áł¯
Ġáł¤áł´áłłáł· áłłáłŃáł°áłłáł¨
Ġáł²áł¤ áł¤áł±
áł´ áł¦áł³
Ġáł£áł·áł´áł¢áłŃ áł¤áł¯áłŃ
Ġáł¢áł³áł¡áłªáł¬ áł¢áłµáł¢áłŃ
Ġáł¡áł¨ áł³áł¡áł¬áł¢
Ġáłªáł¤áł¯áł´áł¢áł· áł¬áłłáł¶
áł¤áł¶áł¢áł ¬áłłáł¨
Ġáł¬áł¤áł· áł¢áł¶áłłáłµáł¤
Ġ3 2
Ġáł¬áł£áł· áł®
Ġáł³ áł¤áł¬áł¢áł·
Ġáł²áł£áł³áł£áł·áł¬áłłáł¶áł¢áł¯ áłłáłŃáł°áłłáł¨
Ġáł¤áł· áł¤áł¯áł³
Ġáł¡áł·áł¡áłŃ áł¦áł¦
o p
Ġ n
Ġáł±áł¦ áł¢áł¨áł¢
Ġáł²áł£áłŃáłłáł´ áłłáłŃáł³áłłáł¨
Ġáł¦ áł¬áł¡áł¢
Ġáł®áł¡áł³ áł¡áłŃáł³áł¡áł¬áł¦
Ġáł°áł£áł´ áł¢áłŃ
Ġáł³áł£áł ª
i r
Ġáłµáł¥áłªáł¯ áł¡áł¯áłŃáł¡áł¨
Ġáł¥áł· áł¥áł®
áłµáł¢áł± áł¢áł¶áł¡áł¯áł¡áłªáł¡áł¯
Ġáł¬áł¤áł·áłłáł®áł³ áł¤áłŃ
Ġáł°áł¤áł³ áł¤áł¯áłµáł¤
Ġáł´áłłáł· áłłáłŃ
áł³ áłłáłŃáł¤áł¯áł¤áł¨
Ġáł¡áł¨ áł¡áł³áł¬áł¡áłŃ
Ġáł´áł¤ áł¤áł·
Ġáłłáł¯áł³ áłłáł¨
áł¯áłłáł¨ áł³
áł¡áł¨ áł¡
a v
Ġáł¬áł¡áł¦ áł·
Ġáł¬áłłáł¨áł³ áł¢áłª
Ġáł¶áł¢áł ¦
Ġáł¦áł· áł¦áłŃáł¡
Ġáłłáł¶ áł¤áł¯áł²áłłáł¶
áł¨ áłłáł¬áł¤
Ġáł´áł¢áł³ áł¬áł¥áł·
Ġáł¢áł²áł¡áłŃ áł¡áł®áłµ
Ġáł¦áł¨áł¡áł¨ áł¬áł¦
ĠáłŃáł¢áł¨ áłµáł¢
Ġáł« áł¤áł¤
Ġáł¬ áł¸
Ġáł¬áłłáł¨áł³ áł¤áł¯áłŃ
Ġáł° áł¤áł®
Ġáł¦ áł®
Ġï¹ ĩ
Ġáł¬áł£áł¯áłª áł£áł¬áł¤
Ġáłłáłªáł°áłłáł· áł¬áłłáł¨
Ġáłªáł£áłŃ áł´
Ġáł³áłłáłª áł¤áł°áł¤áł¨
Ġáłµáł£áłª áłłáłŃáł¤áł·áł¢
Ġáł®áł¢áłºáł· áł£áłª
¡ áłŃ
Ġáłªáł¤áł´ áłłáłŃáłłáł¨
Ġáł£áł· áł¬
Ġáł± áłłáłª
ĠáłłáłŃáł¤áł° áł¤áł®áłłáł¯
Ġáł¬áłłáłª áł¢
Ġáł¬áł¥áł³áł¡áł¯áł ®áł¦áł·
Ġáł¨áł¡áł¬ áł¡áł³áł¡áł°áł¦
Ġáł£áł¬ áł¢
Ġáłª áł¡áł¬áł¢
Ġáł¬áł¤áł· áłłáł¯áł³áł¤áłŃ
Ġáł²áłłáł° áł¤áł¯
Ġáł°áł¢áł² áłłáł¯áł²áłł
Ġáł®áł¥áł·áłŃ áł¥
Ġáł¬áł¦áł° áł¡áł³áł¡áłŃ
Ġáłªáłłáł²áł¤áł¯ áłłáłŃáł°áłłáł¨
áł¡áł¯áł³ áł¦
Ġáł¬áł¡áł³ áł¦áł¶áł¢áł¨
áłłáł³ áłłáł¨
Ġáł°áłłáłŃ áł¤áłŃáł°áłłáł¨
i a
áł¯ áł¡áł³áł¡áłŃ
Ġáł¬áł¢áł¯áłªáłłáł· áł¬áłłáł¨
ĠáłŃ áł¤áł²
Ġáłªáł£áł £áł
Ġáł¬áłłáł¯ áłłáł®áłµáł¢
ĠáłŃ áł¤áł¯áł³
Ġáł² áł¢áł¶
Ġáł¬áłłáł¨áł¤áł® áłµáł¢áł²áłłáł¶
áł¯ áłłáłŃáł¤áł¯áł¤áł¨
Ġáł±áłłáłŃáłłáł·áł³ áłłáł¬áł¤
áł£áłŃ áłłáł³
Ġáłłáłµáł¢áł¯áł¯ áłłáłŃáł¤áł¯áłµáł¤
áł¡áłŃ áł¦áł¦
Ġ201 1
Ġáł¡áłª áł¡áł°áł¦áł¨
Ġáł²áłłáłŃáłłáł° áł¢áł¶áłłáł¯
Ġáłłáł® áł¢áł¨
Ġáł« áł¢áł¶áł£áł£
Ġáł³áłłáłªáł¬ áł¤áł´
Ġáł²áł¥áłªáł¯áł¡áł· áł¡áł¯
Ġáłłáł® áłłáł¯áłłáł¯áł²áłł
Ġáł² áłłáł³áłł
áł¤áł¯ áł¢
Ġáłªáłłáł¶áł¢áłŃáł¤áł¯ áł¤áłŃáł³
Ġáł¬áłłáł¯ áłłáłŃáł¤áł·
Ġáł¬ áł¢áł³
áł¹ áł£áł·
áł¡áł¯áłµ áł¦
Ġáł®áł¤áł° áł¬
Ġáł¡áł° áł¢áł²áł¦
Ġáł³áł¤áł·áłłáł³ áł´áł¤
Ġáł°áł¤áł³ áł¤áł·
Ġáł´áł£áł¬ áł¢áł¯áł²áłł
Ġáł¤áł³áł¤áł·áł¢áł³ áł¤áłŃáłłáł´áł¢
Ġáł¤áł³ áł¤áł¨
Ġáł¦áł·áł¡áłµ áł¢áł¯
áłłáł´ áł¢áł³
áł¦áł¯áł ´
ĠáłŃáł¤áł¶áł¤áł´áł¢áł¯ áłłáłŃáł°áłłáł¨
Ġáłłáłµáł¢áł¯áł¯ áłłáłŃáł°áłłáł¨
Ġáł³áł¡áłŃ áł¦áłµ
Ġáł¤áł¤áłŃ áł¤áłµáł¤
Ġ3 3
Ġáł¨áł¡áłŃ áł¦áł¯áłŃ
Ġáł³áł£áłŃáł³ áł£áł¯
Ġáł¨áłłáł¢áł® áłłáł³áł¤áłŃáłłáł·
áłłáł¶áł¢áł ³
Ġáł¦áł¢áł¯áł¡áł³ áł¦áłŃáł°áł¡áł¨
áł£áł° áł¹áł£áł·
áł¦áł¯ áł¡áłµáł¦
Ġáł°áł¦áłµ áł§áł¦
Ġáł¬áł¤áłªáł¢áł° áł¬áłłáł¯
Ġáł²áł¡áł°áłªáł¦áł· áł¢áł²áł¡áł¶
Ġáł´áł¡áłªáł¡áł· áł¯áł¡áłµáł¦
áł¢áł® áł¤
Ġáłłáł°áłłáłŃ áł¤áłŃáł°áłłáł¨
Ġáłłáł¶áł¢áł ®
Ġáł° áł¥áłŃ
Ġáł£áłŃáł² áł£áł¯
áł´ áłłáłŃáłłáł¨
Ġáłµáł¢áł· áł¤áłŃáł°áłłáł¨
Ġáł¬áł¤áł¯ áł¤áł°áł¤áł¨
Ġáł¤áł¨ áłłáł¬áł¤
Ġáł³áł¡áł© áł°
Ġáł¨áł£áł ¶áł¢áł·
u b
Ġáł² áł¤áł¶áłłáłŃ
Ġáł¨ áł¢áł¦
Ġáł²áłłáł¨áł¢áł¯áł´ áłłáłŃáł¤áł¯áł¤áł¶
Ġáł²áł¡áł©áł´áł¡áłŃ áł¦áł¦
Ġáł²áł¡áłŃ áł¡áł·
Ġáł¡ á¡ģ
Ġáł¹ áł£áł°áł¹áł£áł·
Ġáł°áłłáł¨ áłłáłŃáł¤áł¯áł¬áł¤
Ġáł¬ áł¤áł¸áłłáł¨
ĠáłŃáł£áł£áł¯áł´ áł¢
Ġáł£áł¯áłµ áłłáłªáł¤áł·áł¢
ĠáłŃ áł£áł·
Ġáł²áł¦áł· áłªáł¡
Ġ -
a p
Ġáł°áł¢áł¯áłŃ áłłáł·
áł¡áł¶áł¢áł² áł¦
Ġáł®áł¦áł½ áł§áł¶
áł¤áł¹ áł¸
áł¦áłµ áł¡áł¶
Ġáł²áł¤áł° áł¦
ĠáłłáłŃáł¤áł¯áłµ áłłáł·
Ġáł²áł¦áłŃ áł¦áł®
áł¢áł³ áł¢
Ġáł° áł¢áłµáł¢áł·
Ġáł¬áł¤áł³áłłáł¯áł³ áł¤áłŃáł°áłłáł¨
Ġáłłáł® áłłáłªáł´áł¢
Ġáł¡áł¬áł¢áł¯ áł¡áłŃáł¦áł¯áł¬áł¦
Ġáłµáłłáł¶áł¢áł¯ áłłáł¬áł¤
Ġáłªáłłáł¶áł¢áł² áłłáł¯
Ġáł¬áłłáł·áłŃ áł¤áłŃáł¤áł¯áł¬áł¤
áł¡áł³ áł¡áłŃáł¡
áł¬áł¡áłŃ áł´áł¢áł¨
Ġáłªáłłáł·áłłáłŃáł¤áł¨ áł°áł¢
Ġáł° áłłáłŃáł¤áł¯
Ġáł´áł¢áł©áłŃ áłłáł·áłłáłŃáł¤áł¯áłµáł¤
Ġáłªáł£áł¯áłª áłłáł°áł¤
áł¡áł³áłªáł¦áł· áł¢
Ġáł¤áłŃ áł°áłłáłŃ
Ġáł£ áł¢
Ġáł´áł¢áł¬ áł¡áł´áł¢
7 5
Ġáł¬áłłáł² áł¤áł¨
u l
Ġáł¬áł¤áł·áł¤áł¬ áłłáł¢
Ġáłµáł¢áłŃáł° áłłáłŃáłłáłŃáł°áłłáł¨
Ġáłµáł¥áłªáł¯ áł¡áłŃáł´áł¢
Ġáł²áł£áłŃáł¯ áłłáłŃáł°áłłáł¨
Ġáł°áł¦áłªáł¡áłŃáł´áł¢áł¯ áł¡áłµáł¦
Ġáł¤áł¶ áłłáł©áłŃ
áł¡áł¬ áł¡
Ġáł°áł¢áł·áłŃ áłłáłŃáł¤
Ġáł¢áł¯ áł¡áł³áł¬áł¡áłµáł¦
áł¤áł «
ĠáłªáłłáłŃáł¤áł· áłłáłŃáł¤áł¯áł¤áł¨
Ġáł¬áłłáł¨áł³ áł¤áłµáł¤
Ġáł¬áł¥áł³áł¡áł¯áłŃ áł¡áłŃáł´áł¢
Ġáłªáł¦áł· áł¢áł³áł¬
in d
Ġáłªáł¦áł²áł¦áł®áłµ áł¢áł²áł¡áł¢
Ġáł¨ áł¤
Ġáłªáł£áł¯ áł¤áłŃ
ĠáłłáłŃáł¤áł¯ áł¤áłŃáł³áłłáłµáł¤
Ġáł®áłłáłŃáł² áłłáłŃáłłáł¯
Ġáł¬áł¡áł® áł¬
Ġáł´áł¢áł¯ áłłáłŃáł¤áł¯áł¢áłŃ
Ġáłªáł¦áł·áł¢áł¯áł³ áł¦áłµáł¦
c e
Ġáł¶áłłáłŃáłłáł¬ áł¢áł¬áł¤
Ġáł¡ áł¾
áł¢áł® áł§áł²
Ġáł°áł£áł¨áł¢áł· áł¬áłłáł¬áł¤
Ġáł¥áł¨ áł³áł¡áłŃáł¡áł¨
ĠáłµáłłáłŃáłłáł¯áł³ áł¤áł¯áłŃ
Ġáł£áł³ áł£áł³
9 0
Ġáł²áłłáł² áłłáłªáł¤áł·
Ġáł¬áłłáł· áł¢áł¶áłłáł¨
áłłáłŃ áł¤áł¯áłµáłłáł¶
Ġáł£áł¨ áł¢áł°
Ġáł¬áłłáł²áłłáłŃ áł¤áł´áłł
áłłáł ¡áłŃ
Ġáł¨áłłáłŃ áłłáł°áł¢
áł¦áł¯áł ´áł¡áł¬áł¦
Ġáł³áłłáł·áł¤áł®áłłáł¯áł¯ áłłáł¨
Ġáł²áł¤áł¢áł· áł¦áł¯
Ġáł®áłłáł·áłŃ áł¤áł¯áł³áł¤áłŃáłłáł¨
Ġáł¬áł¥áł¯áł¥ áł°áł¥áł¨
Ġáł¢áł¯áł¡áł³áł¬ áł¡áłŃáł´áł¢
Ġáłªáł¡áł¶áł¡áł¯ áł¡áłŃáł¦áł¯áł¦áł¨
Ġáłªáł¤áł³ áł¤áłŃáł°áłłáł¨
Ġáł¬áł¤áłªáł¢áł° áł¤áł¯áł²áłł
Ġáł¥áł· áł¢
Ġáł¬áł¤áłªáł¢áł¶ áłłáł³áłłáłŃ
Ġáłµáł¡áł·áłŃ áł¡áł¯
Ġáł¥áł©áłŃáł¡áł· áł¡áłµáł¡áł¶
Ġáłłáł·áł¢áłŃáł¤áł³ áł¬áłłáł¬áł¤
Ġáł¥áł·áłŃ áł¡áł³áł¬áł¡áł¨
Ġáł²áł¤áł° áł¢áł¶áłłáł¨
áłª áł£áł¯
Ġáł®áł¡áł³ áł¡áłŃáł¦áł¯áł¦áł¨
áł¡áłŃ áł¡áłµáł¦
Ġáł°áł¢áłŃ áłłáł·áł¤
Ġáł³ áł¡áł·áłŃ
Ġáł¤áł¬áłłáłŃáłłáł¨ áł²áłłáł¨
Ġáłªáł¤áł³ áł¤áł³áłłáłŃ
Ġáł®áłłáłŃáł¤áł³ áłłáł¬áł¤
Ġáłµ áł£áł¨
Ġáł¡áłµáł¡áł©áł¨ áł¡áłµáł¦
Ġáł¤áł¶áłłáł¯áł³áł¤áłŃ áł¤áł¯áł¬áł¤
áł± áłł
Ġáłº áł¤áł¹áł¸
Ġáł´áł¡áłŃáł¡áłµ áł¢áł¯áł¡áł¬áł¦
Ġáł«áł·áł¤áł¹ áł¸áł°áł°áł¤áł·
Ġáł¢áł¯áł¡áłŃ áł¦áł´áł¡
Ġáł¬áł¥ áł¬áł¡áłŃáł´áł¢áł¨
Ġáł®áł¥ áł°áł¥áł¨
Ġáł³áłłáłŃáł¤áł° áł¬áł¤
Ġáł¬áł¦áł· áł¦áłŃ
ĠáłªáłłáłŃáłłáł° áł¬áłłáł¨
4 5
Ġáłªáł¡áł¯áłŃ áł¡áł³
Ġáłłáł³áłłáł¯áł¢áł³áł¬ áłłáłªáłłáł¯
Ġáł« áł¤
Ġáł³áłłáłŃáł¤áł° áł¬
Ġáł¬áł¤áłªáł¢áł¶áłłáł¯áł´ áłłáł¨
Ġáł¾áł¸ áłªáł¸áł¢
áł° áł¤áłŃ
Ġáł¡á¡ģ áł¸
ª áł£
Ġáł³áłłáł·áłłáłŃ áłłáł´áł¢
Ġáł¬áł£áł·áł¢áłŃ áł¯áłłáłµáł¤
Ġáł¡áłµáł¡áł®áł°áł¢áłŃ áł¦áł·
Ġáł£áł³áł£áł¬áł¢áł´ áł¢áł¯áłłáłŃáł°áłłáł¨
Ġáł°áł¢áł°áł² áł¸
Ġáł¨áł¢áł¯áłª áł¤áł°áł¤
áłłáłµ áł¦
Ġáłµáł¢ áł¤áł¢
Ġáł¶áł¡áł¬ áł¡áłªáł¡áł·
Ġáł¡áł©áł¨ áł¡áłŃáł¡áł¨
áł¸áł· áł®áłłáł¨
Ġáłªáł£áł£áł ªáł£
Ġáł®áł¡áł³ áł¡áł¯
Ġáł¡áł¬áł¢áł¯ áł¡áłŃáł¦áł¯áłµáł¦
Ġáł´áł¢áłŃáł¢áł·áłłáłŃ áłµáł¢áłŃáł¤áł¯áł¬áł¤
áłłáłŃ áłłáł¢
áł¢áł¶áłłáł¯ áłłáł¯
Ġáł¦áłŃ áł¡áł¶áł¢áł°
Ġáł¬áł¥áł³áł¡áł¯ áł¦áł¯áł²áł¡
Ġáłµáł£áłŃ áł£áłŃ
Ġáł´áł¢áł¬ áł¢áł¨
Ġáł¨áłłáł¶áł¢áł³áłłáłªáł¤áł· áł¢áł²áł¤
Ġáł¬áłłáł· áłłáł´áłł
ĠáłŃ áł¦áł³
Ġáłªáł¤áł· áł³
Ġáł® áł£áł©áłŃ
Ġáłµáłłáł° áłłáł¯áłŃ
áł· áł¢áłºáłł
Ġáł¬áłłáł·áł¢áł¶áłłáł¯ áłłáłŃáł³áłłáł¨
Ġáł°áł¢áłŃáł¦áł° áł¦
áł¡áł® áł¦áł¶
Ġáł¯áłłáłª áł¯
Ġáł¬áłłáł¯ áłłáłŃáłłáł¯áł²áłł
Ġáł¬áł¡áł· áł´áł¢áł¬áł¦
Ġáł¡áłŃáł¦áł°áłŃ áł¡áł³áł¡áłŃ
Ġáł¦áłµáł¡áł°áł¬áł¦áł¯áł¡áł© áł²áł¦
áł¢áł´ áł¢áł¨
Ġáł¨áł£áł¶ áłłáł¨
Ġáł°áł£áł· áł£áł¨
Ġáłłáłªáł¤áł· áłłáł¬áł¤
áł£áł ¯áł´
áł¡áł© áłŃ
Ġáłµáł¢áł¶áłłáł© áł°áł¢
Ġáł¨ áł¡áłªáł²
= =
Ġáł®áłłáłŃáłłáł³ áł¯áłłáł¬áł¤
Ġáłµáłłáł¯áłŃ áłłáł¯áł²áłł
Ġáł° áł¦áł¯áł³áł¡
Ġáł³áłłáłŃ áłłáłŃáł¤áł¯áł¬áł¤
Ġáł°áłłáł· áł¨áł¢áłŃ
Ġáłł áłªáłłáł·
Ġáł¦áłµ áł¡
Ġáł³áłłáł·áł¤áłŃ áł¤áł¯
Ġáłµáł£áłªáłłáł¨ áł¢áł¯
Ġáł°áłłáł® áłłáłŃáł¤áł·
Ġáłłáł· áłłáłŃáłłáł²áł¤
Ġáł¤áł´áłłáł· áłłáłµáł¤
Ġáł¥áł¬áł¡áł¶áł¢áł³ áł¡áłŃáł¦áł¯áł¬áł¦
Ġáł²áł¦áł¯áł¬ áł¢áł¨
ĠáłŃáł¤áł·áłª áłłáł¯áłµáł¢áł¨
Ġáł°áłłáłŃáł¤áł¯ áłłáłŃ
Ġáł¤áł· áł¢áł¬áł¤
Ġáł°áł¡áł¯áł¡áłŃáł¦áł´ áł¡áł¯
Ġáłµáł£áłŃáł°áł£áłŃ áłłáłµáł¤
Ġáł²áł£áł³áł£áł·áł¬áłłáł¶áł¢áł¯ áłłáłµáł¤
ĠáłŃáłłáł¶áł¢áł¬áłłáł®áł°áł¢áłŃ áł²áł¤
Ġáł²áł¤áł° áł¬áłłáł¬áł¤
áł° áł°áł¤áł·
Ġáł£áł¨ áł£áł´
Ġáłªáłłáł·áł¢áł®áł² áłłáł¯áłłáł¬áł¤
Ġáł¥áłŃ áł¡áł¬áł¦áł¨
Ġáł¬áł¦áł· áł¡áł©
Ġáł¬áł¥ áł¯áłŃáł¡
Ġáł¢áł· áł¡áłªáł¡
Ġï¹ Ī
Ġáł£áł· áł£áł¢
Ġáł´áł¢áłŃáł¢áłŃ áł¯áł¢áłŃ
Ġáłµáłłáł¬áł¢áł¶áłłáł¯ áłłáł¬áł¤
Ġáł¨ áł¦áł¬
Ġáł¨áł¥áł¬áł¥áł· áł°áł¡áłŃ
Ġáłµ áłłáł¯áłłáł¬áł¤
Ġáł°áł¢áłŃ áł¦áł®áłµáł¢áł¯
Ġáł´áł¢áł©áłŃáłłáł³ áł¬áłłáł¨
ĠáłŃáł£áł£áł¯áł¯ áłłáłŃáł´áł¢
áł° áł¢áłµáł¤
áł¬ áłłáł³
Ġáł¨áł¥áł¬áł¥áłªáł¥áł· áł¢áł¯áł¡áłµáł¦
Ġáł³áłłáłª áłłáł¯áłŃáłłáł¨
Ġáł¬áł¡áł¯ áł¡áł¯áłŃáł¡
Ġáł®áł¡áł³áł¡áł· áł¡áł¬áł¦
Ġáłªáłłáł¶ áłłáł°áł¬
áłº áł·
áłµ áł¢áł¬áł¦
Ġáłłáł¹ áł·áł¢áłºáłł
áł£áł¯ áł¢áłŃ
¯áłŃ áłłáł¬áł¤
Ġáł¬áłłáł¯ áłłáłŃáłłáł¬áł¤
ĠáłŃáł¡áł³ áł¡áł°áł¦
Ġáł²áłłáł·áł¢áł¶ áłłáł´áł¢áł³
Ġáł³áłłáł¶áł¢áł °áł¤áł¨
Ġáłµáł¡áł® áł³áł¡áłŃ
ï¸ ķ
Ġáł¢ áł©
Ġáł± áł¦áł¯áł²áł¦
Ġáł¡áłª áł³áł¡áłµáł¦
Ġáłª áł¸áł¨
Ġáł¬áłłáł· áłłáłŃáł³áłłáł¨
Ġáł¨áł¢áłŃ áł¡áł³áłªáł¦áł·áł¢
Ġáłª áł¢áł¯
áł¢áłŃ áł¤áł¯áł¤áł¯áł²áłł
Ġáłµáł£áłª áłłáł¬áł¤
Ġáł¬áł¡áł·áł¡áłŃáłµáł¢áłŃ áł¦áł¯áł¦áł¨
o c
Ġáł¡áł· áł¢áł¨
Ġáł°áł¢áł¶ áł¸
Ġáł¯áłłáłª áł¯áłłáłµáł¤
áł¦áłŃ áł¦áłŃáł¡
Ġáł³áł¡áł¶áł¢áł¯ áł¦áłŃáł°áł¡áł¨
áł¡áłŃáł³ áł¡áł³áł¡áłŃ
Ġáł®áł£áł©áłŃ áł£áł¯
Ġáłªáł¦áł·áł¢áł¯áł³ áł¦áłŃáł¦áł¯áł¦áłŃáł°áł¡áł¨
Ġáł¬ áł¦áł¸
áł¢áł¯ áłłáł³áłłáłŃ
ĠA pp
Ġáł³áł£áł ®
Ġáł¬áł¡áł·áł¡áłŃáł¯ áł¡áłŃáł³áł¡áłµáł¦
Ġáł£áł¨áł£áł° áł¢áł¯áłłáł¬áł¤
Ġáł¨ áł¦áłŃáł¦áłŃáł¡
Ġáł° áłłáłµ
Ġáł±áł¤áłŃáł¤áł® áłłáł¯
áł² áłłáł¯
Ġáł¢áł¨áł¢áł¶ áł¡áł®áł°áł¦áłŃ
Ġáł³áłłáł· áł¤áł¶áł¢áł¬áłłáł¨
Ġáł¨áł¡áł® áł¡áłŃáł°áł¡áł¨
Ġáł°áł¢áł¬áł¢áł· áł¯áł¢áłŃ
áłłáł¯áłµ áłł
Ġáłµáł£áł·áł¢áłŃ áł¤áł³áłł
Ġáłµáłłáł· áł¯áłłáł¨
Ġáłłáł¶ áłłáłŃ
6 5
Ġáł°áłłáł¯ áł¤áłŃáł°áłłáł¨
áł£áłŃ áł´áł¢
Ġáłłáł¶ áł¤áł©áłŃ
Ġáł´áł¢áł·áł®áłłáł¶áł¢áł ¬áł¤
Ġáł¬áł¦áł· áł¢áł¨
áł° áł¢áł³áłł
Ġáł°áłłáł¯áłŃ áłłáłµáł¤
áł¡áł¯áł³ áłł
Ġáł°áłłáłªáłłáł¯ áłłáł¬áł¤
Ġ15 0
ĠáłŃ áł¸áł·áł®áłłáł¨
Ġáłµáł¦ áł¢áł·
Ġáł¡áł© áł¬áł¦áł·
Ġáł¬áłłáł¶áł¢áł¨ áłłáł¨
Ġáłªáłłáł¶áł¢áłŃáł¤áł¯ áł¤áłŃáł´áł¢
áłłáłŃáł¤áł¯ áł¤áł¯áł³áłł
Ġáł°áł¢áłŃ áł¦áł·
¯ áł¢áłŃ
Ġáł°áł¢áłŃ áł¦áł®áłµáł¢
ĠáłłáłŃáł¤áłµ áł¢áłŃáł¤
Ġáł¯ áłłáł¶
Ġáł£áł·áł£áł ªáłł
Ġáł¨áłłáłŃáłłáł³ áł¤áł®
Ġáłµáł¡áłŃáł¦áł¨ áł°áł¢
Ġáł¢ áł°áł¦
áł¤áł©áłŃ áł¢
ĠA n
Ġáł£áł¯ áłłáł°áł¢áł·
Ġáł¨áł¢áłŃ áł²áłłáł·
Ġáł¤áł· áł¢áł¯áłŃ
Ġáł°áł¢áł¨ áł¡áł³áł¬áł¡áł¬áł¦
Ġáł¬áłłáł· áłłáł¨
Ġáłªáł¤áł·áł³ áł¤áłŃáł¤áł·
Ġáł¢áł¯áłŃ áłłáł¯
Ġáłłáł¶áł¢áł® áłłáłŃ
Ġáł³áłłáłªáł¬ áł¢áł¬áł¤
Ġáł« áłłáł¢
Ġáł³áłłáłŃ áłłáł¬áł¤
Ġáłłáł¯ áłłáłŃáłłáł³
áłŃ áł¢áł¶áłłáł¨
Ġáł²áłłáł¯áłłáł· áł¬áłłáł¯
Ġáłªáł¥áłŃáł¡áł® áł¨áł¡áł·
ĠáłªáłłáłŃáł² áłłáł¬áł¤
Ġáł¬áł£áł·áł¢áłŃ áłłáł²áł¤
Ġáł°áł¡áł¯ áł¡áł®
Ġáłªáł£áłŃáł´ áł£
Ġáłªáł£áł¬áł¢áł· áł²
Ġáł°áł¡áł·áłŃáł¦áłŃ áł¡áłµáł¦
Ġáłµ áł¦áł¯áłŃ
Ġ e
Ġáłªáł¢áł²áł¡áłŃ áł¦áł¦
Ġáłłáł¯áłº áł£áł£áł¯
Ġáłªáłłáł¶ áł³áłłáł¯
Ġáł¯áł¢áł¶ áł£
Ġáł¬áł£áł¯áłªáł£áłŃ áłłáł°áł¤
áł¢áł¯áłłáłŃ áł´áł¢áł³
Ġáł¬áł¥áł·áł¥áłŃ áł¡áł¯áł²áł¡
Ġáł²áł£áłŃ áł¯áłłáł¬áł¤
áł¡áłŃ áł°áł¡áłŃáł¡áł·
Ġáł°áłłáłŃáł¤áł· áł¢áł¯áłłáłµáł¤
áł¡áł´ áł¢áł¬
áł¤áł¨ áł¢áł©
áłĦ ï¸½
Ġáł¬áł¦áł·áł²áł¡áł¯ áł¡áł¬áł¢
Ġáł´áł¢áł¨áłłáłŃ áł°áł¢áł³áłł
áłŃ áł¡áł¦
ĠáłŃáłłáł©áł¨ áłłáł¬áł¤
Ġáł°áł¡áł¶áł¢áł¯ áł¦áł®áł¡áł¯
Ġáł¨áł¡áł¢ áł¢áł³áł¡
Ġáł¬áłłáłªáł´áł¢áłŃ áł¤áł·
Ġáł¨áł¡áł® áł¡áłªáł¡áł¯
Ġáł° áł¢áłµ
áłŃáł¡ áłł
Ġáł¡áł®áł¨ áł¡áł¬áł¦
Ġáł¤áłŃ áłłáł¯áłµáłł
áł° áł¢áł·
Ġáł¡áł·áł¬áł¢áł¯ áł¡áł¨
áłłáł« áł£áł·
Ġáłµáł¢ áłł
Ġáł¬áłłáł·áł¢áł´ áłłáłŃáłłáł¨
Ġáł°áłłáł¨áłłáłŃáł¤áł¯ áł¤áł¶
Ġáł¤áł¸áłŃ áł¤áł¬áł¤
Ġáł´áł¢áł®áł¡áłŃ áł¯áł¡áł¬áł¦
Ġáł³áłłáł· áł¤áł¢
áł¬ áłłáłŃáł¤áł·
A R
áł¡áł³ áłłáł¬áł¢áł¨
Ġ x
Ġáł²áł¦áłŃ áł¡áł®áł¡áł¯
Ġáł®áł¢áł¨ áł¢
ĠáłŃáłłáł©áł¨ áłłáł¯áł²áłł
áł¥áł¨ áł¡áł³áłłáł¬áł¢áł¨
Ġáł°áł¦áł· áł³
Ġáł´ áł¤áł¯
âĢ ¦
Ġáł®áłłáł¯ áłłáłŃáłłáł¶
áł¡áł© áł¬áł¢
Ġáł¨áł¡áł· áł¡áł®áłµáł¢áł²áł¦
t h
ĠáłŃáł¦áł¶ áł¦áł¯áł²áł¡
Ġáł¦áł³ áł¡áł°áł¢áł¯
Ġáł¨áł¡áłª áł´áł¢áł¯áł²áł¡
Ġáł¤áł¬ áłłáłŃáłłáł¯
Ġáł¬áł¢áł® áł¤áł·áłłáł¯
Ġáł¦áł³áł¡áł°áł¢áł¯ áł¡áłŃáł¡
Ġáł¬áł¦áł·áłŃ áł¡áłŃáł°áł¡áł¨
áł³ áł¡áłŃáł¦áł·
Ġáł²áł£áłŃáł² áłłáłªáł¤áł·áł¢
Ġáłªáł¤áł°áł¤áł³ áł´áł¢
Ġáł¢áłµáł¢áł¯ áł¢
Ġáł²áł¤áł° áłłáł¯áłłáł¨
Ġáł°áł¢áł² áłłáłŃáłłáł¬áł¤
Ġáłµáł¦áł· áłµáł¢
Ġáłłáł¯áłŃ áł¤áł·
Ġáł° áł¡áł¬áł¦áł¯
Ġáł´áł¡áłªáł¡áł· áł¯áł¡áł¨
Ġáł² áł¤áł®
Ġáłªáł£áł¯áł´ áł¢áł¬
Ġáł¬ áłłáłŃáłłáł¬áł¤
áłº áł°
áł¥ áł°
áł¥áłŃ áł¥
Ġáł® áł¸áł¨
Ġáł¬áł£áł¨ áł£áłŃ
Ġáł´ áł¢áłª
áł´áł¢áłŃ áł°áł¡áł¨
Ġáł¦áł¯áł¡áł³ áł¡áłªáł¦áł·áł¢
áł¦áł¯áł³ áł¦áł¬áł¦
Ġáłº áł¦áł©
Ġáł°áł¢áł©áłŃ áłłáł«áł£áł·
ĠI T
Ġáł¹ áł¦áł©
Ġáł²áłłáł¶áł¢áł¯áłªáł¤áł· áł¢áł¯áłłáłµáł¤
Ġ200 8
Ġáł¬áłłáł³áłłáłŃ áłłáł¬áł¤
Ġáł¥áł· áł¥áł¨áł¡áł³áłłáł¬áł¢áł¨
I S
Ġáłµáł¢áł© áł¨
6 6
Ġáł²áł¤áł¯áłŃáłłáłŃáł¤áł· áł¢
Ġáłµáł¡áł·áłŃáł¡áł¯ áł¡áł³áł¡áłŃáł¡
Ġáł°áł¢áł³ áł¢
Ġáł¯áł¢áł¶áł£ áł¤áł¨áł¢áł©
Ġáł´áłłáłŃ áł³áłłáłŃáłłáł¨
Ġáłµáł¡áł·áłŃ áł¡áłªáł¡áł·
Ġáł¨áł¥áł¬áł¥áł· áł¯áł¡áł¯
Ġáłµ áł¤áł°
Ġáłº áłłáł·
ĠáłŃáłłáł³áłłáłŃáł°áł¢áł¯ áłłáłŃáł¤áł¯áł¤áł¯áł²áłł
Ġáłłáł¬áł¢áłŃ áł¤áł¯áł¤áł¨
Ġáłµáł¢áł± áł¢áł¢
Ġáł²áł£áł® áł¢áł¶
Ġáł°áł¢áł· áł¡áłŃáł¡
Ġáł¢áł· áł¡áł¯áł³áł¡
Ġáł¬áł¡áł¯áłª áł¡áł¶áł¢áł
Ġáł¦áł¯áł¡áł³áł¡áłŃ áł¡áłŃáł°áł¡áł¨
Ġ5 000
Ġáł¹ áł¸áł¨
Ġáł°áł¦ áł¢áł³
Ġáł· áł¢áł³áł¢
áł¤áł¯ áłłáł¨
Ġáłłáł® áł°
Ġáł¡áłª áł³áł¡áł¬áł¦
Ġáł´ áł¤áł·
Ġáł¬áłłáł¶ áłłáł¬áł¤
Ġáł´áł¢áł¬áł¤áł¯áłłáł´áł¢áł¯ áłłáł¨
Ġáł´áł¡áłªáł¡áł· áł¯
Ġáł¥áłŃ áł¡áł³áł¡
Ġáłªáłłáł¶áłłáł°áł¬ áł¤áł¯áłłáł©
Ġáłµáłłáł·áł¤áł´ áłłáłŃáł¤áł¯áłµáł¤
Ġáł³áłłáłªáł° áł¢áł¯áł²áłł
Ġáł¦áłŃ áł¡áł¶áł¢áł´
Ġáł¨áł¡áł® áł¡áł¨
Ġáł¢áł²áł¡áłŃ áł¡áł®áłµáł¢áł²áł¦
Ġáł¬áłłáł³áłłáłŃáłłáł¯ áłłáł¯áł²áłł
Ġáł²áł£áłŃáł²áłłáł¨ áł¢áł¬áł¤
Ġ3 8
Ġáł±áłłáłª áł¢
áł§ áłŃ
Ġáł¬áł£áł ©áłŃ
Ġáł¬áł¦áłª áł¦áł·áł¡áł¯
Ġáłłáłµáł¢áłŃ áł¯áłłáł¯áł²áłł
Ġáł°áł£áł·áł£áłŃ áł°áłłáł¨
Ġáł¢áł¯ áłłáł¨
Ġáł¦áł¶ áł¡áł·
Ġáł¯ áł¤áłŃ
Ġáł°áł£áł¨áł£áł° áł¤áłŃáłłáł³
g le
Ġáłłáł¶áł¢áł ¯áł´
Ġáł¬áłłáłª áł¬áłłáłŃ
Ġáł®áłłáł·áłŃ áłłáł°áł¢
Ġáł°áł¢áł® áł¨
Ġ12 0
Ġáł¶áł¡áł¬ áł¡áł©áł¬áł¢
Ġáłªáł¦áł³ áł¦áłŃáł¦áł¨
Ġáł¬áł¥áł·áł¥ áł°áł¥áł¨
ĠI SO
Ġáłłáłª áłłáł¬áłłáł¶
Ġáłµáł¢áł¯áł¤áłŃáł¤áł³ áł¤áł¯áłŃ
Ġáł´áł¢áł¨ áł£
áł¦áł¯áłµ áł¡áł¢
Ġáł²áł¡áłŃáł¡áł· áł®
áł´áł¢áłŃ áł¦áł·
Ġáł¡áłµ áł¡áł¯áł¡áł¨
Ġáł°áł£áł©áłŃ áł¢áł¨
áł« áł¦
Ġáł¬áł¦áł© áłŃáł¡áłł
Ġáł¢áł²áł¡áłŃ áł¡áł¬áł¦
ĠáłŃáł¦áł¶áł¯áłŃ áł¡áłŃáł¡
Ġáł²áł¦áł·áł¦áłŃ áł¦áł¨
Ġáłłáł¶ áłłáł¯áłŃ
Ġáł¨áłłáł¶ áł®
Ġáłªáłłáł¯ áłłáł¶
Ġáł³áłłáł®áłµáł¢áłŃ áł°áłłáł¨
ĠC O
Ġáł± áł¤áł¸áłłáł©
Ġ3 7
áłłáł©áłŃ áł¤áł¢
Ġáł¬áł¤áł¸ áłłáł¢
áłłáłŃáł³ áłłáłµáłłáł¶
Ġ3 4
Ġáł¨ áł¤áłŃáł¤áł¯
Ġáł²áł¦áł·áłŃ áł¡áł³áł¬áł¡áłµáł¦
Ġáł¬áł£áł· áł£áł°
Ġáł¤áł· áł¬áł¢áł¯
Ġáłªáł¤áł° áł¬áłłáł¬áł¤
Ġáł¬áł¥áł¬áł¡áł® áł¥
Ġáłªáł£áł·áł£áł¯ áłłáłŃáł¤áł¯áł¤áłŃáł°áłłáł¨
Ġáł¢ áłµ
Ġ3 000
µ áł¦
áł¢áł¯ áłłáłŃáłłáł³
Ġáłµ áł¦áł³áł¡áł·
I N
Ġáł¦ áłŃáł¡áł¨
Ġáłµáł¤áł° áłłáł¯áłłáł©
Ġáł¢áł¯áłŃ áłłáł¬áł¤
Ġáł²áł¦áł·áł¦áłŃ áł¦áł¬áł¡áł¨
A S
ĠáłŃ áłłáł¶
áł® áł¢áł©
Ġáł²áł¡áł®áł¡áł´ áł¡áł¬áł¦
Ġáł²áł¦áł·áłŃ áł¡áł³áł¬
ĠáłŃáł¥áł· áł³áł¡áłŃáł°áł¡áł¨
Ġáł²áłłáł² áłłáłªáł¤áł·áł¢
Ġáł¦áłµ áł¡áłŃáł¦áł¯áł¦áł¨
Ġáł°áł¢áłª áłłáłŃáł¤
áłłáł· áłłáł¶
Ġáł²áł¤ áł¡áłŃ
er s
Ġáł°áł¢áł¨áłµ áł¢áł¯áł¡áł¨
Ġáł²áłłáł· áł¬áłłáłµáł¤
Ġáłµáł£áł¬áł¢áł´ áłłáł¯
Ġáłµáł¡áłŃáł¦áł³ áł¦áł¨
Ġáł°áł¢áł¯áłŃáłłáł· áłłáłŃáł¤áł¯áł¤áł¯áł²áłł
áł° áł¢áł¬
áłłáł¬ áłłáł¢
Ġáł²áł£áłŃ áł³áłłáłŃ
Ġáł¢áł¯ áł¡áł³áł¬áł¡áł¯
áł¢áł· áłłáł®
Ġáł³áł£áł· áłŃ
Ġáł¬áł¦áł¨áł³ áł¦áł²áł¦
Ġáł¬áł£áł¶áł¢áł Ń
áł¤áł® áłłáłŃáł´áłł
Ġáłªáł¢áł° áł¢áł¯áłŃ
Ġáł³áł£áł® áł£áłŃ
Ġáł¨áł¢áłŃ áł¦áł¯
Ġáł°áł¢áł¨ áł¡áł´áł¢áł¯
áł¯ áł£áł©
Ġáł®áł¡áł³ áł¡áłŃáł´áł¢
Ġáłº áłłáł®
Ġáłµáł¡áłŃ áł¦áł¬áł¦
Ġáł± áł¦áł¶
áł¬ áłłáł®
Ġáł²áł¡áł®áł³áł¡áłŃ áł¯áł¡áłµáł¦
o b
E R
Ġáł¬áł¦áł° áł¡áł¬áł¦
Ġáł³áł¡áłŃáł¡áł³ áł¦áł°
Ġáł³áłłáł¶áł¢áł¯ áłłáł¯áłŃ
Ġáł¤áłŃáł°áłłáł· áłłáłŃáł°áłłáł¨
Ġáł²áł¥áłŃ áł¡áł·áł¢áłŃ
áł¦áł¶ áł°áł¢áł¶áłłáł©
Ġáł°áł¢áł³ áł¬áł¡áł¯
ĠáłŃ áł¡áłŃ
ĠáłŃáłłáł·áłŃ áłłáł³áłłáłŃ
áłŃáł¡ áł¢
Ġáł° áłł
Ġáł¨áłłáłŃáłłáł³ áł´áł¤
Ġáłªáł¤áł³ áł¤áłŃáł´áł¢
Ġáł£áł·áł¢áł¶ áłłáł®áłłáłŃ
Ġ4 8
áł¢áł¯áł² áł¦
Ġáł²áłłáł·áł¬ áłłáłŃ
Ġáł¥áł® áł´áł¢áł²áł¡áł¨
Ġáł°áł¦áłªáł¡áłŃ áł´áł¢áł¯áł¡áł¬áł¦
áłª áł¸
Ġáł²áł£áłŃáł² áłłáłµáł¤
Ġáł¤áł·áł¢áł³ áł¤
Ġáł³áł¦áł·áł¢áł® áł²áł¦
áł¡áł³ áł¡áł¬áł¢
Ġáł¬áł£áł¯ áł¢áłµáł¤
ĠáłłáłŃáł¤áł¯áłµ áłłáł¬áł¤
Ġáł³áłłáł· áł¢áł¬áł¤
Ġáł¨áł¤áł² áłłáł¯áłłáł¬áł¤
Ġáł²áł¥áł¯áł¥áłŃáł¡áł¯ áł¡áł¨
Ġáł¬áł¡áłª áł¯
Ġáł²áłłáł· áł¢áł¬áł¤
Ġáłµáł§áł© áłµáł§áł¸
Ġáł¨ áłłáł²
A N
Ġáłª áł¸áł¢
Ġáł¢áł²áł¡áłŃáł¡áł®áłµ áł¢áł²áł¡áł¶
Ġáłµáł£áłŃáł° áł£áłŃáł°áłłáł¨
oo gle
Ġáł¬áł¡áł²áł¦áł· áł¡áł²áł¡áł¯
Ġáł¦áł¶áł¯áł¡áł³ áł¦áłŃáł°áł¡áł¨
áł¢áł³ áłłáł¨
Ġ g
Ġáł¨áłłáłŃáłłáł¯áł³áł¤áłŃ áł¤áł¯áł¬áł¤
Ġáł¨ áł¦áł¯áł¦áłŃ
Ġáłłáł· áł°
áłłáł³ áłłáł¬áł¤
ĠáłŃ áłł
Ġáł® áł¢áł¶áł£áł£
Ġáł¢áł° áł«áłłáł¨áł¢
Ġáł¬áł¤áłª áł¸áł¢
Ġáł¤ áł³áł¦
Ġáłªáł¡áł¯áł¡áł³áł¬ áł¡áł®áłµáł¢
Ġáł¬ áł¡áł´áł¢áł¨
Ġáł¤áł¶áł¤áł¨ áł´áł¢áł¯áłłáłŃáł°áłłáł¨
áł¡áł· áł¯áł¢áłŃ
Ġáłºáł¢áł¯ áł£áłŃ
Ġáł£áł¨ áł¢áł°áł¤
Ġáł¡áł¬áł¢áł¯ áł¡áłªáł¡
E O
Ġáł¬áł¥áłª áł¡áłŃáł¡
áł£áł¯áł µ
áł« áł·
Ġáłªáł£áł¶áł¢áłµ áł¢áł¬áł¤
Ġáł¥áł³ áł¥áłŃ
Ġáł® áł¥áłŃáł¥
ĠáłªáłłáłŃáł² áłłáłŃáłłáł¬áł¤
áł¢áłµ áł§áł¦
áł¦áł¯ áł¦áłŃáł´áł¢
Ġáł¢áł· áł¡áłµáł¡áł¶
i f
Ġáł¬áłłáł¶áł¢áł ¯áł²áłł
áł¦ áł¢áł¸
Ġáł¤áł¯ áłł
Ġáłµ áłłáł¯áł¬
Ġáł¬áłłáł¨áł³ áł¤áłŃáł¤áł¯áł¤áł¨
A C
áł¤áłª áł¤áł¢
Ġáłªáł¤áł´ áłłáłŃáłłáłµáł¤
Ġáł²áłłáł°áł¤áł· áłłáł¯áł³áłł
3 3
áł¤áł² áłłáł³
Ġáł¦áł¨ áł¡áł²áł¡áł¶
Ġáł³áł¡áł® áł³áł¡áłŃ
Ġáł²áłłáłŃáłłáł· áł¢áł¯áł³áłł
Ġáł¯áł¢áł© áł¬áł¤
Ġáłµáł¢áł¶ áł¤áł¤
áłłáłµáł¤ áł¤
Ġáł£áł¯áł ¬áł¤
Ġáł²áłłáł¶áł¢áł¯áłªáł¤áł· áł¢áł¯áłłáł¯áł²áłł
I D
Ġáł° áłłáł¬áł¢áł¨
Ġáł¡áłŃáł¦áł° áł¦áł¯
R L
Ġáł°áł¡áł© áł¬áł¡áł·
Ġáł²áł¡áł® áł¤áł·
Ġáłª áł¤áł²
ĠáłŃáł¦áł¢áł´ áł¡áł³áł¬áł¡áłµáł¦
Ġáł°áł£áł©áłŃáł£áłŃ áł¤áł¯áł¢
Ġáł¶áł¡áł¬ áł¡áł°
Ġáł³áłłáłŃáł¤áł° áł¬áłłáł¬áł¤
Ġáł°áł¡áłµáł¢áłŃ áł¯
Ġáł¡áł®áł¦áł° áł¬áł¦
áł¤áł¬ áłłáł¶
ĠáłŃáł£áł¸áł¯áł¯ áłłáł¬áł¤
Ġáłµáł£áł· áł¯áł£áł©
Ġáłªáł£áłŃáł£áł¨ áł¢
Â °
Ġáłªáł¤áł¯ áł¢áł¶
Ġáłµáł¢áł·áł®áł¦áł° áł¦áł¯áł¡áł¬áł¦
Ġáł£áł¶áł¢áł¯ áłłáłŃáłłáł¶
Ġáł²áł£áłŃáł¯ áłłáłµáł¤
Ġáł²áł£áł¯ áł¢
Ġáł°áł¥ áł°áł¥
Ġáł¤áł´áłłáł· áłłáł¬áł¤
Ġáłµáł£áłŃáł°áł£áłŃ áłłáł¯
Ġáłµáł¥áł·áł¢áł´ áł¡áł¯
Ġáł¦áł¨ áł¢áł¶áł¡áł¨
Ġáł³ áł¤
Ġáł¨áł¡áłªáł²áł¡áł·áł¡áł¯áł´ áł¡áł¬áł¦
áł° áł¢áł®
áł¤áłŃ áłłáł°áł¤
¯áłª áłłáł¯
Ġáłµáł£áł·áł¢áłŃáłµáł¢áłŃ áł¤áł¯áłµáł¤
Ġáł¬áł¥áł·áł¥áłŃ áł¡áł¬áł¦
Ġáł¬áłłáł° áł¢áł¯áłŃ
Ġáł¡áł· áł¢áł¯áł¬
ĠáłŃáł¡áł®áł² áł¦áłŃ
ĠáłłáłŃ áł¤áł¯áł¤áłŃáł°áłłáł¨
Ġáłªáł¤áł³ áł¤áłªáłłáł¯
2 8
Ġáł°áłłáł¨ áłłáłŃáł¤áł¯áłµáł¤
Ġáłłáłª áł´áłłáł¶
Ġáł²áł¤áł° áłłáł²áłłáł¶
Ġáłłáł¶ áłłáł¯áłłáł¬áł¤
Ġáłłáł´ áł¢áł¶áłłáł¨
Ġáł¬áł¥áł³ áł¡áł¯áłµáł¦
Ġáł° áł¢áł°áł¢
Ġáł¬áł£áł¯ áł¢áł¯áł³
Ġáłªáłłáł·áł¢áł¯áł³ áł¤áł¯áłŃ
Ġáł²áł¦áłŃáł¡áł®áł¡áł¯áłµ áł¢áłŃáł¦áł¯áł¬áł¦
Ġáłªáł£áł³áł£áł ¬áł¤
áłº áł¼
Ġáłłáł°áłłáłŃ áł¤áłµáł¤
áł¨ áł¢áł©
áł¡áł¯áł³ áł¡áłŃ
Ġáł¤áł¶ áł¤áł²áłłáł³
áł¬áłłáłŃ áł´áł¢áł³
Ġáł¬áł£áł· áłŃáł£
Ġáł¬áł¡áł¯áł² áł¦áł·áł¢áłŃáł¦áł¯áł¬áł¦
Ġáł¨ áł¢áł´
áłłáł¯áł´ áłłáł¬áł¤
Ġáł«áłłáł· áł¢áł°
Ġáłª áł¢áłµ
Ġáł¼ áł¦áł¨
áł¤áł± áł¤áłŃáł¤áł¨
Ġáł¬áł¥áł³áł¡áł¯áłŃ áł¡áłµáł¦
Ġáł³áł£áł¯ áł£áłŃáłłáł¨
Ġáł¨áł¡áłŃáł¡áłŃ áł¡áł¯áł²
Ġáł¦ áł¢áł®
Ġáł°áł£áł ¶
Ġáł³áłłáłªáł¬áł¤áł· áł¯áł¢áłŃ
Ġáłªáł£áł¯áłµ áł£áłŃ
Ġáł²áłłáł¯áłª áł¢áłŃ
Ġáł° áłłáłŃáłłáł·
Ġáł¹áł¦áł© áłºáł¼
Ġáł· áł¦áł¨
Ġáł°áł¢áł©áłŃáł¡áłŃ áł¡áłµáł¦
Ġáł² áł¡áłªáł¡áł·
Ġáłłáł¶áłłáł¯áłŃ áł¤
Ġáł· áłłáł°
Ġáłµáł¥áł© áł¨
Ġáł°áł¡áł³áł¬ áł¢áł¬áł¦
Ġáł°áł¦áł·áł³ áł¡áłŃáł¦áł¯áł¦áł¯
Ġáłªáł¦áł ¸
áłłáł³ áłłáł¬áł¢áł¨
ĠC P
on e
Ġáł²áł£áł® áł°áł¢
áłłáłµ áł¢áłŃáł¤áł¯áł¬áł¤
Ġáł²áłłáł¢ áł¢áł¨
Ġáł¬ áł¡áł´
Ġáłªáłłáł¶áł¢áł·áł¢áł¯ áłłáłŃáł¤áł¯áł¬áł¤
Ġáł¤áł°áłłáł³ áł¬áłłáł¬áł¤
Ġáł¸ áł¢áł¶
Ġáł¤áł¬ áłłáłŃáł¤áł¯áł¬áł¤
Ġáł°áł£áł¨áł£áł° áł¤áłŃáł°áłłáł¨
Ġáłªáł£áł¯ áł¤áł¯
Ġ5 5
Ġáł¬áł¤áł· áł¤áłŃáł¤áł¨
ĠáłŃ áł¤áł±áł¤áłŃáł¤áł¨
ĠáłªáłłáłŃáł¤áł¯áłŃ áłłáłµáł¤
Ġáł²áłłáł® áłµáł¢áł¨
Ġáł¤áł· áł¢áłŃ
áł¡áł¯áł´ áł¡áłŃáł¡áł·
Ġáł¬áłłáł·áłłáłŃ áłłáł°áł¤
Ġáł¬áłłáłªáł¬áłłáłŃ áłłáł°áł¤
Ġáł¤áł´ áłłáł·áłłáłŃáł¤áł¯áł¬áł¤
Ġáł¬áł¥áł° áł¬áł¡
Ġáłµáł¢áł¯áł£áłŃáł£áł³ áł¤áł¨
Ġáł³áł¦áł· áłªáł¡áł¨
Ġáł²áł£áł® áł¢áł¶áłłáł¯áłłáł¯
Ġ6 00
Ġáł´áłłáłªáłłáł¤ áł¯áł¢áłŃ
´ áł¡
Ġáł³áłłáł· áł¬áłłáł¨
Ġáłłáł®áłłáł· áłłáłŃ
áłµ áł¸áł¦
Ġáłłáł¯áłª áłłáł¯áłłáł¬áł¤
Ġáł¾ áł§áł¦
Ġáł¬áł£áł³áł£áłŃ áł£áł³áł£áł¨
áł¤áł´ áł¢áł·
Ġáł¤áł®áłª áłłáł¯áł²áłł
Ġáł£áł·áł£áł ¶áł¢áł¯
Ġáł¶áłłáłªáł¤áłŃáł³ áłłáł¬áł¤
ĠáłłáłŃ áł¤áł¤
Ġáł²áł£áł¯áłª áł£áł²áł¤
áł£áł· áł²
Ġáłłáłªáł´áł¢áłŃ áł¤áł¯áł¬áł¤
áłª áłłáłŃ
Ġáł¯áł¢áł¦ áł¶
Ġáłµáł¢áłŃáł¤áł· áłłáł¯áł³áł¤áłŃáłłáł¨
Ġáłªáł¦áł· áł¢áł¯áłŃ
Ġáł¬áł£áł¶áł¢áł° áł¢áł¯
Ġáł¤áł¬ áłłáłŃáł¤áł¯áł¤áł¨
2 6
Ġáł®áł¡áł·áłŃ áł¡áł¨
ĠáłŃáłłáł·áłŃ áłłáłªáłłáł¯
Ġáł¡áł®áł¦áł¨ áł¡áł°áł¢
áł¦ áł¢áł©
Ġáłµáł¢áłŃáł° áłłáłŃáłłáł¨
in e
Ġáł¶áłłáłª áł¤áłŃ
Ġáł³áłłáłª áł¤áł°
áł¡áłŃáł¦áł· áł¢
áł¢áł° áłł
Ġáł¡áł·áłŃ áł¦áłµáł¦
Ġáł°áł£áł¯áł¢áł¯áł´ áłłáłŃáł¤áł·
áł¡áł© áł¬áł¡áł¶
ĠáłłáłŃáł¤áł°áł¤áł¯áł´ áłłáł¯
Ġáł°áł¢áł· áł£áł¢
Ġáł°áł¢áł¯áłµáł¢áłŃ áł¦áł¯áłµáł¦
Ġáł¡ áłªáł¦áł·
Ġáłªáł¡áł¶ áł¡áł´áł¢áł¯áł¡áł¨
Ġ200 9
Ġáłµáłłáł· áł¯áłłáł¯
ĠáłŃáłłáł· áł´áłłáł¶
Ġáłµáł¢áł¯áł£áłŃáł£áł³ áł£áłŃáł´áł¢
áłłáłŃáł³ áłłáłªáłł
Ġáł®áłłáł©áł¯ áłłáł¶áł¢áł¯
Ġáł±áłłáłŃáłłáł·áł³ áłłáłŃáł°áłłáł¨
Ġáł£áł¯áł ³
Ġáł¬áł¡áł²áł¦áł· áł¡áł¬áł¦
Ġáłµ áłłáł¶áł¢áł²
áł² áł£áł°
Ġáłłáł©áł¬ áłłáł³áł¤áłŃáłłáł·
Ġáł¤áłŃ áł¯áłłáłŃáł¤áł·
áł£áł¶áł¢áł ®
Ġ h
Ġ7 5
Ġáł¬áł¥áł®áł¦áłµáł¢áłŃ áł¦áł¯áłµáł¦
Ġáł¬áłłáł²áłłáłŃáł¤áłµáł¢áł¯áł² áłłáł¶
Ġáł´áł¢áł® áłłáł¶áł¢
Ġáł³áłłáłŃáłłáł¯áł³áł¤áłŃ áł¤áł¯áł¤áł¯
Ġáł¬áł£áł©áłŃ áł¢áł¯
áłŃ áłłáł·
Ġáł³áłłáłŃáł¤áł¯ áłłáł¯
áł³ áł¡áł·
Ġáł¨áł¡áł¶áł¢áł´ áł¡áłµáł¦
Ġáł²áłłáł² áłłáłŃ
Ġáłª áłłáł¨
Ġáł´áł¢áł¨ áłłáłµáł¤
ĠîĢĦ îĢĦ
Ġáł¤áł³áł¤áł® áł°áł¢áł¯
Ġáł¤ áł¶áł¢áł
Ġáłªáł£áłŃ áł³áłł
Ġáłµáł¥áłªáł¯ áł¡áł¯áł´áł¡áłŃáł¡áł·
Ġáłµáł¥áłª áł¯áł¡áł¬áł¦
Ġáł¦áł³ áł¡áł°áł¢
áłłáł° áł¤áł³
áłłáłµ áłłáłŃáłłáł¶
Ġáł¬áłłáł¯áł¬ áłłáł¯áłłáł¬áł¤
Ġáł³áł¥áł¯áł¥ áł¬áł¦
Ġáł²áłłáł¨ áłŃ
áłłáł ¦
Ġáłªáł¤áł¬áł¢áł¨áł¢áł³ áł¤áł¯
Ġáł³áł£áł·áł£áł¨ áłłáł³áłłáł¬áł¢áł¨
Ġáł¬áłłáł· áłłáł³áłłáłŃ
áł£áł® áł°
Ġáł¦áł® áł¡áł¬áł¡áł¶
Ġáł¬áłłáł² áłłáłŃáłłáł¬áł¤
Ġáł®áł¥áł¬áł¥áł¯áł¢áłŃ áł²áł¦
Ġáłłáłª áłłáłŃ
Ġáłªáł¤áł¯ áł¢áł¶áłłáł¯áł³
Ġáłµáł£áł·áł¢áłŃ áłµáł¢áłŃáł¤áł¯áł¬áł¤
Ġáł³áł¤áł² áłłáłŃáł³áłłáł¬áł¤
áł²áł¤ áł¢
ĠáłŃáł£áł¶áł£áł¯ áłłáł¬áł¤
Ġáł°áłłáł¬ áł¢áł¬áł¤
Ġîī ķ
áł¢áł¸ áł¤
Ġáł£áł¯ áł¤áł¯áł²áłł
Ġáłµáł¥áłªáł°áł¢áł¶áł¡áł· áł¡áł¨
Ġáł¬áł¤áł·áłłáł®áł³ áł¤áłŃáł¤áł¯áłµáł¤
Ġáł²áł£áł· áł£áł®áł°
Ġáł´áł¢áł³áł¬ áł¤áł¨
áłłáł®áłłáłŃ áłłáł¢
Ġáł¬áłłáł° áł¬áł¢áł·
ĠáłŃáł¤áł¶áł¤áł´áł¢áł¯ áłłáł¨
Ġáł³áłłáł©áł° áłłáł¯áłłáł¬áł¤
áł¤áł¬ áł°áłłáł¨
Ġáł°áł¢áł¯áł¢áł³áł¡áłŃ áłµáł¢áłŃáł¦áł¯áłµáł¦
Ġáłłáł³áł¬ áł¤áł¬áł¤
Ġáł³áł£áł·áł£áł¨ áłłáł²áł¤
áłª áł¢áł¨
Ġáł²áł¡áłŃ áł¦áłª
Ġáł³áł¤áłŃ áł²áł¤áł¢
Ġáłªáłłáł·áł¢áł®áłµáł¢áł¶ áłłáłµáł¢áłŃ
Ġáł³áł¡áłªáł°áł¢áłŃ áł¦áł¯áłµáł¦
áłµ áł¸
áłłáł¯áł ´áł¢
Ġáł·áłłáł° áł¢áł¶áłłáł¨
Ġ6 5
áł¡áł¬ áł¦áł·
Ġáł¤áł·áłłáł¯áł¢áłŃ áł´áł¢áł¨
Ġa pp
ĠáłŃáł¦ áł¢áłµáł§áł¦
Ġáł¬ áł¤áł¶áłłáłŃ
Ġáł²áł¦áłŃ áł¡áłŃáł¡áł¬áł¦
áł¤áłŃáł¤áł¯ áłłáł©
Ġáł¡áł·áłŃ áł¢áł¨
Ġáł¬áł¢áłµáłłáłŃáłłáł·áł¯ áłłáłŃáł³áłłáł¬áł¤
Ġáł¬áłłáł¨áł³ áł¤áłŃáł¤áł¯áł¤áłŃáł°áłłáł¨
Ġáł¨áł¡áł·áłª áł¡áłŃáł³
P T
Ġáłªáł¤áł· áł²áłłáłŃ
2 7
áł¯ áłł
Ġáłłáł® áł¤áłŃáł¤áł¯áłłáł©
o k
Ġáł¨áł¡áł¶áł¢áł² áł¡áł¯áł¡áł¨
Ġáł²áł¦áł· áł¦áłŃáł°áł¡áł¨
áł¤áł® áł¸áł²
Ġáł¤áł· áł¢áł¨
c m
Ġáł¥áłŃáł¡áł·áł¡áł´áł¢áł¯ áł¡áłŃáł´áł¢
ĠáłŃáł£áł£áł¯áł¯ áłłáł¬áł¤
ĠáłªáłłáłŃáłłáł²áł¤áł· áł´áł¤áł³
Ġáłµáł¢áł·áł¤áł® áł¯áłłáł¬áł¤
áł¡áłµ áł¢
Ġáł¬áł¢áł® áł¡áł¯
Ġáłªáłłáł· áł¢áł´
ĠáłŃáł¤áł¶áł¤áł´áł¢áł¯ áłłáłµáł¤
áł¡áł´ áł¡áł¨
Ġáł¬áłłáłŃ áłłáłµáł¤
l i
áł¦áł¯ áł¡áł©
Ġáł°áł¢áł³ áł¢áł²áł¦
áł¦áł¶áł¢áł ³
Ġáł£áł¨áł£áł´ áłłáł²áłłáł¶
Ġáłª áł¤áłŃáł¤áł³
ĠáłŃáł£áłŃáł£áłµ áł¢áł¬áł¤
Ġáł¬áł¥áł²áł¥áł¯ áł¦áł¨
áł¦áł¯áł³ áłł
ar t
Ġáł¤ áł¢áł©
Ġáłłáł¯áł³ áłłáłŃáł³áłłáł¯
Ġáł¨ áł¤áł¬
Ġáł¬áł¥áł® áł¥áł·
Ġáł°áł¢áł³ áłłáł®
áł¤áł¶áł¢áł ³áłł
Ġáłªáł¤áł³ áł¤áł¨
Ġáł³áł¡áł¯áłŃáł¡áł· áł¡áłŃáł°áł¡áł¨
ĠG oogle
Ġáł°áł¡áł·áłŃ áł¦áł¯áł¡áł©
ĠáłłáłŃ áłłáł°áł¢
Ġáł°áł£áł· áł¢áł¯áł²áłł
Ġáł¬áł£áł°áł¢áłŃ áł¤áł¨
Ġáł³áł¦áł·áł° áł¦áł¯áł¡áł¨
Ġáłªáł¢áłµ áł¡
áł¡áłµáł¢áłŃ áł¦áł¯áłµáł¦
Ġáłªáłłáł¬ áłłáł³
Ġáł²áł£áł¬áł¢áł¶áłłáł¯áł³ áł¤áł®áłµáł¢
Ġáł¬ áł¦áł³
Ġáł¦áł¨ áł¡áł¯
Ġáłµáł¢áł± áł¢áłµáł¦
E T
Ġáłªáłłáł¶ áł³áłłáłŃ
Ġáł¢áł¯ áł¡áł´áł¢áł¯áł¡áł¨
áł¢áł® áł°áłłáłŃ
ĠáłŃ áł¢áł°áł¬
áł¢áł¯áł³ áł¤
Ġáł² áłłáł¤áł¯
00 1
Ġáłªáł¦áł· áłŃáł¡
Ġáł¡áł® áł¡áłŃáł¡
Ġáł²áł¡áłŃáł¦áłª áł¦áł·áł¢
Ġáł¨áł£áł® áł£áł¬áłłáł¨
Ġáł°áł¢áłªáł² áł¤áł¯áł¬áł¤
Ġáł¡áł·áł¬ áł¡áł²áł¦
Ġáł°áł¥áłŃ áł¡áł·áłŃáł¦
Ġáł®áł¡áł³ áł¡áłŃáł¡áł³
Ġáłªáł£áł· áł£áłŃ
Ġáłł áł³áłłáłŃ
ï¸¶ áłĭ
Ġáł¦áł¢áł¯áł¡áł³áłªáł¦áł· áł¢áł¯
Ġáł¬áłłáł·áł¢áł¯áł´ áłłáłŃáłłáł·áłłáł¶
Ġáł¬áł¢áł¯áłŃ áł¡áł¬áł¦
Ġáłłáł¯áł¤áł° áł¯áłłáł¨
Ġáł¡áł·áłŃ áł¢áłµáł¦
áłłáł® áł§áł¨
áł¤áł¯áł ¬
áł£áłŃ áłłáł¶
Ġáł£áł· áł£áł³áłłáłŃ
Ġáł¬áł¡áł² áł¦áł¶áł¢áł³
Ġîī ĸ
Ġáł¨áł¡áł¬áł¡áł®áłµ áł¢áł¯áł¡áł¨
es s
Ġáł²áł¦áł°áł¢áłŃ áł¯áł¡áł¬áł¦
Ġáł²áł£áłŃáł¯ áłłáłŃáł´áł¢áł³
Ġáł²áł£áł¬áł¢áł¶áłłáł¯áł³ áł¤áł¬áł¤
ĠáłŃáł£áł¶áł£áł¯ áłłáł¯
Ġáłº áł§
Ġáł°áłłáł· áł¢áł®áł°áłłáłŃ
Ġáł°áł¤áł³ áł¤áł¯áł¤áłŃáł´áł¢
áł¯ áłłáłŃáł¤áł¯áłµáł¤
ĠáłŃáł¥áł· áł³áł¡áł¬áł¦
o g
Ġáł¬áł¤áł·áł¢áł¶ áłłáł¯áł²áłł
Ġáł²áł¤áł¶áł¢áł ¯áłªáł¤áł·
Ġáł¨áł¢áłŃáł¦áł¯ áł¡áł°
áł¤áłŃáł³ áłłáłŃáł´áł¢
Ġáł¨áł¢áł· áł¤áłŃáł¤áł¨
Ġáł¶ áł£áł·
Ġáł¬áł¡áł¯áłªáł¡áł¯áłµ áł¡áł¯áł²áł¡
Ġáłłáł·áłłáł´áł¢áł¯ áłłáł¬áł¤
Ġáł¬áłłáł¯áłłáłŃ áłłáłŃáł¤áł·
Ġáłªáłłáł¶áł¢áł·áł¢áł° áł¢áłŃáł¤áł¯áł¤áł¯áł²áłł
Ġáł³áłłáłŃ áłłáł¸
Ġáł¨áłłáłŃáłłáł³ áł¤áłŃáł´áł¢
Ġáł¬áł¤áł¯ áłłáłŃáłłáł¶áł¢áł¯
Ġáł´ áł¡áłŃáł¡áł¨
Ġáłµáłłáł° áłłáłŃáł°áłłáł¨
áł¢áł¯áł² áł¤
Ġáł¬áłłáł®áł¤áł· áł´áł¤
Ġáłµ áł¢áł³áł¬
Ġáł³áłłáł· áł¤áł¨
Ġáł¬áłłáłŃáł¤áł³ áłłáł°áł¤áł¨
Ġáł²áłłáł° áł¢áł·áłłáł®
áł¨ áłłáłŃáł¤áł·
áł¤áłª áłłáł©
áłłáłŃáł³ áłłáł°áł¢
Ġáł¨áł¡áłª áł´áł¢áłŃ
Ġáłªáłłáł² áł¤áł³
áłŃ áłłáł¯
Ġáł°áł¢áł®áł¨ áł¤áł°
Ġáł¢áłµ áłłáłŃáł¤áł·
Ġáł°áł¥ áł¨
Ġáł¬áł£áł¯áłªáł£áłŃ áł°áłłáł¨
Ġáłµáłłáł©áłŃ áł¤áł¶áł¢áł³áłł
Ġáł²áł£áłª áł£áł¶áł¢áł®
áłłáłŃáłłáł³ áł¤áł¶
Ġáł³áłłáł®áłµ áł¢áł¯áłŃ
Ġáł¨áłłáł¶áł¢áł· áłłáłŃáł¤áł¯áłµáł¤
áł¤ áł¤áł¢
áł¯ áł¢áł¨
áł¢áł¯áł¢áł® áł§áł²
Ġáł¶áłłáłª áł¤áłŃáł°áłłáł¨
A T
Ġáłłáł¨ áł²
áłłáł¯áł³ áł¤áł¬áł¤
Ġáłłáł©áł¬áłłáł· áł¤áłŃáł¤áł°áł¢áł²áłłáł¶
Ġáł£áł· áł£áł®
Ġáł³áł¡áłŃáł¡áłŃáł°áł¢áł¯ áł¡áłŃáł¦áł¯áł¦áłŃáł°áł¡áł¨
Ġáł¬áłłáł®áł² áł¤áł³
ĠG B
Ġáł¬áł¥áł¨áł³áł¡áł¶áł¢áł· áł¡áłŃáł¦áł¯áł¦áłŃáł´áł¢
Ġáł¡áłŃ áł¦áł¯áł³áł¡áł·
Ġáłªáł£áł·áł£áłŃ áłµáł¢áłŃáł¤áł¨
áł¦áł¯áłª áł¡áł¯
Ġáł¡áł·áłŃ áł¦áł¨
Ġáł°áł£áł¯ áł£áł©áłŃ
Ġáłµáł¢ áł¢
Ġáłªáł£áł¯áłµ áł£áł¨
Ġáł¨ áł¢áłº
Ġáł£áł·áł£áł¯áł´ áłłáłªáłł
Ġáł³áł£áł¸áł· áłłáł³áł¤
Ġáł¢áł¯ áłłáłŃáł³áłłáłŃáł°áłłáł¨
ar d
Ġáł°áł¡áł³áł¬áł¢áłŃ áł³áł¡áł¯
áł² áł·
Ġáł® áł¢áł¯áł¢áł®áł§áł²
Ġáł¢áł©áłŃ áł¢áłŃáł¡áł³
Ġáł´áł¤áł¯ áł¤
Ġáł³ áłłáł¢
Ġáłłáłµáł¢áłŃ áł¯áłłáłµáł¤
Ġáłµáł¢áłŃáł¤áł² áłłáł©áłŃáł¤áł¶
Ġáł£áł¶áł¢áł¯áłłáłŃ áłłáłŃáł¤áł¯áłµáł¤
Ġáł¤áł¢áł© áłŃáł¡
Ġáłª áł¥áł·
ĠáłłáłŃáł¤áł° áł¬áłłáłŃáł´áł¢
Ġáł¦áłµ áł¡áłªáł¡
Ġáł°áł¢áł¯áłŃ áłłáłŃáł¤áł¯áł¬áł¤
áł«áł· áł¤áł¹
E S
Ġáł¬áł£áł·áł® áł£áł¨
Ġáł°áł¢áłŃ áł¦áł¨
áłªáłłáł· áłłáłŃ
Ġáł£áł´ áł¢áłŃáł°áłłáł¨
Ġáł²áł¤áł°áłłáłŃáłłáł· áł¯áłłáł¬áł¤
Ġáł¡áłŃáł¦áł° áł³áł¡áłŃ
Ġáł¢áł· áł¡áł¨
9 5
Ġáł³áłłáłŃáłłáł· áł¢áłµáł¤
áł«áł·áł¤áł¹ áł¸áł°áł°áł¤áł·
Ġáł¬áł¡áłª áł°áł¢áłŃ
u p
Ġáł²áł¤áł¯áłŃ áłłáł·
áł¡áł¯áłµ áł¡áłŃáł¡áł¨
Ġáł¨áłłáł¨áł³ áł¢áł©
I C
E C
ï ¹
áł¤áł¯ áł¤áł°
Ġáł²áłłáł© áł°áł¤áłŃ
Ġáł°áł¤áłª áł¢áł¯áłłáł¬áł¤
Ġáł¬áł¦áł¯ áł¢áł´
Ġáł°áł¢áł¶áł³áłªáł¦áł· áł¢
Ġáł« áł¸áł©
Ġáł¤áł² áłłáł°áł¤áł³
Ġáł¬áł¦áł· áł²
Ġáł² áłłáłŃáłłáł®
áł¬áł¥áł® áł¦áł¨
Ġáł¬áł¤áłªáł¢áł·áłłáłŃ áłłáłŃáł³áłłáł¯
Ġáł²áłłáł¨ áł¢áł¨
Ġáł¡áł·áł¬áł¢áł¯ áł¡áłµáł¦
Ġáł°áł¦ áł¢áł³áł¬
Ġáłªáłłáł¬áłłáł· áł¬áłłáł¯
Ġáł²áł¦áł°áł¢áłŃ áł¯áł¡áłµáł¦
Ġáł¬áł¡áł¯áłªáł¡áł· áł¢áłµáł¢áłŃ
Ġáł¶áłłáłŃáłłáł· áłłáł¤
ĠáłŃáł¤áł¯áł³ áł¤
8 6
Ġáłµ áłłáł³áłłáłŃ
Ġáł´áłłáłŃáłłáłµ áłłáł¯áłłáł¬áł¤
a k
áłłáł® áłł
20 22
Ġáł´áłłáł© áł±áłł
Ġáł® áłłáł³áłłáłŃ
Ġáł¬áłłáłªáł°áł¤áł· áł¬áł¤
3 2
Ġáł¯ áł¤
Ġáł® áł¤áł¨
Ġáł®áłłáłŃ áł²áłłáł¨
Ġáł³áłłáłŃ áłłáł³
Ġáł« áł§áł©
Ġáłłáł¯áł® áłłáł°
áłª áł¥
el l
Ġáł²áł¡áł® áł²áł¡áł·
Ġáł³áłłáłŃáł¤áł¯ áłłáł¬áł¤
Ġáł°áł¤áłª áł¢áł¯áłłáłŃáł´áł¢
Ġáłµáł¢áł¨ áłłáł¨
áł¢áłµ áł¡áł¶
Ġáł°áł¢áł¶ áłłáł®áł§áł¨
Ġáł²áłłáłŃáłłáł® áłłáłŃ
Ġáł½ áł¦áł©
ĠáłŃáł¦áł¶ áł¦áł¬áł¦
Ġáł¥áł©áłŃáł¡áł·áł¡áłŃ áł¡áłŃáł°áł¡áł¨
Ġáł°áł¡áłŃáł¦áł³áł¡áł· áł¯
Ġáł°áł¡áłª áł¡áłŃáł¦áł¨
áł£áł´ áł¢áł¯áłłáł¯áł²áłł
áł¡áłµáł¢áłŃ áł°áł¡áł¨
Ġáł³áł¤ áł¤áłŃáłłáł·
Ġáł¨áłłáł¶ áł®áłłáł¨
áł° áł¢áł¬áł¢
Ġáł²áł¦áł·áłŃ áł¡áł³áł¬áł¡áł¨
Ġáłº áłłáł¢
Ġáłłáł¯ áłłáłµáł¤
Ġáł²áł¤áł¸ áł±
Ġáł¤áłŃáł² áł¤áł¬áł¤
Ġáłªáł¢áł´áł¢áłŃ áł¡áł°áł¦
áł¡áł¯ áł¡áłŃáł¦áł·
Ġáł³áł¤áł· áłłáł°áł¬
Ġáłµáłłáł¯ áłłáł·áłłáłŃáł¤áł¯áł¬áł¤
Ġâĳ ¡
Ġáł¬áł¥áł©áłŃ áł¡áł·
Ġáł¬áł¦áł´ áł¦áł³
Ġáł³áłłáł° áł¬áłłáł¯
Ġáł²áł£áłŃáł²áłłáłŃ áłłáłµáłłáł¶
Ġáł¡áłµ áł¡áł¯
áł¤áłŃáłłáł³ áł¤áł¶
Ġáł· áł¦
Ġáł¥ áłŃáł¡áł¢
Ġáłµáł¢áłŃ áłłáłªáł¤áł·áł¢
Ġáłªáł¢áł°áł¢áł· áł¡áł¯
Ġáłłáł·áł° áł¯áłłáł¨
Ġáł¡áł·áłŃ áł¦áł¬áł¦
Ġáł¬áłłáł·áłłáłŃáłłáł¯áłµ áłłáł¬áł¤
Ġáł¬ áłłáł¬
Ġáłµáł¥áłŃ áł¡áł¯áł¡áł·
Ġáł¹ áłł
o v
Ġáł¤áł¯áł ªáłł
Ġáłµáłłáł·áł¤áł´ áłłáłŃáł¤áł¯áł¬áł¤
ĠáłŃáłłáł· áłªáłł
áłŃ áłŃáł¡áł¨
ĠáłµáłłáłŃáłłáł¯áł³ áł¤áłŃáł³áłłáłŃáł´áł¢
Ġáł¬áł¡áł¯áłªáł¡áł¯áłµ áł¡áł¯
Ġáł²áł¥áłªáł¯áł¡áł· áł¡áłŃáł¦áł¯áł¬áł¦
Ġáł²áłłáł®áł¢áł· áł´áł¢áł³
áłłáł¯áł³ áł¤
Ġáł²áł¦áł·áł¦áłŃ áł¦áł´
Ġáł¡áł·áł¡áłŃ áł²áł¡áł¶áł¢áł´áł¦áł³
Ġáł¬áłłáł¯ áłłáł®
áł¯ áł¦áłŃáł¡
Ġáł¬áłłáłŃ áł°
Ġáłªáłłáł¯ áłłáł·
áłŃáł¤áł· áłªáłł
áł¦áł©áł¨ áł¡áł¨
áł¡áłŃáł³ áł¡áłªáł¡
Ġáłªáł¦áł·áł¢áł¯áł³ áł¦áłŃáł¦áł¯áł¬áł¦
ĠáłŃ áł¡áłŃáł¡áł¨
Ġáł£áł·áłŃáł¢áł¯ áł¤áł®
Ġáł¨áł£áłŃáł£áłŃáłłáł· áłłáłŃáł¤áł¯áł¤áł¯áł²áłł
Ġáł¨áł¢áłŃ áł¤áłŃáł³
Ġáł¤áł¨áł² áłłáłµáł¤
7 7
Ġáł°áł¦áł· áł´áł¢áłŃáł¦áł·
Ġáł¬áł¤áł· áłłáł¯áł³áł¤áłŃáłłáł¨
Ġáł¤áł·áł¤áł° áł¤áł©áłŃáł¢
Ġáł¤áłŃáł°áłłáł· áłłáłŃ
ĠáłŃáłłáłµ áł¢áłŃáł¤
Ġáłłáł´áł¢áł¶áłłáł¯ áłłáł¬áł¤
Ġáł£áł·áł£áłŃ áł¤áł¯áłªáłł
Ġáł¡áł·áł¬áł¢áł® áł¯áł¡áł¬áł¦
Ġáł³áł¡áłŃáł¡áłŃáł°áł¢áł¯ áł¡áłŃáł°áł¡áł¨
Ġáł¯ áł¦áł¨
Ġáł³áł¡áł¯áłŃáł¡áł· áł¡áł¬áł¦
áłłáł¯áłµ áłłáłµáł¤
áł¡áł¯áł ®
Ġáł¬áł¦áł¨áł³áł¦áł³ áł¬áł¡áł¯
Ġáłªáł£áł·áł³ áł£áłŃ
Ġáł¥áłŃ áłªáł¡
5 5
Ġáł¬áł¦áł´áł¦áł³ áł¡áł¯áł²áł¦
Ġáł°áł¢áł¨áł¡áł´áł¢áł¯ áł¡áł¯áł²áł¡
Ġáł²áł¤áł° áł¤áł¯áł²áłł
Ġáł²áł¤áł¶áł¢áł¯áłªáł¤áł· áł¢áł²áłłáł¶
Ġáł¡ áł´áłł
it y
áłµ áł¢áł²áł¤
Ġáł¬áłłáł¯áłłáł® áł°áł¢áł¯
± áłłáł¨
Ġáł°áł¢áłµ áł¢áł©
Ġáł²áł£áł® áł¢áł¯áłłáł¨
Ġáł²áł¦áł¯ áł¡áł°áł¢
Ġáł´áłłáł¶áł¢áł ¶
Ġáł¥áł©áłŃáł¡áł·áł¡áłŃ áł¡áłµáł¦
áł¸ áł¸
Ġáł¬áł¡áłªáł² áł¡áł°áł¢
Ġáł¹ áł§áł©
Ġáł¬áł¢áłµáłłáłŃáłłáł· áł¯áłłáł¨
Ġáł®áł¥áł·áłŃáł¥áł¯áł³ áł¦áłŃáł¡áł¨
Ġáł± áł¦áł¢
Ġáł¦áłµ áł¡áłŃáł¦áł¯áł³áł¡áłŃ
A M
Ġáł¡áł¯áł¢áłŃ áł¡
Ġáłµ áł¦áł³
Ġáłªáł¥áłŃ áł¯áł¡áł·
Ġáł¤áł·áł¤áłŃáł°áł¢áł¯ áłłáł¨
áł¢áłŃ áł¦áł¯áł¦áł¨
¿ £
Ġáłłáł¶ áł¤áł®
áł¯ áłłáłªáłłáł¯
Ġáł²áł£áłŃáł²áłłáłªáł¤áł·áł¢áłµáł¢áłŃ áł¤áł¯áł¬áł¤
Ġáł²áł£áł· áłŃáłłáł¨
Ġáł¶áł£áł· áłº
Ġï ¿£
Ġáł¬áłłáł¨áł³áł¤áł¯áłŃ áłłáł²áł¤
ĠáłŃáł¡áł·áł¡áł´áł¢áł¯ áł¡áłŃáł°áł¡áł¨
Ġáł®áł¡áł¨áł³ áł¦áł¯áł¡áłŃáł°áł¡áł¨
áł³ áł¡áłªáł¡
áłłáłŃ áłłáł¶áł¢áł·
Ġáł²áł¡áłŃáł¦áł¯áł³áł¡áł· áłµáł¢áłŃáł¦áł¯áł¬áł¦
áł³ áł¡áł¬áł¦áł¨
Ġáł¦áł· áł²áł¡áłŃ
Ġáłłáłª áł¢áł¶áłłáł¨
áł¦áłŃ áł¦áł¯áłµáł¦
áłłáł¯áłŃ áłłáł¬áł¤
áłµáł¢áłŃ áł°áł¡áł¨
Ġáłµ áł¤áł·áłŃáłłáł¨
c t
C P
Ġáł°áł¢áł·áłª áł¥áł°áł¥
Ġáł²áł¦áł·áłŃ áł¡áł³áł¬áł¡áł¬áł¦
Ġáł¨áł¡áł®áł¡áłŃáł³ áł¡áłµáł¡áł¶
° áł¢
Ġáłªáł¤áł¯ áłłáłŃ
Ġáł£áł©áłŃ áł£áł¨
Ġáłªáł· áłłáł½
Ġáł° áł¡áł®
Ġáł¥áł©áłŃáł¡áł· áł¡áłµáł¦
Ġáłł áłº
es t
¯áłŃ áłłáł¨
Ġáł²áł¤áł°áłłáł¯ áłłáłŃáł´áł¢
áł¦áłª áł¡áł¯
Ġáł²áł¡áłŃáł° áł¢áł¬áł¡áł¨
Ġáłµáłłáł® áłªáłłáł·áłłáłŃ
Ġáł¢áł³áł¡áłªáł¬áł¢áłµáł¢áłŃ áł¦áł¯áł¦áłŃáł°áł¡áł¨
Ġáł°áł¢áł² áłłáłŃ
Ġáł³áł¦áł·áł° áł¦áł¯
áłĦ ãĢĬ
at e
Ġ of
áł¥ áł°áł¥áł¨
Ġáł¨áłłáł· áł¢áł®áł¤
ĠáłłáłŃáł¤áłµ áł¢áł·
Ġáłµáłłáł³áłłáłŃ áłłáł¶
Ġáł¥áł¯áłµ áł¡áł¶áł¢áł²áł¦
Ġáłµáł¢áłµáł¢áłŃ áł¦áł·
Ġáł´áł¢áł® áłłáł³áł¤
Ġáł¡áł· áł¦áł³
Ġáłµáł£áłª áłłáłµáł¤
Ġáł¬áł¢áł¯ áł¢áł©
Ġáł²áł¡áł®áł¡áł´ áł¡áł¯
Ġáłłáł·áłłáł´áł¢áł¯ áłłáł¨
Ġáł¬ áł¡áł¶áł¢áł
áłŃáł¤áł· áłªáłłáł¨
Ġáłº áłłáł¯
Ġáł°áł¥áł· áłŃáł¡áł¦
Ġáłłáłª áł¤áłŃáł´áł¢áł³
áł£áłª áłł
Ġáłµáł£áł¬áł¢áł´ áłłáłŃáł¤áł¯áł¤áł¨
Ġáłªáł£áł¯áłªáłłáł°áł¤áł· áłłáłŃáł¤áł¯áł¤áł¯áł²áłł
Ġáł¨áł¡áłŃáł¦áł¯áłŃ áł¡áł¬áł¦
c om
- -
Ġáłłáł·áłłáł¯áłµáł¢áł¶áłłáł¯ áłłáł¬áł¤
Ġáłªáłłáł¶áł¢áł·áł¢áł¯ áłłáłŃáł¤áł¯áłµáł¤
áł² áłłáłª
Ġáł²áł£áłŃáłłáł´ áł¢áł¯áł²áłł
áł« áł¸áł©
Ġáł¨áł¡áł¶áł¢áł¯ áł¡áłŃáł¦áł¯áł¦áłŃáł°áł¡áł¨
Ġáł¼ áł¦áł¢
Ġáł¬áł¤áłª áł¢áł¯áłŃáłłáł¨
Ġáł¤áł¶áł¢áł ³
Ġáłªáł¥áł· áł¢áł³
Ġáł°áł£áł©áłŃ áł£áłªáłłáł¯
Ġáł° áł¢áł¬áłłáł¨
Ġáłµáłłáł· áł¯
Ġáł²áł¡áł®áł³áł¡áłŃ áł¯áł¡áłŃáł°áł¡áł¨
áł£áłŃ áł°áł¢
Ġáł¡áłµáł¡áł©áł¨ áł¡áłŃáł°áł¡áł¨
Ġáł® áł£áł²
Ġáłªáłłáł³ áłłáł·
Ġáł¨áł¥áł¯áł¥áłŃáł¡áł¯ áł¡áł¯
Ġáł¬áłłáł¯ áł¢áł°áł¤áł¨
áł¢áł² áłłáł³
Ġáłłáłµáł¢áł¯áł¯áłłáłŃ áł°áłłáł³
Ġáł¾áł· áł¢áł°áł²
Ġáłª áł¤áł¯áłŃ
áł¤áł¯áłµ áłłáł¢
Ġáł¬áłłáłŃ áł¤áł´áł¢áł·
áł¦ áł¢áł¯
Ġáł¨áł¡áł¶áł¢áł¯ áł¡áł¯áłŃáł¡
Ġáł°áłłáł¯áłŃ áłłáł¨
Ġáł¨áł¥áł¯áł¥áłŃáł¡áł¯ áł¡áł³áł¡áłŃ
Ġáł¨áłłáł¶áł¢áł³ áłłáł¨
áł¬ áł¤áł·
Ġ3 9
ĠP ro
Ġáł´áł£áł¬ áł¢áłµáł¤
áł§áł® áłµáł¢
ĠA l
áłłáłµ áł¢áł¯
ĠáłŃáłłáł°áł¢áłŃ áł¤áł¨
Ġáł¬áłłáł· áł¢
ĠâĢ ¦
Ġáł³áł¤áł·áłłáł° áł¢áł¯
áł¡áł³ áł´áł¦
Ġáł´áł£áłŃáł´ áłłáł²áł¤
Ġáł®áł¡áł³ áł¡áłµáł¡áł¶
Ġáłªáłłáł¶áł¢áłŃáł¤áł¯ áł¤áł¯
Ġáł¡áł·áłŃáł¢áł´ áł¡áłŃáł¦áł¯áł¦áł¨
Ġáłªáł·áłłáł½ áł¢áł¯
Ġáł¨áł¥áł¬áł¥ áłµáł¦
Ġáłªáł¢áł°áł¢áł¯áłŃ áłłáł¯
Ġáłłáł¯áłª áłłáł²áłłáł¨
Ġáł¬áł¤áłª áł¢áł¯
Ġáł¬áł¢áłµ áł¡áł¶
Ġáł¬áł¥áł©áłŃáł¡áł¨ áł´áłłáłŃáłłáł¨
Ġáł³áł¥áłŃáł¥áł® áł´áł¢áł¯
Ġáłªáł¢áł¯ áł¡
áł³ áłłáł®
áłµáł¢áłŃ áł¤áł¯áł¤áł¨
Ġáłªáłłáł¬áłłáł³ áł¤áł¯
Ġáł¤áł¶áł¢áł³ áł¬áłłáł·
Ġáł¥áł©áłŃáł¡áł·áł¡áłŃ áł¡áł¯áł²áł¡
Ġáłµáł¤áłŃáłłáł´ áłłáł¬áł¤
Ġáł³áłłáł© áł´áł¤
Ġáł¨áł¡áł®áł¡áłŃáł³ áł¡áł¨
Ġáł¨áłłáł® áłłáł¢
Ġáł°áł¢áłŃáł¤áł· áłłáłŃáł¤áł¯áł¬áł¤
Ġáł³áłłáłŃ áłłáłŃáł¤áł¯áł¤áłŃáł´áł¢
Ġáł¬áłłáł®áłµáł¢áł¯áł´ áłłáłŃ
Ġáłłáł¯áłłáłŃáłłáł³ áłłáł¬áł¤
Ġáł¤áł· áł¢áł¶áłłáł¯
Ġáł³áłłáł¶áł¢áł¯ áłłáł¯áł³áł¤áłŃáłłáł¨
Ġáł¥áł©áłŃ áł¡áł¯áł¡áłŃáł°áł¡áł¨
ĠáłŃáł¤áł¯áłŃ áł¤áł·
áł²áł¤ áł¤áł·
Ġáł¬áłłáł¯áł³áłłáłªáł¤áł· áł¢áł²áł¤
Ġáł¬áł¦áłµ áł¦áłŃ
Ġáłłáł· áł¢áł¯áłŃáłłáł¨
Ġáł¡áł·áł¬áł¢áł¯ áł¡áłŃáł´áł¢áł³
Ġáł¬áł¦áł·áł²áł¡áłŃ áł¡áł¬áł¦
Ġáł¥áł·áł¢áł°áł¥áł¯áł³ áł¦áłŃáł´áł¢
Ġáł³áł£áłŃáł¢áł· áł¬áłłáł°áłłáł¨
Ġáł¬áłłáł·áł¢áł´ áłłáłŃáł¤áł¯áł¤áł¯
Ġáł®áł¡áł³ áł¡áłµáł¡áł¢
Ġáł°áł¡áł·áł¡áł®áłµáł¢áł¯ áł¡áłŃáł¦áł¯áł¬áł¦
an g
Ġáł²áł¤áł·áł° áł¢áł¬áł¤
Ġáł¨áł¡áłªáł²áł¡áł· áł¡áłŃáł¦áł¯áł¦áł¨
áł¤áł¯áł´ áłłáł¬áł¤
Ġáł¡áłµ áł¡áł·
Ġáł°áł¢áł¯ áł¢áł¨
áł£áł ¹
Ġáł³áł¤áł·áłłáł°áł¬ áłłáł¯áł²áł¤
Ġáł³áłłáłŃáłłáł· áł¢áł¬áł¤
Ġáłªáł£áł¯áłµ áłłáł¢
Ġ âĢ¯
áł£áł ¶áł¢áł·
Ġáł¨áł¦áł¬ áł¦áłŃáł¡
© áł°
Ġáł´áł¡áłŃáł¡áłµ áł¢áł¯
Ġáłªáł¤áł´ áłłáł¯
Ġáł²áł¦áł© áł°áł¡
Ġáł¬áł¤áłªáł¢áł¶ áłłáłŃáł°áłłáł¨
Ġáł¬áł¤áł° áł¢áłŃ
ĠáłŃáł¥ áł¯áł¢áłŃáł¡áł·
Ġáłµáł£áł¬áł¢áł¶ áłłáł¯áł´áł¢
Ġáł´áł¤áł¬ áł´áłłáłµáł¢áłŃ
¯áł³ áł¡áłŃ
Ġáł¨ áłł
Ġ k
áł¡áł® áł¡áł¬áł¡áł¶
Ġáł¬áłłáł· áłłáłŃáłłáł³
Ġáł¥áł·áł¨áł¢áłŃ áł¦áł¯áł¦áłŃáł°áł¡áł¨
Ġáłµáłłáł¯ áłłáłŃáł¤áł·
Ġáł´áł¤áł¤áł· áł¢áł¶
Ġáł°áł¢áł¯áłŃ áłłáł·áłłáłŃáł°áłłáł¨
Ġáłµáł¥áł·áł¢áł´ áł¡áłµáł¦
Ġ9 5
Ġáł¬áłłáł·áłŃ áł¢áł°
Ġáł¸ áł¢áł°áłł
Ġáł¬áł¦áł³ áł¦áł¯áł¦áł¨
¬ áł¤áł·
Ġáłµ áł¤áł¸
Ġáł³áł¡áłŃ áł¡áłªáł¦áł·
Ġáł´áł¢áł³ áłłáł®áłµ
Ġáł³áł£áł·áł£áłŃ áł°áł¢áł¬áł¢
Ġáł¡áł·áłŃ áł¢áł¯áł¡áł¨
3 6
Ġáł²áłłáłŃáłłáł· áłłáłŃáł¤áł¯áł¬áł¤
Ġáłł áł¢
Ġ9 9
Ġáłµ áł¤áł¬
áł¤áł¯áł ¸
Ġáłªáł£áł·áł£áł¯ áłłáłŃáł¤áł¯áłµáł¤
Ġáł£áł¯áłŃ áł£áł¨
áł¯áł ª
Ġáł¬áł¦ áł¢áł°
ĠáłŃáł¢áł¯ áłłáł°
Ġáł¬áł¦áł¨áł³áł¦áł³ áł¬áł¡áł¬áł¦
áłłáł¯áł¢áłŃ áł³áł¤
Ġáł²áłłáł° áł¤áł¯áłªáł¤áł·áł¢
Ġáł¯ áł¦áł¸áł¸
Ġáłµáł¦áłŃ áł¯áł¡áłŃáł¦áł·
Ġáł¬áł¥áłŃáł¡áł· áł¦áł¬áł¦áł¨
ĠN BA
Ġ8 00
Ġáł°áłłáł¨ áłłáłŃáł³áłłáłµáł¤
áł¦áłª áł¡
Ġáł³áłłáł· áł¢áłµáł¤
ĠáłŃáł¤áł¯áłŃ áł¤áł¬áł¤
Ġáł® áł£áłŃáłłáł¶
Ġáł®áł¥ áł´áł¢
Ġáł²áł¡áłŃáł¡áłŃ áł¡áłªáł¦áł·
Ġáł¤áł·áł²áł¤áł³ áł¬áłłáł¬áł¤
Ġáł¬áłłáł¶áł¢áł ¬áł¤áł·
Ġáłª áł¤áł¯áł³áłłáłŃ
Ġáłªáłłáł³ áłłáł·áłłáłŃáł¤áł¯áł¤áł¨
Ġáł¨áł¡áł· áł¡áł¯
áłª áł¥áł·áł¢áłŃ
Ġáłªáł¤áł³ áł¤áł¯áł²áłł
Ġáł´áł¥ áłªáł¥áł·áł¢áłŃ
Ġáłłáł· áł°áł¢
Ġáł®áł§ áł³áłłáł¯
Ġáł¬áł¤áłªáł¢áł· áł¬áłłáł°áłłáł¨
Ġáł°áł£áłŃ áł£áłŃ
Ġáł¢áł¯áł¡áł· áł¡áł³áł¡áłŃ
V C
Ġáł¦áł¢áł¯áł¡áł³ áł¦áł¯áłŃ
Ġáł³áł¦áłŃáł¦áł· áł´áł¦
Ġáł¤áł¨áł´ áłłáł¯áł¢áłŃáł³áł¤
H z
Ġáł«áł·áł¤áł¹ áł¸
áł¢áłµ áł¢áł¯
Ġáłµáłłáł° áłłáłªáłłáł¯
Ġáł¬áł¥áłŃáłµ áł¢áł¨
Ġáłªáł¦áł·áł¬ áł¦áłŃ
Ġáł°áł¢áłŃ áł¦áł¯áł²áł¡
Ġáł°áłłáł¶áł¢áł° áł¢áł¶áłłáł¯
áł¦áłŃ áł¦áł®
Ġáłµáł¢áłŃ áł²áł¡áł¶
Ġáł³áł¡áł¶áł¢áł ¯áł³áł¡áłŃ
Ġáł²áł£áłª áł´áł¢áł³
M P
Ġáł²áł£áł ©áłŃ
Ġáł®áł¢áł¨ áł²áł¤áł¤áł·
áł¨ áł³áł¡áł¯
Ġáłªáł¥áłŃáł¡áł· áł¡áł©áł¬áł¡áł¶
Ġâĳ ł
Ġáł¡áłªáł¡áł³ áł´áł¢áł¯áł¡áłŃáł°áł¡áł¨
Ġáł²áł¤áł·áł° áł¢áł¬áł¢
Ġáł´áł¢áł³áłłáłªáł¤áł· áł¢áł²áł¤
Ġáł¬áł£áł¯áłªáł£áłŃ áł³
áł£áł· áłłáł¨
Ġáł¬áł¢áł¨ áłłáł¬áł¤
Ġáł²áłłáł° áł¤áł¯áł¤áł¯áł²áłł
áł¦áł· áłŃáł¡
ĠáłªáłłáłŃáł² áłłáłŃáłłáł®
Ġáłµáł¦áł³ áł¡áłŃáł¦áł·áł¢
áł· áł´áł¤áł³
Ġáł´ áł¤áł¸áłłáł©
ĠáłŃ áłłáł¯áłµ
Ġáł¢áł¯ áł¡áł´áł¢áł¯
Ġáł²áł¦áł·áłŃáł¡áł³áł¬ áł¡áłŃáł¦áł·
Ġáłµ áł¥áł·áł¢áłŃ
Ġáł´áł¢áł¦ áł¶
Ġáł³áłłáłŃ áłłáłŃáł¤áł¯áł¢
e v
Ġáł®áł¡áł³ áł¡áłªáł¡
Ġáł³áł¦áł·áł¢áł® áłµáł¢áł¯
áł¬ áł¤áłª
Ġáł¦áł¶áł¯áł¡áł³áłªáł¦áł· áł¢áł¯áł¡áłŃáł°áł¡áł¨
ĠáłŃ áł¢áł·
Ġáł³áł£áł·áłŃ áł¢áł¯áł²áłł
Ġáł¢áł· áł¡áł³áł¡áłŃ
Ġáłµáł£áł¯áłŃ áłłáłŃáł¤áł¯áł¬áł¤
Ġáł£áłŃáł²áł£áł¯ áł¤áłŃáłłáł°áł¤
áł³áł¡áłŃ áł´áł¢
Ġáł¯ áłłáłµáł¤áł¤
Ġáłłáł· áł¢áł¶
Ġáł¥áł·áłŃ áł¡áłµ
u x
Ġáł³áł£áłª áł£áł¶áł¢áł
áł¨ áłł
Ġáł°áł¤áł® áł¤áł¨
ĠãĢĪ /
Ġáł®áłłáł¬ áłłáł¯
Ġáłªáł¡áł¬ áł¢áłµáł¢áłŃ
áłłáłŃáłłáł¯ áł¢
áł¡áłŃ áł¡áł²áł¦
Ġáł£áł·áł£áł µáłłáł¶
Ġáł²áł¤áł°áł¬ áłłáł¶áł¢áłµ
e x
Ġáł°áł¢áł· áł¢
Ġáł¡áł©áł¬áł¦áł· áł¡áł¶
3 8
2 9
Ġáł°áł¢áł¯áł¢áł³áł¡áłŃ áłµáł¢áłŃáł¦áł¯áł¦áł¨
áł± áłłáł¯
Ġáłłáł¯áłª áłł
Ġáł¢áł³ áł¡áłŃáł³
Ġáł²áł£áł¬áł¢áł¶áłłáł¯áł³ áł¤áłªáłłáł¯
Ġáł¬áł¤áł·áłłáł¯áł³áł¤áłŃ áł¤áł¯áłµáł¤
Ġáł®áł¡áł³áł¡áł· áł¡áłµáł¦
Ġáłłáł¯áł³áłłáł· áł²áłłáł¶
Ġáłłáł¯áł¬ áł¤áł¬áł¤
Ġáł¬áł£áł¯áłª áł£áł¯áł²áłł
ĠáłŃáł¡áł¨ áł¡áł¨
Ġáł²áł£áł¯áł£áłŃ áłłáł¶áł¢áł¯
Ġáłµáłłáł¶áł¢áł² áłłáł¶
áł¢áłŃ áł¤áł¯áł¤áłŃáł°áłłáł¨
áł¦áł ¹
Ġáłªáł¦áł¯ áł¢áł¶áł¡áł¨
D P
áł³ áłłáłŃáł¤áł¯
Ġáł³áł£áłŃáł¢áł· áłłáł¨
Ġáł³áłłáłŃáł¤áł° áł¬áłłáłŃáł°áłłáł¨
Ġáł¨ áłłáłµáłłáłŃáłłáł¶
Ġáł®áłłáł° áł²
Ġáł¡áłª áł¦áłŃáł¡áł¨
Ġáł¬áł¤áłªáł¢áł¶áłłáł· áł¢áł¯áłłáł¯áł²áłł
Ġáł¬ áłł
Ġáł¦áłµáł¡áłŃáł¦áł¯ áł¦áłŃáł¦áł·
Ġáłª áł¢áł¶
Ġáł£áł¨áł£áł° áł¢áł¯áłłáł¨
Ġáłµáł¢áł± áł¢áłŃ
áł¨ áł³áł¡
i k
áł¡áłŃ áł¡áł°áł¦
Ġáł¬áł¦áł· áł¢áł¢
Ġáł¨áłłáł¢áł® áłłáł¯áłµáł¢
Ġáł¢áł· áł®
Ġáł¬áł¤áłªáł¢áł· áłłáłŃáł¤áł¯áł¤áł¯áł²áłł
Ġáł°áłłáłŃáłłáł· áł®áłłáłŃ
Ġáł³áł¤áł¯áłłáłŃáłłáł¯ áłłáłŃ
áł¢áł¯áł ¯áł¢áłŃ
Ġáł¤áł¨ áłłáł³áłłáłŃ
Ġáł³áł¦áłŃáł¦áł· áł¦áłŃáł°áł¡áł¨
áł¨ áłłáłµáł¤
ãĢ ĳ
Ġáł°áł£áł´áł¢áłŃ áłłáł®
Ġáł°áł¢áł·áł¬áłłáł² áł¤áłŃáł°áłłáł¨
Ġáł¹ áł¯áł£áł·
Ġáł³ áł¦áłŃáł¦áł®
Ġáł²áłłáł· áłłáł¬áłłáł¶
Ġáł´áł¤áł¬áł´áłłáłµáł¢áłŃ áł¤áł¯
Ġ4 6
Ġ **
áł¤áł¯áłµ áł¢
Ġáł°áł¤áł·áł¤áł¯áł´ áłłáł¨
Ġáł¢áł¯ áłłáł¬áł¤
ĠáłłáłŃ áł¤áł¶
Ġáł¨ áłłáł¬
Ġáłªáł¡áł¬ áł¢áł¯áł¡áł¯áł²áł¡
Ġáł¤áł·áł¤áł° áł¤áł¨
Ġáł²áł£áł©áłŃ áł£áł·
ar k
áł¤áł¬ áł´áł¢
Ġáł¬áłłáł¶áł¢áł· áłłáł²áłłáł¶
Ġáł´áł¡áłªáł¡áł· áł°áł¢áłŃ
ĠáłµáłłáłŃ áłłáł²áł¤áł¨
ï¸¾ áłĤ
Ġáł¬áł¡áłª áł²áł¡áłŃáł¡
Ġáł¥áłŃ áł¡áł³
Ġáł¬áł£áł¯áłªáł£áł¯áł³ áł¤áłŃáł°áłłáł¨
áł©áłŃ áł¡áł¨
Ġáł²áł¤áł° áł¬áłłáłµáł¤
Ġáł²áł£áł³áł£áł·áł¬áłłáł¶áł¢áł¯ áłłáł¨
Ġáł¥ áłªáł¥áł·
Ġáł¨áł¡áł·áłª áł¡áłŃáł³áł¡áłŃáł°áł¡áł¨
Ġáł±áłłáłŃáłłáł·áł³ áłłáł³áłłáłŃ
áł¬ áł¡áłŃáł¦áł·
Ġáł¬áłłáł¬ áł¢áł·
Ġáł£áł¨áł£áłªáł´ áł¢áł²áł¤
Ġáł« áł¦áł°
Ġáł¢áł· áł¥áłŃ
Ġáł¨áłłáł¶áł¢áł· áłłáłŃáł¤áł¯áłŃ
Ġáł³áł£áł ©áł°
Ġáł¬áł¦áł· áł³áł¡áł¬áł¦
Ġáł°áł£áł¨ áł£áł·
áł¤ áł¤áł¯
ĠI C
Ġáł´ áłłáł³
Ġáł¬áł¡áł ©áłŃ
Ġáł´áł¤áł¬áł´áłłáłµáł¢áłŃáł¤áł¯ áł¤áł¬áł°áłłáł¨
Ġáł¤áłª áł¤áłŃ
âĢ ²
Ġáł¨áł¡áł· áł¡áł¬áł¦
Ġáł°áł¢áł·áłŃ áł¤áł¯áłµáł¢
O C
Ġáł¢áł¯áłŃ áłłáł·áłłáłŃáł¤áł¯áł¤áł¨
Ġáł°áł¦áł· áł¯áł¢áłŃ
Ġáł¨áł¢áł© áłªáł¦
Ġáł¦áł¢áł¯ áł¡áł³áł¬áł¡áł¯
Ġáłµáł¥áłªáł°áł¢áł¶áł¡áł· áł¡áłµáł¦
Ġáłªáł¤áł´áłłáł¯áłŃ áłłáłŃáł°áłłáł¨
áłµáł¢áłŃ áł¤áł¯áłµáł¤
Ġáł®áłłáł· áł±áłłáł¯
Ġáł¬áł¤áł·áłłáł®áł³ áł¤áłŃáł¤áł¯áł¬áł¤
Ġáł°áłłáł¨ áłłáł®áł°áłłáł·
áł¡áłŃ áł¦áł¶
áł¤áł¯ áłłáłŃáł°áłłáł¨
Ġáł®áłłáł¨ áł²
Ġáł ¿
Ġáł¡áł© áł¬áł¡
Ġáł¤áł¨ áłłáłµáł¤
Ġáł´áł¤áłŃáł¯ áłłáłŃáł¤áł¯áł¤áł¨
Ġáł·áł£áł® áłłáł¨áł²
Ġáłºáł¦áł¨ áł®áł¢áł©
áł¬ áł¥áł·áł¢áłŃ
Ġáł¶áłłáłª áł¤áł¨
) áłĤ
Ġáł° áł¡áł´áł¡áł¨
Ġáł²áł£áł® áł£áł·
Ġáł¬áłłáł·áł°áł¢áł¯ áłłáł¯
Ġáł³áł¡áł¯áłŃáł¡áł· áł¡áłŃáł¦áł¯áłµáł¦
Ġáłłáł³áłłáł¯áł¢áł³ áł¬áłłáł¬áł¤
Ġáł²áł£áłŃáł² áłłáł¬áł¤
Ġáł¬áł¡áł®áłµáł¢áłŃ áł³áł¡áł¬áł¦áł¨
Ġáł¢áł¯áł¡áł· áł¡áłŃáł¦áł¯áł¦áł¨
áłŃ áł¡áł·
Ġáł¡áł·áł¡áł¯áł¬áł¡áłŃ áł¯áł¡áł¨
ĠáłªáłłáłŃ áł´áłł
Ġáł² áł¤áłªáł¤áł¢
Ġáł£áł¨áł´ áłłáłŃáłłáł¢
áłłáł¯ áł¢áł¶áłłáł¨
Ġ8 5
áł¤áł° áł¢áł·
Ġ200 7
Ġáł¤áł¨ áłłáłŃáł°áłłáł¨
áłłáł¯ áłłáł³áłłáłŃ
Ġáł¡áłŃáł¦áł° áł¬áł¡áłŃáł¦áł·
Ġáł¬áł¥áł®áł¥áł· áłŃáł¡áł¯
Ġáł¤áł®áłłáł· áłłáł°áł¢
Ġáł°áłłáł·áł¨áł¢áłŃ áł¤áł¯áł¬áł¤
Ġáł« áł¢áł¸áł¤
Ġáłªáł£áł¯ áł£áłŃáłłáł³
p t
Ġáłªáłłáł² áł¤áł²áłłáł¶
Ġáłłáłª áł¤áłªáłłáł¯
Ġáł¤áł·áłª áłłáł¯áłµáł¢
áł¬áł¡áł¯ áł¢áłŃ
Ġáł²áłłáł° áł¤áł¯áł³
ĠáłłáłŃáł¤áł° áł¬áł¤
Ġáł³áł¥ áł´áł¢áł¨
Ġáł¡áł·áłŃáł¢áł¯áł³ áł¦áł¬áł¦
Ġáł¥áłŃáł´ áł¡áłŃáł¡
Ġáł¥áł© áł¬áł¥áł·áł¢áłŃ
Ġáł¥áł° áł¦áłŃáł°áł¡áł¨
Ġáł¡áł·áł¬áł¢áł® áł°áł¦áłŃ
Ġáłªáł¥ áł¬áł¡áł¯áł¢áłŃ
ĠáłŃáłłáł© áł¨áłłáł¨
Ġáł® áł¡áł¯áł¡áł¬áł¡áł¶
Ġáł²áł¦áł·áł¦áłŃ áł¦
Ġáł°áł¢áł¶áł¦ áł¢áł©
áł« áłłáł©
Ġáłµáł¢áłŃáł¤áł¯áł´ áł¢áł¯áłłáłŃáł´áł¢áł³
Ġáł¡áłŃáł¦áł·áłŃáł¡áł¯ áł¡áł¨
p h
Ġáł²áłłáłŃ áł²áł¤
Ġáł²áł¡áł®áł¡áł´ áł¡áłµáł¦
Ġáł³áł¡áł©áł° áł¡áł¯áł¡áł¯áł²áł¡
Ġáł³áł¤áłŃáł¤áł¶áł¢áł¯ áłłáłªáł¤áł·áł¢
Ġáł°áłłáł· áłłáłŃáł¤áł¯
Ġáł¤áł¯áłłáł®áłµáł¢áł¯ áłłáł¬áł¤
ĠáłªáłłáłŃáłłáł° áł´áł¤
Ġáłµáł£áł· áłŃ
Ġáł²áł¦áł¯áł¬ áł¢áłŃáł¦áł·
Ġáłłáł´áł¢áł¶áłłáł¯ áłłáłªáł¤áł·áł¢
Ġáł³áłłáłŃ áłłáłŃáłłáł¯áł²áłł
Ġáł¬ áł¦áłŃáł¡
Ġáł¤ áł¤
Ġáł¨ áłłáł©áłŃ
Ġáł¬áł¥áł©áłŃ áł¡áłµ
áł¡áł ¬áł¤
Ġáł¸ áł¸
Ġáł¨ áłłáł¯
áł¯ áłłáłŃáł¤áł¯áł¬áł¤
Ġáłªáł£áł¯áł²áłłáł¯ áłłáł¬áł¢
ĠáłŃáłłáł´ áł¢áłŃ
3 7
Ġáł°áł¦áłª áł¡
Ġáł¬áł¡áł¯áł¡áł¯áł´ áł¡áłŃáł¡
Ġáł¬áł¥áłŃ áł¡áł°
e e
Ġáł² áł¡áł¨áł¡áłŃ
Ġáł¦áłµ áł¡áł¯áł´
Ġáł¦áł· áł¦áłµáł¦
Ġáł¦áł¢áł¯áł¡áł´áł¢áł¯ áł¡áłµáł¦
Ġáł± áł£áł£
or t
Ġáł¬áłłáł·áłłáł®áł° áłłáł¯áł²áłłáł¶
Ġáłª áł¦
Ġáłłáł·áłª áł¢áł¯áłłáł¨
áł® áł¤áł°
Ġáł¤áł¶áłłáł¯áł³áł¤áłŃ áł¤áł¯áł¤áłŃáł°áłłáł¨
Ġáł²áł¤áł¯áłŃ áłłáł·áłłáłŃáł°áłłáł¨
Ġáł¬áł£áł· áł¸
ĠáłµáłłáłŃ áł¤áł°áł¢
Ġáł¦áł¯áł¡áł³ áł¡áłµáł¦
Ġáłªáł¥áłŃ áł¯
áł° áł¡áłł
Ġáł® áł¤áł¯áł²
Ġáł¬áł¡áł²áł¦áł¶áł¢áł³ áł¦áłŃáł°áł¡áł¨
Ġáł«áł¢áł© áł«áłłáł©
Ġáł²áł£áł ¶áł¢áł
Ġáł²áł¤áł® áł¦
Ġáł¬áłłáłªáł° áł¤áł·áłŃáłłáł¨
Ġáł¨áł¥áłŃ áł¡áł´áł¡
Ġáł³ áłłáł¨
áł°áł¢áł¯ áł¡áłµáł¦
Ġáł¬áłłáłªáł° áł¤áł·áłŃ
Ġáł¬áł£áł¯áłªáł£áłŃ áł³áłłáłµáł¤
Ġáł¤áł³áł¤áł·áł¢áł³ áł¤áłŃáł´áł¢
Ġáł± áł£áł·
Ġáł¬áł¤áłªáł¢áł¶áłłáł¯áł´ áłłáłµáł¤
Ġáł°áł£áł¯áł¢áł¯áł´ áłłáłµáł¤
Ġáł®áł£áł· áł¢áł²áł¤
Ġáł£áł¶áł¢áł·áłłáł³ áł¬áł¤
áł© áł¬áł¡
Ġáł¤áł¯ áłłáł¶áł¢áł
Ġáłµáł¡áłŃ áł¦áłµáł¦
Ġáł¬áł¥áłŃáłµáł¢áłŃ áł¡áłµáł¦
Ġáł²áł¡áłŃ áł¡áł¬áł¦
Ġáłªáł¢áł¯áł¬ áłłáł®
Ġáłłáł° áł¬
Ġáł°áł¡áłŃáł¦áł³áł¡áł· áł¯áł¡áłŃáł°áł¡áł¨
ĠáłŃáł£áł® áł£áł³áłłáł¯
Ġáł¦ áł©áłŃáł¡áł¨
Ġáł£áł¨áł£áłª áł´áł¢
áłłáł® áł¤áł¶
ï¹ Ģ
ĠáłŃáł¦áł¨áłµáł¡áłŃáł¡áł¶áł¢áł· áł¡áłŃáł¦áł¯áłµáł¦
! ãĢĭ
Ġáłªáł¢áł´áł¢áłŃ áł¯áł¡áł¯
áł° áł¤
áłŃ áł¤áł¨
Ġáł®áł¥áł· áł³áł¡áł¨
Ġáł¬áł¤áłªáł¢áł¶áłłáł· áł¢áł¯áłłáł¯
áł¢áł¯ áł¢áł¬
Ġáł¡áł· áłª
Ġáłµáł¤áłŃáłłáł´ áłłáł¨
Ġáł¡áł·áł¡áłŃ áł¡áł¯áłµ
ĠáłŃáłłáł¨ áł°áł¦
Ġ19 8
Ġáł°áł¢áł·áłª áł¢áł¯áł²áł¡
Ġáł¬áł¦áł´áł¢áł·áł³ áł¡áł¯áł²áł¡áł¶
I M
Ġáł¥áł·áł¨ áł¢áł¯áł²áł¡
Ġáłłáł®áł¢áł°áł¬ áł¤áłŃ
Ġáłłáł·áł¢áł¶ áłłáł²áłłáł¨
áłłáł· áłłáłŃ
Ġáłªáłłáł¶áłłáł· áł¯áłłáłµáł¤
ĠáłµáłłáłŃáłłáł¯áł³ áł¤áłŃáł´áł¢
Ġáłłáłª áł¤áłªáłł
Ġáł´áł¥ áł©
Ġáł°áł£áłŃ áł²áł£áłŃ
4 8
ac k
Ġáł°áł¸ áł¢áł°
Ġáł¡áł·áł¦áł³ áł¡áł°áł¦
Ġáł¡áł®áł¬ áł¢áł³áł¬áł¡áł¯
Ġáłµ áł¢áł³
Ġáł¦áł¢áł¯áł¡áł´áł¢áł¯ áł¡áł¯
Ġáł¬áł£áł¯áłªáł£áłŃ áł³áłłáł¨
´ áłł
áł´áł¢ áł¢
Ġáłªáł¤áłµ áłłáłŃáłłáł¶áł¢áł·
Ġáłµáł¡áł·áłŃáł¡áł´ áł¡áłŃ
áł¡áłŃ áł¦áł³
Ġáł¬áłłáł© áł¬
Ġáłµáł¡áł·áłŃáł¡áł´áł¡áłŃ áł¡áłªáł¡áł·
áł¦áł º
Ġáł¬áł¦áł·áłŃ áł¡áł¶
Ġáł¡áł® áłŃáł¡áł¨
Ġáł¹ áłłáł¯áłłáł¨
Ġáłłáł¯áł ´
Ġáł£áł¨áł£áł° áł¢áł¯áłłáł¯áł²áłł
Ġáł¬áł¡áłª áł´áł¢áł¢
áłŃ áł´áł¢
Ġáł¡áł°áł¡áł·áłŃáł¦áł´ áł¡áł¯áł³
ĠáłłáłŃáł¤áł· áł¬áłłáł¢
Ġáł´áł¡áłŃáł¡áłµ áł¢áł¨
ec t
Ġáł°áłłáłŃ áł¤áłŃáłłáł³
Ġáł¢áł°áł¦áł¯áł³ áł¦áł¬áł¦
Ġáł´áł¢áłŃáł¯ áł¡áł¯áł²áł¡
Ġáł¢áł¯ áłłáłŃáł³áłłáł¯
Ġ200 6
Ġáł´áł¢áł¨áłłáłŃáł°áł¢áł¯ áłłáłŃáłłáł³
Ġáł¡áł®áł¬ áł¢áł³áł¬
Ġáł¦áł¬ áł¦áł¬áł¦
Ġáł¶áł¡áł· áł¦áł¨áł¢
Ġáł²áł¡áł©áł´ áł¡áł¨
Ġáł²áł¤áł·áł° áł¢áł³áłł
Ġáł´áł£áł¬ áł¢áł¯áłŃ
áł¤áł³ áł¢
Ġáłªáłłáł¶áł¢áłŃ áł¤áł¯áłªáłł
ĠãĢ Ĳ
Ġáł£áł¨áł³ áł£áł¸
Ġáł® áł¢áł¯
Ġáł¨áł¢áł³ áł¤áł·áłŃ
Ġáł´áłłáł· áł³áłłáłŃáł¤áł¯
Ġáłłáłªáłłáł´ áł¢áłµáł¤
áł¡áł¬ áł¦áł¶áł¢áł
Ġáłłáłª áł²áłłáłŃ
â Į
ow s
Ġáł£áł °
Ġáł³áł£áłŃ áł°áł¢áł¨
Ġáł³áł£áł² áł£áł¯
ĠáłŃáł¦áł· áł¦áłŃáł°áł¡áł³
E M
Ġáłªáł¦áł° áł¡áł¨
Ġáłªáł£áł³áł£áł¯áł¬ áł¢áł¯áłłáł¯
áł¢áł¯ áłłáłªáłłáł¯
Ġáł²áł£áł¶áł¢áł ®
Ġáł¨áł¢áłŃ áł¤áł¨
Ġ z
Ĺ ı
Ġáłªáł£áł¯áłµ áł£áł
ĠS p
áł¤áł¯áł¬ áł¤áł¨
ĠáłŃáł¡áł·áł¡áł´áł¢áł¯ áł¡áłµáł¦
ĠV R
Ġáł¬áł£áł¸áł· áł²áł¤
Ġáł®áł¤áł¯áł² áł¤áł·
Ġáł¥áł©áłŃáł¡áł· áł¡áłŃáł¦áł¯áł¦áłŃáł°áł¡áł¨
Ġáł¬áłłáłª áł¢áł·
Ġáł³ áł¢áłŃ
Ġáł¬áł¤áł³áłłáł¯áł³ áł¤áłŃáł´áł¢
ĠáłłáłŃ áł¤áł¯áł¬áł¤áł¨
®áłª áł£
Ġáł« áł¢áł¯áłł
áł¸ áłłáł¨
9 8
Ġáłªáł£áł ®áłªáł£
Ġ l
Ġáł¡áł·áł¬áł¢áł¯ áł¡áłŃáł°áł¡áł¨
Ġáł± áł¦áłŃáł¦áł·
Ġáł¥ áł²
Ġáł®áł¡áł³ áł¡áłŃ
Ġáł¡áłŃáł¦áł³ áł¦áłŃáł´áł¢
Ġáł¬áłłáłŃ áłłáł¯áł²áłł
áł¡áł° áł¢áł¶
Ġáł°áł¦áłªáł¡áłŃáł´áł¢áł¯ áł¡áł¨
Ġáłª áł¤
áł£áłŃ áł¢
áłłáł¯áł³ áł¤áł¯
Ġáłµáł¢áłŃáł¦áł· áł²áł¡áł¨
áł¢áłŃ áł´áł¢
? ãĢĭ
6 8
Ġáł° áł¡áł¶áł¢áł
Ġáł³áłłáłŃ áł¤áł´áł¢áł¨
Ġáł¶áłłáł¯ áłłáł²áł¤
Ġáł¢áł¯áł¡áł³áł¬ áł¡áł¨
Ġáłµáł¥áł·áł¢áł´ áł¡áł¨
Ġáł¦áł¢áł¯áł¡áł´áł¢áł¯ áł¡áłŃáł´áł¢
D A
G B
áł° áł¢áł¯áł³áłł
Ġáłªáł£áł¯áłªáłłáł°áł¤áł· áłłáłŃáł¤áł¯áł¤áłŃáł°áłłáł¨
Ġáł¬áł¤áłªáł¢áł·áłłáłŃ áłłáłŃáł¤áł·
Ġáł¬áłłáłª áł´áł¢áł¯
Ġáł¡áł·áłŃ áł¦áłŃáł¦áł¯
Ġáł¬áłłáł¯áłłáł®áłµáł¢áł¯ áłłáł¯
Ġ ÃĹ
Ġáłµáł¢áł·áł¤áłŃ áł´áł¢áł¨
áł¡áłŃáł¡áł¯ áł¢áłŃ
Ġ4 3
P C
Ġáł£áłŃáł² áł£
áł³ áłłáłŃáł¤áł¯áłµáł¤
0 1
Ġáł¬áł£áł¯ áłłáł¨áł³
Ġáł² áł¸
Ġáł¸áł¢áł¶ áł§áł²
Ġáł¬áł¦áłµ áł¦áłŃáł¦áł¨
Ġáłµáł¡áł·áłŃáł¡áł´ áł¡áłŃáł¡
Ġáł´áł¢áł¬áł¤áł¯áłłáł´áł¢áł¯ áłłáł³áłłáłŃ
Ġáłªáł£áł³áł£áł¯áł¬ áł¢áł¯áłłáłŃáł°áłłáł¨
Ġáł£áłŃáł² áł£áł¯áł
Ġáł°áł¢áł¬ áłłáłŃáł¤áł·
Ġáł¤áłŃáł¯áłłáłŃáł¤áł· áłŃ
áłµ áłł
Ġáł¥áł· áł¥
áł¤áł© áł¬
Ġáł²áł¦áł° áł¢áł®áł¡áł¯
Ġáł¬áł¥áłŃáł¡áłŃáł¡áł´áł¡áł¯áł³ áł¦áł¯
Ġáł´áł¢áł¨ áłłáł¬áł¤
Ġáł¡áł¯áł ´áł¢áł¨
Ġáłłáł·áłª áłłáł³áł¤áłŃáłłáł·
Ġáłłáł· áłłáłª
Ġáł¬áł¥áł³áł¡áł¯áł®áł¦áł· áł¢áł´áł¢áł¨
Ġáł¢áł¨ áł´
Ġáł°áł¦áł· áł²áł¦
Ġáł¬áł¦áłµáł¦áłŃ áł¦áł¦
Ġ4 2
Ġáł´áł¢áł¬áł¤áł¯áłłáł´áł¢áł¯ áłłáłŃáł°áłłáł¨
áł¹ áł¸áł¢
Ġáł¨ áł¤áł®áł¤
Ġáł³áł¤áł² áłłáłŃ
Ġáł²áł¡áłŃ áł¡áłŃáł¡áł³
ĠáłŃáłłáł´ áłłáłŃáłłáł¨
áł£áł· áł¬áłłáłŃ
Ġáł²áł¡áł®áł¡áł´ áł¡áłŃáł¡áł¨
Ġáł°áł¢áłª áłłáłŃáł¤áł¨
áł¡áł¬áł¦áł¶áł¢áł ´áł¡
áł® áł¢áł¨
O N
Ġáł¬áł£áł·áł£áł° áł¤áł¯
áł£áł £áł·
Ġáł´áł¢áł¨ áł¡áłŃáł¡áł¯áł¢áłŃ
Ġáłµáłłáł³ áłłáł·áłłáłŃáł¤áł¯áł¬áł¤
Ġáłªáł£áł¯áłµáł£áł ¯áł²áł¤
Ġáłµáł£áł¬áł¢áł´ áłłáłŃáł¤áł¯áłµáł¤
Ġáł¤áł·áł¤áłŃ áł°áł¢
Ġáł¬áł¢áł¨ áłłáł®áłłáłŃáłłáł¢
áłłáł± áł§áł©
Ġáł³áł£áłŃáł¢áł· áłłáłŃáł¤áł¯áł¬áł¤
Ġáł²áłłáłŃ áł¯áłłáł¨
Ġáł²áł£áł³áł£áł· áł¬áłłáł¢
Ġáł®áł¤áł·áł¤áł¶áł¢áł ¯áł²áłł
Ġáł¬áłłáł·áłŃ áł¤áłŃáł¤áł¯áłµáł¤
Ġáł´áł¡áłŃáł¡áłµ áł¢
Ġáł´áł¤áłŃ áł´
n e
Ġáł£áł·áł£áł¯ áłłáłŃáł¤áł¯áłµáł¤
ĠL in
Ġáł¥áł° áł¢áł¶
Ġáł£áł·áł£áł¯ áłłáłŃáł¤áł¯áł¬áł¤
Ġáł±áł¤áł¸ áłłáł°
Ġáł±áł¤áłŃ áł¤áł¬áł¤
Ġáł¹ áł¢áł¯
Ġáł¬áłłáłŃ áł¤áł¯áłªáł¤áł·áł¢
Ġáł¤áł¨áł² áłłáł¯áłŃ
Ġáł¤áł·áł¢áł³ áł´áł¢áł¯áłłáłŃáł°áłłáł¨
Ġáł¬áł¡áł´ áł¡áłŃáł¦áł¦
áł´ áł¢áł¬áł¤
Ġáł³áłłáłªáł² áłłáł¯áł²áłł
Ġáł¡áł·áłª áł¡áł¬áł¡áł¶
Ġáłªáł£áł° áł´áł¤
Ġáł£áł®áł²áł£áłŃáłłáł¶áł¢áł¯ áłłáłµáł¤
Ġáłłáł°áłłáł· áłłáł¨
Ġáł®áł¡áł·áłŃ áł¡áł³
ĠáłŃáł¥ áł¶
áł¥áł³ áł¡áł¯áł³áł¦
ĠáłŃáł¥áł¶ áł¥áł³áł¡áł¯áł³áł¦
Ġáłłáł³áł¬ áł¤áł¨
Ġáł³áł¡áł·áłŃ áł¡áł³áł¡áł¬áł¢
áłłáłŃáłłáł¯ áłłáł°áł¢
áł¡áł ¶áł¢áł¨
Ġáł±áł¦áł·áłŃ áł¦áłŃ
Ġáł¬áł¥áł® áł¥áł°
Ġáł´áł¢áł¬ áł¢áłŃ
Ġáł± áł¸
Ġáł¬áł¢áł´áł¢áł¶ áł¡áł©áłŃáł¦áł¶
Ġáł¦áł¯áł¡áł³ áł¡áłŃáł¡áł¨
Ġáłłáł¶áł¤áł¯áłŃ áł¦áł¢
Ġáł°áłłáłŃáłłáł² áłłáłŃáł¤áł¯áł¬áł¤
Ġáł³áłłáł·áłłáłŃáłłáł¯ áłłáłªáłłáł¯
Ġáł²áł£áł® áł¢áł¯áłłáłŃáł°áłłáł¨
Ġáł¬áł¦áł´ áł¢áł¯áł¯áł¢áłŃ
Ġáłµáłłáł³ áłłáł·
áłłáł³ áł¢
Ġáł³áł£áł¬ áł¢áł¶áłłáł¨
Ġáł²áł¦áłŃ áłµáł¢áł·
Ġáł²áłłáł¤áł¯ áłłáł¢
Ġáł¥áł· áł¢áł²
ĠW eb
Ġáł¬áł¢áłµ áłłáłŃáłłáł¯áłłáł°áł¢
Ġáł¬áłłáł·áłª áł¢áł¨
Ġ4 4
µ áł¢
Ġáł´áł¢áł©áłŃ áłłáł·áłłáłŃáł¤áł¯áł¬áł¤
Ġáł°áł¢áłŃ áł¤áł¢
ĠáłªáłłáłŃ áłłáł·
Ġáł¾áł¯áł£áł· áł²áł¤
Ġáł¡áł¯áł° áł¡áł¨
Ġáł²áł¤áł¯áłŃáłłáłŃáł¤áł· áł¢áł¯áłłáł¯
T C
Ġáł¨áłłáł® áł¤áłŃ
Ġáł¦áł¨ áł¡áł°áł¦
Ġáł¤áł¤áłŃ áł¤áłªáłłáł¯
Ġáł°áł¡áł¯ áł¡áłŃáł¦áł¨
áł¤áłŃáł³ áłłáł¬áł¤
Ġáł²áłłáłŃ áł°áł¢áłŃáł¤áł·
Ġáł¬áłłáł¶áł¢áł· áłłáł²áł¤
Ġáł¨áł¤áł² áłłáł¯áłłáłŃáł°áłłáł¨
ĠU S
áł£áł¬ áłłáł±áł§áł©
Ġáł¬áł¡áł·áł¡áłŃáłµáł¢áłŃ áł¦áł¯áł¦áł¯áł²áł¡
Ġáł£áł ¯áłªáłłáł¯
Ġáł¬áłłáł¶áł¢áłŃ áł¤áł·
Ġáł²áł¤áł¬áł¢áł· áłłáł¨
áłłáł¢ áł¨
a st
Ġáł®áłłáł¬áłłáł¯ áłłáł¶
ĠáłŃáł¢áł· áł¢áł¨
áł¯ áłłáł³áłłáłŃ
áł¢áł¯áł² áłłáłŃ
Ġáł¬áłłáł¨ áł¤áł®áłµáł¢
Ġáł¬áłłáł¶áł¢áł· áłłáł¯áłłáłµáł¤
Ġáł² áł¡áł¡áłŃ
Ġáłªáł¤áł¯ áł¤
7 8
Ġáł¨áł¢áłŃáł¦áł¯áł¡áł° áł¦áł©áłŃáł¦áł¶
Ġáł¡áł®áł¨ áł¡áłŃáł¦áł¯áł¬áł¦
s e
Ġáłªáł£áł¯ áł¤áłŃáł°áłłáł³
áłłáłµ áł¢áłŃáł°áłłáł¨
áł«áł¢áł· áł²
P I
Ġáłªáł¤áł³ áł¤áłŃáłłáł³
Ġáł¬áł£áł¯ áł¢áł´áłł
Ġ11 0
Ń áł°áłłáł¨
Ġáł¡áł·áłŃ áł¦áłŃáł¦áł·
Ġáł¤áł¶ áł¤áł¯áł¢áłŃ
Ġáł¨áł¡áłŃáł¡áłŃáł¡áł¯áł² áł¡áł²áł¦
Ġáł´ áł¢áł«
ĠáłŃ áłłáł¯áłª
áł¡áł¯áł²áł¡ áł¢
Ġáł¢áł® áłłáł¬áł¤
B S
Ġáł¬áł£áł· áłŃ
ĠáłŃ áł¦áł¸áł¸
Ġáł¨ áł¢áł¯áł²áłłáłŃ
áłłáł¯áłª áłłáłŃ
Ġáł¯ áł£áł¬áłłáł±áł§áł©
Ġáł¨ áłłáłŃáłłáł¯áł²áłł
Ġáłµáł¢áł·áł¤áłŃ áłłáł°áł¤áł¨
Ġáł°áł¡áłŃáł¦áł³áł¡áł· áł¯áł¡áł¨
ĠC l
ĠáłłáłŃáł¤áł· áł°áł¢áłŃ
Ġáł¨áł£áł´ áł£áłŃ
Ġáł³áł¤áł·áłłáł³ áł¤áłŃáł¤áł°áł¢áł²áłłáł¶
áł¶ áł¤áł¸áłłáł¨
Ġáłªáłłáł¶áł¢áł¯áłŃ áłłáł¨
q u
áł¦áł¯áł²áł¡ áł¢
ind ows
ĠáłªáłłáłŃ áł¤áł¤
Ġáłµáł¢áł³ áł¬áł¦áł¯
Ġáłªáł¤áłŃáł¤áł³ áłłáł¢
Ġáł°áł¡áł· áł¡áł¯áłµ
Ġáł¨áłłáł· áł¢áł¯áł¢áł¬
Ġáł¬áł¤áłªáł¢áł· áłłáłŃáł¤áł¯áł¤áłŃáł°áłłáł¨
Ġáłªáł¦áł·áł¢áł³ áł¦áłŃáł¦áł¯áł¬áł¦
L C
Ġáłªáł¤áł³áł¤áłŃ áł²áł¤
Ġáł²áł¦áł· áł¢
i p
Ġáł²áł¡áł©áł´áł¡áłŃáł¦áł· áł¢áł²áł¡áł¶
Ġáłłáł¯ áł¢áł®
Ġáł¬áł£áł¨ áł¢áł¨
áłłáł¯áł ¸
Ġáłªáł¤áł· áł¤áłŃáł¤áł³
Ġáł²áłłáł²áłłáłªáł¤áł· áł¢áł¯áłłáł¬áł¤
Ġ200 5
Ġáł° áł«áł¢áł·áł²
Ġáł¥áł·áłŃ áł¡áł°áł¦
Ġáłªáł¦áł· áł¢áł¶
Ġáłłáł¬áł¤áł¶áł¢áł¯ áłłáł¯áł²áłłáł¨
Ġáłłáł· áł¢áł¯áł
Ġáł³áł¡áłŃáł¡áł³ áł¦áł¯áł¡áł¬áł¦
Ġâ Ĺı
Ġáłłáł·áłŃáłłáł´ áłłáłµáł¤
ĠáłłáłŃ áł¤áł¯áł¬áł¤
i es
ĠáłŃáł¤áł¨ áł¢áłŃ
u d
Ġáłªáł¦áł·áł¢áł¯áł³ áł¦áłµáł¡áł¶
Ġáł°áł¡áł¯áł¡áłŃ áł¦áł¦
Ġáłµáł¥áłŃáł¡áłŃ áł¡áłªáł¦áł·áł¢
Ġáł¨áłłáł° áł¢áł¬áł¢
h t
Ġáł¦áłµ áł¡áłŃáł³
Ġáł³áłłáłªáł² áłłáł¬áł¤
Ġáłªáł£áłŃáł£áł¨ áł¢áł°
Ġáłłáł¯áł´ áł¢áłŃáł¤áł·
ĠáłŃáł¢áł¯ áłłáł¶áł¢áł
áł¢áł¯ áłłáłªáłł
Ġáł¨áł¢áł° áł¦áł¯áł²áł¡
Ġáł® áł¦áł¸áł¸
ĠáłłáłŃáł¤áł° áł¬áłłáł¨
Ġáłªáłłáł·áł¢áłŃ áł¤áł¯
Ġáł¨áł¤áł² áłłáł¯áłłáł¯áł²áłł
Ġáł¡áł¬áł¢áł¯ áł¡áłŃáł¦áł¯áł¦áłŃáł°áł¡áł¨
Ġ202 5
Ġáł¡áł¯áłŃ áł¦áłŃáł¦áł·
Ġáł¨áł¢áłŃáł¡áł³ áł¦áł¯áł²áł¡áł¢
Ġáłªáł¤áł² áłłáł·áł¬áłłáł¶
áł° áł¢áł®áł¡áł¯
áł¯ áłłáłŃáłłáł³
Ġáł¤áł·áł¤áłŃ áł¤áł¯
Ġáł¤áł©áł°áł¢áłŃ áł°áłłáł¨
R P
Ġáł§ áł¨
Ġáł¡áł®áł¡áłŃ áł²áł¡áł¢
Ġáłªáł£áł ±
Ġáł´ áł£áł¯áłŃ
áł¡áłª áł´áł¢
3 1
Ġáł³áł¡áł¯áłª áł¡áłŃ
Ġáł¦áłµ áł¡áł®áł¡áłŃáł´áł¡
Ġáł°áł¢áł¯áłµ áł¢áłµáł¦
Ġáł°áł£áł¯áł¢áłŃ áł³áłłáł¯
Ġáł²áł¤áł¯áłŃ áłłáł·áłłáł¬áł¤
Ġáł¦áł¢áł® áł¡áłŃáł¡áł¨
Ġáł°áł¢áł² áłłáł¬áł¤
Ġáłªáł£áł¯áłªáłłáł°áł¤áł· áłłáłŃáł¤áł¯áł¤áł¨
Ġáł¨ áłłáłŃáłłáł¬áł¤
Ġáł¬áł¥áł·áł¥áłŃ áł¡áłŃáł¦áł·
áł¢áł° áłłáł³
Ġáł¢áł¯ áłłáłŃáł³áłłáł¬áł¤
Ġáł¬áł¤áłªáł¢áł¶áłłáł· áł¢áł¯áłłáł¬áł¤
Ġáłªáłłáł¬ áłłáł²áłłáł¶
Ġáł¡áłªáł³áł¡áł· áł¡áłµáł¦
Ġáł¤áł° áł¤áł¯
áłª áł·
áł´áł¤ áł¤
Ġáłªáł¦áł·áł¢áł¯áł³ áł¦áł¯
Ġáłªáłłáł¶ áłµáł¤
Ġáł¥áł¨ áł¢áł³áł¡
Ġáłłáł¯áł³áłłáł· áł°áł¢áłŃáł°áłłáł¨
Ġáł²áłłáł² áłłáł³áłłáłŃ
Ġáł²áł¤áł° áł´áł¤
Ġáł´áł¢áł¶ áł¦
Ġáł¨áł¤áł² áłłáł¯áłłáłµáł¤
Ġáł¹ áł¦áł²
Ġáł¶áłłáłª áł¤áłŃáł¤áł¯áł¤áłŃáł°áłłáł¨
Ġáł¨áłłáł· áł¢áłª
Ġáł¢áł·áł¥áłŃ áł¡áł¶
Ġ r
Ġáłªáł¤áł´ áłłáł¯áł²áłł
áł¦áł¯áł³ áł¦
Ġáłµáł£áł·áł¢áłŃ áł²áłłáł¢
lo g
Ġáł¬ áł¤áł´
Ġáł² áł¤áł¯áłµáł¤
ĠáłŃáł¦ áł¢áł¬áł¡áł¨
ĠáłªáłłáłŃáłłáł²áł¤áł· áł¯áł¢áłŃ
Ġáł¬áł¤áłªáł¢áł¶áłłáł¯áł´ áłłáł¬áł¤
Ġáł³ áł¡áł¯áł¢áłŃ
áłłáł³ áł§áł®
Ġáł¨áłłáł¨ áł¤áł®áł¸áł²
ĠáłłáłŃ áł¤áł´áł¢áł¯
Ġáł¬áł¦áł¯áł¢áł´ áł¡áł©áłŃáł¦áł¶
Ġáłµáłłáł¯áłŃ áłłáł¯áł³áł¤áłŃ
áł¡áł¯áł ¯
áłłáł³áł§áł® áł¢áł´áł¢
Ġáłµáł¥áł©áł¨ áł¡áł¯
ĠE S
ĠA r
Ġáł¨ áł¢áł¶áłłáł¨
Ġáł¢áł¯ áłłáłŃáł°áłłáł¨
Ġáł²áł£áł° áł£áł¯áł¢áłŃ
áłłáłŃáł³ áłłáłªáłłáł¯
Ġáł£áł·áł´áł¢áł® áł¬áłłáł¨
Ġáł¬áł¢áł¯áłŃ áł¡áłµáł¦
Ġáł¡áłªáł¡áł³ áł´áł¢áł¯áł¡áł¬áł¦
al l
Ġáł¨áł¥áł¬áł¥áłªáł¥áł· áł¢áł¯áł¡áł¨
I P
Ġáł¹ áł¦áł¸áł¸
Ġáł¬áłłáł° áł¢áł¶
Ġáł¡áł·áłŃáł¢áł´ áł¡áłŃáł¦áł¯áł¦áł¯
Ġáł°áł¥ áł°áł¥áł¨
Ġáł²áłłáł· áł¬áłłáł¬áł¤
Ġáł¬áł¤áł¸áłłáł· áłłáł¨
Ġáł¡áłµáł¡áł®áł°áł¢áłŃ áł°áł¡áł¨
áłµáł¢áł¯ áł¡
áł³áł¡áłŃ áł¦áł¯áł¬áł¦
áł¸ áł®
Ġáł¡áł®áł¬áł¢áł¯ áł¡áłµáł¦
Ġáłµ áł£áł³
Ġáł°áł¢áł¨ áł¬áł¤áł¸áłł
Ġáł²áł¦áł·áł¦áłŃ áł¦áł¯áł¡áł¨
ĠáłŃ áł¡áł¯áł³
Ġáł²áł¡áł®áł³áł¡áłŃ áł¯
Ġáł¤áł¢ áł¢áł¯
Ġáłłáłº áłłáł³áł§áł®áł¢áł´áł¢
3 4
áł¡áł¯áł °
Ġáł¸ áł¸áł¢
áłłáłŃ áł°áłłáłŃáłłáł·
i o
Ġáł² áł¡áł®áłµ
áł£áł´ áłł
Ġáł³áłłáłªáł° áł¢áł¬áł¤
Ġáł´áł¥áłªáł¥áł·áł¢áłŃ áł¦áł¦
Ġáł¬áłłáł®áłµáł¢áł¯áł´ áłłáłµáł¤
iv e
Ġáł²áł£áłŃ áłłáł¯
Ġáłªáł¦áł³ áł¦áł·
Ġáł¨áł¡áł¶áł¢áł´ áł¡áł¨
Ġáł¥ áł°áł¢
Ġáł°áł£áł¨áł¢áł· áł¬áłłáłµáł¤
Ġáł®áł§ áł¢
Ġáł¹áł¦áłµ áł§áł¦
Ġi P
Ġáł°áł¢áł² áłłáł·
áłŃ áł¯áł¢
Ġáł¨áłłáł¶áł¢áł³áłłáłªáł¤áł·áł¢áłµáł¢áłŃ áł¤áł¯áł¤áł¨
Ġ4 7
áł¡áłŃ áł¦áł¯áłµáł¡áł¢
Ġáł®áłłáłŃáłłáł³ áł¯áłłáł¯áł²áłł
Ġáł¨áł¡áłªáł² áł¡áł¯
áł¤áł¬ áł¢
Ġáł«áł¦áł° áł¡
Ġáł°áłłáł· áłł
Ġáłłáł¶áł¤áł® áł°áł¢áłŃ
Ġáł¢áł¯áł¡áłŃ áł¡áł¬áł¦
áł¤áł¯ áłłáłŃáł¤áł·
Ġáł¡áł°áł¡áł·áłŃáł¦áł´ áł¡áłµáł¦
Ġáł¯áł§ áł¦
Ġáł¬áł¦ áł¢áł¯
Ġáł¬áłłáł¯ áł¢áł°
Ġáłµáłłáł¯áłŃ áłłáł¨
áł° áł¢áł¶áłł
áł¯áł¸ áł¢
Ġ15 00
Ġáł¨áł¢áłŃ áł¡áł²áł¡áł¨
D C
Ġáł¬áł¥áł¨ áłµáł¢áł¯áł¡
áł¤áł² áłłáł¢
Ġáł¡áł·áłŃáł¢áł¯áł³ áł¦áłŃáł¦áł¯áł¦áł¨
Ġáł¢áł¯áłŃ áłłáł®áłµáł¢
Ġáł¥áłŃáł¡áł·áł¡áł´áł¢áł¯ áł¡áłŃáł°áł¡áł¨
Ġáł®áł¡áł¬ áł¡áł¯
Ġáł³áł¡áł¯áłŃáł¡áł· áł¡áłŃáł¦áł¯áł¦áł¯áł²áł¡
a x
Ġáł¶áłłáłŃáłłáł¬ áł¢áłªáłłáł¯
Ġáłªáł£áł³ áł¢áł°áłłáł³
Ġáł¬áł¦áł¨áł³áł¦áł³ áł¬áł¡áł¨
Ġáł¢áł³áł¡áł· áł¡áłŃáł¦áł¨
Ġáł²áł¤áłŃ áł¤áł¯áłŃ
Ġáł²áł¦áłª áł¡áłŃ
Ġáł¬áłłáł· áłłáłŃáł³áłłáł¬áł¤
áł¡áł¯áł¡áł¬ áł¦áł·
Ġc om
Ġáł¨áł¢áłŃáł¤áłŃáł³ áłłáł®áłłáł¯
ĠáłªáłłáłŃ áł¤áłŃáł°áłłáł¨
áłłáł¯ áł¢áł¬
Ġáł¨áłłáł¨ áł¨áł¢áł©
Ġáłµáł¤áł¸ áł¬
áł¡áł°áł¦áł² áł¦
Ġáł´áł¤áłŃáł¯ áłłáł·áłłáłµáł¤
Ġáł¨áł¡áłªáł²áł¡áł· áł¡áłŃáł¦áł¯áł¦áłŃáł°áł¡áł¨
Ġáł¨áł¢áłŃ áł¤áłŃáł³áłłáłµáł¤
Ġáł¡áł¶ áł¡áł¯áł³áł¡áłŃ
Ġ j
Ġáł²áł¡áł®áł²áł¡áł· áł¢áł¬áł¦
Ġáł¤áł¯áłłáł®áłµáł¢áł¯ áłłáłµáł¤
Ġáłªáł£áł¯áł ¬
ï¸¶ áłĤ
Ġáł²áłłáł¯áłª áł¢áłŃáł¤
áł´ áł¡áł¢
áł¢áłµ áł¢áł¨
Ġáł¢áł· áł¡áł¯
áł¡áł³ áł¤
Ġáł¬áł¥áł²áł¥áł¯áł¥ áłŃáł´áł¢
Ġáł³áłłáł¶áł¢áł´ áł¢áł¯áłłáł¬áł¤
Ġáł´áł¢áł© áł¬áł¤áł¸áłł
Ġáł¯ áł¤áł¨
ĠáłµáłłáłŃáłłáł¯áł³ áł¤áł¬áł¤
Ġáł²áł¤áł¨ áł³
áł¢áł¸ áł¸áł·
Ġáł²áł¡áłª áł´áł¢áł¬áł¦
Ġáł¬áł¦áł· áł¦áłŃáł°áł¡áł³
Ġáł¬áłłáł³áłłáłŃ áłłáł¯áłłáł¨
Ġáł²áł¡áłµáł¢áłŃ áł¡áłµáł¦
Ġáł¦áłµ áł¡áłŃáł¡
áł° áł¢áł¬áł¦
an t
Ġáł¨áłłáł· áłŃáł¢áł¶áłłáł¨
Ġáł³áł¤áł¯áłłáłŃáłłáł¯ áłłáł¬áł¤
Ġáł£áł³áł£áł¬áł¢áł´ áł¢áł¯áłłáł¯áł²áłł
Ġáł¬áłłáł¯áł³áłłáłªáł¤áł· áł¢áł¯áłłáł¬áł¤
Ġáł® áłłáł©áłŃ
áł³ áł¦áłŃ
áłłáł®áłłáłŃ áł´áłł
0 3
Ġáł£áł¯áłłáł°áł¢áł· áłłáłµáł¤
Ġáł®áłłáł·áł² áłłáłµáł¤
Ġáł³áł¡áłªáł²áł¦áłŃ áł¡áł¬áł¦
Ġáł¬áł£áł² áł£áłŃáł£áł·
Ġáł¯áł¢áł¶ áł£áł¤
Ġáł´áł£áłŃáł´ áłłáł¯áłłáł¨
Ġáł²áł¦áłŃáł°áł¢áłŃ áł¦áł·
Ġáł¬áł¦ áł¢
ĠC C
Ġáł¥áł° áł¬áł¦
Ġáł®áł¡áł³áł¡áłŃ áł¡áł¯áł¡áł¬áł¦
Ġáł¡áłªáł³ áł¡áł·áł¡áł¬áł¦
Ġáł³áłłáłŃ áł¢áł¨áł¢
Ġáł¨áł£áł £áł°
Ġáł¢áł³ áł¡áł³áł¡áłŃ
Ġáł¥áł·áł¢áł° áł¦áł¯áł³áł¦áł¬áł¦
áł¯ áł¢áł®
Ġáł¤áł¢ áł¢áł¯áłłáłŃ
Ġáł¦ áł¬áł¦áł¯
Ġáł°áł£áł¶ áł£áłŃ
Ġáł¨áł¡áłªáł²áł¡áł·áł¡áł¯áł´ áł¡áłŃáł¡
Ġáł¤áł¬ áłłáłŃáł¤áł¯áłµáł¤
Ġáł¬áłłáł³áłłáłŃáłłáł¯ áłłáłŃáł°áłłáł¨
Ġáł°áł¢áł· áłłáłŃáł°áłłáł¨
Ġáł³áłłáłŃáłłáłŃáłłáł´áł¢áł¯ áłłáł¨
Ġáłªáł£áł± áł£áłŃ
Ġáł¢áł¯áł µ
Ġáłªáł£áł³ áłłáł²
Ġáł¡áłµáł¡áł©áł¨ áł¡áłŃáł´áł¢
.. ..
áł¡áł² áł¡áł¢
Ġáł³áł¡áłª áł¦áł·
Ġáł´ áł¢áł´
Ġáł³áłłáłŃ áłłáłŃáł°áłłáł¨
ic e
Ġáł¤áł·áł¢áł² áłłáłµáł¤
Ġáł¨áł¡áł®áł¡áł· áł¢áł¯áł¡áłµáł¦
® áł£áł·áł¢
áłªáł¥ áł¬áł¥
Ġáłªáł£áł³áłłáł² áłłáł¶áł¢áłµ
ĠáłªáłłáłŃáł¤áł¯áłŃ áłłáłŃáł°áłłáł¨
Ġáł²áł£áłŃáł£áłŃ áłłáł´áł¢
or d
Ġáł¬áł¡áł¶áł¢áł ®áł£áł·áł¢
Ġáł²áłłáłŃ áłłáł²áłłáł¶
Ġáłªáł£áł³áł£áł¯áł¬ áł¢áł¯áłłáł¨
Ġáł£áł¶áł¢áł·áłłáł³ áł´áł¤
Ġâĳ ¢
Ġáł²áł¦áł·áł¦áłŃáł¦áł´ áł¦áł³
ĠáłŃáł¦áł³ áł¦áłŃáł¦áł·
I T
áł¢áł £áł
Ġáł³áł¡áł¶áł¢áł¯áł¦áłŃ áł³áł¡áłµáł¦
áł´ áł¢áłµáł¤
Ġáł²áł£áłŃáłłáł´ áł¢áł¬áł¤
Ġáłłáł°áł¢áłŃ áł²áł¤
Ġáł²áł¤áł ¯áł²áłłáł¯
Ġáł´áł¡áł´áł¡áłŃ áł²áł¦
Ġáł¡áł·áłŃáł¢áłŃ áł´áł¢
Ġáł²áł¤áł° áł¬áłłáłŃáł°áłłáł¨
Ġáł¬áł¡áł¯áłªáł¡áł· áł¢áł²áł¡áł¶
ĠáłŃáł¡áł·áł¡áł¯áł² áł¦
Ġáłµáł¢áł° áł¢áłŃ
Ġáłªáłłáł ®áłª
áłªáłłáł¯ áłł
áł®áł¤áł° áł²áłł
áł¡áłµáł¢áłŃ áł¦áł¯áł¦áł¨
Ġáł¬áłłáł· áł¢áł¬áł¤
Ġáł¢áłª áł´áł¤áł¤
Ġáł°áłłáł¶áł¢áłµáł¢áł· áłłáłŃáł¤áł¯áł¤áł¨
U S
áł¯ áł¡áłŃáł¦áł¯áł¬áł¦
Ġáł´áł¢áł³áłłáł®áłµ áł¢áł³áł¤
Ġáł²áłłáłª áł¢áł¨
Ġáł°áłłáł¨ áłłáłŃáł¤áł¯áł¤áłŃáł°áłłáł¨
Ġáł²áł£áł® áł¢áł¯áłłáł¬áł¤
ĠáłŃáłłáł· áł¤áłŃ
r y
Ġáł´áłłáł© áł´áł¦
Ġáł²áłłáł¶áł¢áłª áł¸áł¢
áł¬ áłłáłªáłł
Ġáłªáłłáł¶áł¢áł ª
Ġáłªáł£áł¶áł¢áłµ áł¢áłµáł¤
Ġáł¥áł·áł¢áł°áł¥áł¯áł³ áł¦áł¨
ĠD NA
áł¦ áł¢áł°
Ġáł³áł¤áł² áłłáł¬áł¤
áł§áłŃ áł¢áł³
Ġáł²áłłáł² áłłáł®áłłáł¯
E N
áł° áł¢áł¯áł²áłł
áł¢áłŃ áł³áłłáłŃáł°áłłáł¨
Ġáł¬áłłáł®áł¤áł· áł¤áłŃáł°áłłáł¨
Ġáł³áł¤áł° áł¤áł¯
Ġáł¢áł® áł§áł¯
Ġáł²áłłáłŃ áł¯áłłáłµáł¤
f f
Ġáłªáłłáł °
Ġáł° áł£áł³áł£
Ġáłµáłłáł³áłłáł¯ áł¤áłŃáł°áłłáł¨
Ġáłµáłłáł¶áł¢áł¯ áłłáłµáł¤
4 9
Ġáł¨áł¢áłŃáł¤áł´ áłłáłŃáłłáł¶
Ġáł²áłłáł²áłłáłŃ áłłáł¯áłµ
ĠáłŃ áł£áł¯
Ġáł¬áł¡áł²áł¦áł· áł¡áłµáł¦
F i
Ġáłłáł¯áł³ áł§áłŃáł¢áł³
Ġáł³áł¤áł¬áł¢áł· áłłáłŃáł¤áł¯áł¤áł¯áł³áłł
áł® áłł
Ġáł¬áł¥áł³áł¡áł¯áłŃáł¡áłŃáł¡áł¨ áł²áł¦
Ġáł®áłłáłŃ áł¨áł¢
ï¼ Ŀ
Ġáł¨áł¡áł®áł¡áłŃáł³ áł¡áłªáł¡
áłª áłłáł¶áł¢áł
Ġáł¬áł¤áł·áł³ áł¤áł³
Ġáł¡ áł¸áł¦
Ġáł¬áł¥áł¯áł³ áł¡áłŃ
Ġáłªáł£áł³ áłłáłŃáłłáł¯áł¢
Ġáł³áł£áł· áł£áł¶áł¢áł²
áł¯ áł¢áł©
Ġáł´áł¢áł³áł¬ áł¤áł®áłłáł¯
Ġáł¬áłłáł¶áł¢áł ¬áł¤
Ġáł¬áł¥áłŃáłµ áł¢áł¯
M A
áł¤áł¯ áł¤áł®
´ áł¢áł³
Ġáł°áłłáł¨ áłłáłµáł¤
Ġáł¬áł¡áł· áł´áł¢áłµáł¦
Ġáł° áł¸áł¨
Ġáł¬ áł¦áłµáł¢
Ġáł²áł£áł·áłŃ áłłáłŃáł¤áł¯áł¢
Ġáł°áłłáłŃáł¤áł¯áłŃ áłłáł¬áł¤
Ġáł¬áł¥áł· áłª
Ġáł¨áłłáł¶áł¢áł³ áłłáłµáł¤
ĠáłŃáłłáł©áł¨ áłłáłŃáł¤áł·
áłłáłŃáłłáł· áłłáł¢
Ġáł¨áłłáł¶áł¢áł· áłłáłŃáł¤áł¯áł¤áłŃáł°áłłáł¨
Ġáł²áł£áł¬áł¢áł· áłłáł¨
Ġáł¨áłłáł· áłłáł°áł¤áł¨
áłª áł¦áł¬áł¦
Ġáł® áł¢áł¯áłłáł¨
Ġáł¬áłłáł©áłŃ áł¢áł¨
áł¯ áł¤áł·
on t
áł¡áł©áłŃ áł¦áł³áł¡
ĠR e
Ġáłªáł¡áł¬ áł¢áł¯áł¢áłŃ
Ġáł¨áł¦áł¯áł¦áłŃ áł¡áł¯áł¡áł¬áł¦áł·
Ġáłµ áł¦áł¸áł¸
Ġáł¶ áłłáł²
Ġáłªáł¥áłŃ áł¡áł¯áłµ
Ġáł¦áł·áłŃáł¦áł¯áłµ áł¢áł¯áł¡áłµáł¦
Ġáł¤áłŃ áł¤áł²áłłáł¨
áł¡áł¯áł³ áł¦áłµáł¦
ĠS h
Ġáł¬ áł¡áł¶áł¢áł³
Ġáł²áł£áł¯áł£áłŃ áłłáł¢
Ġáł²áł£áłŃáł³áłłáłŃ áłłáłŃáł³áłłáł¨
Ġáł²áłłáłŃáłłáł· áłłáł¨
Ġáł°áł¢áłŃ áł¡áł°áł¦
Ġáł£áł¶áł¢áł ¯áł²áłł
Ġáł¨áł¥áł¬áł¥ áł¬áł¦
Ġáłªáłłáł¶áłłáł° áł¤áł©áłŃáł¤áł¶
Ġáł² áł¤áł¶
Ġáłµáł¡áł®áł³áł¡áłŃ áł´áł¦áł³
Ġáł°áł¢áł¯áłµ áł¢áł¨
Ġáł¬áłłáł¶áł¢áł· áłłáł¯
áł¬ áł¡áłŃáł°áł¡áł¨
Ġáł¡áł°áł¡áł·áłŃáł¦áł´ áł¡áłŃáł´áł¢
Ġáłªáł¡áł¯áłŃ áł¡áł¯áł¡áł¬áł¦
Ġáł´áłłáłŃáłłáłµ áłłáł¯áłłáł¨
o x
Ġáł³áł£áł©áł° áł£áł¯áłŃ
Ġáłµáł£áłŃáł° áł£áł©áłŃ
áł¢áł· áł¡áłŃ
¢ Ń
á ¢Ń
Ġáł¦áł°áł¦áł· áł¦áł¯áł²áł¡
Ġáł² áł¤áł¯áłŃáłłáł¨
Ġáłº áłłáł²
Ġáł®áł£áł· áł³áłłáł¬áł¤
Ġáł³áł¡áł¯áł¢áłŃ áł¦áł¦
áł¤áł® áł¸áł¨
ĠáłłáłŃáł¤áł¯áł¤áłŃáł³ áłłáł¬áł¤áł¨
Ġáł²áłłáł¨áł¢áł¯áł´ áłłáłŃáł¤áł¯áł¤áł¨
a il
Ġáł° áł¡áłŃáł¡áł·
Ġáł¡áł¬áł¢áł¯ áł¡áł©áłŃáł¦áł³áł¡
Ġáł´áł¢áł® áłłáł¶
Ġáłªáł¢áł²áł¡áłŃáł¦áł®áłµáł¢áł¯ áł¡áłµáł¦
Ġ5 6
Ġáł¼ áłłáł©
áłµáł¢áłŃ áł¦áł¯áł¦áłŃáł°áł¡áł¨
Ġ3 60
áł¶ áłł
Ġáł³áłłáłŃ áłłáł¯áł²áłł
Ġáł¤áł¬áł¤áł· áł¢áł¨
Ġáł¨áł¤áłŃ áł¤áł·áłłáł¯
Ġáł°áł¢áł¦ áł¢
Ġáł¬áł¡áł©áłŃ áł¡áł·áłŃáł¡
Ġáł¦ áłºáł·
Ġáł¦áłºáł· áłłáł¢áł¨
Ġáł¬áł¤áł· áł®áł¤áł°áł²áłł
Ġáłº áł£áł¹
Ġ4 9
Ġáłªáłłáł· áł¢áłŃáł°áłłáł¨
ĠáłŃáł¦áł¨áłµáł¡áłŃáł¡áł¶áł¢áł· áł¡áłŃáł¦áł¯áł¬áł¦
Ġáł¨áłłáłŃáłłáł¯áł³ áł¤áł¬áł¤
ĠáłŃáł¡áłµáł¢áłŃ áł¡áł¨
Ġáłłáł¨ áł³áłł
Ġáł¤áł·áłłáł¯áł¢áłŃ áł´áł¢áł³
Ġáł¡áł¨ áł³áł¡áłŃáł¦áł·
Ġáł¤áł¨ áłłáł¯áł²áłł
ĠáłŃáłłáł³áłłáłŃáł¤áł· áł¬áł¢
Ġáł¬áłłáłŃáł° áłłáłŃáłłáł¬áł¤
Ġáł¤áłŃáł°áłłáł· áłłáł¯áł²áłł
Ġáł°áł¤áł³ áłłáł°áł¤
u re
ĠáłŃáł¦áł¢áł´áł¡áł³áł¬ áł¡áłŃáł´áł¢
Ġáłµáł¢áł·áł¤áł® áł¯áłłáłµáł¤
ĠA C
Ġáł¤áłŃ áł¤áł·
Ġáł¬áłłáł¶ áłłáłŃáł°áłłáł¨
áłłáł°áł¢áł· áłłáł¯
Ġáł²áł£áłŃ áł£áł¨
Ġáł¨áł¡áł¶áł¢áł¯ áł¡áł¯
Ġáł¬áł¡áł®áł¬ áł¡áł¯áł¬áł¦
ĠáłŃáł¡áłª áł¡
7 6
in t
Ġáł¤áł³ áłªáłłáł¯áłł
Ġáłªáł¥áłŃáł¡áł®áł¨áł¡áł· áł¡áł¯
Ġáłµáłłáł® áł´áł¢áł¯
áł° áł¢áł¶áł¡áł¯
Ġáł¬áłłáł·áłłáł® áł¥
Ġáł°áł¡áł· áł¡áłŃáł³áł¡áł¯
áłłáł¯áł¢áł¬ áł³áł¤
ac eb
Ġáł¬áł¡áł´áł¢áł¨ áł¡áł¨
F T
Ġáł²áł£áł¯áł£áłŃáłłáł¶áł¢áł¯ áłłáłŃáł´áł¢
Ġáłłáł¨áłŃ áłŃáł¯áł¢
Ġáł®áł¡áł¬ áł¡áł¯áł¡áł¯
Ġáłªáłłáł¶áł¢áł´áłłáłŃ áłłáłŃáł´áł¢
ĠáłªáłłáłŃ áłłáł°áł¤áł¨
Ġáł¨áł¡áł· áł¡áł²áł¡áł¶
áł¢áłµ áłłáł¢
Ġáł³áł£áł·áł£áłŃáł°áł¢áł¯ áłłáł¬áł¤
3 9
Ġáł´áł¡áłªáł¡áł· áł¯áł¡áłŃáł°áł¡áł¨
Ġáł°áł¢áł·áłŃ áłłáł¯
Ġáłªáłłáł ¯áł´
Ġáł¡áł·áłŃ áł¢áł¬áł¦
Ġáł²áł¡áł° áł¢
Ġáł¬áł¥áł° áł¡áł·
áł² áł¡áł³
Ġáł¨áł¡áłŃáł¦áł· áł¡áł°
Ġáłªáłłáł¶áł¢áłŃáł¤áł¯áł¤áłŃáł³ áłłáłµáłłáł¶
Ġáł£áł·áł£áł¯áł´ áłłáłŃáł¤áł¯áłµáł¤
Ġáł°áł¢áł² áł¦áłŃáł¡áł¨
áłµ áł¢áłµáł¦
Ġáł¬áł¦áł´áł¦áł·áł¬áł¡áłŃ áł¯áł¡áł¯
ĠáłŃáłłáł· áł¤áł³áł¢
Ġáł´ áł¢áł¯áłłáłŃ
Ġáł²áłłáł¯áłª áł¢áłªáłłáł¯
Ġáł¡áł·áłŃáł¢áł¯áł³ áł¦áłŃáł¡
ĠáłŃáł¦áł· áł¦áłŃáł°áł¡áł¨
Ġáł²áł¤ áł¤áł·
Ġáł¬áł£áł·áł¢áłŃ áł¯áłłáł¯áł²áłł
áł¬ áł¥áłŃ
Ġ5 8
Ġáł°áłłáł´áł¤áł· áłłáł¯áł²áłł
Ġáł¢áł¯áł¡áł· áł¡áłŃáł¦áł¯áł¦áł¯
áł¤áł¹ áł²
Ġáłµáłłáłª áł³áł¤áł¨
Ġáł¬áłłáł®áł²áł¤áł·áłłáł¯áł´ áłłáł¬áł¤
áłµ áłłáł¯
Ġáł¡áł¶ áł¡áł³áł¡áłŃ
Ġ200 4
Ġáł¬áł¥áł®áł¦áłµáł¢áłŃ áł¦áł¯áł¦áł¨
Ġáł³áł¡áł¯áłªáł¡áł· áł¡áł¬áł¦
ĠáłªáłłáłŃ áłłáł°áł¤
áł³ áł£áł·
Ġáł£áł·áł£áł¨ áł²áł¤
Ġáł³áłłáł® áł«
Ġáłłáł¶ áł¤áł¨
áł½ áł¸áł¨
O P
áłłáł° áł¬áł¢áł¨
Ġáłµáł¢áł°áł¢áłŃ áł¦áł¦
k g
Ġáł³áłłáł®áłµáł¢áłŃ áł¤áł¯áł¤áłŃáł°áłłáł¨
áłłáł· áłªáłłáł¨
Ġáł£áł¶ áł£áł¨
Ġáł¨áł¢áłŃáł¤áł´ áłłáł¯áłłáłŃáł°áłłáł¨
Ġáłº áł·
Ġáł²áł£áł·áł£áł®áł° áł¤áł¯áłłáł¬áł¤
Ġáł°áł¡áł·áł¡áł¯áłµ áł¢
Ġáł¬áł¥áł®áł¥áł° áł¬áł¡
Ġáł°áłłáł· áłłáłªáł´áł¢
Ġáłªáł¦áł·áł¢áł¯áł³ áł¦áł¬áł¦
Ġáł²áł¢áł¶ áłłáł²
Ġáłµáłłáł© áł°áł¢áł¯
Ġáł¤áł¨áł´ áłłáł¯áł¢áł¬áł³áł¤
7 9
Ġáł£áł¶ áł£áł³áłłáł¯
áł£áł¯áłµ áł¢áł¨
Ġáł£áł·áł£áłŃ áł¤áł¯áłªáłłáł¯
Ġáł°áł¢áł¨ áł¡áł³áł¬áł¡áłµáł¦
Ġáł¬áł¦áł·áł³ áł¦áł²áł¦
áł¡áłµ áłłáł¢
Ġáł¤áł·áłŃ áł¤áłŃáł¤áł¯áł¬áł¤
áł¡áł· áł¡áłŃ
Ġáł¬áłłáłŃ áłłáł
áł¦áł° áł¦áłŃ
Ġáł¥áł® áł¥áł³
Ġáłªáł£áł¯áłµ áł£áł¬áł¤
Ġáł²áłłáł·áł¬ áłłáłŃáłłáł¯áł²áłł
Ġáłµáł¢áł·áłŃ áłłáł¯áł²áł¤
Ġáł¡áł¯áł° áł¡áłµáł¦
Ġ4 000
Ġ200 3
0 5
Ġáł¨áł¡áłª áł´áł¢áł¬áł¦
Ġáłłáłµáł¢áł¯áł ´áł¢áł³
Ġáł¡áłµáł¡áł® áł³áł¡áł¨
Ġáł°áł¢áłŃ áł¡áł°áł¦áł¨
Ġáłªáł£áł¯áłªáłłáł°áł¤áł· áłłáłŃáł°áłłáł¨
Ġáł¬áłłáł¶ áłł
Ġáłłáł´áł¢áł¶áłłáł¯ áłłáłµáł¤
áł´ áł¡áłŃáł¡áł·
3 00
áł¦áł¹ áł¦
ĠáłŃáł£áł £
Ġáł¬áłłáł·áł¢áł´ áłłáłŃáł¤áł¯áł¬áł¤
Ġáł¡áłªáł¡áł· áł°áł¢áł¶áł¡áł¯
Ġáł²áł£áł¬áł¢áł· áłłáł®áłµáł¢
Ġáł¬áł¢áłµáłłáłŃáłłáł· áł¯áłłáłŃáł°áłłáł¨
ĠW indows
áł¤áł° áł¤áł¹áł²
Ġáłªáłłáł¬áłłáł· áł¬áłłáł³áłłáłŃ
Ġáł¨áłłáłŃ áłłáł´áł¤
Ġáł´áł¢áł¨áłłáłŃáł°áł¢áł¯ áłłáł¨
Ġáł¶áł¢áł° áł¦
Ġáł²áł£áł¬ áł£áł¨
áłŃ áłłáł¶
Ġáł¬áł¤áłªáł¢áł° áł¤áł®áłłáł¯
áł¦áłŃ áł³áł¡áł¨
Ġáł¶áł¡áł·áł¦áł©áł¬áł¡áł¶áł¢áł¯ áł¡áłŃáł´áł¢
Ġáł¾áł¸ áł¹áł¸áł¢
Ġáł¬áłłáł¯ áłłáłŃáłłáłµáł¤
Ġáł³áł¡áł¯áłª áł¢áł²áł¦
Ġáł¤áł·áł¤áł° áł¤áł®
Ġáłªáł£áł³áł£áł ¯áł²áłł
Ġáł³áłłáłŃáł¤áł° áł´áł¤
Ġáł³áł¡áłŃáł¡áł· áł¡áł®
Ġáł°áł¢áł¢áł³áłªáł¦áł· áł¢áł²áł¦
Ġáł® áł£áł¬
Ġáł¤áł³ áłłáł²áłłáł¯
Ġáł²áł¥áłªáł¯áł¡áł· áł¡áłµáł¦
ĠáłŃ áł¡áłµáł¢
Ġáł°áł¢áłŃ áł¢áł³áł¬
Ġáł²áł£áłŃáł¯ áłłáłªáłł
Ġáł¬áłłáł·áł¢áł´ áłłáłŃáł¤áł¯áłµáł¤
Ġáł®áł¡áł³ áł¡
il l
Ġáłªáł¡áł¯ áł¡áł³áł¬áł¡áł¨
Ġ4 1
Ġ6 4
Ġáł®áł¤áł°áł¬ áł¢áł¯áł²áłł
Ġáłªáł£áł¯áłª áłłáł¤
Ġáłµáł¤áł¬ áł¢áł°
Ġáł¡áłµáł¡áł®áł° áł¢áł¯áł³áł¤
Ġáłµ áł£áł©
Ġáłłáł· áłłáł¨
Ġáł®áł¡áł³ áł¡áłŃáł³áł¡áłµáł¦
ĠáłłáłŃáł¤áł¯áłµ áłłáłµáł¤
ĠP l
áł¬áł¡áł· áł¡áłŃ
M S
Ġáł£áł¶áł¢áł ´
Ġáł® áł¢áł¶áłłáł¨
Ġáł°áł¢áł¯áłŃ áłłáłŃáł°áłłáł¨
Ġáłµáł£áłŃáł° áł£áł¯áł²áłł
Ġáłłáł·áłª áł¢áł²áłłáł¶
Ġáł¢áł¯áłŃ áł¤áł®
Ġáł²áł¡áł¶áł¢áł °áł¢
Ġáłªáł£áł³ áł£áł³áłłáłŃ
Ġáł£áł·áł´áł¢áłŃ áł¤áł¯áł¬áł¤
áł®áł¢áł¨ áł¦
Ġáł¡áł¬áł¢áł¯ áł¡áłŃáł¡áł³
Ġáłºáł¸ áłłáł¨
Ġáł¬ áłłáł¯áłªáłłáłŃ
áł´ áł¸áł©
Ġáł¬áł¤áł·áłłáł®áł³ áł¤áł¯
Ġáł± áłłáł·
Ġáł²áł¦áł¯áł¬ áł¢áł¬áł¦
áł£áł¸ áłłáł²
Ġáł¶áłłáł² áł¤áłŃ
áłµ áł¢áł¯áł²áł¡
or e
Ġáł¯áł¤áł¨ áł³áł¤áł¨
Ġáł¬áł¦áł° áł¡áł¶
Ġáł¨áł¡áłª áł²áł¡
áł¢áł´ áł¢áł¯áł¡áłŃáł°áł¡áł¨
Ġáłµáł£áł·áł¢áłŃ áł°áłłáł¨
Ġáł²áł¡áł° áł¦áł¬
Ġáł³áł¡áł¯áłŃáł¡áł· áł¡áłŃáł¦áł¯áł¦áł¨
Ġáłªáł¦áł¸ áł¸
áł¦áł©áł¨ áł¡áłµáł¦
Ġáłªáł£áł¯áłªáłłáł°áł¤áł· áłłáłµáł¤
Ġáłµáł¢áłŃáł°áłłáłŃ áłłáłŃáł³áłłáłŃáł°áłłáł¨
Ġáłªáłłáł·áł¢áł®áłµáł¢áł¶áłłáłµáł¢áłŃ áł¤áł¯áł¤áł¯áł²áłł
Ġáłł áł³
Ġáłªáłłáł¶áł¢áł¯áł³ áł¤áłµáł¤
Ġáłłáł·áłłáł¨ áł°áł¢áł¨
Ġáł¢áł³ áł¡áł°áł¢
== ==
Ġáłªáłłáł¯ áłłáł·áł¬áłłáł¶
áł¢áł¯ áł¡áłŃáł¦áł·
Ġáł¬áłłáł®áł² áł¤áł·áłłáł¯
Ġáłµáł¢áł¶áłłáł© áł¨áłłáł¨
Ġáł¡áł¯áł ´áł¢
Ġáł°áł¢áłª áłłáł³áłłáł¨
Ġáł®áł¢áłºáł· áł¤áł°áł¤áł¹áł²
Ġáł¨áł¡áł¶áł¢áł¯ áł¡áł¯áł²áł¡
Ġáł¨áł¡áłªáł²áł¡áł·áł¡áł¯áł´ áł¡áłµáł¦
Ġáł´áł¢áł¯áł¥ áłŃáł¡áł¯
Ġáł²áłłáłŃáłłáł· áłłáł¯áł³
Ġáł²áł£áłŃáł²áłłáłŃ áłłáł³áłłáłŃ
Ġáł¦áł· áł³
Ġáł²áł¡áł®áł¡áł´ áł¡áł¨
Ġáł¤áł·áł²áł¤áł³ áł¬áłłáłµáł¤
Ġáł¬áłłáł¯áłłáł®áłµáł¢áł¯ áłłáł¨
Ġáł°áłłáłŃ áł¤áł¯áłŃáłłáł¨
Ġáł¤áł´ áłłáł·áłłáłŃáł¤áł¯áłµáł¤
Ġáł³áł£áł£áł· áłłáł³áł¤
e w
Ġáł¬ áł¤áłµ
Ġáł¤áł·áł® áłłáł°áł¢áłŃ
Ġáł¥áł©áłŃáł¡áł· áł¡áł¨
Ġáł²áłłáł¶áł¢áł¯áłªáł¤áł· áł¢áł¯áłłáł¨
Ġáł°áł¤áł·áłªáł¤áł¯áłµ áł¢áł¯áłłáłµáł¤
ĠáłłáłŃ áł±áłłáł¨
ĠáłŃáł¦áł¸áł§ áł¯áł¦
Ġáł²áłłáł°áł¤áł¯ áł¤áłªáł´áł¢
Ġáł¬áłłáł¶áł¢áł· áłłáł¯áłłáł¨
Ġáł¬áł¡áł· áł´áł¡áłŃ
áł¡áłŃáł¦áł· áł¡áł°áł¦
Ġáł´áł¢áłŃáł¢áłŃáł² áł¦áł´áł¡
Ġáł®áłłáł¨áł³ áł¤áłŃáł°áłłáł¨
áł¦áł° áł¢áł²áł¡áł¶
Ġáł¨áł¤áł² áłłáł¯
u e
Ġáł²áł¤áł¯áłŃ áłłáł®
Ġáł½ áł¸áł©
áł· áł®áłłáł¨
Ġáłµáł¤áł· áł°áł¢áł¯
áł¶ áł¡áł¬áł¡
Ġáł¬áł£áł· áł¢
Ġáł£áł·áł£áł¯áł´ áłłáł¨
Ġáłłáł°áłłáł· áłłáł¬áł¤
Ġáłµáł¢áł± áł¢áł¶áł¡áł¯
Ġáłµáłłáł¶áł¢áł¯ áłłáł°áł¬áł¢áł¨
áł¡áł¯ áł¡áł¶
Ġáłµáłłáł¬áł¢áł· áł¤áłŃáł´áł¢
Ġáł¡áł¯áłŃ áł¦áł®áł¡áł¯
Ġáł¬áłłáł¶ áłłáł¨
Ġáłºáł£áł¹ áł§
Ġáł¬áł¥áł· áł°áł¢
áł¤áł¯áł² áł¤
Ġáł¬áłłáł·áł¢áłŃ áł¤áł¯áł¤áłŃáł°áłłáł¨
Ġáł£áł¨áł¢áł° áł¤áłŃ
áł¢áłŃ áł¡áł¨
áł¦áł³ áł¦áłŃ
ĠT he
ar e
ĠáłŃ áł¤áł¤áł·
Ġáł¡áł·áł¡áłŃáł¦áł¯áłµ áł¢áł¬áł¦
áł¤áł¸ áł·
áł¡áłŃáł³ áł¡áłµáł¡áł¶
Ġáł°áłłáł¨áłłáłŃáłłáł´áł¢áł¯áłłáłŃ áłłáł²áł¤
Ġáł¡áł¯áłŃ áł¦áł¬áł¦
Ġáł³áłłáłª áłłáłµáłłáł¶
áł¬áł¡áł· áłªáł¡
áł¯áłª áł¦áł·áł¢
Ġáł¨áł¢áł¯áł¬ áłłáł°
Ġáł£áłŃáł²áłłáł·áłŃ áł¤áł¢
Ġáł¡áłŃáł¦áł° áł¦áł¯áł²áł¡
Ġáł¤áł¢áł· áł³áł¡áłŃ
Ġáł¬áłłáł· áł¢áł®áłłáłŃ
Ġ7 6
áł° áł¯áłł
Ġáł¬áł¥áł³áł¡áł¯ áł¦áł¯áł´áł¡áł¬áł¦
Ġáł¬áł¥áł®áł¥áł·áłŃáł¡áł¯ áł¡áł¨
Ġáł¢áł³ áł¡áłŃáł°áł¡áł¨
Ġáł¯áłłáłª áł¯áłłáł¨
Ġáł¤áł° áł¤áł¯áłłáł¬áł¤
Ġáł® áł¸áł²
Ġáłºáł¢áł¯ áł£áł¸áłłáł²
Ġáł¬áł¤áłªáł¢áł° áł¤áł¯
Ġáł´áł¡áłªáł¡áł· áł´áł¡
Ġáł¬áłłáłŃáłłáł ¯áłªáł¤áł·
Ġáłłáł©áłŃ áł¢áł¯áłłáł¯
áł¤áłµ áł¢áł©
ĠáłŃáł¡áł·áł¡áł´áł¢áł¯ áł¡áłŃáł¡
Ġáł¶áłłáł³ áłłáł·áłłáł¯
áł¥áł· áłŃáł¡áł¨
Ġáł¬áł¥áł¬áł¡áł® áł³áł¦áłŃ
Ġáł£áł¨áł£áł° áł¢áł¯áłłáłŃáł°áłłáł¨
Ġáł¨áłłáł¢áł® áłł
Ġáł¡áł·áłŃáł¢áłŃ áł¦áł¯áłŃáł¡áł¨
Ġáł³áłłáł¯ áł¢áł®
4 4
áł¤áł· áł¨
Ġáł¦áłµ áł¡áł®
Ġáł¢áł· áł¡áłŃáł¦áł¯áłµáł¦
Ġ5 2
Ġáłµáł¥áłŃáł¡áłŃ áł¡áłªáł¦áł·
Ġáł£áł·áł£áł ªáłłáł¯
Ġáł¢áł¯ áłłáł®
ĠáłµáłłáłŃáłłáł²áł¤áł¨ áłłáł¬áł¤
Ġáł°áł¢áłŃ áł°áł¢áłŃ
áł§ áł¦áł¹áł¦
Ġáłµáłłáł¯áłŃáłłáł®áłµáł¢áł¯ áłłáł¬áł¤
ĠP VC
ĠáłŃáł£áł ´
Ġáł¨áł¡áł¶áł¢áł¯ áł¡áłªáł¦áł·áł¢
Ġáł¬áł¥áł³áł¡áł¯ áł¦áł¯áł´
áłłáł· áłłáł³
áł¤áł¶áł¢áł ´áłł
Ġáł¥áł©áłŃáł¡áł· áł¡áłŃáł¦áł¯áł¬áł¦
Ġáł¡áł¶ áł¡áł·áłŃáł¦
Ġáł¡áłª áł¦áł³áł¦áłŃ
Ñ Ģ
Ġáł²áł¤áł°áł¬áłłáł¶áł¢áłµ áł¢áłŃáł°áłłáł¨
Ġáł´ áł¡áł®
Ġáł²áł¥áł°áł¦áłŃ áł¡áł¯áł¡áł¨
Ġáł°áł¢áł¢áł³áłªáł¦áł· áł¢áł¯áł¡áłµáł¦
Ġáł¨áł¡áł®áł¡áłŃáł³ áł¡áłŃáł¦áł¯áł¦áłŃáł°áł¡áł¨
Ġáł³áł¦áł·áł°áł¦áł¯ áł¡áł¯
áł¡áłŃáł¦áł¯ áł¦áł¶
Ġáł´áł¡áł® áł´áł¡áłŃáł¡áł·
Ġáł£áł¶ áł¤áł²áłłáł¨
áł³ áł¢
Ġáł¬áł¥áł²áł¥ áł¯áłªáł¦áł·áł¢
Ġáłµ áł¦áł¬
Ġáł²áł£áłŃáł£áł· áł¢áł¬áł¤
Ġáł°áł¢áł²áłłáłŃ áłłáł¯áłŃ
áł³ áł¥áł·
Ġáł¦áł¨ áłŃáłŃáł¡áł¨
Ġáł¬áłłáł¶ áłłáłŃáłłáł³
Ġáł°áł¢áłŃáł¦áł· áł¡áł¯áł²áł¡
ĠáłŃáłłáł¯áłµ áłłáłŃáł¤áł·
ĠáłłáłŃ áłłáł°
Ġáł¨áł¡áł®áł¡áłŃáł³ áł¡áłŃáł¦áł¯áł³áł¡áłŃ
Ġáł®áłłáłŃáłłáł³ áł¯áłłáłµáł¤
Ġáł²áłłáł¶áł¢áł ³
Ġáł¶áłłáłª áł¤áł³áłłáłŃ
Ġáł«áł¤ áł¤áłµáł¢áł©
áł¡áł¯áł³ áł¡áł¦
áł¢áłŃ áł¦áł¯áłµáł¦
Ġáł¢áł¯áł¡áł·áł¬áł¡áł¶áł¢áł¯ áł¡áł¯
Ġáł¤áł¢áł¢áł¯áłłáłŃ áłłáłŃáł³áłłáł¬áł¤áł¨
áłµáł¢áłŃ áł°áłłáł¨
g e
Ġáł¯ áłłáł®áłł
Ġáł¬áłłáł¶áł¢áł¯ áł¤áłŃáł¤áł¯áł¬áł¤
Ġáłµáł£áłŃáł° áł£áł¨
Ġáłł áł¤áłŃ
Ġáł¢áł· áł¡áłµáłłáł¢
Ġáłłáł´áł¢áł¶áłłáł¯ áłłáłŃáł´áł¢
Ġ5 1
Ġáł®áł¥áł·áł¥áłŃáł¡áł³ áł¦áł¯
Ġáłªáł¡áł·áł¬ áł¡áł²áł¡áł¶
Ġáłªáł£áł¯áł¤áł® áł¤áł¶
áłº áłł
Ġáłµáł£áł·áł¢áłŃáłµáł¢áłŃ áł¤áł¯áł¤áł¯
Ġáł¥áł¨ áł³áł¡áłŃ
ĠáłªáłłáłŃáł¤áł· áłłáłªáłł
Ġáł²áłłáł¨áł¢áł¯áł´ áłłáłŃáł¤áł¯áłªáłł
Ġáł¡áł·áł³áł¡áł® áł²áł¡áł³
áł¬áł¢áł® áł¡áł¯
Ġáł³ áł¡áł¯áł³áł¡áł¦
áł´ áłłáł¬
Ġáł²áł¦áł· áłªáł¢áł¨
Ġáłµáł¢áł±áł¢áł¶ áł¡áł´áł¢
Ġáł¬áł¤áłªáł¢áł° áł¤áłŃáł´áł¢
ĠE x
ï¸ ¿
Ġáł¬áł¥áłŃáł¡áłŃ áł¡áłµáł¦
Ġáłªáł£áł· áł²áł£áłŃ
ĠC EO
áł¤áłŃ áł¡
Ġáł´áł¢áł©áłŃ áł¡áł¯áł¢áłŃ
Ġáł« áł£áł·áł²
Ġáł°áłłáłŃáł¤áł· áł¢áł°
Ġáł¬áł¥áłŃáł¡áłŃáł¡áł´áł¡áł¯áł³ áł¦áłµáł¦
Ġáł¬áłłáł¸ áł¯áł¢áł´áł¢
E L
áł¤áł³ áłłáł¬áł¤
Ġáł´áł¡áłŃ áł´áł¡áł¯
Ġáł¨áł¢áłº áł¸áł¯
Ġáłµáł£áł·áł¢áłŃ áł¤áł¯áł¤áłŃáł°áłłáł¨
Ġáł¡áłªáł¡áł³ áł´áł¢áł¯
¯áł °
9 6
Ġáł¨áł¢áłŃáł¡áł³ áł¦áł¯
Ġáł´áł¢áłŃáł¢áłŃáł² áł¦áł¬áł¦
Ġáł°áł¦áł¢áł³ áł¦áł¯
O R
Ġ18 0
Ġáł¡áł·áłŃ áł¦áłŃ
Ġáł¬áł¥áł©áłŃ áł¡áł¬áł¡áł¨
Ġáłªáłłáł· áł¢áłª
Ġáł¡áł· áł¤áłŃáł¡
ĠáłŃáł¦áł¶ áł¦áłµáł¦
Ġáł²áłłáł® áłłáł¬áł¢áł¨
Ġáłªáł£áł¯áł¬ áł¤áł¶áł¢áł´áłł
Ġáł²áł¤áł¸áł± áł¯áłłáłŃáł¤áł¯áł¤áł¨
Ġáłª áł¯áł¤áłŃ
áł¢áłŃ áł³
Ġáł¬áł¤áł¯ áł¤áł°áł¤
Ġáł¡áł·áł¬áł¢áł® áł¯áł¡áł¨
Ġáł¨áł¡áłªáł²áł¡áł· áł¡áłŃáł°áł¡áł¨
Ġáł°áł¡áł³ áł¡áł¯áł²áł¡
Ġáł¨áł¡áłªáł²áł¡áł¯ áł¦áł¨
Ġáł¨áł¤áł· áłłáłŃáłłáłµáł¤
A D
áłłáł³ áłłáłµáł¤
ĠáłªáłłáłŃáł¤áł· áł¢
Ġáł¤áł¶áł¤áł¨ áł´áł¢áł¯
Ġáł°áł¢áł® áł²áł¡
U V
Ġáł¦áł·áł³ áł¡áł¬áł¡
20 23
Ġáł³áłłáłŃáłłáłŃ áł¤áł¯áłŃ
Ġáł°áł¡áł©áł¬áł¡áł· áł¡áłŃáł¦áł¯áł¦áł¯
Ġáł¶áł¡áł· áł¡áłŃáł¡áł³
Ġáł¢áł³áł¡áłªáł¬ áł¢áłµáł¢áł¯
Ġáł¥áł©áłŃ áł¡áł¯áł¡áł¬áł¦
Ġáł®áł¥áł· áł³áł¡áł¬áł¦
Ġáł¢áł· áł¥áłŃáł¡áł¯
Ġáł®áł¥ áł©áł¬áł¡
Ġáł¦áłµáł¡áł® áł¦áł·áł¢
Ġ5 4
Ġáł¬áł¡áł·áł´áł¡áłŃ áł¡áł¶
Ġáł£áł·áł£áł¯ áłłáłµáł¤
áłª áł¡áłŃáł¡áłµáł¢áł©
Ġáłªáł¤áł¯ áł¢áł¶áłłáł¨
áł¤áł° áł²
Ġáł¬áł¡áł³ áł¦áł¬áł¡áł¨
Ġáł¥áł¨áł³áł¥áł· áł¯áł¢áłŃ
Ġáłªáł¡áł¯ áł¡áł³áł¬áł¡áłŃáł°áł¡áł¨
áłłáł¯áłµ áłłáł¨
Ġáł¬áł£áłŃáł£áł° áł£áł·
Ġáł·áł£áł® áłł
Ġáł® áł¤áł®áł¸áł¨
Ġáł¨áł¡áłªáł²áł¡áł· áł¡áłŃáł¦áł¯áł¦áłŃáł´áł¢
as s
áł¤áł¶áł¢áł ª
Ġáł´ áł¤áł¯áłŃ
Ġáł¶áłłáłª áł¤áłŃáł³áłłáłŃáł°áłłáł¨
Ġáł« áł¦áł¨
ĠA R
Ġáłªáł¦áł³áł¦áł· áł¢áł¯
Ġáł²áł£áłŃáł£áł· áł¢áł¯
Ġáł¬áł¦áł° áł¡áłŃáł°áł¡áł¨
Ġáł« áłłáł°
Ġáł£áł² áł£áłŃ
Ġáł¢áł¯áł¡áł³áł¬ áł¡áłªáł¡
áł¦áł¢áł¸ áł¸
Ġáł¦áł·áłŃáł¦áł¯áłµáł¢áł¯ áł¡áłŃáł¦áł¯áł¬áł¦
Ġáł²áłłáł¯áłª áł¢áłŃáłłáł³
Ġáł¯áłłáłªáł¯ áłłáł¯áłŃ
áł¤áłŃ áł°áłłáłŃáłłáł·
Ġáł²áł¡áłŃ áłłáł·
áł¢áł° áł¤áł²áł¤
Ġáł²áł£áłŃáłłáł´áł¢áł¯ áłłáł¯áł²áłł
P A
Ġáł¥áł¯áł¥ áł°
áł¢áł¶ áłłáł°áł¤
Ġáł¬áł¡áłª áł¯áł¡áł¬áł¦
Ġáłªáł£áł·áł³ áł£áłŃáł£áł·
Ġáłªáłłáł¯áł´ áł¢áł·
Ġáł¥áł¨áł¥ áł´áł¢áł¨
áł¢áł¶áłłáł¯ áłłáł¬áł¤
ĠU RL
Ġáł·áłłáł³ áłłáł·
Ġáłªáłłáł¶áł¢áł·áł¢áł° áł¢áłµáł¤
Ġáł¥áł·áłŃ áł¡áł³áł¬áł¡áłŃáł°áł¡áł¨
Ġáł¬áłłáł·áłłáłŃáłłáł¯áłµ áłłáłµáł¤
ĠâĢĶ âĢĶ
Ġáł²áł¦áł·áł¬ áł¢áł¬áł¦
Ġáł¨ áł¦áł³
Ġ25 0
ĠLin ux
Ġáł²áłłáł¨áłŃ áł°áłł
Ġáłªáłłáł¶áł¢áł´ áłł
Ġáłµáł¢áł© áł¯áł¡áłŃáł¦áł·
áł¡áłŃ áł¡áł¯áłŃáł¡
Ġáł´ áłłáł¨
Ġáł²áł¢áł²áł¢áł® áł¯áł¢áłŃ
ĠáłŃáłłáł¯ áłłáłŃáł¤
áł¸ áłł
Ġáłªáł¤áł³ áł¤áł¯áł³áłł
ĠP S
Ġáł°áł¤áł·áł¤áł¯áł´ áłłáłŃáł°áłłáł¨
b er
Ġáłłáł©áłŃáł¢áłµáł¢áł· áłłáłŃáł¤áł¯áł¬áł¤
Ġáł²áł¥áł°áł¦áłª áł¯áł¡áł¬áł¦
Ġáł´áł¢áłª áłłáłŃ
áł¡áł· áł¡áł¶
Ġáł®áł¥áł·áł¥ áł¶áł¢áł
Ġáłªáł¦áł³ áł¦áł¬áł¡áł¨
Ġáł®áł¡áł³ áł¡áł¬áł¦áł¶
Ġáł±áłłáłŃáłłáł·áł³ áłłáłŃáł³áłłáł¬áł¤
Ġáł²áłłáł¢ áł¢áł´
ãĢ Ī
áł°áł¢áł¯ áł¡áł¨
Ġáł²áł¡áłŃ áł¦áłµáł¦
O M
Ġáłº áłłáł¯áł¢
Ġáł¤áł³ áłłáłŃáł°áłłáł¨
Ġáł¤áł°áł¤áł¯ áłłáł¯áł²áłł
Ġáł°áł¦áł·áł¦áłŃ áłµáł¢áł¯
Ġáł¨áł¡áłŃ áł¦áł³
Ġáł¢áł³ áł¡áł¨
ĠáłªáłłáłŃ áłłáłª
Ġáł³ áłłáł°áł¢
Ġáł¶áł¡áł· áł¦áł³áł¡
Ġáł¡áł¬áł¢áł¯ áł¡áłµáł¡áł¶
áł¢áł£áł ¯
Ġáł¨áłłáł¬ áł¢áł¶
Ġáł®áł¥áł·áłŃáł¥áł¯áł³ áł¦áł¬áł¦
Ġáł³áł¡áłŃ áł¦áł¸
Ġáł³áł¥áłŃáł¥áł®áł´áł¢áł¯ áł¡áłŃáł¡áł³
I I
Ġáł°áł¢áł©áłŃ áł¡áł·
áłŃ áł¡áł®
Ġáł¬ áł¢áłªáł¡
Ġáłµáłłáł³áłłáł¯ áł¤áłŃáł´áł¢
Ġáł²áł¤áł¬áł¢áł· áłłáłŃáł¤áł¯áł¤áł¯áł³áłł
áł¶ áł¡áł·
Ġáłªáł£áł¯áłŃ áłłáł¶
Ġáł²áł£áłŃáł²áłłáłŃ áłłáłªáłł
Ġáł²áł¦áł· áł¬áł¢áł®áł¡áł¯
Ġáł³áł¡áł¯áłª áł¡áł´
áłµáł¢áł· áł¤áłŃ
Ġáłł áł¦áł²
ĠAn d
Ġáł¨áłłáł® áł³áłłáłŃáł¤áł¯áł¬áł¤
áł¦áł «
Ġáł³ áł§áł¦
áł£áł µáłłáł¶
Ġáł³áł£áłŃáł¢áł· áłłáłŃáł¤áł¯áłµáł¤
áł¢áł· áł¡áł¬áł¦
Ġáł¤áł·áł¤áłŃ áł¤
Ġáł¡áł°áł¡áł·áłŃ áł¡áł¨
Ġáłªáł¢áł¯áł¢áłŃ áł²áł¦
Ġáłµáłłáł¯áłŃáłłáł®áłµáł¢áł¯ áłłáłµáł¤
T A
Ġáł¬áł¡áł¯ áł¡áł¶
Ġáł¬áłłáł¶áł¢áł´ áł¢áł¯áłłáł¬áł¤
Ġáł¬áłłáł·áł¢áł´ áłłáłŃáł¤áł¯áł¤áłŃáł°áłłáł¨
or k
áł¤áłŃáłłáł· áł¯áłłáł¯
Ġáł°áłłáłª áłłáł¨
Ġáł³áł¡áłªáł° áł¢áłµáł¦
Ġáł¬áłłáł· áłłáłŃáł°áłłáł¨
Ġáł¨áł¢áłŃ áł¡áł³áł¬áł¡áłµáł¦
Ġáł¬áłłáł·áłŃ áł¤áłŃáł¤áł¯áł¤áł¨
Ġáłµáłłáł® áłłáłŃ
Ġáł° áł¡áłŃáł¦áł·áł¡áł°áł¦
áł¦áłŃáł¡áł· áł¡áł¶
Ġ0 5
Ġáł²áłłáł¶áł¢áłª áł¤áł°áł¢áł·
Ġáł¦áł·áł¦áłªáł³ áł¡áł°áł¦áł¨
ĠáłŃ áł±áłłáł¨
Ġáł²áł¦áł· áł¬áł¢áł¨
m in
Ġáł¤ áł©áłŃ
Ġáłµáł¢áł·áł¤áł® áłµáł¢áłŃáł¤áł¯áł¬áł¤
Ġáł³áł£áł¯ áł£áłŃ
Ġáł²áł£áł¬áł¢áł· áłłáł¯áł´
6 4
Ġáł²áł¤áł¯ áłłáł³áłł
Ġáł¬áłłáł¯áł¢áł° áł¤áł¯áł¢áłŃ
Ġáł³áł¡áł·áłŃ áł¡áł³áł¡
en d
Ġáł®áłłáłŃ áłłáłµáł¢
áł¢áł¸áł¸áł· áł«áł¦
ĠáłłáłŃáł¤áł°áł¤áł¯áł´ áłłáłŃáł¤áł¯áł¬áł¤
Ġáł¹áł¢áł¯ áł¢áł«
Ġáł¡áł·áłŃ áł¦áł®áłµáł¢áł¯
Ġáł´áł£áł· áłŃáł£
Ġáł³áłłáłŃáłłáł· áł¢áł¨
Ġáł¥áł©áłŃáł¡áł·áł¡áłŃ áł¡áł¬áł¦
Ġáł¬áł¡áł·áł¡áłŃáł¯ áł¡áłŃáł³áł¡áł¬áł¦
i st
Ġáł´áł£áł¯áłŃ áł£áł·áłłáł¨
Ġáł²áł¤áł° áłłáł³áłł
Ġ y
Ġáł¨áł¤áłŃ áł¤áł°áł¤áł¨
Ġáłłáł©áł¬áłłáł· áł¤áł¨
Ġáł¬áłłáł· áłłáłªáłł
Ġáł¯áł¸ áł¨
áł´ áłłáł¢
ĠáłŃáłłáłŃáł´ áłłáłŃáłłáł·áł³
Ġáł± áł¤áł¤
Ġáł³áł¤áł· áłłáł²áłłáł¢
Ġáł¬áł¦áł¯áł¢áł¶ áł¡áłŃáł°áł¡áł¨
Ġáł¢áł¯áł¡áł· áł¡áłŃáł¦áł¯áłªáł¡
ĠáłłáłŃáł¤áł°áł¤áł¯áł´ áłłáłŃáł¤áł¯áł¤áł¨
Ġáł¡áłŃáł¡áł¯áłµ áł¢áł¯áł¡áł¨
áł® áł¢
Ġáł¢áł· áł¡áł¯áł²áł¡áł¶
Ġáł½ áłłáł¢
Ġáłłáłªáłłáł· áł¢áł¬áł¤
áł¢áł¶ áł¸
áł¢áł£áł¯ áł£áłŃáł¢
ĠQ Q
r an
Ġáł¬áł¡áł® áł¬áł¡
áł£áł· áłłáł¨áł²
Ġáł¨áł¡áł·áłª áł¡áłŃáł³áł¡áł¬áł¦
e ch
Ġáł¬áłłáł³ áłłáł©
Ġáł°áł¢áł· áłłáłŃáł³áłłáł¬áł¤
Ġáł²áł£áł·áłŃ áłłáł¬áł¤
Ġáł°áłłáł· áłŃáłłáł¶
Ġáł³ áłłáł°áł¤áł·
Ġáł¨áł¡áłªáł²áł¡áł· áł¬áł¡áł¶
on g
ou r
Ġáł¥áłŃ áł¦áłŃáł°áł¡áł¨
áł£áł³ áł£áł¬áłłáł¨
áł¬áł¡áł¨ áłłáłŃáł¤áł·
Ġáł°áł£áł¨áł¢áł· áł¬áłłáł¨
Ġáłłáł¯áł³ áłłáł°áł¢
áłłáł· áł¬áłłáłŃ
Ġáł¬áł¡áł·áł¡áłŃáł¯ áł¡áłªáł¡
áł´ áł¢áł²áł¤
ĠS c
Ġáł¬áł¡áł¦áł· áł¡áłŃ
0 2
Ġ200 2
Ġáł¤áł¶ áłłáł¯áł³áł¤áł¯
áłłáł© áł¬áłłáł¶
áł¸ áłłáł·
T M
Ġáł²áł§ áł°áł¯áłł
Ġáł°áł¢áł¶ áł£áł¤
Ġáł¬áł¤áł·áł¢áł¶áłłáł©áłŃáł¤áł¶áł¢áł¯ áłłáłªáłłáł¯
ĠáłŃáł¢áł¨ áł³áłłáł¨
Ġáł¬áłłáłŃáł¤áł· áł¤áłŃáł°áłłáł¨
Ġáłªáł¥áłŃáł¡áł· áł¡áł¨
Ġáł¯ áł¢áł¸áł¸áł·áł«áł¦
ĠáłŃ áł£áł¬
áł¤áłµ áł¢áłŃáł¤áł¯áł¬áł¤
Ġáł³áłłáł· áł¤áł¤
Ġáł¶áłłáł© áłµ
Ġáł¶áłłáłªáł¤áłŃáł³ áłłáłŃáł¤áł¯áłµáł¤
Ġáł¡áłª áł³áł¡áł¯
ĠU n
Ġáł¬ áł£áł¢
Ġáł²áł¤áł¤áł± áł¯áłłáłŃáł¤áł¯áł¤áł¨
ĠáłŃáł¢áł¯áłłáł¶áł¢áł ¯áłŃáłłáł¬áł¤
Ġáł²áł¡áłª áł´áł¢áłµáł¦
Ġáł²áł¤áł¶áł¢áł ¯áł°
ĠCP U
Ġáł²áł¥áł¯áł¥áłªáłµáł¢áłŃ áł¦áł¯áłµáł¦
Ġáł²áł¡áł©áłŃáł¡áł¯áł¢áłŃ áł²áł¦
Ġáł¹áł¢áł½ áł¢áł£áł¯áł£áłŃáł¢
Ġáłµáł£áł·áł¢áłŃáłµáł¢áłŃ áł¤áł¯áł¤áł¨
Ġáł¡áłµáł¡áł® áł³áł¡áłŃáł°áł¡áł¨
h one
áł¡áł¶áł¢áł µ
Ġáł¨ áł¸áł©
Ġáł³áłłáł°áł¤áł· áłłáł¯áł³áłł
ĠáłłáłŃ áł¤áł³áłłáł¯
Ġáł²áł£áłŃ áłłáł¯áłłáł¯
Ġáł²áł¡áł¯ áł¡áłª
Ġáłªáł¦áł° áł¡áł¯áł¡áłŃáł¦áł·
Ġáł³áłłáłŃáł¤áł° áł¬áłłáłµáł¤
áł¢áł ¼
áł¬áł¢áł¯ áłłáł¬áł¤
Ġ6 6
ĠáłłáłŃáł¤áł¯ áłłáł·áł¬áłłáłŃ
ĠâĢ¦ âĢ¦
Ġáł´áł¢áłŃáł¯ áł¡áłŃáł¦áł¯áł¦áłŃáł°áł¡áł¨
Ġáł²áłłáł² áłłáł·áłłáłŃáł¤áł¯áł¬áł¤
i an
Ġáł°áłłáł¨ áłłáłŃáł³áłłáł¬áł¤
Ġáł¬áł¥áł³áł¡áł¯áłŃ áł¡áł®
Ġáł°áł¤áł©áłŃ áłłáł¬áł¤
Ġáł¤áł´áłłáł· áłłáłŃáł¤áł¯áł¤áłŃáł°áłłáł¨
Ġáł¤áł¨áł²áłłáł· áłłáłŃ
áłªáł¥áł¬áł¥ áł³áł¡
Ġáł²áł¦áł·áł¢áł¶áł¡áł°áł¦áł¯ áł¡áł¯
Ġáłªáł¡áł¶áł¡áł¯ áł¡áłŃáł¦áł¯áłªáł¡
Ġáł®áł¤áł¨ áł³áłłáłŃ
áł¤áł· áł¢
Ġáł°áł¦áłª áł¡áłŃáł´áł¢
Ġáł®áł¢áł¨ áł´
Ġáł¨áł¥áłŃ áł¡áł´
Ġáł£áł·áł£áł¯áł´ áłłáłµáłłáł¶
Ġáł¦áł°áł¦áł· áł¦áł¨
Ġc ook
Ġáłªáł¡áł· áł¢
ĠA S
Ġáł¤áł·áł¤áłŃáł°áł¢áł¯ áłłáł¯áł²áłł
h a
áłłáł¹ áłł
Ġáłªáł¤áł´áłłáł¯ áł¤áłŃáł°áłłáł¨
Ġáł¬áł£áł¶áł¢áł ´áł¢
Ġáł¬áł£áłŃáł£áł¯ áłłáł¢
Ġáł¯ áłłáł¢
ĠF aceb
Ġáłªáł¡áł¯áłŃáł¡áł³ áł¡áłµáł¦
Ġáłłáłµáł¢áłŃ áł¯áłłáł¨
Ġáł¬áłłáł° áł¢áł¯áłł
Ġáłµáł£áł© áł¬áł¢áł¯áłłáł¬áł¤
Ġáł¬áłłáł·áł¢áł¶áłłáł¯ áłłáłŃáł³áłłáłµáł¤
Ġáł²áłłáł·áł¬áłłáłŃ áłłáłŃáł´áł¢
Ġáł¬áł¡áłª áł°áł¢áł®áł¡áł¯
Ġ19 5
ĠA d
Ġáł®áł¡áł³áł¡áłŃáł³ áł¡áł®
áł¢áł³ áł¬áł¡áł¨
Ġáłªáł¡áł¶áł¡áł¯ áł¡áłŃáł¦áł¯áłµáł¡áł¶
Ġáł²áł¦áłª áł¡áłŃáł²áł¡áł¶
áł¢áł· áł®
Ġáł£áł¯áłŃ áł£áł®
áł¡áł² áł¡áłŃáł¡áł¶
Ġáł£áł¨áł£áłªáł´ áł¢áł²áłłáł¢
ĠP E
Ġáł³áłłáł®áłµ áł¢áłµáł¤
Ġáł¬áł¦áł´áł¢áł·áł³ áł¡áł¯áł²áł¡áł¢
Ġáł¦áłµ áł¡áłŃáł³áł¡áł¬áł¦
Ġáł¬áł¤áł¸áłłáł© áł±áłłáł¨
Ġáł±áł¤áł¸ áłŃáł¢áł¶áłłáł¨
i z
ĠáłŃáł¦ áł¢áł¯
Ġáłªáłłáł¬áłłáł· áł¬áłłáłŃáł´áł¢áł³
Ġáł°áłłáł¨ áłłáłŃáł³áłłáł³áłłáłŃ
Ġáł²áłłáł² áłłáł¨
áłłáł¶áł¢áł² áł¤
Ġáł· áłłáł¨
Ġáł²áł¤áł¯áłŃáłłáłŃáł¤áł· áł¢áł¯áłłáł¬áł¤
áł¸áłº áł°áł²
Ġáł®áł¥áł· áł³
áł¸ áł¯áł
ĠáłŃáł¦áł¨ áł´áł¡
Ġáł®áłłáłŃ áł¤áł¬áłłáł¶
Ġáł¨áłłáłŃáłłáł¯áł³áł¤áłŃ áł¤áł¯áł¤áł¨
Ġáł¬áł¥ áł¬áł¡áł¨áłłáłŃáł¤áł·
in a
Ġáł£áł¯áłŃáł£áł® áłµáł¢
Ġáł³ áłłáłŃáłłáł¨
Ġáł°áłłáł¯ áł¤áł¨
áłłáł¨ áłł
Ġáł²áł¤áł¶ áłłáłŃáłłáł¨
Ġáł°áł¢áłª áłłáłŃ
áłłáł©áłŃ áł¢áł·
Ġáłłáłªáł´ áł¢áł¬áł¤
Ġáł¬áł¡áł¯áł¡áł¯áł´ áł¡áłŃáł¡áł¨
Ġáłª áł¤áłŃáł¤
Ġáł³áł¤áł²áłłáłŃ áł¤áł³áłłáł¯
Ġáł³ áł¤áł¬
Ġáł²áł¡áł° áł¦áł·
ĠáłŃ áłłáł²
Ġáłªáł¤áł´ áłłáł¨
Ġáłłáł®áłłáł· áłłáłŃáł°áłłáł¨
Ġáłµáł¢áłŃáł¤áł¯áł´ áł¢áł¯áłłáł¬áł¤
Ġáł±áł¤áł¸ áłłáł°áłł
áł£áłª áł£áłŃ
Ġáł¬ áł¦áłŃ
ĠáłŃáłłáł·áłŃ áłłáłŃáłłáł³
5 00
20 20
Ġáł¬áł¤áł·áłłáł®áł³áł¤áłŃ áł¤áł¯áłŃ
Ġáłłáł·áł¢áłŃáł¤áł³ áł¬áłłáłŃáł¤áł·
áł¢áł¯ áł¡áłªáł¡
Ġáł³áł¢áłŃ áł¯áł¢áł®
Ġáł´áł¢áł¬áł¤áł¯ áłłáł²áłłáł¢
Ġáł²áł¤áł°áł¬ áłłáł¯áł²áłł
Ġáłµáł¢áł¶áłłáł© áł¶
ĠáłŃáł¥áł· áł³áł¡áłªáł¡
Ġáł£áł¯áłłáł¨ áł²áłł
Ġáł°áł¥áł¨ áł¢áłµáł¢áł¨
áł¬ áł¡áł¦
Ġáłªáłłáł¶áłłáł· áł¯áłłáł¯
Ġáł°áłłáł´áł¤áł· áłłáł©áłŃáł¤áł¶
áłłáłº áłł
Ġ ?
Ġáł¬áł¢áł³ áł¦áłŃ
Ġáłºáłłáł¯ áł¢áł¹
Ġáł²áł¡áł¯áł¡áłª áł¡áł¢
Ġáł²áłłáłª áł°áł¢áł¯áł³áłł
O L
Ġáł°áł¢áł¯ áł¦áłŃáł´áł¢
Ġáł¾áł· áł£áł®
Ġáłłáł®áłµ áł¢áł¯áł²
Ġáł´áł¤áł¯áłŃ áł¤áł¶
áł¯ áłłáłªáłł
Ġáł²áł¤áł· áł¤áł¢
Ġáłłáł·áłłáł³ áł´áł¢áł¯áłłáł¯
Ġáł²áł¡áłŃáł¦áł¯áł³áł¡áł· áłµáł¢áłŃáł¦áł¯áł¦áł¨
Ġáł¬áł¦áł· áł¢
áł£áł° áł¤
áł¤áł·áł¨ áł¢áł¶
Ġáł¬áł¥áłŃ áł°áł¢áł¨
Ġáł´ áłłáłªáłł
Ġáłµáłłáł® áł¸áł°
Ġáł±áł¤áł¤áłŃ áł¢áł¢
áłµáł¢áł¶ áł¤áł¤
ĠáłŃáł¦áł· áł¡áł¯áłµáł¡áłŃáł¡áł¨
Ġáł¬áł¦áł· áł¬áł¢áł·
Ġáłªáł¢áł²áł¡áłŃáł¦áł®áłµáł¢áł¯ áł¡áł¨
Ġáłµáł¦áł¯áłŃ áł¦áłµáł¦
Ġáł¡ áł¸áł¤
Ġáł¢áł¯áł¡áł· áł¡áłŃáł¦áł¯áł¦áł¯áł²áł¡
Ġáł®áłłáł² áł§áł·áł¢áł¶áłłáł¯
Ġáł´áłłáłŃ áłłáł°
áł¢áł¶áł¡áł³ áł¦áł®
áł¢áł¯áł¢áłŃ áł¡áł·
Ġáł¯ áłłáł©áłŃ
Ġáł¬áł¦áł¨áł³áł¦áł³ áł¬áł¡áłµáł¦
Ġáł¢áł© áł²
Ġáł³áł¡áłªáł²áł¦áłŃ áł¡áłµáł¦
áłłáłŃáł³ áłłáłŃáł´áł¢
áł¤áł· áł³
Ġáłµáł¥áłªáł°áł¢áł¶áł¡áł· áł¡áłŃáł¦áł¯áł¬áł¦
Ġáł³áł¡áłªáł¢áł° áł¬áł¦
Ġáł¦áł¶áł¯áł¡áł³ áł´áł¦
Ġáłªáłłáł´áł¢áł® áł³áłłáł¨
ĠáłłáłŃáł¤áł³ áłłáł¯áłµáł¤
ï¼ ½
Ġáł¢áł¨áł¢áł¶ áł¡áł³áł¦
ł ¶áł¢áł¯
á ł¶áł¢áł¯
Ġáłªáł¦áł·áł¬ áł¦áłµáł¦
áł¤áł ½
Ġáł¬áłłáł¨ áł²áłłáłŃ
ĠC o
Ġáłªáł¦áł²áł¦áłŃ áł¡áłŃáł´áł¢
Ġáłłáł° áł²áłłáłŃáłłáł¨
Ġáł²áł¡áł°áłªáł¦áł· áł¢áł¯áł¡áł¬áł¦
X X
m l
Ġáł°áłłáł¨ áłłáłŃáł³
Ġáł±áł§áł¨ áł¶áłłáł©
Ġáł¤ áł¢áł¯áł¢áłŃáł¡áł·
Ġáł¬áł¡áł° áł¢áłŃ
Ġáł´áłłáłŃáłłáł° áł¢áł¯áłłáłŃáłłáł³
Ġáł°áł¡áł·áłŃ áł¦áł¯áł²áł¡
áł¤áł¯áł´ áłłáłµáł¤
Ġáłªáł£áł·áł£áł¯ áłłáłŃáł¤áł¯áł¤áłŃáł´áł¢
ÑĢ Ð
áłº áł¢
Ġáł³áłłáłª áłłáłŃ
Ġáł´áłłáł¬ áł¢áł·áł®
Ġáł¬áł¤áł·áłłáł®áł³áł¤áłŃ áł¤áł¯áł¤áł¯
ĠApp le
Ġáł´ áł£áłªáł£áłŃ
as h
i le
Ġáł²áł£áłŃáł£áł· áł¢áłµáł¤
áłª áł£áł
Ġáł±áłłáł¯ áłłáł®áłłáłŃáłłáł¶
T V
Ġáłłáł· áł¢áł¯
Ġ6 8
A P
ag e
Ġáłłáłªáł¤áł· áłłáł¯áł³áłł
Ġáł³áł¡áł¯áł¡áł¬ áł¡áł¶áł¢áłµ
Ġáł¬áł¢áł´áł¢áł¶ áł¡áł¯áł¯
Ġáł¬áł¤áł·áł¤áł¬áłłáł¢ áł¢áł²áłłáł¨
Ġáł³áłłáł· áł¤áłŃáł°áłłáł¨
áł¤áłŃ áł¤áł¯áł³áłłáłŃ
Ġáł¢áł¨ áł¢áł¶áł¡áł³áł¦áł®
Ġáł°áł¢áłª áłłáłµáł¢
Ġáłºáłłáł¯áł¢áł¹ áł¤áł·áł¨áł¢áł¶
Ġáł²áł¡áł· áł°
S S
áłª áł¸áł·
Ġáł¦áłŃ áł¡áł¶áł¢áł·
Ġáł°áł£áł· áł£áłµáł¤
ĠE n
Ġáł¥áł®áł´áł¢áł¯ áł¡áłŃáł³áł¡áł¨
Ġáł¨áł¡áł¬áł¡áł®áłµ áł¢áł¯áł¡áł¬áł¦
Ġáł¡áł® áł²áł¦
Ġáł¤áł·áł¤áł° áł´áł¤
Ġáł°áł¢áł¨ áł¡áł³áł¬
Ġáł²áłłáł· áłŃáł¤áł¨
Ġáłłáł·áłłáł´áł¢áł¯ áłłáł¯áł²áłł
Ġáł¬áł¥áł³áł¡áł¯ áł¦áłŃáł°áł¡áł¨
áł¡áłŃáł¡áł³ áł¦áł¶
áłłáł¯áłłáłŃ áł°áłłáłŃáłłáł·
áłłáł´áł¢áł¯ áłłáłŃáł°áłłáł¨
Ġáł²áł¦áłŃáłµáł¢áł· áł¡áł¯
Ġáł¢áł¯ áłłáłµáłłáł¶
Ġáł¬áłłáł©áłŃ áłłáłŃáł´áł¢
Ġáł²áł£áłŃáł² áłłáłªáłł
Ġáł¥áłŃáł¦áł¯ áł¡áł¬áł¦
20 21
Ġáł¶áłłáł³ áłłáł·áłłáł¬áł¤
ĠáłŃáł¦áł¶ áł¦áł³áł¡áł¯
Ġáł¥áł° áł¬áł¡áł¨
Ġáł¬áł¦áłª áł¡áłŃáł¡
ĠC N
ĠáłłáłŃ áłłáłŃ
Ġáłµáł¢áł· áł¦áł¬
Ġáł¤áł·áł® áłłáł°
Ġáł¬áł¥ áł¬áł¥
áłłáł· áł¢
Ġáłµáł¢áł·áł¤áł®áłµáł¢áłŃ áł¤áł¯áł¤áł¨
Ġáł¬áłłáłŃáłłáł· áłłáł¬áł¤
p e
ĠáłªáłłáłŃáłłáłª áłłáłŃáłłáł¶
n m
Ġáł¶ áł£áłŃ
Ġáł¬áłłáł·áł°áł¢áł¯ áłłáł¬áł¤
Ġáł¥áł© áł¬áł¥áł·
Ġáł³áłłáłŃáł¤áł· áł¢áł¶áłłáł¬áł¤
Ġáł¤áł· áł¬
Ġáł¬áł¡áł¯áłªáł¡áł¶áł¢áł Ń
Ġáł°áł¢áł¬ áł¦áł·
Ġáł²áłłáłŃ áł¯áłłáł¬áł¤
Ġáł¬áł¤áł³áł¬ áł¤áł¯áł³
Ġáłłáłª áł´áłłáłŃ
ĠáłŃ áłłáł©áłŃáłłáł©
Ġáł¯ áł¢áł®
Ġáł¬áł¦áł¢áł³ áł¡áłł
ĠáłªáłłáłŃáł²áłłáłŃáłłáł® áłµáł¢áł²áł¤
Ġáł¡áłŃáł¦áł° áł¦áł¨
Ġáł°áłłáł· áł¨
Ġ5 3
Ġáł¥áł¨áł´áł¥áłŃ áł²áł¦
er v
Ġáł¨áł£áł¶ áłłáł³
áłłáłŃáł³ áłłáłŃáł°áłłáł³
Ġáł¨áłłáł¶áł® áłłáł¯áłµáł¢
Ġáł¨áł¡áłªáł´áł¢áłŃ áł¦áł¯áł¬áł¦
Ġáł°áł¢áł·áłª áł¥áł°áł¥áł¨
Ġáł£áł·áł£áłŃ áł´áł¢
Ġ6 000
Ġáł²áłłáł°áł¤áł· áłłáł¬áł¤
Ġáł°áł¢áł² áłłáłŃáłłáł¨
Ġáł°áłłáł¶ áł¢
Ġáł¬ áł¤áł©
Ġáł¬áł¡áł²áł¦áł· áł¡áłªáł¡áł¯
Ġáł¨áł¢áł· áłŃ
Ġáł³áł¤áł· áłłáł¨
Ġáł¬áł¥áł³áł¡áł¯ áł¦áł¨
Ġáłµáł¢áł·áł¤áłŃ áł¯áłłáł¨
Ġáł¢áł¯áł² áłłáł°áł¤áł¨
Ġáłłáł·áł¢áł¯áłŃ áłłáłŃáł¤áł·
Ġáł¢áł¯áł¡áł³áł¬ áł¡áł³áł¡áłŃ
Ġáł¿ áł¢
Ġáł¬áł¦ áł¦áł·
áłłáł¢ áł¢áł¨
Ġáł¨áłłáł¶áł¢áł· áłłáł¯
av a
Ġáłµ áłłáł¶áł¢áł³
áłłáł¯áł ®
Ġáł¬áł¤áł³áł¬ áł¤áł¬áł¤
áł¯áł¸ áł°
Ġáł²áł¥áł¯áł¥áłªáłµáł¢áłŃ áł¦áł¯áł¦áł¨
áł¡áł´ áł¢áł³
Ġáł¢áł³áł¡áłŃáł³ áł¡áłŃáł¦áł¯áł¬áł¦
áł¡áłª áł¡áł°áł¦
Ġáłµ áł¡áł·áł¯áł¢áłŃ
7 2
Ġáł³áł¤áł¯áłłáłŃ áłłáł´
Ġáł¬áłłáłª áł¤
Ġáłªáł¥áłŃáł¡áłŃáł¡áł¨ áł¡áłªáł¦áł·áł¢
áł¯áł §
Ġáł¦áł· áł¦áł¬áł¦
I A
áł´áłłáł¬ áł¢áł¯áłŃáłłáł¨
p s
Ġáł¨áł¢áłŃáł¤áł· áł³áłłáł¬áł¤
Ġáł¬áłłáł®áł¤áł· áł¬áł¤
Ġáłªáł¦áł° áł¡áłŃáł¦áł¶
Ġáł¢áłª áł¡áłŃáł¡áł°áł¦
Ġáł°áł¢áłŃáł¤áł· áł¬áłłáł¶
T F
Ġáł¬áł¡áł® áł¡áł·áł¯áł¢áłŃ
Ġáłµáł¤ áł¤áł¬áłłáł¨
Ġáł²áł¡áł¸ áł¬áł¡áł¨
Ġáł²áłłáłŃáłłáł· áłłáłŃáł¤áł¯áł¤áłŃáł°áłłáł¨
Ġ in
Ġáł¬áł¤áłª áł¸
ac e
Ġáł² áł¤áł¢
Ġáł³áłłáł®áłµáł¢áłŃ áł¤áł¯
Ġáł° áł¦áł°áł¦áłŃ
Ġáł± áłłáł¹áłł
Ġáł°áł¢áłŃ áł°áł¢áł¨
Ġáł¨áł¡áł·áłªáł¡áłŃáł³ áł¡áłŃáł°áł¡áł³
Ġáł°áł¢áł¯áł² áłłáłŃ
Ġáł³áł¤áłŃ áłłáł©
Ġáł¢áł· áł¡áłµáł¤
Ġáłµáł¥áłªáł³áł¡áł¯áł´ áł¡áł¬áł¦
âĮ ²
Ġáł¬ áł¤áł®
ĠáłŃáł¡áł¯áł³ áł¦áł·áł¢áłŃáł¦áł¯áł¬áł¦
Ġáł³áł¡áłªáł°áł¢áłŃ áł°áł¡áł¨
Ġáłªáł¤áł´ áłłáłŃáł°áłłáł¨
Ġ5 9
Ġáł¢áł¯áłŃ áłłáł·áłłáłŃáł¤áł¯áł¬áł¤
i x
áł° áł¦áł¨
Ġáł¦áłµ áł¡áłŃáł¦áł¯áłªáł¡
Ġáł²áłłáł¯ áłłáłŃáłłáł·
Ġáł²áł¤áł¯ áł¢
Ġáł³ áł¡áł·
Ġáł¡áł¯áłŃ áł¦áłµáł¦
áł¢áł¯ áł¦
Ġáł± áł§
Ġáł³áłłáłŃáł¤áł³ áłłáł¯áłŃ
Ġáł±áł¤áł¸áłłáł° áłłáł³áłłáł¬áł¤
Ġáł³áłłáłªáł¬áł¤áł´ áłłáłŃáł°áłłáł¨
Ġáłµáł¢áł·áł¤áłŃ áł²áł¤
Ġáł¯ áł¡áłªáł¡áł·
Ġáłªáł£áł¯ áłłáł¢
s s
Ġáłªáł¦áł¯ áł¢áłŃáł¦áł·
Ġ7 00
Ġáł¨áł¡áł® áł¡áłŃáł¡áł³
4 6
Ġáł®áłłáłŃ áł¤áł²áłłáł¶
Ġáł¬áł¥áł©áłŃáł¡áłµ áł¢áł¬áł¦
Ġáł¬áł¤áłªáł¢áł· áłłáł¨
áł¡áł· áł¬áł¦
Ġáł¨áł£áł® áł£áł¨
Ġáł²áłłáł¯ áłłáł²áł¤
Ġáł¤áł· áł¢áłŃáł°áłłáł¨
Ġáłª áł¡áł¯áł´
Ġáł°áł¦áł¨ áł³áł¡áł·
Ġáł³ áł¤áł¤áł·
Ġáłªáłłáł·áł¤áłŃ áł²áłłáł¶
Ġáł¬áł£áł¶áłłáł· áł¬áłłáł¨
áłłáł ¾
Ġáł²áł¡áł¶áł¢áł ·
Ġáłµ áł¡áł·
Ġáł°áł£áłŃáł²áł£áłŃ áł¤áł·
áł¡áł´áł¢áł¯ áł¡áłŃáł°áł¡áł¨
Ġáł®áł¡áł¨áł³ áł¦áł´
Ġáł¬áł¡áłª áł¡áł·áł¡áłŃ
Ġáł¥áł©áłŃáł¡áł·áł¡áłŃ áł¡áłŃáł¡áł³
áł¬ áł¡áłŃáł¡
Ġáł¬ áłłáł³áłł
Ġáł¨áł¡áł¶áł¢áł²áł¡áł¯ áł¡áłµáł¡áł¶
Ġáłª áł¦áłŃ
Ġáł´áł£áł¬ áł£áł¯
9 001
Ġáł°áł¡áł¯áłª áł¢áł¬áł¦
Ġáł¬áł¤áł¶áłłáłŃ áł²áł¤
Ġáłªáł¡áł¶áł¡áł¯ áł¡áłŃáł¦áł¯áł³áł¡áłŃ
Ġáł¬ áł¢áł°
Ġáł¶ áł¦áł¸
Ġáł¬áł¤áł· áł°áł¢áł¬
Ġáłłáłµáł¢áł¯áł¯ áłłáł³áłłáłŃ
O G
Ġáł¥áł©áłŃ áł¡áł¯áł¡áł¯áł²áł¡
Ġáł²áł£áł¶áł¢áł® áł£
Ġáł¬ áłłáł´
Ġáłµáłłáł¯áłŃ áłłáł¯áł³áł¤áłŃáł°áłłáł¨
áł¢áł©áłŃ áł¦áł¶
u i
áłłáł¯ áł¢áł¯áł¢áłŃ
Ġáłµáł¢áłŃáł° áłłáłŃáłłáłµáł¤
Ġáł¦áł¶áł¯áł¡áł³áłªáł¦áł· áł¢áł¯áł¡áłµáł¦
Ġáł¬ áł¡áłŃáł¦áł·
Ġáł¬áł¦áł´áł¦áł·áł¬áł¡áłŃ áłµáł¢áłŃáł¦áł¯áł¬áł¦
Ġáł¨áł¢áłŃáł¡áł³ áł¦áł®áł¡áł¯
áłłáłŃáłłáł³ áłłáł°áł¤
áł¢áł¯ áłłáłµáłłáł¶
áłłáłµ áł¢áł¯áł
Ġáł¢áł¯áł¡áł³áł¬ áł¡áłµáł¡áł¶
Ġáłµáł£áłŃáł£áłŃ áł³áłłáł¬áł¤
Ġáł³áłłáłŃáł¤áł¯ áłłáłµáł¤
Ġáł³áł¤áł¤áł· áłłáł³áł¤
Ġáłªáł£áł³ áł£áłŃ
ĠáłłáłŃáłłáłŃ áł¢áł®
Ġáł® áł¡áł¯áł¡áł·
Ġáł°áł¢áł· áł³áł¡áł¬áł¦
Ġáł° áł¡áł¶áł¢áł·
Ġáł¨ áł¢áł²
ĠP P
Ġáłłáłªáł´áł¢áł· áłłáł¨
Ġ8 8
Ġáł¡áłŃáł¦áł°áłŃ áł¡áłŃáł°áł¡áł¨
Ġáł¨áł¥áł¯áł¥ áłŃáł¡áł¨
Ġáł¨áłłáł® áłłáłŃ
Ġáł¤áłŃ áł¤áł²
Ġáł¨ áł¤áłŃáł¤áł·
Ġáłłáł®áł² áłłáł¯áłłáłµáł¤
Ġáł²áł¡áł© áł¬áł¡áłŃáł¡
Ġáł´áł¤áł¬ áłłáłŃ
Ġáł²áł¡áł®áł³áł¡áłŃ áł¯áł¡áł¨
Ġáł¬áł¦áł¦áł· áł¨
Ġáł¬áł¡áł· áł¡áł´áł¢
Ġáł¬áłłáł³ áłłáł®
Ġáł¡áłµáł¡áł®áł° áł¢áł¯áł²áł¦
Ġáł¶áłłáłŃáłłáł· áłłáłµáł¤
Ġáł³áłłáł· áłª
áłłáł¶áł¢áł° áł¢áł¶
Ġáł¢áł¨ áł³
Ġáł¨áł¢áł° áł´áł¦
Ġáł²áł£áł£áł· áł¯áł¢áłŃ
Ġáł¤áłŃáł°áłłáł· áłłáł®áłłáł¯
Ġáł¨ áł¦áł©
Ġáł£áł¯ áł¤áłŃáłłáł³
Ġáłµ áł¦áłµ
Ġáł°áł¡áłµáł¢áłŃáł¯ áł¡áł¯áł²áł¡áł¶
Ġáłłáł¯ áłłáłŃáł°áłłáł¨
Ġáł¨áłłáł©áłŃ áł¢
Ġáł¦áł¨ áł¡áł°áł¦áł¨
B C
Ġáł¬ áł¤áł¶áł¢áł¯
Ġáł°áł¢áł· áł¦áłŃ
Ġáł¡áł°áł¡áł·áłŃáł¦áł´ áł¡áł¨
Ġ9 8
Ġáł¬áł¥ áł¬áł¡áł·
Ġáłªáł¢áł¯áł ¬áłłáł¨
Ġáł®áłłáł¯áł² áłłáłµáł¤
Ġáł²áłłáł¶áł¢áł³ áł¬áł¤áł·
Ġáł¦áł· áł¢áł¯
áł¦áł¨ áł¡áł¨
Ġáł¶áł£áłŃ áł²áłł
áłłáł´ áł¢áł¬áłłáł¨
Ġáłªáł¦áł² áł¡áłŃáł¡áł¯áłŃáł¡
Ġáłµ áłłáłŃáłłáł¨
Ġáł´áłłáłŃ áłłáł°áł¢
ãĢĭ áłĥ
Ġáł¡áł·áł¡áłŃ áł²áł¡áł¢
Ġáł¥áł®áł¥áł³ áł¥
áłŃ áł¤áł¸áłłáł©
Ġáłµ áłłáłŃáłłáł³áłłáł°áł¤
Ġáł²áł¥áł¯áł¥áłŃáł¡áł¯ áł¡áłŃáł¦áł¯áł¦áłŃáł°áł¡áł¨
Ġáł²áł¦áł°áł¢áłŃ áł¯
Ġáł² áł¸áłºáł°áł²
Ġáł³áł¡áłª áł¢áłŃáł¦áł·
áł¢áł ¯áłªáł¡áł·
Ġáł¬áłłáłŃáł¤áł· áł´áł¤
Ġáłªáłłáł¶áłłáł· áł²áłłáł¶
Ġáł® áł¤áł¯áł¸
Ġáł¶áłłáł©áłµ áł¤áł²áł¤
Ġáłłáł¯áł³áłłáł· áł°áł¢áł¯
7 4
Ġáł¬áłłáł· áłłáł¶áł¢áł
áłª áł¢áł´
Ġáł¬ áł¢áł¯áłªáł¡áł·
Ġáł¥áł² áł¡áł¯áł¬áł¦
Ġáł°áłłáłŃáł° áł¤áł¯áłłáłµáł¤
Ġáł²áł¢áł© áł°áł¡
u c
áłª áł£áł¯áł
Ġáł®áł£áł³ áł§áł¯
áłłáł° áł¤áł²áłłáł¨
Ġáł¬áłłáł¯áłłáłŃáł¤áł· áłłáł¬áł¤
7 1
áłłáł® áłłáł·
u st
Ġáł´áł¢áł¯áł¥ áłŃáł¡áł¨
Ġáł³áłłáł° áł¤áł¯
Ġáł¥áł©áł¬áł¥áł·áł¢áłŃ áł¦áł¯
Ġáł³ áł¦áł¯áł¢
