{
  "version": "1.0",
  "truncation": null,
  "padding": null,
  "added_tokens": [
    {
      "id": 0,
      "content": "<unk>",
      "single_word": false,
      "lstrip": false,
      "rstrip": false,
      "normalized": false,
      "special": true
    },
    {
      "id": 1,
      "content": "<pad>",
      "single_word": false,
      "lstrip": false,
      "rstrip": false,
      "normalized": false,
      "special": true
    },
    {
      "id": 2,
      "content": "<bos>",
      "single_word": false,
      "lstrip": false,
      "rstrip": false,
      "normalized": false,
      "special": true
    },
    {
      "id": 3,
      "content": "<eos>",
      "single_word": false,
      "lstrip": false,
      "rstrip": false,
      "normalized": false,
      "special": true
    }
  ],
  "normalizer": null,
  "pre_tokenizer": {
    "type": "ByteLevel",
    "add_prefix_space": false,
    "trim_offsets": true,
    "use_regex": true
  },
  "post_processor": null,
  "decoder": {
    "type": "ByteLevel",
    "add_prefix_space": true,
    "trim_offsets": true,
    "use_regex": true
  },
  "model": {
    "type": "BPE",
    "dropout": null,
    "unk_token": "<unk>",
    "continuing_subword_prefix": null,
    "end_of_word_suffix": null,
    "fuse_unk": false,
    "byte_fallback": false,
    "ignore_merges": false,
    "vocab": {
      "<unk>": 0,
      "<pad>": 1,
      "<bos>": 2,
      "<eos>": 3,
      "!": 4,
      "\"": 5,
      "#": 6,
      "$": 7,
      "%": 8,
      "&": 9,
      "'": 10,
      "(": 11,
      ")": 12,
      "*": 13,
      "+": 14,
      ",": 15,
      "-": 16,
      ".": 17,
      "/": 18,
      "0": 19,
      "1": 20,
      "2": 21,
      "3": 22,
      "4": 23,
      "5": 24,
      "6": 25,
      "7": 26,
      "8": 27,
      "9": 28,
      ":": 29,
      ";": 30,
      "<": 31,
      "=": 32,
      ">": 33,
      "?": 34,
      "@": 35,
      "A": 36,
      "B": 37,
      "C": 38,
      "D": 39,
      "E": 40,
      "F": 41,
      "G": 42,
      "H": 43,
      "I": 44,
      "J": 45,
      "K": 46,
      "L": 47,
      "M": 48,
      "N": 49,
      "O": 50,
      "P": 51,
      "Q": 52,
      "R": 53,
      "S": 54,
      "T": 55,
      "U": 56,
      "V": 57,
      "W": 58,
      "X": 59,
      "Y": 60,
      "Z": 61,
      "[": 62,
      "\\": 63,
      "]": 64,
      "^": 65,
      "_": 66,
      "`": 67,
      "a": 68,
      "b": 69,
      "c": 70,
      "d": 71,
      "e": 72,
      "f": 73,
      "g": 74,
      "h": 75,
      "i": 76,
      "j": 77,
      "k": 78,
      "l": 79,
      "m": 80,
      "n": 81,
      "o": 82,
      "p": 83,
      "q": 84,
      "r": 85,
      "s": 86,
      "t": 87,
      "u": 88,
      "v": 89,
      "w": 90,
      "x": 91,
      "y": 92,
      "z": 93,
      "{": 94,
      "|": 95,
      "}": 96,
      "~": 97,
      "¡": 98,
      "¢": 99,
      "£": 100,
      "¤": 101,
      "¥": 102,
      "¦": 103,
      "§": 104,
      "¨": 105,
      "©": 106,
      "ª": 107,
      "«": 108,
      "¬": 109,
      "®": 110,
      "¯": 111,
      "°": 112,
      "±": 113,
      "²": 114,
      "³": 115,
      "´": 116,
      "µ": 117,
      "¶": 118,
      "·": 119,
      "¸": 120,
      "¹": 121,
      "º": 122,
      "»": 123,
      "¼": 124,
      "½": 125,
      "¾": 126,
      "¿": 127,
      "À": 128,
      "Á": 129,
      "Â": 130,
      "Ã": 131,
      "Ä": 132,
      "Å": 133,
      "Æ": 134,
      "Ç": 135,
      "È": 136,
      "É": 137,
      "Ê": 138,
      "Ë": 139,
      "Ì": 140,
      "Í": 141,
      "Î": 142,
      "Ï": 143,
      "Ð": 144,
      "Ñ": 145,
      "Ò": 146,
      "Ó": 147,
      "Ô": 148,
      "Õ": 149,
      "Ö": 150,
      "×": 151,
      "Ø": 152,
      "Ù": 153,
      "Ú": 154,
      "Û": 155,
      "Ü": 156,
      "Ý": 157,
      "Þ": 158,
      "ß": 159,
      "à": 160,
      "á": 161,
      "â": 162,
      "ã": 163,
      "ä": 164,
      "å": 165,
      "æ": 166,
      "ç": 167,
      "è": 168,
      "é": 169,
      "ê": 170,
      "ë": 171,
      "ì": 172,
      "í": 173,
      "î": 174,
      "ï": 175,
      "ð": 176,
      "ñ": 177,
      "ò": 178,
      "ó": 179,
      "ô": 180,
      "õ": 181,
      "ö": 182,
      "÷": 183,
      "ø": 184,
      "ù": 185,
      "ú": 186,
      "û": 187,
      "ü": 188,
      "ý": 189,
      "þ": 190,
      "ÿ": 191,
      "Ā": 192,
      "ā": 193,
      "Ă": 194,
      "ă": 195,
      "Ą": 196,
      "ą": 197,
      "Ć": 198,
      "ć": 199,
      "Ĉ": 200,
      "ĉ": 201,
      "Ċ": 202,
      "ċ": 203,
      "Č": 204,
      "č": 205,
      "Ď": 206,
      "ď": 207,
      "Đ": 208,
      "đ": 209,
      "Ē": 210,
      "ē": 211,
      "Ĕ": 212,
      "ĕ": 213,
      "Ė": 214,
      "ė": 215,
      "Ę": 216,
      "ę": 217,
      "Ě": 218,
      "ě": 219,
      "Ĝ": 220,
      "ĝ": 221,
      "Ğ": 222,
      "ğ": 223,
      "Ġ": 224,
      "ġ": 225,
      "Ģ": 226,
      "ģ": 227,
      "Ĥ": 228,
      "ĥ": 229,
      "Ħ": 230,
      "ħ": 231,
      "Ĩ": 232,
      "ĩ": 233,
      "Ī": 234,
      "ī": 235,
      "Ĭ": 236,
      "ĭ": 237,
      "Į": 238,
      "į": 239,
      "İ": 240,
      "ı": 241,
      "Ĳ": 242,
      "ĳ": 243,
      "Ĵ": 244,
      "ĵ": 245,
      "Ķ": 246,
      "ķ": 247,
      "ĸ": 248,
      "Ĺ": 249,
      "ĺ": 250,
      "Ļ": 251,
      "ļ": 252,
      "Ľ": 253,
      "ľ": 254,
      "Ŀ": 255,
      "ŀ": 256,
      "Ł": 257,
      "ł": 258,
      "Ń": 259,
      "Ġá": 260,
      "Ġáł": 261,
      "łł": 262,
      "áłł": 263,
      "áłłá": 264,
      "áłłáł": 265,
      "ł¢": 266,
      "áł¢": 267,
      "ł¡": 268,
      "áł¡": 269,
      "áł¡á": 270,
      "áł¡áł": 271,
      "ł¤": 272,
      "áł¤": 273,
      "áł¢á": 274,
      "áł¢áł": 275,
      "âĢ": 276,
      "âĢ¯": 277,
      "ł¦": 278,
      "áł¦": 279,
      "áł¤á": 280,
      "áł¤áł": 281,
      "áł¦á": 282,
      "áł¦áł": 283,
      "£á": 284,
      "£áł": 285,
      "ł£áł": 286,
      "áł£áł": 287,
      "Ġáł¬": 288,
      "¯á": 289,
      "¯áł": 290,
      "Ġáłª": 291,
      "¶áł¢áł": 292,
      "áłłáłŃ": 293,
      "łİ": 294,
      "áłİ": 295,
      "łŃ": 296,
      "áłŃ": 297,
      "áłłáł¨": 298,
      "Ġáł²": 299,
      "ł³": 300,
      "áł³": 301,
      "áł¡áłŃ": 302,
      "áłłáł·": 303,
      "¶áł¢áł¨": 304,
      "áł¡áł·": 305,
      "ł¥": 306,
      "áł¥": 307,
      "Ġáł°": 308,
      "ł¶áł¢áł¨": 309,
      "áł¶áł¢áł¨": 310,
      "áł¤áł¨": 311,
      "Ġáł¨": 312,
      "Ġáłµ": 313,
      "ł¬": 314,
      "áł¬": 315,
      "áł¦áł¨": 316,
      "Ġáłł": 317,
      "ł²": 318,
      "áł²": 319,
      "ł°": 320,
      "áł°": 321,
      "ł·": 322,
      "áł·": 323,
      "áł¡áł¨": 324,
      "łª": 325,
      "áłª": 326,
      "áłłáł¯": 327,
      "Ġáł³": 328,
      "áł¢áłŃ": 329,
      "Ġáł¡": 330,
      "ł¯": 331,
      "áł¯": 332,
      "áł¢áł¯": 333,
      "áł¢áł¶": 334,
      "łµ": 335,
      "áłµ": 336,
      "ĠáłĤ": 337,
      "áł¢áł¨": 338,
      "ĠáłŃ": 339,
      "Ġáł´": 340,
      "Ġáł¦": 341,
      "łĤ": 342,
      "áłĤ": 343,
      "ł¶": 344,
      "áł¶": 345,
      "¬áł¤": 346,
      "áł¤áł·": 347,
      "ł´": 348,
      "áł´": 349,
      "áł¡áł³": 350,
      "Ġáłªáłłáł": 351,
      "áł¡áł¯": 352,
      "Ġáł¤": 353,
      "Ġáł®": 354,
      "Ġáłªáł£áł": 355,
      "áł¦áł·": 356,
      "áł¤áłŃ": 357,
      "ł¨": 358,
      "áł¨": 359,
      "¯áłŃ": 360,
      "ł®": 361,
      "áł®": 362,
      "Ġáł£áł": 363,
      "áł¡áł¬": 364,
      "áł¶áł¢": 365,
      "łĭ": 366,
      "áłĭ": 367,
      "áł£áłŃ": 368,
      "áłłáł¶": 369,
      "áłłáł®": 370,
      "µáł¤": 371,
      "¯áł²": 372,
      "áł¤áł¯": 373,
      "áłłáł°": 374,
      "áł¡áł¶": 375,
      "Ġáł¶": 376,
      "Ġáłªáłłáł¶áł¢áł": 377,
      "Ġáł¨áł¢": 378,
      "áłłáł³": 379,
      "áłłáł¬áł¤": 380,
      "Ġáł¥": 381,
      "áłłáłª": 382,
      "áł³áł¤": 383,
      "áł¡áł¬áł¦": 384,
      "áł¢áł·": 385,
      "áł¤áł°": 386,
      "áł¡áłµ": 387,
      "áłŃáł¡": 388,
      "áł¡áł®": 389,
      "áł¤áł¯áł": 390,
      "Ġáł¬áł¥": 391,
      "áł¢áł³": 392,
      "áłłáł©": 393,
      "áł¤áł³": 394,
      "áł°áłłáł¨": 395,
      "Ġáłªáł£áł¯": 396,
      "áł¦áł¯": 397,
      "ł§": 398,
      "áł§": 399,
      "Ġáł¬áł¡áł·": 400,
      "Ġáł¢": 401,
      "áł¦áłŃ": 402,
      "¯áł²áłł": 403,
      "áł³áł¦": 404,
      "áł£áł·": 405,
      "áł¡áł´": 406,
      "áłłáłŃáłłáł¨": 407,
      "áł¡áłª": 408,
      "Ġï": 409,
      "áł¦áł¯áł": 410,
      "Ġáłłáłµ": 411,
      "ł©": 412,
      "áł©": 413,
      "áłłáł´": 414,
      "áłłáłµáł¤": 415,
      "áłłáł¬": 416,
      "Ġáł£áł·": 417,
      "ł¯áł": 418,
      "áł¯áł": 419,
      "áł¤áł®": 420,
      "łĥ": 421,
      "áłĥ": 422,
      "Ġáł¬áł¡áł·áł¡áłŃ": 423,
      "Ġáł¨áł¢áłŃ": 424,
      "Ġáłĥ": 425,
      "Ġáł²áł¥": 426,
      "Ġï¸": 427,
      "áł¡áłµáł¦": 428,
      "áł£áł¨": 429,
      "¬áł¦": 430,
      "áłłáł¶áł¢áł": 431,
      "Ġáł¤áł¯": 432,
      "Ġáł²áł£áłŃ": 433,
      "Ġáł¬áłłáł®": 434,
      "Ġáł¬áł£áł": 435,
      "¯áłª": 436,
      "áł¢áł®": 437,
      "áłłáł²": 438,
      "áł¡áł°": 439,
      "áł°áł¡áł¨": 440,
      "áł¢áł´": 441,
      "Ġáłłáł·": 442,
      "áł¡áłŃáł¡áł¨": 443,
      "áłªáł¡áł·": 444,
      "áłłáł¯áł": 445,
      "áł²áłłáł¶": 446,
      "áł¢áł¯áł": 447,
      "áł´áł¢": 448,
      "áł²áł¡áł¶": 449,
      "Ġáł²áł£áł": 450,
      "áł¡áł¶áł¢áł": 451,
      "áł¤áł´": 452,
      "Ġáł¡áł·": 453,
      "áł¦áł°": 454,
      "áł¤áł¶": 455,
      "Ġáł¬áłłáł·": 456,
      "áł¥áłŃ": 457,
      "áłªáłłáł·": 458,
      "áł²áł¤": 459,
      "áł¢áł¯áłŃ": 460,
      "áł¢áł°": 461,
      "áł¢áł¶áłłáł¨": 462,
      "Ġáłªáłł": 463,
      "Ġáłªáł£áł¯áł¤áł¨": 464,
      "áłłáł´áłł": 465,
      "áł¥áł·": 466,
      "Ġáł¬áł¥áł®": 467,
      "áłłáłŃáł°áłłáł¨": 468,
      "áł¡áł·áłŃ": 469,
      "ãĢ": 470,
      "áł¢áł©": 471,
      "áł¡áł´áł¡": 472,
      "ł¸": 473,
      "áł¸": 474,
      "áłłáłŃáł¤áł¯": 475,
      "Ġáłłáł®": 476,
      "Ġáłªáł¦áł": 477,
      "Ġáł¤áł·": 478,
      "áłłáł¯áł²áłł": 479,
      "Ġáł¦áłŃáł¡": 480,
      "Ġáł±": 481,
      "áł¦áł¯áłµ": 482,
      "Ġáł°áł¤áł·": 483,
      "Ġáł¡áłŃ": 484,
      "áł¢áł¶áłłáł·": 485,
      "áł¤áłª": 486,
      "ĠáłŃáłłáł·": 487,
      "ł£": 488,
      "áł£": 489,
      "¯áł²áł¡": 490,
      "Ġáł¦áł¶": 491,
      "áł¤áł¯áł¬áł¤": 492,
      "Ġáłªáłłáł¶áł¢áłŃ": 493,
      "áł¢áł²": 494,
      "Ġáł³áł¡áłŃ": 495,
      "áłµáł¢": 496,
      "áł¡áłŃáł¡": 497,
      "Ġáł³áł£áł": 498,
      "áł¡áł³áł¬": 499,
      "áł¤áłŃáł°áłłáł¨": 500,
      "áłłáłµ": 501,
      "áł¢áłµ": 502,
      "áł¢áł¶áł¡áł¨": 503,
      "Ġáł¦áłŃáł¡áł¢": 504,
      "áł¡áł¯áłŃ": 505,
      "Ġáł¦áł¨": 506,
      "Ġáłªáłłáł·": 507,
      "Ġáł¡áł®": 508,
      "Ġáł°áł¢áł¨": 509,
      "Ġáł®áł¡áł³": 510,
      "Ġáł²áł¤áł°": 511,
      "Ġáł¡áł³": 512,
      "ĠáłªáłłáłŃ": 513,
      "áł¦áł´": 514,
      "áł¡áłŃáł°áł¡áł¨": 515,
      "Ġáł¡áł¨": 516,
      "Ġáł¯": 517,
      "Ġáłªáłłáł¶áł¢áł³": 518,
      "Ġáł¦áłµ": 519,
      "Ġáł¦áł¢áł¯": 520,
      "Ġáł¬áł¡áł·áł¡áłŃáł¯": 521,
      "Ġáł³áłłáł·": 522,
      "áłłáł¢": 523,
      "Ġáł¤áł¯áł¤áł°": 524,
      "Ġáł¬áł¤áłª": 525,
      "ĠãĢ": 526,
      "áł¡áł·áłŃáł¡": 527,
      "Ġáłº": 528,
      "Ġáłªáł£áł¯áł": 529,
      "Ġáł¨áł¢áłŃáł¡": 530,
      "Ġ1": 531,
      "Ġáł®áłłáł°": 532,
      "Ġáł¬áł¡áł": 533,
      "Ġ2": 534,
      "áł¡áł®áłµ": 535,
      "áł£áł¬": 536,
      "áł¦áł¶": 537,
      "áł¤áł¯áłŃ": 538,
      "áł¦áł®": 539,
      "áł©áłŃ": 540,
      "áł¤áł¯áł²áłł": 541,
      "áłłáł¯áł³": 542,
      "Ġáł²áłłáł¯": 543,
      "Ġáł´áł¢áł¨": 544,
      "áł£áł¯": 545,
      "Ġáł£áł¨": 546,
      "áł¢áł¬": 547,
      "Ġáł¬áł¦áł·": 548,
      "¶áł¢áł¯": 549,
      "áł§áł·": 550,
      "áł¯áł¥": 551,
      "Ġáłłáłª": 552,
      "Ġáłłáłµáł¢áł¯": 553,
      "Ġáłłáł¬": 554,
      "Ġáł¶áł¡áł¬": 555,
      "Ġáł²áł¡áłŃ": 556,
      "áł£áł®": 557,
      "áłªáł¦áł·": 558,
      "áł²áł¦": 559,
      "áłłáł©áłŃ": 560,
      "áł¡áł©": 561,
      "Ġáł¬áł¥áł®áł¦áł¨": 562,
      "áłªáłłáł¨": 563,
      "áł¤áł¯áłµáł¤": 564,
      "Ġáł®áł¥": 565,
      "áł¦áł©": 566,
      "Ġáł²áł¤áł": 567,
      "áłłáł³áł¤": 568,
      "Ġáł¶áł¡áł¬áł¡": 569,
      "Ġáł¡áł¨áł¡": 570,
      "áł¢áł¶áłłáł¯": 571,
      "Ġáł£áł¯": 572,
      "Ġáł³áłłáłŃ": 573,
      "ĠáłłáłŃ": 574,
      "Ġáł¨áł¡áł¶áł¢áł": 575,
      "Ġáłłáłµáł¤": 576,
      "Ġáł²áł¦áł·": 577,
      "Ġáłµáł¡áł·áłŃáł¡": 578,
      "Ġáł¬áł¡áł®áłµ": 579,
      "Ġáł¢áł¯": 580,
      "áł¦áł¯áł¬áł¦": 581,
      "Ġáł´áł¢áł³": 582,
      "Ġáłłáł°": 583,
      "áł£áł°": 584,
      "Ġáł¬áł¦áł´": 585,
      "áł¬áł¡áł¶": 586,
      "Ġáłµáł¢áł·": 587,
      "áłłáł³áłłáłŃ": 588,
      "Ġáłªáł¦áł·": 589,
      "Ġáł´áłłáłŃ": 590,
      "áłłáł¯áłŃ": 591,
      "Ġáłªáł¥": 592,
      "áłµáł¢áłŃ": 593,
      "áł¤áł³áłłáł¯": 594,
      "áłłáł°áł¤": 595,
      "Ġáł®áł¡áł·áłŃ": 596,
      "áłłáłªáł¤áł·": 597,
      "áł¢áł¯áł¡áł¬áł¦": 598,
      "áł¦áł³": 599,
      "Ġáł´áł¢áł¨áłłáł·": 600,
      "áł¤áł®áł³": 601,
      "áł¡áłŃáł¦áł¯": 602,
      "Ġáłªáł¦áł²": 603,
      "Ġáł¶áłłáłª": 604,
      "Ġáł®áł¡áł·áłŃáł¡áłµ": 605,
      "áł³áłłáł¯": 606,
      "Ġáł³áł¤áł®áł³": 607,
      "Ġáłªáł¡áł¶": 608,
      "Ġáł¦áł·": 609,
      "Ġáł°áł¤áł·áłŃ": 610,
      "áł°áł¢": 611,
      "áł¤áł¸": 612,
      "áł¬áł¤": 613,
      "áłłáłŃáłłáł·": 614,
      "°áłł": 615,
      "Ġáłµáł¢áł¯": 616,
      "Ġáłªáł£áł³": 617,
      "áł¡áłªáł¡áł¯": 618,
      "áł¡áłŃáł³": 619,
      "áłłáłŃáł¤áł·": 620,
      "Ġáł¬áł¤áł³": 621,
      "ĠáłŃáł£áł": 622,
      "ĠáłŃáłłáłµ": 623,
      "Ġáłªáłłáł¶áł¢áł¨": 624,
      "Ġáł®áł¡áł·áłŃáł¡áłµáł¢áł¯": 625,
      "ĠãĢĬ": 626,
      "ĠáłŃáłłáłµáłłáł·": 627,
      "Ġáł¥áł·": 628,
      "Ġáł²áł¥áł¯áł¥": 629,
      "Ġáł¡áłª": 630,
      "áłłáłŃáł¤áł¯áł¬áł¤": 631,
      "Ġáłµáł¦": 632,
      "Ġáłªáłłáł°áłł": 633,
      "áł¡áł¯áł²áł¡": 634,
      "áł¢áł¶áł¡áł·": 635,
      "áł¡áłŃáł¦áł·": 636,
      "áł³áł¡áłŃáł¡áł¨": 637,
      "Ġáł¬áł¥áłŃ": 638,
      "Ġáł¦áł¶áł¯": 639,
      "Ġáł²áł£áłŃáł²": 640,
      "ł«": 641,
      "áł«": 642,
      "Ġáł³áł£áł²": 643,
      "Ġï¸½": 644,
      "ĠáłŃáł¡áł·": 645,
      "áł¬áł¥": 646,
      "Ġáł¤áł³": 647,
      "áłłáł¬áł¢": 648,
      "áł´áł¢áł¨": 649,
      "Ġáłªáł£áł¯áłŃ": 650,
      "Ġáłµáł£áł¬": 651,
      "Ġáłłáłµáł¢áł¯áł": 652,
      "Ġáł¬áł¤áł·": 653,
      "Ġáł¬áł¡áł¯": 654,
      "áł·áł¥": 655,
      "Ġáłµáł¦áł¢áł¯": 656,
      "Ġáł¤áł¬": 657,
      "Ġáł¡áł³áł¦áł·": 658,
      "áłªáł¡áł¨": 659,
      "Ġáł²áł¡áł·": 660,
      "Ġáłłáł·áłŃ": 661,
      "Ġáł¥áł¬áł¡áł¶": 662,
      "Ġáł£áł¯áłłáł¨": 663,
      "Ġáł¥áł¨": 664,
      "¶áłłáł·": 665,
      "Ġáł²áł¤áł¬": 666,
      "Ġáłµáłłáł°": 667,
      "áł´áł¤": 668,
      "Ġáłªáłłáł¶áł¢áł³áłłáł¯": 669,
      "Ġáłµáł¢áłŃ": 670,
      "Ġáł¥áłªáł¡áł·": 671,
      "áł¤áłŃáłłáł¨": 672,
      "áł¯áł¡áł¯": 673,
      "áłłáłŃáłłáł¯": 674,
      "Ġáłªáł¤áł°": 675,
      "Ġáł³áł¡áłŃáł¡áł·": 676,
      "áł¢áł¯áłŃáłłáł¨": 677,
      "Ġáł²áł¡áł®": 678,
      "áł¢áł¬áł¦": 679,
      "Ġáł¥áłŃ": 680,
      "Ġáł¶áł¤áł®": 681,
      "Ġáłªáł¤áł¶": 682,
      "áł¡áł³áł¡áłŃ": 683,
      "Ġáł¡áłµ": 684,
      "Ġáł°áłłáł·": 685,
      "Ġáłºáł£áł®": 686,
      "Ġáłªáłłáł¶áł¢áł³áłłáłŃ": 687,
      "Ġáł¬áł¢áłµ": 688,
      "ĠáłĦ": 689,
      "Ġáł£áł·áł£áł¨": 690,
      "áł¡áł³áłªáł¦áł·": 691,
      "áłłáł²áł¤": 692,
      "Ġ20": 693,
      "Ġáł®áłłáł°áł¢áł¨": 694,
      "áł¡áł²": 695,
      "áłłáłŃáł¤": 696,
      "Ġáłºáł£áł®áł«": 697,
      "Ġáł°áłłáł¨": 698,
      "Ġáł¤áł°": 699,
      "áłłáł°áł¤áł¨": 700,
      "Ġáł²áł£áł°": 701,
      "áłłáłŃáł¤áł¨": 702,
      "áł¡áł¯áł": 703,
      "Ġáł¬áł¤áłŃ": 704,
      "Ġáłªáł£áł¯áł¬áł¤": 705,
      "áł¬áłłáł¶": 706,
      "áł¯áł¢áłŃ": 707,
      "áł£áł³": 708,
      "Ġáł¬áł¢áł¨": 709,
      "Ġï¸¾": 710,
      "áł¢áł¯áł´": 711,
      "Ġáł³áł¡áł¯áłŃ": 712,
      "áł³áł¡áłŃ": 713,
      "áłŃáł¡áł¨": 714,
      "áł¡áł´áł¢áł¯": 715,
      "áł¬áł¡": 716,
      "Ġáł¬áł¤áł³áłłáł¯áł³": 717,
      "Ġáłłáł¯áł": 718,
      "áłłáł¨áł¢": 719,
      "Ġáł°áł¢áł¶": 720,
      "Ġáł²áł¥áł·áł¥": 721,
      "Ġáł¬áł¤áłŃáł¤áł´": 722,
      "áłłáłŃáł¤áł¯áł¢": 723,
      "Ġáłªáł£áł¯áłª": 724,
      "Ġáł³áłłáłª": 725,
      "áł¤áł¶áł¢áł¯": 726,
      "Ġáłłáłµáł¢áł¯áł¯": 727,
      "áł¦áł¯áłµáł¦": 728,
      "áł¢áł¬áł¤": 729,
      "Ġáł´áłłáł¬": 730,
      "Ġáł°áł¦áł¯áłµ": 731,
      "Ġáł£áł·áł£áł": 732,
      "Ġáłµáł¥": 733,
      "Ġáł²áł¡áłŃáł¦áł¨": 734,
      "Ġáł°áł¤áł·áłŃáłłáłŃáł¤áł¯áł¢": 735,
      "áł´áł¢áł³": 736,
      "áł¤áł¬áł¤": 737,
      "Ġáł¬áłłáł®áł²áł¤": 738,
      "Ġáł²áł£áłŃáł£áł·": 739,
      "¯áłªáł¡áł·": 740,
      "áłłáł¶áł¢áł¯": 741,
      "áł¢áł´áł¢": 742,
      "Ġáłªáłłáł¶áł¢áł¬áł¤": 743,
      "Ġáł¢áł·": 744,
      "Ġáłºáł£áł®áł«áłłáł¨áł¢": 745,
      "áł¦áłª": 746,
      "©áłŃ": 747,
      "Ġáł®áłłáł°áł¢": 748,
      "Ġáłªáłłáł¶áł¢áłµáł¤": 749,
      "áł¦áłŃáł°áł¡áł¨": 750,
      "Ġáł¬áł¤áłªáł¢": 751,
      "Ġáłµáłłáł®": 752,
      "Ġáł³áłłáł·áłłáłŃ": 753,
      "áł¡áłŃáł¦áł¯áł¬áł¦": 754,
      "Ġáł¬áł¡áłª": 755,
      "Ġáłµáłłáł·": 756,
      "Ġáł¨áł¢áłŃáł¡áł¨": 757,
      "Ġáłªáł¤áł¶áł¤": 758,
      "áł¢áłª": 759,
      "Ġáł´áłłáł¬áł¢áł¯áłŃáłłáł¨": 760,
      "Ġáłµáłłáł¬": 761,
      "Ġáł¬áł¡áł¯áłªáł¡áł·": 762,
      "Ġ3": 763,
      "Ġáł¡áłŃáł¦áł¨": 764,
      "Ġáłµáł¢áł´áł¢": 765,
      "Ġáłµáł¥áłª": 766,
      "ĠáłŃáł¡áłµáł¦": 767,
      "Ġáł¥áł¨áł³": 768,
      "Ġáł¦áłŃ": 769,
      "Ġáł£áł·áł£áłŃ": 770,
      "Ġáł°áł£áł": 771,
      "áł¬áł¦": 772,
      "áł¯áł¢": 773,
      "Ġáł¬áł¡áł®áłµáł¢áł¶": 774,
      "áł¤áł¢": 775,
      "Ġáł¸": 776,
      "áł°áł¢áł¯": 777,
      "Ġáłłáł³áłłáł¯": 778,
      "£áł·": 779,
      "Ġáł¬áłłáł®áł¤áłŃ": 780,
      "Ġáł¬áł¡áł·áł¡áłŃáł²áł¡áł¶": 781,
      "Ġáł¬áł£áł¯áłª": 782,
      "Ġáłªáł¥áłŃ": 783,
      "Ġáł°áł¡áł³áł¬": 784,
      "Ġï¼": 785,
      "Ġáłµáł¢áł·áł¤áłŃ": 786,
      "Ġáł¬áł¡áł¯áłªáł¡áł·áł¢": 787,
      "Ġáł³áł£áł²áł£áł·": 788,
      "áł¤áł²": 789,
      "Ġáł¥áł¨áł³áł¥áł·": 790,
      "Ġáł³áł¤áł®áł³áłłáł³áł¤": 791,
      "áł¢áłµáł¤": 792,
      "Ġáł¬áł£áł·": 793,
      "ï¸": 794,
      "Ġáł°áłłáł¶áł¢áł": 795,
      "Ġáł°áł¢áł·": 796,
      "áł¢áł¶áł¡áł¯": 797,
      "áł³áłłáłŃáłłáł¨": 798,
      "áłłáłŃáł³": 799,
      "Ġáłªáł¢áł´": 800,
      "Ġáłªáłłáł¶áł¢áłŃáł¤áł¯": 801,
      "Ġáł¶áł¡áł·": 802,
      "áł¤áł´áłł": 803,
      "Ġáł¡áłªáł¡áł³": 804,
      "Ġáł°áł¢áłŃ": 805,
      "Ġáł¬áł¦": 806,
      "áł¬áł¢": 807,
      "áł¦áł¬": 808,
      "Ġáł¬áł£áł¶áłłáł·": 809,
      "áłłáłŃáłłáł¬áł¤": 810,
      "ĠáłŃáłłáł³": 811,
      "áł¢áł¯áł²áł¡": 812,
      "áł¬áłłáł¨": 813,
      "áł§áł¨": 814,
      "áł¡áł¶áł¢áł¯": 815,
      "áł¤áł¯áł³": 816,
      "Ġáł²áł¡áł·áł¡": 817,
      "áł¡áł¢": 818,
      "Ġáłłáł¬áł¤áł¶áł¢áł¯": 819,
      "¬áł¢áł·": 820,
      "Ġáł¦áłŃáł¡áł¶": 821,
      "ł¶áł¢áł": 822,
      "áł¶áł¢áł": 823,
      "áł¦áłµ": 824,
      "áł¤áłŃáłłáł·": 825,
      "áł°áł¢áłŃ": 826,
      "Ġáłłáł¬áł¤áł¶áł¢áł¯áłłáł¯": 827,
      "Ġáł¬áł£áłŃ": 828,
      "Ġáł´áł¤": 829,
      "Ġáł¬áł¥áł³": 830,
      "áł´áł¢áł¯": 831,
      "Ġáłłáł©": 832,
      "Ġáł´áł¢áł¬": 833,
      "Ġáłªáł¢áł³": 834,
      "Ġáł¨áł¡áł·": 835,
      "áł¦áł®áłµáł¢": 836,
      "ĠáłŃáłłáł·áłŃ": 837,
      "Ġáł®áł¥áł¨": 838,
      "ĠáłŃáł£áł£áł": 839,
      "áł¡áł³áł¦": 840,
      "Ġáłµáł¢áł¨": 841,
      "áł´áł¢áł·": 842,
      "áł¢áł©áłŃ": 843,
      "Ġáł²áł¤áł¬áłłáł¶": 844,
      "Ġáłªáł¦áł²áł¦áłŃ": 845,
      "Ġáł¡áł¯": 846,
      "áł¡áł¯áłŃáł¡": 847,
      "00": 848,
      "Ġáł®áłłáł²": 849,
      "Ġáł²áł¥áł·áł¥áł¯": 850,
      "áł§áł·áł¢áł¶áłłáł¯": 851,
      "áł²áł¡áłŃ": 852,
      "Ġáłªáłłáł·áł¢áł®": 853,
      "áł´áł¦": 854,
      "Ġáł²áł¥áł¯áł¥áłª": 855,
      "áłłáłŃáł¤áł¯áłµáł¤": 856,
      "Ġáł¬áł£áł¯áłªáł£áłŃ": 857,
      "Ġáłłáł¶": 858,
      "Ġáł¦áł¢áł¯áł¡áł³áłªáł¦áł·": 859,
      "Ġáł¡áł®áł¦áł¨": 860,
      "áł¤áłµáł¤": 861,
      "Ġáł¤áł¬áłłáłŃáłłáł¨": 862,
      "łĦ": 863,
      "áłĦ": 864,
      "Ġáł²áłłáł·": 865,
      "Ġáł¬áłłáł®áł¢áł¶áłłáł·": 866,
      "áł²áłł": 867,
      "Ġáł¹": 868,
      "áł¢áł¯áł²": 869,
      "Ġáłªáł¤áł³": 870,
      "Ġáł¨áłłáł·": 871,
      "Ġáł²áłłáł¨": 872,
      "®áł¦": 873,
      "Ġáłªáł¦áł¬áł¦": 874,
      "Ġáł°áłłáłŃ": 875,
      "ĠĊ": 876,
      "áłłáł¯áł¢áłŃ": 877,
      "áł¥áł®": 878,
      "Ġï¸µ": 879,
      "áł¡áł²áł¦": 880,
      "áł¤áł¯áłł": 881,
      "Ġáł¨áł¥": 882,
      "Ġáł¬áł£áł²": 883,
      "Ġáłłáł°áł¢áłŃ": 884,
      "Ġáł¬áł¥áłŃáłµ": 885,
      "áłłáł¶áł¢áł·": 886,
      "Ġáł¬áł¦áł´áł¦áł¨": 887,
      "Ġáł³áł¡áł¯áłŃáł¡áłŃáł¦áł·": 888,
      "Ġáł¤áł¯áłłáł¨": 889,
      "áłłáł¶áł¢áł¨": 890,
      "Ġáł°áł¦áł¯áłµáł¢áł¶áł¡áł¨": 891,
      "Ġáł¡áł¶áł¢áł": 892,
      "Ġáł¨áł¡áł¶áł¢áł²": 893,
      "Ġáł¬áłłáłª": 894,
      "Ġáł«": 895,
      "Ġáłªáłłáł¶áł¢áł´": 896,
      "Ġáł¢áł¯áł¡áł·": 897,
      "îĢ": 898,
      "áł¤áł¯áł¤áł¨": 899,
      "Ġáł²áł¡áł®áł³áł¡áłŃ": 900,
      "áł¢áł¯áł²áłł": 901,
      "Ġáł¨áł¡áł®": 902,
      "Ġáł´áł¦": 903,
      "áłłáł°áł¤áł·": 904,
      "áł¡áł¬áł¢": 905,
      "áłłáłªáł¤áł·áł¢": 906,
      "Ġáł¶áłłáłªáł¤áł³áłłáł¯": 907,
      "Ġáł¬áł£áł²áłł": 908,
      "ĠáłŃáł¤áł·": 909,
      "áł³áł¦áł°": 910,
      "Ġáł¬áł¡áł°": 911,
      "Ġáł¦áł¨áł³áł¦áł°": 912,
      "Ġáł¡áł°": 913,
      "Ġáłªáł¥áłŃáł¡áł³": 914,
      "Ġáłªáł¥áł¬áł¥": 915,
      "Ġáł¬áł¡áł°áł¡áłŃ": 916,
      "áł¤áłµ": 917,
      "áł¡áłŃáł´áł¢": 918,
      "Ġáłµáł¦áł¶": 919,
      "Ġáł¬áł¥áł®áł¦áł°": 920,
      "Ġáłłáł³áłłáł¯áł¢": 921,
      "Ġáł°áł¢áł¨áłµ": 922,
      "áł£áł´": 923,
      "Ġáł³áł¤áł·": 924,
      "ĠãĢĭ": 925,
      "áłªáł¡": 926,
      "Ġáł³áł£áł£áł·": 927,
      "Ġáł¨áł¡áłŃ": 928,
      "áł²áł¡": 929,
      "Ġï¼Ī": 930,
      "ãĢĭ": 931,
      "Ġáłªáł¤áł°áł¤": 932,
      "áł¡áłŃáł¦áł¯áłµáł¦": 933,
      "Ġáł¬áłłáł©áłŃ": 934,
      "Ġáł£áł³": 935,
      "Ġáł°áł¤áł³": 936,
      "Ġáł²áłłáłª": 937,
      "áł¬áł¢áł¨": 938,
      "Ġáł¬áł¡áł·áł¡áłŃáł¯áł¡áł¬áł¦": 939,
      "áłłáłŃáł´áł¢": 940,
      "Ġáłłáł®áł¢áł³": 941,
      "Ġï¸¶": 942,
      "Ġáł¥áł©áłŃ": 943,
      "áł®áłª": 944,
      "Ġáł¬áłłáł®áłłáłŃáłłáł¯": 945,
      "Ġáł®áłłáł¨": 946,
      "Ġáł³áłłáł®": 947,
      "áł¬áł¡áł¨": 948,
      "áł¢áł°áł²": 949,
      "áł¢áł±": 950,
      "áł¤áłŃáł´áł¢": 951,
      "Ġáł¬áł¤áłŃáł¤áł´áłłáłŃáłłáł¨": 952,
      "áł¬áł¢áł¯": 953,
      "áł¦áł·áł¢": 954,
      "ï¼": 955,
      "Ġáłµáł£áłŃ": 956,
      "Ġáł²áł¤áł°áł¬áłłáł¶": 957,
      "Ġáłµáł¦áł¶áł¯": 958,
      "Ġáł¡áłŃáł¦áł³": 959,
      "Ġáłµáłłáł©áłŃ": 960,
      "Ġáł¶áłłáł®": 961,
      "Ġáł®áł¡áł³áł¡áłŃáł¡": 962,
      "Ġáł£áł¯áł": 963,
      "Ġáłªáłłáł¶": 964,
      "áł¤áł¯áł³áł¤áłŃáłłáł¨": 965,
      "áł¡áł´áł¦": 966,
      "Ġáł¬áł¡áł³": 967,
      "Ġáłªáł¥áł®áłª": 968,
      "Ġáł²áł¥áł¯áł¥áłªáł¯": 969,
      "ĠáłŃáł¡áłª": 970,
      "Ġáł¡áł¶áł¢áł®áł¦": 971,
      "Ġáł¤áł¯áłłáł®": 972,
      "áł§áł®": 973,
      "Ġáł°áł¢áł°áł²": 974,
      "Ġáł¬áłłáł¯": 975,
      "ĠáłŃáł¡áłªáł¡áł´áł¦": 976,
      "Ġáłµáł¢áł±": 977,
      "áłłáł²áłłáł¶": 978,
      "Ġáł¡áł¯áł": 979,
      "Ġáł³áł¡áłŃáł¡áłŃ": 980,
      "Ġáł¤áł·áł¤áł¯áł³áł¤áłŃáłłáł¨": 981,
      "Ġáł³áł¡áłŃáł¡áł³áł¦": 982,
      "Ġ5": 983,
      "Ġáł¨áłłáł®": 984,
      "áł´áłł": 985,
      "áł¤áł¤": 986,
      "Ġáłªáłłáł²": 987,
      "áłłáłªáłłáł¯": 988,
      "Ġáł°áł¡áł·áłŃ": 989,
      "Ġ4": 990,
      "áł¤áł¯áł´": 991,
      "Ġáł²áł¥áłª": 992,
      "Ġáłłáł°áłłáłŃ": 993,
      "Ġáłªáł¢áł°": 994,
      "Ġáł°áł£áł©áłŃ": 995,
      "Ńáł¡áł®": 996,
      "Ġáł°áł¢áł¶áł³": 997,
      "Ġáłªáł¦áł¯": 998,
      "Ġáł¬áł¡áł·áłªáł¡": 999,
      "áłłáł®áłµáł¢": 1000,
      "łº": 1001,
      "áłº": 1002,
      "Ġáł¨áł¡áł¶áł¢áłŃáł¡áł®": 1003,
      "áłŃáł¡áł¯": 1004,
      "Ġáł¡áłªáł¡áł³áł´áł¢áł¨": 1005,
      "Ġáłªáł¢": 1006,
      "Ġáłªáł£áł¯áł¤áłŃáł°áłłáł¨": 1007,
      "áł¢áłµáł¦": 1008,
      "áłłáł¤": 1009,
      "áłłáłŃáłłáł³": 1010,
      "áł°áł¢áł¨": 1011,
      "Ġáł¢áł³": 1012,
      "Ġáł°áł¢áł¶áł³áłªáł¦áł·": 1013,
      "áł¥áłŃáł¡áł·": 1014,
      "Ġáł°áłłáłŃáł¤áł·": 1015,
      "ĠáłŃáłłáł³áłłáłŃ": 1016,
      "Ġáł¬áłłáł·áł¢áłŃ": 1017,
      "áł¦áł¦": 1018,
      "Ġáł°áł¢áł¯áłŃ": 1019,
      "Ġáł°áłłáł¶áł¢áł¨": 1020,
      "áł©áłŃáł¥": 1021,
      "Ġáłłáłªáł´áł¤": 1022,
      "Ġáł¨áł¡áł©": 1023,
      "áł¬áłłáł¯": 1024,
      "Ġáł®áł¥áł©áłŃáł¥": 1025,
      "Ġáłłáł©áł¬": 1026,
      "Ġáł²áł£áłŃáł£áł·áł¢áłŃ": 1027,
      "Ġáłµáł¢áł¶": 1028,
      "Ġáł¬áłłáłŃ": 1029,
      "Ġáł²áł¥áł¬": 1030,
      "Ġáł²áł¥áł¬áł¥áłŃáł¡áł·": 1031,
      "Ġáł¤áł³áłłáłŃ": 1032,
      "Ġáł²áł¥áł¬áł¥áłŃáł¡áł·áł¦áł®áłµáł¢": 1033,
      "áł§áł©": 1034,
      "Ġáł´áł¢áł³áłłáłªáł¤áł·áł¢": 1035,
      "Ġáł²áł¤áł·": 1036,
      "Ġáł¬áłłáł®áł¢áł¶áłłáł·áł¤áł¯áł²áłł": 1037,
      "Ġáłłáł©áłŃ": 1038,
      "ĠáłµáłłáłŃ": 1039,
      "ĠâĢ": 1040,
      "áłŃáł¦áł¯áłµ": 1041,
      "áł¢áł¶áł¡áł³": 1042,
      "Ġáł°áł¢áł¨áłµáł¢áł¯áł¡áł¬áł¦": 1043,
      "Ġáłªáłłáł¶áł¢áł·": 1044,
      "Ġáł¦áł·áłŃáł¦áł¯áłµ": 1045,
      "Ġáłªáł£áł·": 1046,
      "Ġáł®áł¥áł·": 1047,
      "Ġáłªáł¢áł°áł¢": 1048,
      "áł¤áł¯áłµ": 1049,
      "Ġáłªáł¢áł³áł¡": 1050,
      "Ġáł´áł¥áł®": 1051,
      "Ġáłªáł¡áł¯": 1052,
      "Ġáł²áł£áł¬áł¢áł·": 1053,
      "Ġáł°áł¢áł¯": 1054,
      "¬áłłáł¨": 1055,
      "Ġá¡": 1056,
      "ĠáłŃáłłáł³áłłáł¨": 1057,
      "Ġáł¶áłłáł·": 1058,
      "Ġáł¤áł°áł¤": 1059,
      "Ġáł²áł¦áł®": 1060,
      "Ġáł£áł¯áłµáł¤": 1061,
      "Ġáł°áł£áł¨": 1062,
      "Ġáł³áłłáł®áłµáł¢áłŃ": 1063,
      "áł¢áł²áłłáł¶": 1064,
      "Ġáłłáłµáł¢áł¯áł¯áłłáłŃ": 1065,
      "Ġáł¤áłŃ": 1066,
      "áł¬áł¡áł³": 1067,
      "áł¦áłŃáł¡áł·": 1068,
      "áłłáłŃáłłáł¶": 1069,
      "ĠáłŃáł£áł£áł¯": 1070,
      "Ġáł¶áłłáł®áłłáł·": 1071,
      "Ġáłªáł£áł¯áłªáłłáł°áł¤áł·": 1072,
      "Ġáł¶áłłáłŃ": 1073,
      "Ġáł´áł¢áł©áłŃ": 1074,
      "Ġáłłáł·áłłáł³": 1075,
      "Ġáłµáł£áł·": 1076,
      "áłłáłŃáł¤áł¯áł¤áł¨": 1077,
      "Ġáł¡áł·áłŃ": 1078,
      "áłłáł¯áłµ": 1079,
      "Ġáł´áł¢áł¬áł¤áł¯áłł": 1080,
      "Ġáł¥áł©áłŃáł¡áł·": 1081,
      "Ġáł°áłłáł¨áłłáłŃ": 1082,
      "Ġáłłáł¬áł¤áł¶": 1083,
      "áł¢áł¯áł³": 1084,
      "Ġáłªáł¢áł´áł¢áłŃ": 1085,
      "áłłáł®áłłáł¯": 1086,
      "Ġáł²áłłáł°": 1087,
      "Ġáł¶áł¡áł·áł¦áł©": 1088,
      "Ġáł²áłłáł": 1089,
      "¯áł³": 1090,
      "áłłáł¬áł¢áł¨": 1091,
      "áłµáł¢áł¯": 1092,
      "áł¤áł·áłłáł¯": 1093,
      "áł¢áłµáł¢áłŃ": 1094,
      "áłłáł¯áłłáł¬áł¤": 1095,
      "Ġáł¡áłµáł¡áł®": 1096,
      "Ġáł¬áł¤áłªáł¢áł·": 1097,
      "ï¼ī": 1098,
      "áł¡áł¯áł¡áł¬": 1099,
      "Ġáł¬áł¦áł°": 1100,
      "Ġáł¨áł¡áł¯": 1101,
      "Ġáł¬áł¢áłµáłłáłŃáłłáł·": 1102,
      "Ġáłªáł£áł¯áłµ": 1103,
      "Ġáł£áł¶áł¢áł¯": 1104,
      "Ġáł¨áł¡áł¯áł¢áł¶áł¡áł³": 1105,
      "Ġáłªáł¤áł¢": 1106,
      "áł¡áł³áł¬áł¦áł¨": 1107,
      "Ġáł²áł¡áł³": 1108,
      "Ġáł£áł¨áł´": 1109,
      "áł¦áł¯áłŃ": 1110,
      "Ġáł¡áł®áł¨": 1111,
      "Ġáł¬áł¥áłŃáłµáł¢áł¯áł²áł¡": 1112,
      "îĢĲ": 1113,
      "Ġáł³áł¤áł®áł³áłł": 1114,
      "Ġáł¶áł£áł°": 1115,
      "áł¡áłŃáł¡áł·": 1116,
      "Ġáł²áł¦áł·áł¦áł¯": 1117,
      "Ġáł£áł·áł´áł¢áł¨": 1118,
      "áłłáł´áł¢áł¯": 1119,
      "Ġáłªáł£áł³áłłáł°": 1120,
      "Ġáł¤áł°áł¤áł¨": 1121,
      "Ġáł£áł·áł£áłŃáł¤áł¯": 1122,
      "Ġáłłáł°áłłáłŃáł¤áł³áłłáł¯": 1123,
      "Ġáł¬áł¢áłµáł¦": 1124,
      "Ġáłªáł¤áł°áł¤áł³": 1125,
      "Ġáł¬áłłáł¨": 1126,
      "áł¡áłªáł¡áł·": 1127,
      "Ġáł¦áł¨áł¡áł¨": 1128,
      "Ġáł¬áł¢áł¬áł¦": 1129,
      "Ġáł¬áł¡áł¦": 1130,
      "Ġáł¬áł£áłŃáł£áł¯": 1131,
      "Ġáł°áł¡áł·áłŃáł¡áł¶áł¢áł¯": 1132,
      "Ġáłłáłªáł¬áł¤": 1133,
      "áł¡áłªáł²": 1134,
      "áł¢áłº": 1135,
      "Ġáł®áł¢áł¨": 1136,
      "Ġáłªáłłáł²áł¤áł¯": 1137,
      "łĮ": 1138,
      "áłĮ": 1139,
      "áł¡áłŃáł´áł¢áł³": 1140,
      "áł¥áłŃáł¡áł¨": 1141,
      "Ġáł²áł¡áł·áłŃ": 1142,
      "Ġáł¡áł·áł¬áł¡": 1143,
      "ĠáłŃáł£áł¸": 1144,
      "Ġáł°áł¡áł³áł¬áł¢áł¯": 1145,
      "Ġáł£áł·áł³": 1146,
      "¯áł´": 1147,
      "ĠáłŃáł¡áł³áł¡áłŃ": 1148,
      "Ġáł²áł£áłŃáł£áł·áł¢áł¨": 1149,
      "ł¯áłŃ": 1150,
      "áł¯áłŃ": 1151,
      "áłµáł¢áł¶": 1152,
      "áł¥áłŃáł¡": 1153,
      "Ġáł²áł¦áł®áł¡áł¨": 1154,
      "Ġáł¬áłłáł·áł¢áł¯áł´": 1155,
      "Ġáł²áł¦áłª": 1156,
      "Ġáł°áł£áł·": 1157,
      "Ġáł¬áłłáł·áł¢áł´": 1158,
      "áłłáłŃáłłáł¯áł²áłł": 1159,
      "Ġáł¡áł·áł¬": 1160,
      "Ġáł¬áł¥áł³áł¡áł¯áłŃ": 1161,
      "áłłáł³áł¤áłŃáłłáł·": 1162,
      "áł¬áł¡áł¯": 1163,
      "Ġáł¤áł¶": 1164,
      "Ġáłµáłłáł©áłŃáł¢": 1165,
      "áł©áłŃáł¡": 1166,
      "Ġáł²áł¡áł·áłŃáł¡áł¨": 1167,
      "áł¯áłłáł¬áł¤": 1168,
      "Ġáł¢áł¨": 1169,
      "Ġáł°áłłáł¶áł¢áł¬áłłáł¨": 1170,
      "Ġáłªáłłáł·áł¢áł¯áłŃ": 1171,
      "áł²áł¡áłŃáł¡áł¨": 1172,
      "ĠáłŃáł¦": 1173,
      "Ġáł¨áłłáł¶áł¢áł": 1174,
      "áł¨áł¢": 1175,
      "Ġáł¨áł¡áł®áł¡áłŃáł³": 1176,
      "Ġáł¬áł¤áłŃáł¤áł´áłłáłŃ": 1177,
      "áł¤áł¸áłłáł¨": 1178,
      "Ġáł³áł¦áł·": 1179,
      "áł¡áł¯áł¡áł¨": 1180,
      "áłłáł´áł¤": 1181,
      "áłłáłŃáłłáł·áł³": 1182,
      "áł¤áł·áłŃ": 1183,
      "áłłáłŃáłłáłµáł¤": 1184,
      "Ġáł¤áł´áł¢áł·": 1185,
      "áł¢áł¦": 1186,
      "áł¡áł¯áłµ": 1187,
      "áł£áłª": 1188,
      "Ġáł°áłłáł¢": 1189,
      "Ġáł¦áł¢áł¯áł¡áł³áłªáł¦áł·áł¢": 1190,
      "Ġáłµáłłáł·áł¢áł®": 1191,
      "Ġáł£áł³áł£áł¬": 1192,
      "áł¦áł¸": 1193,
      "Ġáł±áłłáłŃáłłáł·áł³": 1194,
      "Ġáł²áł¦áłªáł°áł¢áł¨": 1195,
      "Ġáł¬áł¥áł®áł¦áłµ": 1196,
      "áłłáłªáłł": 1197,
      "Ġáłªáł¦áł¯áł¦áłŃ": 1198,
      "Ġáłłáł®áł¢áł³áł¤áł·áłłáł¯": 1199,
      "Ġáł¡áłŃáł¦áł°": 1200,
      "Ġ6": 1201,
      "Ġ202": 1202,
      "Ġáł²áł¦áł·áłŃáł¡áł¨": 1203,
      "ĠáłŃáł¡áł°": 1204,
      "Ġáłµáłłáł°áłłáłŃ": 1205,
      "Ġáł¨áł¢áłŃáł¡áł¨áł²áł¡": 1206,
      "áł¡áłŃáł¡áł³": 1207,
      "áł¦áł¬áł¦": 1208,
      "áłłáł¯áł²": 1209,
      "áł¡áł®áłµáł¢": 1210,
      "Ġáł¶áłłáłªáł¤áł´áłł": 1211,
      "¶áł¢áł·": 1212,
      "Ġáłªáł£áł¯áłŃáłłáłµáł¤": 1213,
      "Ġáłµáł¡áłŃ": 1214,
      "áł°áłłáł·": 1215,
      "áł¦áł¯áł²áł¡": 1216,
      "áłłáł¯áłłáłŃ": 1217,
      "Ġáł¬áł¦áł¨": 1218,
      "Ġáłªáł£áł¯áłªáłłáł´áł¤": 1219,
      "áł¡áł°áł¦": 1220,
      "Ġáł³áł¤áł¯": 1221,
      "Ġáł²áł¥áł¯áł¥áłŃáł¡": 1222,
      "Ġáł²áł¤áł·áł°": 1223,
      "ĠáłŃáł¤áł·áłªáłłáł¨": 1224,
      "Ġáł¡áł¬áł¢áł¯": 1225,
      "Ġáł´áł¢": 1226,
      "Ġáł²áł£áł®": 1227,
      "Ġáł³áł¡áłŃáł¡áłŃáł°áł¢áł¯": 1228,
      "Ġáłłáł®áł¤áł·": 1229,
      "áł¡áłªáł²áł¡áł·": 1230,
      "Ġáłªáłłáł¶áł¢áłŃáł¤áł¯áł¤áł¯áł²áłł": 1231,
      "Ġáłµáł¥áłªáł¬áł¡áł¨": 1232,
      "Ġáł³áłłáł·áł¤áł¶": 1233,
      "áł¯áł³": 1234,
      "áł¥áł·áł¢áłŃ": 1235,
      "Ġáł¡áł©": 1236,
      "áł¢áł²áł¡áł¨": 1237,
      "Ġáł¢áł³áł¡áłŃáł¡áł¨": 1238,
      "Ġáł²áł£áłª": 1239,
      "Ġáł´áł¡áłªáł¡áł·": 1240,
      "Ġáł°áłłáłŃáł¤áł·áł¢": 1241,
      "Ġáł¬áł¤áł·áłłáł¯": 1242,
      "áł¡áł©áł¨": 1243,
      "áł¡áł¯áł¡áł¬áł¡áł¶": 1244,
      "Ġáł¬áł¡áł¦áł¬áł¡áł³": 1245,
      "Ġáł²áł¥áł¯áł¥áłªáł¯áł¡áłŃáł¡": 1246,
      "´áł¢": 1247,
      "áł¤áł®áłµáł¢": 1248,
      "Ġáł´áłłáłŃáłłáł¨": 1249,
      "Ġáł¬áłłáł¶áł¢áł·": 1250,
      "Ġáł¨áł£áł®": 1251,
      "áł¤áłµáł¢": 1252,
      "ĠâĢį": 1253,
      "áł¡áłŃáł¦áł¯áł¦áł¨": 1254,
      "Ġáł¬áł¢áł¨áłłáł¨": 1255,
      "¸áł·": 1256,
      "Ġáłµáł£áłŃáł£áł°": 1257,
      "áł³áł¤áł¨": 1258,
      "áł¢áłŃáł¦áł¨": 1259,
      "áłłáłŃáłłáłŃáł°áłłáł¨": 1260,
      "Ġáł®áł¤áłµáł¢": 1261,
      "Ġáłªáł£áł³áł£áł": 1262,
      "Ġ201": 1263,
      "Ġáł¨áł¢áłŃáł¡áł³": 1264,
      "áł¦áł¯áłŃáł¡": 1265,
      "Ġáł¡áłµáł¡áł©áł¨": 1266,
      "Ġáł¨áł¡áłŃáł¡áłŃ": 1267,
      "áł¤áł¸áłłáł©": 1268,
      "Ġáł³áł£áł²áł£áłŃ": 1269,
      "Ġáł®áłłáł¶": 1270,
      "Ġáłµáł¢áł©": 1271,
      "Ġáł£áł·áł£áł¯áł´": 1272,
      "áł¤áłŃáł´áł¢áł³": 1273,
      "Ġáł²áł¥áłŃ": 1274,
      "áł²áłłáł°áł¤": 1275,
      "Ġáł®áł¢áł¨áł¦": 1276,
      "Ġáłłáł¯": 1277,
      "Ġáłłáł©áłŃáł¢": 1278,
      "Ġáłªáł¦áł¬": 1279,
      "Ġáł¬áłłáł³áłłáłŃ": 1280,
      "ĠáłŃáłłáł³áłłáłŃáłłáł³áł¤": 1281,
      "Ġáł¡áł´": 1282,
      "Ġáł³áł£áł²áł£áłŃáłłáł³áł¤": 1283,
      "Ġáł¤áł·áł¢áł³": 1284,
      "Ġáł²áł£áł³": 1285,
      "Ġáł¬áłłáł·áł¢áł¨": 1286,
      "Ġáł¾": 1287,
      "Ġáł¨áł¥áł¬áł¥": 1288,
      "Ġáł¬áłłáł¤": 1289,
      "Ġáł²áłłáł¶áł¢áł": 1290,
      "Ġáł¤áł³áłłáłŃáłłáł¨": 1291,
      "áł¦áłŃáł¡": 1292,
      "Ġáł¬áłłáł®áł²": 1293,
      "ªáłłáł¯": 1294,
      "Ġáł¦áł¨áł³áł¦áł°áł¦áł¯": 1295,
      "Ġáł²áł¡áł·áłŃáł¡": 1296,
      "Ġáł³áł£áł²áł£áł·áłłáł¬áł¢": 1297,
      "áł¤áłŃáł³": 1298,
      "ï¸¾": 1299,
      "Ġáłªáł¦áł·áł¢": 1300,
      "áł¢áł¯áłłáł¬áł¤": 1301,
      "Ġáł¬áłłáł¶": 1302,
      "áł¤áłŃáłłáł´": 1303,
      "Ġáł¬áł¤áł³áłłáł¯áł³áł¤áł¨": 1304,
      "Ġáł´áł¢áłŃ": 1305,
      "áł¢áł¯áł¡áł¨": 1306,
      "Ġáłłáł©áł¬áłłáł·": 1307,
      "Ġáł¨áł¡áł¶áł¢áł²áł¡": 1308,
      "Ġáł¬áł¡áł·áł¡áłŃáł¯áł¡áłµáł¦": 1309,
      "Ġáł¨áł¡áł¶áł¢áł²áł¡áł¯": 1310,
      "Ġáł³áłłáłªáł¬": 1311,
      "Ġáł¬áł¢áł·": 1312,
      "Ġáł²áł¦áłŃ": 1313,
      "Ġáł£áł³áł£áł¬áłłáł¨": 1314,
      "Ġáł²áł£áłŃáł¯": 1315,
      "Ġáł¦áł¢áł¯áł¡áł´áł¢áł¯": 1316,
      "Ġáł¥áłŃáł¡áł·": 1317,
      "áł°áł¦": 1318,
      "Ġáł°áł£áł©áłŃáł£áł": 1319,
      "áłłáłŃáł¤áł¯áł¤áłŃáł°áłłáł¨": 1320,
      "Ġáł²áł¥áłŃáł¥áł·áł¢áłŃ": 1321,
      "áł¦áłŃáł¦áł·": 1322,
      "Ġáł¡áł®áł¨áł¡áł¯áłŃáł¡": 1323,
      "Ġáł²áłłáł¯áłª": 1324,
      "Ġáł²áłłáł²": 1325,
      "Ġáł´áł¡áłŃ": 1326,
      "áł¯áłłáł¨": 1327,
      "Ġáł°áł£áł¯": 1328,
      "Ġáł¦áłµáł¡áł¬áł¦": 1329,
      "áłªáłł": 1330,
      "Ġáł·": 1331,
      "Ġáłłáł¨": 1332,
      "Ġáł³áłłáł¬áł¢áł¨": 1333,
      "Ġáł´áł¢áł®": 1334,
      "Ġáł´áł¤áłŃ": 1335,
      "¯áł¬": 1336,
      "áłłáł¯áł¬": 1337,
      "Ġáł°áł¢": 1338,
      "Ġáłłáł®áłłáł·": 1339,
      "Ġáłªáł£áł¯áłŃáłłáł¨": 1340,
      "Ġáł³áł¤áł¯áłłáłŃáłłáł¨": 1341,
      "Ġáł¬áł¦áł¯": 1342,
      "Ġáł¬áłłáł·áł¢áłŃáł¤áł´": 1343,
      "Ġáł²áłłáł®": 1344,
      "áł¦áł¯áł³": 1345,
      "áł¯áł¡áł¬áł¦": 1346,
      "áł´áł¢áł¶": 1347,
      "Ġáł¡áłŃáł¦áł·": 1348,
      "áł¢áł¯áłŃáł¡": 1349,
      "Ġáłłáł¯áłª": 1350,
      "ĠáłªáłłáłŃáł°áł¢": 1351,
      "áł¡áł¬áł¦áł¨": 1352,
      "ĠáłŃáłłáł³áłłáł·": 1353,
      "Ġáł¶áł¡áł·áł¦": 1354,
      "Ġáłłáł¯áł³": 1355,
      "áł¢áł¶áłłáł¬áł¤": 1356,
      "áł¡áłµáł¢áłŃ": 1357,
      "Ġáł¨áłłáł©": 1358,
      "Ġáł¤áł¨": 1359,
      "Ġáłªáłłáł·áł¢áł®áł²áłł": 1360,
      "Ġáłªáł¤áł¯": 1361,
      "áł¡áłµáł¡áł¶": 1362,
      "Ġáł±áłłáł©": 1363,
      "ĠA": 1364,
      "ĠC": 1365,
      "Ġáł¬áłłáł¤áł¯áł¢": 1366,
      "Ġáłªáł£áł·áł£áł¯": 1367,
      "Ġáł¬áł¢áł·áł¢": 1368,
      "áł¡áłªáł¡": 1369,
      "Ġáłµáłłáł°áłłáł¬áł¤": 1370,
      "Ġáłªáłłáł·áł¢áł®áłµáł¢áł¶": 1371,
      "Ġáł´áł¡áł´": 1372,
      "áł¸áł¨": 1373,
      "áł¢áł¯áł¡áł¯": 1374,
      "Ġáł®áł§": 1375,
      "Ġáł¦áł¶áł¯áł¡áł´áł¢áł¯": 1376,
      "ĠáłŃáł¦áł¨": 1377,
      "áł·áł¥áłŃ": 1378,
      "Ġáłµáł£áł´": 1379,
      "áł³áł¡áł¯": 1380,
      "Ġáłµáł£áł·áł¢áłŃ": 1381,
      "Ġáł¬áł¢áł´": 1382,
      "áł´áłłáł©": 1383,
      "áł¦áł¬áł¡": 1384,
      "Ġáł¯áł¡": 1385,
      "áł¤áł¯áłŃáłłáł¨": 1386,
      "ĠáłªáłłáłŃáł²": 1387,
      "Ġáł²áł£áł¨": 1388,
      "Ġáł°áłłáł¢áł¢áł¨": 1389,
      "Ġáł¬áł£áł¶": 1390,
      "Ġáł³áłłáłŃáłłáłŃ": 1391,
      "Ġáłªáłłáł¶áłłáł·": 1392,
      "áł¦áł¯áł¦áł¨": 1393,
      "Ġáłµáłłáł¯áłŃ": 1394,
      "Ġáł°áłłáł¶": 1395,
      "ĠáłŃáł¦áł¶": 1396,
      "Ġáł°áł¢áł¶áł³áłªáł¦áł·áł¢áł¯áł¡áł¬áł¦": 1397,
      "Ġáł¨áł¡áłªáł²áł¡áł·": 1398,
      "Ġ8": 1399,
      "Ġáłªáł£áł¶": 1400,
      "Ġáł²áłłáł¯áłłáłªáł¤áł·": 1401,
      "áł¡áłŃáł¦áł¯áł¦áłŃáł°áł¡áł¨": 1402,
      "Ġáłłáł·áłłáł°áł¤áł¨": 1403,
      "Ġáł¡áł¯áł§": 1404,
      "Ġáłªáł¥áł®áłªáł¥áłŃáł¡": 1405,
      "Ġáłłáłµáł¢áł¯áł²": 1406,
      "áł¢áł¬áłłáł¨": 1407,
      "Ġáł³áł¥áł·": 1408,
      "¬áł£áł·": 1409,
      "Ġáł¨áł¥áł¯áł¥": 1410,
      "Ġáł£áł·áł³áł£áł¨": 1411,
      "Ġ7": 1412,
      "Ġáł¦áł¶áł¯áł¡áł³áłªáł¦áł·": 1413,
      "áł³áł¤áł¨áł¢": 1414,
      "áł¢áł³áł¡áłŃ": 1415,
      "¶áł£áł¯": 1416,
      "Ġáłµáł¢áłµáł¢áłŃ": 1417,
      "Ġáł¦áł¢áł¯áł¡áł°": 1418,
      "Ġáł¨áłłáł·áł¢áł¨": 1419,
      "Ġáł´áł¢áł³áłłáł¬áł¤": 1420,
      "Ġáł´áł¢áł¨áłłáł·áł²áłłáł¶": 1421,
      "Ġáł±áł¤áłŃ": 1422,
      "Ġáłªáłłáł¶áłłáł¯áł¢áłŃ": 1423,
      "Ġáłłáł¯áł¬": 1424,
      "áł¢áł²áł¡áł¶": 1425,
      "áł¢áł¯áłµ": 1426,
      "áł³áł¡": 1427,
      "Ġáł²áł£áł³áł£áł·": 1428,
      "Ġáł¯áłłáłª": 1429,
      "áł¡áłŃáł²áł¡áł¶": 1430,
      "áłłáłŃáł¤áł¯áłŃ": 1431,
      "áł¤áł¬": 1432,
      "Ġáł¦áł¢áł¯áł¡áł³": 1433,
      "Ġáł²áłłáłªáł´áłłáł©": 1434,
      "Ġáł¬áł¦áł·áł´áł¦": 1435,
      "Ġáłªáł¡áł¶áł¡áł¯": 1436,
      "áł¡áłªáł¦áł·áł¢": 1437,
      "Ġáł³áł¡áł¯áł¡áł¬áł¡áł¶": 1438,
      "Ġáł¬áł¥áł®áł¦áłµáł¢áł¯": 1439,
      "áł¢áł¶áł¡áł¯áł¡áłªáł¡áł¯": 1440,
      "Ġáł¬áł¡áł·áł¡áłŃáł´": 1441,
      "Ġáł´áł£áłŃ": 1442,
      "áł¬áł¡áł¶áł¢áł¯": 1443,
      "Ġ10": 1444,
      "áłŃáł¢": 1445,
      "Ġáłªáłłáł¶áł¢áłŃáł°áłłáł¨": 1446,
      "Ġáł³áł¡áłŃáł¡áł·áł¡áł¬áł¢": 1447,
      "áł¡áłŃáł³áł¡áł¬áł¦áł¨": 1448,
      "Ġáł¬áłłáł¯áłłáłŃáł¤áł¨": 1449,
      "áłłáł°áł¢": 1450,
      "Ġáł±áłłáłŃáłłáł·áł³áłłáł¯áłŃ": 1451,
      "áłªáł¤áł¯áłµ": 1452,
      "ĠáłłáłŃáł¤áł¯áłŃ": 1453,
      "Ġáł¬áł¡áł³áł¦áł¨": 1454,
      "Ġáł¡áł·áł¡áłŃáł¦áł¯": 1455,
      "Ġáłªáł¦áł²áł¦áłŃáł¡áłŃáł³áł¡áł¬áł¦áł¨": 1456,
      "Ġáł¦áł¯": 1457,
      "Ġáł°áł¢áł¯áłµ": 1458,
      "Ġáł³áł£áł¸áł·": 1459,
      "Ġáł¬áł¢áłŃ": 1460,
      "Ġï¸±": 1461,
      "Ġáł¡áł¨áł§áł·": 1462,
      "Ġáł¬áł¡áł¯áł¡áłªáł¡áł¯": 1463,
      "Ġáł±áł¤áłŃáł¤áł®": 1464,
      "Ġáł¬áł¡áł·áł¡áłŃáł°": 1465,
      "áł¦áł²": 1466,
      "Ġáł°áł¤áł·áłªáł¤áł¯áłµ": 1467,
      "áłłáł©áłŃáł¤áł¶": 1468,
      "Ġáł¬áł¡áł·áł¡áłŃáł¯áł¡áłŃáł´áł¢áł³": 1469,
      "ĠáłªáłłáłŃáł¤áł·": 1470,
      "Ġáł¡áł¨áł§áł·áłŃáł¢": 1471,
      "Ġáł¦áł¢áł¯áł¡áł³áł¬áł¦áł¨": 1472,
      "áł°áł¤áł·": 1473,
      "Ġáłªáłłáł¶áł¢áł·áł¢": 1474,
      "áł¬áłłáł¬áł¤": 1475,
      "áłµáł¢áłŃáł¦áł¯áł¬áł¦": 1476,
      "Ġáł¤áł¯áłłáł·": 1477,
      "Ġáł³áł¡áł®áłµ": 1478,
      "Ġáł²áł¡áł®áł¦áł·": 1479,
      "ĠáłłáłŃáłłáł·": 1480,
      "Ġáł¬áł¤áł³áłł": 1481,
      "Ġáłµáł¥áłŃ": 1482,
      "áł¬áł£áł¨": 1483,
      "áł¦áł¯áł¬": 1484,
      "ĠáłłáłŃáł¤áł·": 1485,
      "Ġáł¯áł¢": 1486,
      "Ġáł¬áłłáł®áłłáłŃáłłáł¯áłłáł¬áł¤": 1487,
      "Ġáłµáłłáł³": 1488,
      "Ġáł°áł¦áł¯áłµáł¢áł¶": 1489,
      "Ġáłµáł¢áł±áł¢áł¶áł¡áł¯áł¡áłªáł¡áł¯": 1490,
      "áł£áł£": 1491,
      "áłłáł¯áłłáł¯": 1492,
      "áł£áłŃáłłáł¨": 1493,
      "Ġáł¬áł¦áł¨áł³áł¦": 1494,
      "Ġáł´áł¤áłŃáł¯": 1495,
      "Ġáł²áł¤áł¶áł¢áł¯": 1496,
      "Ġáłªáł£áłŃ": 1497,
      "Ġáł²áł¥áł°": 1498,
      "Ġáł°áł¢áłŃáł¤áł³": 1499,
      "áł¤áł´áł¢áł¯": 1500,
      "Ġáł¢áł²áł¡áłŃ": 1501,
      "Ġáł¨áłłáł¶áł¢áł·": 1502,
      "ĠS": 1503,
      "Ġáł¶áł¡áł·áł¦áł©áł¬áł¡áł¶": 1504,
      "ĠáłŃáł¡áł·áł¡áł¯": 1505,
      "Ġáłªáł¦áł¬áł¦áł¢": 1506,
      "Ġáłµáł£áł¬áł¢áł¶áłłáł¨": 1507,
      "Ġáł¬áł¡áł·áł¡áłŃáł´áł¡áłŃáł¡": 1508,
      "Ġáłµáł¢": 1509,
      "Ġáł¤áł¯áłłáł·áł¢áł¯": 1510,
      "Ġáł¬áłłáł²": 1511,
      "Ġáł°áł¤áł·áł¤áłŃáł´áł¢áł³": 1512,
      "Ġáłªáłłáł¯": 1513,
      "áł¡áł´áł¢": 1514,
      "Ġáł¬áł¡áł²": 1515,
      "áłµáł¢áł¨": 1516,
      "Ġáł¬áł¤áł³áłłáł¯áł³áł¤áłŃáłłáł¨": 1517,
      "áł¦áł´áł¡": 1518,
      "Ġáł°áł£áł¶áł£áł¯": 1519,
      "áłłáłµáłłáł¶": 1520,
      "áł¬áłłáłµáł¤": 1521,
      "Ġáł¬áł¢áł´áł¢áł¶áł¡áł¯": 1522,
      "Ġáł°áł¤áł³áł¤áł¯áłŃáłłáł¨": 1523,
      "áł°áł¥": 1524,
      "Ġáł¬áłłáł®áł²áł¤áł·": 1525,
      "áł¡áł¬áł¡áł¨": 1526,
      "Ġáłµáł¢áł¯áł£áłŃ": 1527,
      "áł¡áł³áł¬áł¦": 1528,
      "Ġáł°áłłáł¶áł¢áł²": 1529,
      "Ġáł¬áł£áł¯áłªáł£áłŃáł³áłłáł¯": 1530,
      "Ġáł¬áł¤áł¸": 1531,
      "Ġáł²áł£áł®áł£": 1532,
      "Ġáł¬áł¡áł®áłµáł¢áł¶áł¡áł¨": 1533,
      "Ġáł®áł¥áł·áł²áł¡áłŃáł¡áł¨": 1534,
      "ĠáłŃáł¦áł¢áł´": 1535,
      "Ġáłłáł¯áłªáłłáł¨": 1536,
      "áł³áł¡áł¬áł¦": 1537,
      "Ġáł²áłłáł©": 1538,
      "Ġáłµáł£áł¬áł¢áł¶áłłáł¯": 1539,
      "Ġáł°áł¢áł¯áłŃáłłáł¯áł²áłł": 1540,
      "Ġáłªáł¦áł·áł¢áł¯áł³": 1541,
      "áł¡áłŃáł³áł¡áł¯": 1542,
      "Ġáł¡áł¬áł¢": 1543,
      "Ġáł°áł¤áł·áłŃáłłáł¨": 1544,
      "Ġáł°áł¡áł·áłŃáł¡áł¶áł¢áł¯áł¡áł¬áł¦": 1545,
      "áłłáł¯áł¢": 1546,
      "Ġáłłáł¯áł¬áł¤áł®": 1547,
      "Ġáł®áł¡áł³áł¡áł¨": 1548,
      "Ġáłµáłłáł©": 1549,
      "Ġáł¬áł¢áł®": 1550,
      "Ġáłµáłłáł¶": 1551,
      "Ġáł°áł¢áł©": 1552,
      "Ġáł¬áł¡áł·áł¡áłŃáł¯áł¡áłŃáł¡áł¨": 1553,
      "Ġáł²áłł": 1554,
      "Ġ9": 1555,
      "Ġáłłá": 1556,
      "áł§áł¦": 1557,
      "Ġáłªáł¥áł¬áł¥áł¶": 1558,
      "Ġáłłáł": 1559,
      "áł´áł¢áł²áł¡áł¨": 1560,
      "Ġáł¬áł¡áł®áłµáł¢áłŃ": 1561,
      "áł¢áł¯áł¢áłŃ": 1562,
      "Ġáł²áł£áł¨áł£áłŃ": 1563,
      "áłłáł¯áł´": 1564,
      "áłµáł§áł¨": 1565,
      "Ġáł¶áłłáł°áł¤": 1566,
      "Ġáł¡áł°áł¡áł·áłŃ": 1567,
      "áł£áł·áł£áł¨": 1568,
      "Ġáł²áłłáł®áł¢áł·": 1569,
      "Ġáł¦áł°": 1570,
      "Ġáł¥áł©áłŃáł¡": 1571,
      "Ġáł¨áł¢áłŃáł¡áł³áł¦áłŃáł¡áł·": 1572,
      "Ġáł¤áł·áł¤áł°": 1573,
      "Ġáł°áłłáł¯áłłáłŃ": 1574,
      "ªáłł": 1575,
      "ĠáłŃáłłáł·áłŃáłłáł¬áł¤": 1576,
      "Ġáł´áł¢áł·": 1577,
      "Ġáł¬áłłáł·áł¢áłŃáł¤áł´áłłáł¯áłŃ": 1578,
      "Ġáł£áł¯áł¤áłŃáł°áłłáł¨": 1579,
      "Ġáł²áłłáł¯áłłáłª": 1580,
      "áł¦áłŃáł¡áł¨": 1581,
      "Ġáłłáł¯áł¢": 1582,
      "Ġáł¦áł¶áł¯áł¡áł°": 1583,
      "Ġáł¬áł£áł·áł¢áł¶áłłáł¨": 1584,
      "Ġáł°áł¤áł·áł¤áł¯áł´": 1585,
      "Ġáł¢áł¯áł¡áłŃ": 1586,
      "áł¬áł¡áłŃ": 1587,
      "Ġáł³áłłáł©": 1588,
      "Ġáł°áł¡áł·": 1589,
      "áłłáłŃáł¤áł¯áł¤áł¯áł²áłł": 1590,
      "áł¢áłºáłł": 1591,
      "Ġáłªáł¢áł³áł¡áł¨": 1592,
      "ĠP": 1593,
      "Ġáłªáł¡áł¯áł¡": 1594,
      "Ġáł¥áł©áłŃáł¡áł·áł¡áłŃáł°áł¡áł¨": 1595,
      "Ġáł¬áł¦áł·áł¢áł¶áł¡áł¯": 1596,
      "Ġáłłáł®áł¢": 1597,
      "Ġáł¬áł£áłŃáł£áł¯áłłáł¶": 1598,
      "Ġáłªáł¤áł·": 1599,
      "Ġáłłáł¬áł¢áłŃ": 1600,
      "Ġáł¨áł¢áł³": 1601,
      "îĢĦ": 1602,
      "Ġáł¡áłµáł¡áł©áł¨áł¡áł¯áł²áł¡": 1603,
      "Ġáł£áł¶áł¢áł·": 1604,
      "Ġáł°áł¢áł¯áł¢áł³áł¡áłŃ": 1605,
      "ĠáłŃáł¡áł°áł¡áł¨": 1606,
      "Ġáłªáł£áł¯áłŃáłłáł¬áł¤": 1607,
      "Ġáł³áłłáł·áł¤áłŃ": 1608,
      "áł¨áłłáł·": 1609,
      "Ġáł¡áłªáł¡áł³áł´áł¢áł²áł¡áł¨": 1610,
      "Ġáł°áł¡áł³": 1611,
      "Ġáł°áł¡áłŃ": 1612,
      "ĠáłŃáł¤áł¶": 1613,
      "áł´áłłáłŃ": 1614,
      "Ġáł´áłłáł¢": 1615,
      "áł¡áł°áł¦áł¨": 1616,
      "áł²áł¡áł¬áł¡áł¨": 1617,
      "ï¸½": 1618,
      "Ġáł£áł¨áł´áłłáł¯áł¢áłŃ": 1619,
      "Ġáłªáł¦áł²áł¦áł®áłµáł¢": 1620,
      "Ġáłªáł£áł¯áłµáł¤": 1621,
      "áł¢áł²áł¦": 1622,
      "Ġáł°áłłáł¯áł¬": 1623,
      "Ġáłªáł¦áł²áł¦áłŃáł¡áł¯": 1624,
      "áł¨áł¢áłŃ": 1625,
      "Ġáł£áł·áł£áł°": 1626,
      "Ġáł²áł¡áł·áł¢áłŃáł¦áł¨": 1627,
      "Ġáłªáł¤áł´": 1628,
      "Ġáłłáłµáł¢áł¯áł²áłłáł¨": 1629,
      "áł¢áł¯áłłáłŃ": 1630,
      "Ġáłµáł£áłŃáł°": 1631,
      "ĠáłŃáłłáł·áł¬áł¤": 1632,
      "Ġáł°áł¢áł¶áłłáł¨": 1633,
      "Ġáłłáł·áłªáłłáł¨": 1634,
      "Ġáł¥áł·áłŃáł¡áł¨": 1635,
      "áł¡áł³áł¬áł¡áł¬áł¦": 1636,
      "Ġáłłáł·áłª": 1637,
      "Ġáł®áł¥áł©áłŃáł¥áł¨": 1638,
      "Ġáł¡áł³áł¡áłŃáł¡áł·": 1639,
      "áł³áłłáłŃ": 1640,
      "Ġáł®áł£áł³": 1641,
      "Ġáł¦áł·áłŃáł¦áł¯áłµáł¢áł¯áł¡áł¨": 1642,
      "Ġáł¡áł·áł¦áł¬áł¡": 1643,
      "Ġáł´áł¢áł¬áł¤áł¯": 1644,
      "Ġáłªáł£áł³áłłáł²áłłáł¶": 1645,
      "ĠáłŃáł£áł¸áł¯": 1646,
      "Ġáłłáł·áłłáł¯áłµ": 1647,
      "Ġáł¡áł²áł¡áłŃ": 1648,
      "áłłáł¯áł²áł¤": 1649,
      "Ġáł£áł¶": 1650,
      "Ġáłªáł£áł¬áł¢áł·": 1651,
      "Ġáł¬áł¦áł·áłŃ": 1652,
      "Ġáł³áł¤áłŃ": 1653,
      "Ġáł¬áłłáłªáł°áł¤áł·": 1654,
      "Ġáł³áł¡áł°": 1655,
      "Ġáłªáł£áł³áłłáł²áł¤": 1656,
      "Ġáł²áł£áł°áł¬áł£áł¨": 1657,
      "Ġáł¨áł£áłŃ": 1658,
      "áł°áł¢áł¶áł¡áł·": 1659,
      "áł¡áłªáł°áł¢": 1660,
      "áłłáł¸": 1661,
      "áł§áł·áł¢áłºáłł": 1662,
      "Ġáł¬áł¤áł·áł³": 1663,
      "Ġáłªáł¦áł²áł¦áł´áł¡": 1664,
      "Ġáłµáł¥áłªáł°áł¢áł¶áł¡áł·": 1665,
      "Ġáł¡áł·áł¬áł¡áłªáł°áł¢": 1666,
      "Ġáłµáł¥áł·": 1667,
      "Ġáł±áłłáł¨": 1668,
      "Ġáł¬áłłáł¨áł³": 1669,
      "Ġáł¨áłłáł°áł¤áł¨": 1670,
      "Ġáł¶áłłáł©": 1671,
      "Ġáł³áł¦áł·áł°áł¦": 1672,
      "Ġáłªáłłáł¶áł¢áłªáłłáł¯": 1673,
      "áł¸áł·": 1674,
      "áł¦áł¯áł¬áł¦áł®": 1675,
      "Ġáłªáł£áł¯áłµáł£": 1676,
      "áłªáł¤áł·": 1677,
      "Ġáł¡áł´áł¦áł°": 1678,
      "Ġáł¤áł¯áłłáł®áłµáł¢áł¯": 1679,
      "Ġáłªáł¦áł¯áł¬áł¦áł®": 1680,
      "Ġáł®áł¡áł²áł¦": 1681,
      "áł£áłŃáłłáł·": 1682,
      "Ġáłµáł¥áłŃáł¡áł¯áł¡áł¨": 1683,
      "áł¢áł¯áł¡áłµáł¦": 1684,
      "Ġáłªáłłáł¶áł¢áłŃáł¤áł¯áłµáł¤": 1685,
      "áł£áł·áł£áł¨áł³": 1686,
      "Ġáł¬áł£áłŃáł£áł·áł£áł¨áł³": 1687,
      "Ġáł²áłłáł¨áł¢áł¯áł´": 1688,
      "Ġáłłáł®áł§áł·áł¢áłºáłł": 1689,
      "áł¢áłŃáł°áłłáł¨": 1690,
      "áłłáł¯áł³áł¤áłŃ": 1691,
      "Ġáł°áł¡áł³áł¬áł¢áł¯áłŃáł¡": 1692,
      "Ġáłªáł¦áł·áł¢áł¨": 1693,
      "Ġáł£áł·áł£áłŃáł¤áł¯áł¤áł¯áł²áłł": 1694,
      "Ġáł¬áł¡áł·áł¡áłŃáł°áł¡áł¯": 1695,
      "Ġáł¦áł¢áł¯áł¡áł³áłªáł¦áł·áł¢áł¯áł¡áł¯": 1696,
      "Ġáł¬áł£áł¶áłłáł³áł¤áłŃáłłáł·": 1697,
      "áł·áł£áł¨": 1698,
      "Ġáł²áł¡áł®áł³áł¡áłŃáł²áł¦": 1699,
      "Ġáł¢áł¯áł": 1700,
      "µáłł": 1701,
      "Ġáł²áł¡áł©": 1702,
      "Ġáł²áł¡áł³áł¡áł¨": 1703,
      "áł¡áł¯áł³": 1704,
      "Ġáł¸áłłáł©": 1705,
      "ĠáłŁ": 1706,
      "Ġáłµáł¢áł¯áł£áłŃáł£áł³": 1707,
      "Ġáł¬áł¦áł´áł¢áł·": 1708,
      "áł¸áł©": 1709,
      "áł¢áł²áłłáł¨": 1710,
      "Ġáł£áł·áł£áłŃáł¤áł¯áł¬áł¤": 1711,
      "Ġáł¦áł¨áł³áł¦áł°áł¦áł¨": 1712,
      "Ġáłłáłµáł¢áł¯áł¯áłłáł¬áł¤": 1713,
      "Ġáł¬áł¢áłµáłłáłŃáłłáł·áł²áł¤": 1714,
      "Ġáł¬áł¡áł¯áł¡áł¬áł¦": 1715,
      "áł¢áł¬áł¢": 1716,
      "áł£áł¶": 1717,
      "Ġáłµáł¢áł·áł¤áł®": 1718,
      "Ġáłµáł£áł´áł¢áł¨": 1719,
      "Ġáł£áł·áł£áłµáł¤": 1720,
      "Ġáłªáłłáł¶áł¢áł´áłłáłŃáłłáł¨": 1721,
      "ĠáłŃáł£áł£áł¯áł³": 1722,
      "Ġáłłáł°áłłáł·": 1723,
      "áł¡áłŃáł¡áłµ": 1724,
      "er": 1725,
      "áł¦áł¶áł¢áł": 1726,
      "Ġáł¤áł®": 1727,
      "áł²áł¡áł¨": 1728,
      "ĠáłŃáł¤áł¸áłłáł©": 1729,
      "áł¤áł¯áł¤áłŃáł°áłłáł¨": 1730,
      "Ġáł²áł£áł¬": 1731,
      "áłłáł¯áłłáłµáł¤": 1732,
      "Ġáł¨áł¡áł¶áł¢áł¯": 1733,
      "Ġáł¬áł¤áł³áłłáł¯áł³áł¤áłŃáłłáł´": 1734,
      "Ġáłªáłłáł¶áł¢áłŃáł¤áł¯áł¬áł¤": 1735,
      "áł¯áł¡áł¨": 1736,
      "ĠáłŃáł¤áł·áłª": 1737,
      "Ġï¼ī": 1738,
      "áł´áł¢áł®": 1739,
      "ĠáłŃáłłáł¯": 1740,
      "Ġáł²áł¤áł¬áłłáł¶áł¢áł¯": 1741,
      "Ġáł¢áł¯áłŃ": 1742,
      "Ġáł¤áł·áł¤áłŃ": 1743,
      "Ġáł³áłłáłªáł¬áł¤áł·áłŃ": 1744,
      "Ġáł°áł¢áłª": 1745,
      "áł·áł¢": 1746,
      "ĠáłµáłłáłŃáłªáł¤áł·": 1747,
      "ĠáłŃáłłáł·áł´áł¤": 1748,
      "áł°áł¢áłŃáł¤áł·": 1749,
      "Ġáł³áł¡áł¶áł¢áł": 1750,
      "Ġáł°áł¡áł³áł¦áłª": 1751,
      "áł¦áłµáł¦": 1752,
      "Ġáł¨áł¢áłŃáł¤áł·": 1753,
      "Ġáł²áł¦áł·áł¦áłŃ": 1754,
      "Ġáłªáłłáł¶áł¢áł¯áł³": 1755,
      "áłłáłŃáłłáł®": 1756,
      "Ġáł´áł¢áł¯": 1757,
      "áł£áłº": 1758,
      "Ġ12": 1759,
      "Ġáł¤áłŃáł°áłłáł·": 1760,
      "Ġáł²áł£áłŃáł²áłłáłŃáłłáł¯": 1761,
      "áłºáł²": 1762,
      "Ġáł¬áł¡áł®": 1763,
      "Ġáłªáł¡áł·": 1764,
      "Ġáłłáł®áłłáł·áł¬áłłáł¨": 1765,
      "áł¢áł°áł¬": 1766,
      "Ġáł´áł¢áł³áłłáł¨": 1767,
      "Ġáł¨áłłáł¶áł¢áł³": 1768,
      "Ġáł°áł¦áł·": 1769,
      "Ġáł°áł£áł·áł£áłŃ": 1770,
      "¯áłªáł¤áł·": 1771,
      "Ġáł£áł¯áłŃ": 1772,
      "Ġáłªáłłáł¯áłł": 1773,
      "Ġáł¨áłłáł¶áł¢áłµáłł": 1774,
      "Ġáł³áłłáłªáł²": 1775,
      "Ġáłªáł£áł¯áł¬áł£áł·": 1776,
      "ĠáłŃáłłáłŃ": 1777,
      "Ġáł²áł¤áł·áł°áł¢áł¯áł²áłł": 1778,
      "Ġáł°áł¢áł¬": 1779,
      "áł¦áł®áłµ": 1780,
      "Ġáł²áłłáł°áł¤áł·": 1781,
      "Ġáł´áł¡áł´áł¡áłŃ": 1782,
      "Ġáł¡áł·áł³": 1783,
      "Ġáłµáł¢áłŃáł°": 1784,
      "áł¢áł¯áłłáłµáł¤": 1785,
      "Ġáł¦áł¨áł³áł¦áł°áł¦áł¯áł¡áł¨": 1786,
      "áł¤áłŃáłłáł³": 1787,
      "Ġáł¤áł¶áł¤áł¨": 1788,
      "ĠM": 1789,
      "áł¢áł¯áłłáł¯": 1790,
      "Ġáłµáł¢áł©áł¬áł¢áł¨": 1791,
      "Ġáł¬áł¦áł·áł¢áł¶áł¡áł¯áł¡áł©": 1792,
      "Ġáł¨áł¤áł²": 1793,
      "in": 1794,
      "Ġáł¬áł¥áł¨": 1795,
      "Ġáł°áł¢áł¯áł²": 1796,
      "áłłáł²áł¤áł¨": 1797,
      "áł¥áł¯áł³": 1798,
      "ĠáłŃáł¡áł¬áł¦": 1799,
      "Ġáł¦áł·áłŃáł¦áł¯áłµáł¢": 1800,
      "łį": 1801,
      "áłį": 1802,
      "Ġáłłáł®áłµ": 1803,
      "Ġáł³áłłáł®áłµáł¢áłŃáł¤áł¯áł¤áł¨": 1804,
      "Ġáłµáł¢áł©áł¬áł¢áł¨áł¢": 1805,
      "¯áł¬áł¦": 1806,
      "Ġáłªáłłáł·áł¤áłŃ": 1807,
      "áł²áłłáł·": 1808,
      "Ġáł¬áłłáł©áłŃáłłáł¬áł¤": 1809,
      "Ġáł¤áł¯áł": 1810,
      "Ġáł¬áł¡áłªáł¯áł¡áł¯": 1811,
      "Ġáłªáł¦áł°": 1812,
      "áł¦áł©áł°áł¢áłŃáł¤áł·": 1813,
      "Ġáł°áł¢áł³": 1814,
      "áł¡áł¯áł´": 1815,
      "Ġáł¨áł¡áłŃáł¦áł·": 1816,
      "Ġáł°áł£áł¨áł¢áł¨": 1817,
      "Ġáł¥áłŃáł¬áł¦": 1818,
      "Ġáł²áł¡áł°": 1819,
      "Ġáł¡áł®áł´áł¢áł¯": 1820,
      "áłłáł¯áłłáł¨": 1821,
      "Ġáł¬áł¥áł·áł¥": 1822,
      "Ġáłªáłłáł¶áł¢áł´áłłáłŃáłłáł¯áł²áłł": 1823,
      "Ġáł³áł¤áł²": 1824,
      "áłŃáł¤": 1825,
      "Ġáłµáł¢áł·áłŃ": 1826,
      "Ġáł®áł¡áł³áł¡áł¬áł¦": 1827,
      "Ġáł®áł¥áł´áł¢áł·": 1828,
      "áł¦áł¢": 1829,
      "áł¯áłłáłµáł¤": 1830,
      "Ġáł³áł¡áł¶áł¢áł¯áł¬áł¦": 1831,
      "Ġáł¥áłŃáł¡áł·áł¡áł´áł¢áł¯": 1832,
      "Ġáł¦áł¢áł¯áł¡áł³áł¦áł¯": 1833,
      "Ġáł¬áł¤áł³áłłáł¯áł³áł¤áłŃáłłáł´áł¢áł¨": 1834,
      "Ġáł¡áłŃáł¦áł³áł¬áł¦": 1835,
      "Ġáł¥áł·áł²áł¡áłŃ": 1836,
      "áł¡áłŃáł¡áłµáł¢áł©": 1837,
      "Ġáł¬áł¢": 1838,
      "Ġáłªáł¦áł¯áł¦áłŃáł¯áł¡áł¯": 1839,
      "áłłáłŃáł¤áł¯áł¤áłŃáł´áł¢": 1840,
      "áł¥áł·áłŃáł¡": 1841,
      "Ġáłªáłłáł¶áł¢áł´áłłáłŃáłłáł¬áł¤": 1842,
      "Ġáł³áł¤áł·áłłáł³": 1843,
      "Ġáł¤áł²áłłáł°áł¤": 1844,
      "Ġáł°áł¢áł¯áł²áłłáłŃáłłáł¨": 1845,
      "áł²áł¡áłŃáł¡": 1846,
      "Ġáł¬áł¡áł¢": 1847,
      "Ġáł°áł¦": 1848,
      "áł³áłłáł¬áł¢": 1849,
      "Ġáłµáł£áł¬áł¢áł¬áł¤": 1850,
      "Ġáł¬áł¤áłªáł¢áł·áłłáł¯áł²áłł": 1851,
      "Ġáł¢áł³áł¡áłª": 1852,
      "Ġáł¡áł¯áł§áłºáł²": 1853,
      "áłłáłŃáł¤áł¯áł¢áłŃ": 1854,
      "áłłáł³áłł": 1855,
      "Ġáł¬áł¤áł·áł³áł¤áł´áłł": 1856,
      "Ġáłªáłłáł¶áł¢áłŃáł¤áł¯áł¤áł®áłµáł¢": 1857,
      "Ġáł¬áł¡áł·áł¬áł¢áł¨": 1858,
      "áł¢áł´áł¡": 1859,
      "Ġáł³áł¡áłª": 1860,
      "áł¡áł·áł¢áłŃ": 1861,
      "Ġáłªáłłáł¢": 1862,
      "Ġáł°áł¤áł³áł¤áł¯áł¤áł¨": 1863,
      "áł£áł¬áł¤": 1864,
      "áłµáł§áł¨áł§áł·": 1865,
      "áł²áł¤áł¯": 1866,
      "áł¸áł¢": 1867,
      "ĠáłŃáłłáł·áłŃáłłáłµáł¤": 1868,
      "Ġáłªáł¤áł¯áłµáł¤": 1869,
      "Ġáł¯áłł": 1870,
      "Ġï¸Ķ": 1871,
      "ĠîĢĦ": 1872,
      "áł¡áł¦": 1873,
      "Ġáł¢áł¨áłµáł§áł¨áł§áł·": 1874,
      "áłµáł¢áł²áłłáł¶": 1875,
      "Ġáłªáł£áł³áł£áł¯áłŃ": 1876,
      "Ġáł¬áł¥áłŃáłµáł¢áłŃ": 1877,
      "áł´áł¡áł¯": 1878,
      "Ġ0": 1879,
      "Ġáł¬áł£áł·áł¢áł¶": 1880,
      "ĠI": 1881,
      "Ġáłµáł£áł¬áł¢áł¶": 1882,
      "Ġáłªáł¡áłŃáł¡áłµáł¢áł©": 1883,
      "áłłáł·áł²": 1884,
      "Ġáł¬áł£áł¯": 1885,
      "Ġáł¤áł¯áł¬áł¤": 1886,
      "Ġáł¬áłłáł·áł¢áł´áłłáłŃ": 1887,
      "áł¢áł¨áł£": 1888,
      "¯áł²áłłáł¯": 1889,
      "Ġáł¥áłŃáłŃ": 1890,
      "Ġáł°áł¢áł¯áłµáł¢áłŃ": 1891,
      "áłłáł©áł¬áł¢": 1892,
      "Ġáł¬áłłáłªáł²áłłáł°áł¤": 1893,
      "Ġáł¨áłłáł·áłłáł²áł¤": 1894,
      "Ġáł°áł¢áł©áłŃ": 1895,
      "ĠáłłáłŃáł¤áł°": 1896,
      "Ġáł¬áłłáł®áłłáłŃáłłáł¯áłłáł¯áł²áłł": 1897,
      "Ġáłłáł®áłµáł¢áł¯áł²áłł": 1898,
      "Ġáł¬áłłáł©áłŃáłłáłµáł¤": 1899,
      "Ġáł¬áłłáłŃáłłáł°": 1900,
      "Ġáł°áł²": 1901,
      "Ġáł½": 1902,
      "Ġáł¨áł¥áł¯áł¥áłŃáł¡áł¯": 1903,
      "Ġáł¬áłłáłŃáł¤áł·": 1904,
      "Ġáł¤áł©": 1905,
      "Ġáł³áł¥áł·áłª": 1906,
      "ªáł¡áł·": 1907,
      "Ġáł£áł·áł£áł¬áł¤": 1908,
      "Ġáł£áł¯áłłáł©áł¬áł¢": 1909,
      "Ġáł¬áł¦áł·áł¢áł¶áł¡áł¨": 1910,
      "ĠáłŃáłłáł·áłŃáłłáłŃáł°áłłáł¨": 1911,
      "Ġáłºáł¢áł¨áł£": 1912,
      "Ġáł¤áł¯áłłáłŃáłłáł¨": 1913,
      "áł¥áłŃáł¥áł®": 1914,
      "Ġáł±áłłáł²áł¤áł¨": 1915,
      "Ġáł¢áł·áł¡áłŃáł¡áł³": 1916,
      "áł´áł¢áł¯áłłáł¨": 1917,
      "Ġáł¡áł®áł¡áłŃáł²áł¡áł¶": 1918,
      "Ġáł²áłłáłªáł¤áł¨": 1919,
      "Ġáł¨áłłáł°": 1920,
      "Ġáł¥áł·áł¢áł°": 1921,
      "Ġáł¦áł¶áł¯áł¡áł³áł¬áł¦áł¨": 1922,
      "áł¦áł¶áł¢áłªáł¡áł·": 1923,
      "áł¤áł°áł¢": 1924,
      "áł¬áłłáł¶áł¢áł¯": 1925,
      "Ġáł´áł¢áł·áł®": 1926,
      "Ġáłªáł¢áł²": 1927,
      "áł¡áł®áł¡áł¯": 1928,
      "áł¤áł·áł¢áł³": 1929,
      "Ġáł¡áł¬áł¡": 1930,
      "ĠáłŃáłłáł·áł¤áł¶": 1931,
      "ĠáłŃáł¡áłªáł¡áł¯": 1932,
      "Ġ11": 1933,
      "Ġáł¬áłłáł°": 1934,
      "Ġáł´áłłáł¢áł·": 1935,
      "Ġáł²áł¤áł¬áłłáł¶áł¢áł¯áłłáłŃáł°áłłáł¨": 1936,
      "Ġáłªáł£áł¯áłµáłłáł¶": 1937,
      "Ġáł³áł¥áłŃáł¥áł®": 1938,
      "Ġáł³áłłáł·áł¤áł¯áł²áłł": 1939,
      "Ġáł¡áł°áł¡áł·áłŃáł¦áł´": 1940,
      "Ġáł¬áł¡áł³áł¦áł¶áł¢áłªáł¡áł·": 1941,
      "áł¯áł¢áłŃáł¡áł·": 1942,
      "Ġáł´áłłáł¢áł·áłłáł¯áł²áłł": 1943,
      "Ġáł°áł¢áł©áłŃáł¡áł¨": 1944,
      "áł³áł¡áł¬áł¢": 1945,
      "áł¡áł¯áłª": 1946,
      "Ġáł¤áł·áłłáł¯áł¢áłŃ": 1947,
      "Ġáł¥áł®": 1948,
      "ĠB": 1949,
      "Ġáł´áł£áłŃáł´áłł": 1950,
      "Ġáł®áł¡áł³áł¡áł¯áłŃáł¡": 1951,
      "Ġáł¬áł£áł¶áł¢áł": 1952,
      "Ġáł¶áłłáłŃáł¤": 1953,
      "Ġáł²áł£áłŃáł²áłłáłŃáłłáł¬áł¤": 1954,
      "Ġáł¬áł¤áłªáł´": 1955,
      "Ġáł°áł£áł·áł£áłŃáł´áł¢": 1956,
      "Ġáł¨áł¡áłŃáł¡áłŃáł¡áł¨": 1957,
      "Ġáłµáłłáł¬áł¢áł·": 1958,
      "Ġáł²áł£áłŃáł¯áłłáłŃáłłáł®": 1959,
      "áłŃáłłáł¨": 1960,
      "áł´áł¢áłŃ": 1961,
      "ĠáłªáłłáłŃáłłáł°": 1962,
      "Ġáłªáł£áł¯áł²áłłáł¯": 1963,
      "áłłáł¬áłłáł¶": 1964,
      "Ġáł¬áłłáł¸": 1965,
      "Ġáł¦áłµáł¡áłµáł¦": 1966,
      "Ġáł«áł·": 1967,
      "áł§áł¶": 1968,
      "Ġáł¬áł¦áł´áł¦": 1969,
      "Ġáł¨áł¡áł¶áł¢áłŃáł¡áł®áł¯áł¢áłŃ": 1970,
      "áł¦áł¬áł¡áł¨": 1971,
      "áłłáł¯áł³áł¤áł¨": 1972,
      "Ġáł£áłª": 1973,
      "Ġáłªáłłáł¶áł¢áł°": 1974,
      "Ġáł³áł¡áł¯áłŃáł¡áł·": 1975,
      "Ġáł¬áł¤áł¸áłł": 1976,
      "áł·áłłáł®": 1977,
      "Ġáł¨áł¥áł¬áł¥áł´áł¡áł¯": 1978,
      "Ġáłªáłłáł¶áł¢áł°áł¢áł©": 1979,
      "Ġáł¨áł¢áł°": 1980,
      "Ġáł¡áł²áł¡áłŃáł¡áł³": 1981,
      "Ġáł¢áł·áł¡áłŃáł°áł¡áł¨": 1982,
      "Ġáł¦áłµáł¡áł®áłµáł¢": 1983,
      "Ġáłµáłłáł³áłłáł¯": 1984,
      "Ġáł´áłłáłŃáłłáłµ": 1985,
      "áł¦áł³áł¡áł·": 1986,
      "Ġáł¦áłµáł¡áłŃáł¦áł¯áł¬áł¦": 1987,
      "áł¬áł¡áł·": 1988,
      "áł¢áłŃáł¡áł¢": 1989,
      "Ġáłµáł¢áł®": 1990,
      "Ġáł¤áł³áł¤áł·áł¢áł³": 1991,
      "áł´áł¡áłŃ": 1992,
      "Ġáł¢áł¯áł´áł¢": 1993,
      "Ġáł¤áł¢áłŃáł¡áł¢": 1994,
      "Ġáłªáłłáł©": 1995,
      "Ġáłµáł¢áłŃáłłáł¨": 1996,
      "áł¡áł³áł¬áł¡áł¯": 1997,
      "áłłáłµáł¢": 1998,
      "Ġáł³áł¤áłŃáł¤áł¶áł¢áł¯": 1999,
      "Ġáł¦áł°áł¦áłŃ": 2000,
      "Ġáłµáł¢áł¶áłłáł©": 2001,
      "Ġáł¬áł¡áł¯áł¬": 2002,
      "áł¢áł¶áłłáł©": 2003,
      "Ġáł³áłłáłªáłłáłŃáł¤áł¯áł¢áłŃ": 2004,
      "Ġáł¥áł·áł¢áł°áł¥áł¯áł³": 2005,
      "Ġáł²áłłáł·áł¬": 2006,
      "Ġáł²áł¥áł°áł¦áł¯": 2007,
      "ł±": 2008,
      "áł±": 2009,
      "Ġáł¬áł¢áł®áł¢": 2010,
      "áł¤áłŃáł¤": 2011,
      "Ġáł¦áł¶áł¯áł¡áł³áłªáł¦áł·áł¢": 2012,
      "Ġáł°áł¢áł·áł£áł¶": 2013,
      "Ġáłµáł£áł¬áł¢áł´": 2014,
      "ĠT": 2015,
      "Ġáłµáłłáł°áłłáł¯": 2016,
      "Ġáł®áł¡áł¨": 2017,
      "áł³áł¦áł·": 2018,
      "Ġáł¬áł¦áł°áł¡áł¯": 2019,
      "áłłáł³áł¬áłłáł¯": 2020,
      "Ġáł¬áł¡áł·áł¡áłŃáł¯áł¡áłŃáł´áł¢": 2021,
      "Ġáł°áł¢áł¯áłŃáłłáł¨": 2022,
      "Ġáłłáł©áł¬áłłáł¨": 2023,
      "ĠáłŃáłłáł·áłłáłŃ": 2024,
      "Ġáł³áł£áł£áł·áłłáł¬áł¢": 2025,
      "ĠG": 2026,
      "Ġáł¬áł¡áł²áł¦áł·": 2027,
      "ĠáłŃáłłáł³áłłáł·áłŃáł¤": 2028,
      "Ġáł±áłłáł©áł¨": 2029,
      "on": 2030,
      "Ġáł²áł£áł³áł£áł·áł¬áłłáł¶": 2031,
      "áł£áł©": 2032,
      "Ġáł¶áłłáłŃáłłáł¬": 2033,
      "Ġáł¬áłłáł·áłłáłŃ": 2034,
      "Ġáł²áł§": 2035,
      "Ġáł´áł¢áł°": 2036,
      "Ġ19": 2037,
      "áł¢áł¢": 2038,
      "áł²áłłáł°áł¤áł¨": 2039,
      "Ġáł¬áł¡áłªáł´áł¢áł¶": 2040,
      "Ġáł¬áł¡áł¯áł¡áł¨": 2041,
      "Ġáł¦áł¢áł¯áł¡áł´áł¢áł¯áł¡áłŃáł¡": 2042,
      "Ġáł²áł¦áł·áł¢áł®": 2043,
      "´áł¢áł¨": 2044,
      "áłłáłŃáł³áłłáł¬áł¤": 2045,
      "Ġáł´áł¢áł©": 2046,
      "Ġáł¶áłłáł·áł¢áł¯áł´": 2047,
      "Ġáł¢áł°": 2048,
      "Ġáł¡áłŃáł¦áł·áłŃáł¡": 2049,
      "Ġáł²áł£áłŃáłłáł¨": 2050,
      "Ġáł²áł¡áłµáł¢áłŃ": 2051,
      "Ġáł¡áł°áł¡áł¬áł¦": 2052,
      "Ġáł¬áł¢áłµáł¢áłŃ": 2053,
      "Ġáł³áł¡áł³": 2054,
      "Ġáł¨áłłáł·áł¢áł¯áł¢áłŃ": 2055,
      "Ġáł°áł¤áłª": 2056,
      "Ġáł°áł£áł¨áł£áł°": 2057,
      "Ġáł¬áł¥áł©áłŃ": 2058,
      "Ġáłªáł¢áł²áł¡áłŃ": 2059,
      "Ġáł¦áł¶áł¯áł¡áł´áł¢áł¯áł¡áłŃáł¡áł¨": 2060,
      "Ġáł¬áłłáł¸áł¯áł¢": 2061,
      "Ġáłªáł¦áł²áł¦áł®áłµ": 2062,
      "Ġáł£áł¨áł´áłłáłŃáłłáł¶": 2063,
      "µáł¢áł·": 2064,
      "áłłáł¬áł¤áł¨": 2065,
      "Ġáł¢áł³áł¡áłªáł¬": 2066,
      "áł¢áł¯áł¡áłŃáł°áł¡áł¨": 2067,
      "ĠáłłáłŃáł¤áł¯": 2068,
      "Ġáł°áłłáł¬": 2069,
      "Ġáł¡áłµáł¡áł®áł³áł¡áł¬áł¦": 2070,
      "Ġáłłáł¦": 2071,
      "Ġáł°áłłáł¶áł¢áł²áł¤áł·": 2072,
      "Ġáł¨áłłáł¨": 2073,
      "Ġáł´áł¡áł·áł¢áłŃ": 2074,
      "Ġáłµáł¦áł´": 2075,
      "Ġáł³áłłáł©áł°": 2076,
      "Ġáł¢áł¯áł¡áł·áł¬áł¡áł¶áł¢áł¯": 2077,
      "Ġáłªáł£áł¯áłªáłłáł°áł¤áł·áłłáł¯": 2078,
      "Ġáłªáłłáł²áł¤áł¯áłłáł¬áł¤": 2079,
      "áł¡áł¯áł¡áł¬áł¦": 2080,
      "Ġáł´áł§áł©": 2081,
      "áł¯áł¡áł·": 2082,
      "Ġáłªáłłáł·áłłáł¬áł¤": 2083,
      "áł¯áłłáł¯": 2084,
      "Ġáł²áł¡áł¶áł¢áł": 2085,
      "Ġáł§": 2086,
      "Ġáł³áł¤áłŃáł¤áł¶áł¢áł¯áłłáł©": 2087,
      "Ġáłµáłłáł¶áł¢áł¯": 2088,
      "Ġáł¢áł©áłŃ": 2089,
      "Ġáł¬áł¦áł¯áł¢áł¶": 2090,
      "Ġáłłáł¶áł¤áł¯": 2091,
      "áł¢áł¯áłłáł¨": 2092,
      "Ġáłµáł¦áł´áł¦áłŃáł¡": 2093,
      "Ġáł¨áłłáł°áł¤": 2094,
      "Ġáł£áł·áł£áł¯": 2095,
      "Ġáł¤áł·áł¤áł°áł¬áłłáł¯": 2096,
      "Ġáłªáłłáł·áłłáłŃáłłáł¨": 2097,
      "Ġáłªáłłáł·áłłáłŃáł¤áł¨": 2098,
      "Ġáł¥áł·áłŃ": 2099,
      "Ġáł¢áł¨áłµáł§áł¨áł§áł·áł¢áł©": 2100,
      "Ġáł°áł¥": 2101,
      "Ġáł¡áłŃáł¦áł°áłŃ": 2102,
      "áł¤áł´áł¢áł¨": 2103,
      "Ġáł³áł£áł·": 2104,
      "Ġáł¬áł¥áł³áł¡áł¯áłŃáł¡áłŃáł¡áł¨": 2105,
      "Ġáł£áł³áł£": 2106,
      "Ġáł°áł¢áł²": 2107,
      "Ġáłłáłªáł´áł¢áł·": 2108,
      "Ġáł®áł£áł³áł£áł¨": 2109,
      "Ġáłłáł·áł¢áł¯áłŃ": 2110,
      "Ġáł°áł£áł¯áł¢áł¯áł´": 2111,
      "Ġáł²áłłáł·áłłáłŃ": 2112,
      "Ġáł¬áł¡áł¯áł¡áłµáł¦": 2113,
      "Ġáł¦áł¶áł¯áł¡áł´áł¢áł¯áł¡áłŃáł¡": 2114,
      "Ġáł²áł£áł¯": 2115,
      "ĠL": 2116,
      "Ġáł¶áł£áł°áł£áłŃáłłáł·": 2117,
      "áł¯áł¡áłµáł¦": 2118,
      "Ġáł²áł¥áł¯áł¥áłŃáł¡áł¯": 2119,
      "ĠáłŃáł¤áł·áłªáłłáł³áł¤áłŃáłłáł·": 2120,
      "Ġáłªáł£áł¬áł¢áł·áł²áł¤áł¯": 2121,
      "Ġáł¬áłłáł³áłłáłŃáłłáł¯áłłáł¬áł¤": 2122,
      "áł³áłłáł¨": 2123,
      "Ġáł³áłłáłŃáł¤áł°": 2124,
      "áł¤áłŃáł¤áł¯áł¬áł¤": 2125,
      "ĠáłŃáłłáłŃáł´áłł": 2126,
      "áł³áłłáł¬áł¤": 2127,
      "Ġáł¦áłµáł¡áłªáł¡áł¯": 2128,
      "Ġáł®áł¡áł³áł¡áł·": 2129,
      "Ġáł¬áłłáł®áł¢áł¶": 2130,
      "áł¤áł©": 2131,
      "ĠD": 2132,
      "Ġáłµáł¡áłŃáł¦áł¨": 2133,
      "áł£áł«": 2134,
      "Ġáł¬áł¢áłŃáł°áł¡áł¨": 2135,
      "Ġáłªáłłáł³": 2136,
      "ĠáłªáłłáłŃáłłáłµáł¢": 2137,
      "áł¯áłłáł¯áł²áłł": 2138,
      "Ġáł²áłłáł·áł¢áł¶áłłáł¯": 2139,
      "Ġáł¦áłµáł¦áłŃáł¦áł·": 2140,
      "áł¢áł¸": 2141,
      "an": 2142,
      "áł¦áł¯áł³áł¡áł·": 2143,
      "Ġáł²áł¢áł¶áłłáł¨": 2144,
      "Ġáł¬áłłáł©": 2145,
      "Ġáł¬áł¢áł²": 2146,
      "áłłáł«": 2147,
      "áł§áł²": 2148,
      "´áł¡áł¬áł¦": 2149,
      "áł¬áł¢áł®": 2150,
      "áłªáł¡áł¯": 2151,
      "Ġáł¡áł®áł´áł¢áł¯áł¡áłŃáł¡áł¨": 2152,
      "Ġáł¶áł¤áł¸áłłáł¨": 2153,
      "ĠáłŃáł¤áł¶áł¤áł´áł¢áł¯": 2154,
      "Ġáł¢áł·áł¡áłŃáł¡áł³áł¦áł¶": 2155,
      "áłłáł´áł¢": 2156,
      "Ġáł£áł¶áł¤áł¨": 2157,
      "áł¢áł¶áłłáłµáł¤": 2158,
      "Ġá¡½": 2159,
      "Ġáł¬áł¡áł®áłµáł¢áłŃáł¦áł·": 2160,
      "Ġáł¨áł£áł®áł§áł·": 2161,
      "Ġáł¦áł¨áł¡áł®": 2162,
      "Ġáłµáłłáł·áł¤áł³áłłáł¯": 2163,
      "Ġáł°áł§": 2164,
      "Ġáł£áł²": 2165,
      "Ġáłªáł¦áł³": 2166,
      "Ġáł±áłłáł©áł¨áłłáł¯": 2167,
      "Ġáł²áłłáł°áł¤áł·áłłáł¯áł²áłł": 2168,
      "Ġáłµáł§": 2169,
      "Ġáł²áł£áłªáł´áł¢áł¶": 2170,
      "Ġáł²áłłáł¯áłłáłªáłłáł¶": 2171,
      "áł¤áł¨áł¤áłŃ": 2172,
      "Ġáł¤áł³áł¤": 2173,
      "Ġáł£áł´": 2174,
      "ĠáłŃáł¦áł¨áłµ": 2175,
      "Ġáł¦áł¨áł¡áł®áł¯áł¡áł¯": 2176,
      "Ġáł¡áł¯áł°": 2177,
      "Ġáł¶áł¡áł·áł¦áł©áł¬áł¡áł¶áł¢áł¯": 2178,
      "Ġáł³áłłáłŃáłłáł¯áł³áł¤áł¨": 2179,
      "Ġáł£áł·áł£áłŃáł¤áł¯áł¤áłŃáł°áłłáł¨": 2180,
      "Ġáł´áł¢áł³áłłáł®áłµáł¢": 2181,
      "Ġáł°áł¢áł®": 2182,
      "Ġáł¶áł£áł°áł£": 2183,
      "Ġ15": 2184,
      "Ġáł¥áł·áł²áł¡áłŃáł¡": 2185,
      "áł·áł¥áłŃáł´áł¢": 2186,
      "áłłáł®áłłáłŃáłłáł¶": 2187,
      "áł¡áł¬áł¡áł·": 2188,
      "ĠâĢĶ": 2189,
      "áł¬áł¦áł¯": 2190,
      "Ġáłµáłłáł¯": 2191,
      "áł®áłłáłŃ": 2192,
      "Ġáł¬áłłáł·áł¢áł¯áł´áłłáł¨": 2193,
      "Ġáł¶áł¢áł": 2194,
      "Ġáłªáłłáł¶áł¢áłŃáłłáł¯áł¢": 2195,
      "Ġáł¬áł¥áłª": 2196,
      "Ġáłªáł¤áł³áł¤áł¯áłŃ": 2197,
      "Ġáł¤áł·áł¢áł³áł´áł¢áł¯áłłáł¨": 2198,
      "Ġ30": 2199,
      "Ġáłµáł¢áłŃáł¤áł¯áł´": 2200,
      "áł®áłłáł¨": 2201,
      "Ġáł¬áł¥áł³áł¡áłŃáł¡": 2202,
      "áł¬áłłáł¢": 2203,
      "Ġáł¬áł¥áł·áł¥áł©áłŃáł¡": 2204,
      "Ġáłªáłłáł©áł¬áł¢": 2205,
      "áł£áł¯áł": 2206,
      "Ġáł¡áł¬áł¢áł¯áł¡áł¨": 2207,
      "Ġáł¦áł¨áł¦áł·": 2208,
      "Ġáłłáł®áł¢áł°áł¬": 2209,
      "Ġáł¨áł¡áłŃáł¡áłŃáł¡áł¬áł¦": 2210,
      "Ġáł²áł¡áłŃáł¦áł°": 2211,
      "Ġáł²áł¥áłªáł¯áł¡áł·": 2212,
      "Ġáł²áł¡áłŃáł¡áłŃ": 2213,
      "áł²áł¡áł¯": 2214,
      "Ġáł¦áł¨áł¡áł¬áł¡áł·": 2215,
      "áłłáł¬áłłáł¨": 2216,
      "Ġáł²áłłáł°áł¤áłŃ": 2217,
      "000": 2218,
      "Ġáłªáł¦áł¯áł¢": 2219,
      "áł¢áł³áł¬áł¡áł¯": 2220,
      "Ġáłªáł¦áł¬áł¦áł¨": 2221,
      "Ġáł£áł·áł£áł¯áłŃ": 2222,
      "ĠáłŃáł£áł£áł¯áł³áłłáłŃáł¤": 2223,
      "Ġáł¨áłłáł¶áł¢áł³áłłáłªáł¤áł·": 2224,
      "Ġáł²áłłáł·áł¢áł¶áłłáł¯áłłáł©": 2225,
      "Ġáł´áł¢áł©áłŃáłłáł³": 2226,
      "Ġáł¬áłłáł·áłłáł¯áł²áłł": 2227,
      "áł©áł·áł¢": 2228,
      "Ġáłłáł¯áł¤áł°": 2229,
      "Ġáł¼": 2230,
      "áł¡áłŃáł¦áł¯áł¦áł¯áł²áł¡": 2231,
      "Ġáł²áłłáł¸": 2232,
      "Ġáł¬áł¤áłªáł¢áł¶áłłáł·": 2233,
      "Ġáłłáł©áł¬áłłáł·áł¤áł¯": 2234,
      "Ġáł¤áł¤áł¯": 2235,
      "áł¦áł¸áł§": 2236,
      "áłªáł¥áł·": 2237,
      "Ġáł°áł£áł©áłŃáł£áł¬áł¤": 2238,
      "áł³áł¡áłµáł¦": 2239,
      "áł¡áł¯áł²": 2240,
      "Ġáł²áł¡áł¶áł¢áł®áł¦": 2241,
      "áł£áł«áłł": 2242,
      "áł¯áł¸": 2243,
      "Ġáł¥áł¨áł¥": 2244,
      "Ġáł¥áł°": 2245,
      "Ġáł²áł¦áł°": 2246,
      "Ġáł¦áłµáł¡áłŃáł¦áł¯": 2247,
      "Ġáł¨áł£áł·": 2248,
      "Ġáł¨áłłáłŃ": 2249,
      "Ġáł¤áł¸": 2250,
      "áł·áł£áł«áłł": 2251,
      "áł¦áł¯áł¡áł¨": 2252,
      "Ġáł£áł²áł£": 2253,
      "Ġáłªáł£áł³áł£áł¯áł¬": 2254,
      "Ġáł¦áł¸": 2255,
      "Ġáł´áł¢áł®áł¡áłŃ": 2256,
      "áł¤áł®áł¤": 2257,
      "Ġ2022": 2258,
      "Ġáł²áł¦áłŃáł°áł¢áłŃ": 2259,
      "Ġáł²áł£áłŃáł²áłłáłŃáłłáłŃáł°áłłáł¨": 2260,
      "Ġáłªáł¦áł²áł¦áł®áłµáł¢áł²áł¡áł¶": 2261,
      "Ġáł°áłłáł¨áłłáłŃáłłáł¨": 2262,
      "Ġáł§áł¦": 2263,
      "Ġáł¬áł¤áłªáł´áłłáł°áł¤": 2264,
      "Ġáł²áłłáł¸áłłáł·": 2265,
      "Ġáł¬áł¤áł¨": 2266,
      "ĠE": 2267,
      "20": 2268,
      "Ġáł¬áł¡áł·áł¡áłŃáł¯áł¡áł¨": 2269,
      "Ġáłªáł£áł¯áłªáłłáł°áł¤áł·áłłáłŃáł¤áł¯áł¬áł¤": 2270,
      "áł¡áł´áł¢áł¯áł¡áł¬áł¦": 2271,
      "áłłáł¶áł¢áł¯áł¢": 2272,
      "Ġáł²áł¤": 2273,
      "Ġáł¬áł¢áłŃáł¡áł³": 2274,
      "áł¦áł³áł¡áł¯": 2275,
      "Ġáł³áł£áłŃ": 2276,
      "áł¤áł®áłłáł¯": 2277,
      "áł¡áł²áł¡áł¶": 2278,
      "Ġáł²áł¡áłŃáł¦áł¯áł³áł¡áł·": 2279,
      "Ġáłªáłłáł·áłłáłŃ": 2280,
      "Ġáł¬áłłáł²áłłáłŃáł¤": 2281,
      "Ġ(": 2282,
      "Ġáł¡áł·áł¬áł¢áł¯": 2283,
      "ĠáłµáłłáłŃáł¤áł¨": 2284,
      "Ġáł²áł©áł·áł¢": 2285,
      "Ġáł°áł£áł¨áł¢áł·": 2286,
      "Ġáł¨áł¤áł²áł¤áłŃ": 2287,
      "Ġáł¢áł¯áł¡": 2288,
      "Ġáł³áł¤áł·áłłáł²áłłáł¶": 2289,
      "Ġáł´áłłáłŃáłłáłµáłł": 2290,
      "Ġáł¡áł®áł¦áł¨áł¡áł¬áł¢": 2291,
      "Ġáłªáł¤áł¯áł¤áł³": 2292,
      "áł¦áłŃáł¦áł¯": 2293,
      "áł°áłłáł³": 2294,
      "Ġáł®áłłáłŃ": 2295,
      "áł¡áł³áł¬áł¡áłµáł¦": 2296,
      "Ġáł£áł·áł£áłŃáł¤áł¯áłµáł¤": 2297,
      "Ġáłªáł¤áł³áł¤áł¬áł¤": 2298,
      "Ġáł¬áł¡áł·áł¡áłŃáłµáł¢áłŃ": 2299,
      "Ġáł¬áł¥áł¨áł³": 2300,
      "Ġáł®áł§áł²": 2301,
      "áł£áł²": 2302,
      "ĠáłŃáłłáł¶áł¢áł¯áł¢": 2303,
      "Ġáł¡áł·áł³áł¡áł®": 2304,
      "®áł¦áł·": 2305,
      "áł¢áłªáłł": 2306,
      "áł¦áłŃáł´áł¢": 2307,
      "Ġáłªáł£áł·áł£áł¯áłłáłŃáł¤áł¯áłŃ": 2308,
      "áł¦áł·áł¬áł¡áłŃ": 2309,
      "Ġáł°áł¡áł¯áłª": 2310,
      "áł¦áł¯áł¢": 2311,
      "Ġ200": 2312,
      "Ġáł¬áłłáł¶áł¢áł·áł´áłłáłŃ": 2313,
      "áłłáł·áłłáłŃáł¤áł¯áł¬áł¤": 2314,
      "Ġáł¸áł§áł¶": 2315,
      "ĠáłŃáłłáł³áłłáł¨áłłáł¬áł¢": 2316,
      "Ġáłłáł·áł¤": 2317,
      "Ġáł¤áł¯áłłáł®áłµáł¢áł¯áłłáł¯áł²áł¤": 2318,
      "Ġáłµáłłáł©áłŃáł¢áł¯áłłáłŃ": 2319,
      "Ġáł´áł¢áł³áłłáłªáł¤áł·": 2320,
      "áłłáł®áłµáł¢áł²áłłáł¶": 2321,
      "Ġáł²áł£áł¯áł£áłŃ": 2322,
      "Ġáłłáł¶áłłáł¨": 2323,
      "Ġáłµáłłáłª": 2324,
      "Ġáł¬áł¥áł®áł¥áł·áłŃáł¡": 2325,
      "áł¢áł¯áłłáłŃáł°áłłáł¨": 2326,
      "Ġáł²áł¤áł¯áłŃ": 2327,
      "Ġáłªáłłáł·áł¢áł®áł²": 2328,
      "Ġáł¦áł¢áł¯áł¡áł³áł¬áł¦": 2329,
      "Ġáł¢áł¯áł¡áłŃáł¦áł¦": 2330,
      "Ġáł®áł¡áł¨áł³áł¦": 2331,
      "Ġáł°áł¢áł¶áł¤áł¤": 2332,
      "Ġáłłáłµáł¢áł¯áł´áł¢áł¨": 2333,
      "Ġáł¬áł¥áłŃáłµáł¢áł®": 2334,
      "Ġáł³áłłáłŃáłłáłŃáłłáł´áł¢áł¯": 2335,
      "Ġáł²áł£áłŃáł£áł°": 2336,
      "Ġáł²áł¢áł©": 2337,
      "áł®áł§áł¨": 2338,
      "Ġáł°áł¤áł·áł¤áł¯áłŃ": 2339,
      "Ġáł²áł¡áł³áł¡": 2340,
      "áł¢áłŃáł¦áł¯áł¬áł¦": 2341,
      "ĠáłŃáł¡áł¨": 2342,
      "Ġáłªáł¥áł®áłªáł¥áłŃáł¡áł¨": 2343,
      "ĠáłŃáł¦áł¶áł´": 2344,
      "Ġáłłáł·áł¢áłŃ": 2345,
      "Ġáłªáł£áł¯áłŃáłłáłŃáł°áłłáł¨": 2346,
      "Ġáł¡áł¯áł§áł®áł§áł¨": 2347,
      "Ġáł¬áł¥áł³áł¡áł¯áłŃáł¡áłŃáł¦áł·": 2348,
      "Ġáłłáł·áłłáł¯áłµáł¢áł¶áłłáł¨": 2349,
      "áł¢áł²áł¤": 2350,
      "Ġáł£áł©áłŃ": 2351,
      "Ġáłµáł£áłª": 2352,
      "Ġáł³áł¡áłŃáł¡áłŃáł°áł¢": 2353,
      "Ġáł¦áł¯áł¢áłŃáł¡áł·": 2354,
      "Ġáł¨áł¥áł¯áł¥áłŃáł¡": 2355,
      "Ġáłªáł¦áł°áł¡": 2356,
      "Ġáł¨áłłáłŃáłłáł³": 2357,
      "ĠáłŃáłłáł·áł¤áłŃáł°áłłáł¨": 2358,
      "áł¢áł¯áłª": 2359,
      "Ġáł´áł¡áł´áł¡áł·": 2360,
      "áłłáł°áł¬": 2361,
      "Ġáł²áł¦áłŃáł°áł¢áłŃáł¦áł·áł¢": 2362,
      "Ġáł³áł¡áł®áłµáł¢áł¨": 2363,
      "ĠR": 2364,
      "Ġáł¬áłłáł®áł¢áł¶áłłáł·áł¬áł¤": 2365,
      "áł¡áł¬áł¦áł¯": 2366,
      "Ġáł¯áł¢áł¦": 2367,
      "Ġáł¤áł©áł°": 2368,
      "Ġáł´áł¢áł¯áłłáłŃáł¤áł¨": 2369,
      "Ġáł²áł¡áł®áł¦áł·áł¯áł¢áłŃ": 2370,
      "Ġáł³áłłáł®áłµáł¢áłŃáł¤áł¯áł¬áł¤": 2371,
      "Ġáł¨áł¥áł¬áł¥áłªáł¥áł·": 2372,
      "áłłáłŃáł³áłłáłµáł¤": 2373,
      "Ġáł°áłłáł¯áł¬áł¢áł¨": 2374,
      "Ġáł¤áł£": 2375,
      "áłłáłŃáł³áłłáł¨": 2376,
      "Ġáłĭ": 2377,
      "Ġáł¥áł·áł¨áł¢áłŃ": 2378,
      "Ġáł¾áł§": 2379,
      "Ġáł¬áł¦áł´áł¦áł·áł¬áł¡áłŃ": 2380,
      "ï¸¶": 2381,
      "Ġáłµáł¢áł·áł¤áłµáł¤": 2382,
      "Ġáł²áł¡áł¦": 2383,
      "Ġáł°áł¡áłŃáł¦áł³áł¡áł·": 2384,
      "Ġáłłáł¶áłłáł¯áłłáł¯": 2385,
      "Ġáł¦áł¶áł¯áł¡áł³": 2386,
      "Ġáłłáł®áł¢áł³áł¤": 2387,
      "Ġáł¤áł³áł¬": 2388,
      "ĠáłŃáł£áł¸áł¯áł³": 2389,
      "Ġáł¬áł¥áł¯": 2390,
      "Ġáł²áłłáłŃ": 2391,
      "Ġáł®áłłáł·": 2392,
      "Ġáł¬áłłáł·áł¢áł¯áł´áłłáłŃáłłáł¨": 2393,
      "Ġáł¢áł¯áł¡áł·áł¡áł¯": 2394,
      "Ġáł£áł¶áł¢áł¯áłłáłŃ": 2395,
      "Ġáł²áł¡áłŃáł°áł¢": 2396,
      "Ġáł²áł£áł³áł£áł·áł¬áłłáł¶áł¢áł¯": 2397,
      "Ġáł´áł¥áłŃáł¡áł¨": 2398,
      "Ġáł²áłłáł¢": 2399,
      "ĠáłªáłłáłŃáł¤áł³áłłáł¯": 2400,
      "Ġáł¨áł¢áłŃáł¡áłªáł¦áł·áł¢": 2401,
      "ĠáłŃáł¦áł¢áł´áł¡áł³": 2402,
      "ar": 2403,
      "Ġáł¥áł¨áł¥áł³áł¦áł·": 2404,
      "Ġáł¨áł£áł·áł®": 2405,
      "Ġáłªáł¦áł¬áł¦áł¯áł¢": 2406,
      "áł£áł¬áł¢": 2407,
      "Ġáł´áł¢áłŃáł¯áł¡áł¯": 2408,
      "Ġáł£áł·áł³áł£": 2409,
      "Ġáł¤áł·áłłáł¨": 2410,
      "Ġáł®áłłáłŃáł¤": 2411,
      "Ġáłªáł¥áł®áłªáł¥áł·": 2412,
      "áł¢áłªáł¡áł¯": 2413,
      "Ġáł²áł¡áł³áł¦áł¶": 2414,
      "Ġáł°áłłáł¶áł¢áłµáł¢áł·": 2415,
      "Ġáł¬áł£áłŃáł£áł·áł£áł¨áł³áł£áł¬áł¢": 2416,
      "Ġáłªáł¦áł·áł¬": 2417,
      "Ġáł¬áł¢áł²áłłáł³": 2418,
      "Ġáłµáł¢áł±áł¢áł¶": 2419,
      "Ġáłªáł¥áł²": 2420,
      "áł¦áł¯áłª": 2421,
      "Ġáł¡áł·áł²áł¡áł¨": 2422,
      "áł£áłŃáł°áłłáł¨": 2423,
      "£áł°": 2424,
      "áł´áł¡": 2425,
      "áł¤áłŃáł¤áł·": 2426,
      "Ġáł¶áłłáł®áł¤áł¨": 2427,
      "Ġáł¬áłłáł·áł¢áł´áłłáł¯": 2428,
      "Ġáłªáł¡áł¶áł¡áł²áł¦": 2429,
      "¶áł¢áłµ": 2430,
      "Ġáł¬áł£áł£áł·": 2431,
      "Ġáł¦áł¢áł¯áł¡áł´áł¢áł¯áł¡áłŃáł¡áł¨": 2432,
      "áł¤áł¯áłªáłłáł¯": 2433,
      "Ġáłłáł©áłŃáł¯áł¢": 2434,
      "Ġáł³áłłáł¯": 2435,
      "Ġáłªáł¢áł´áł¢áł¯": 2436,
      "Ġáłªáł£áł·áł£áł¯áłłáłŃáł¤áł¯áł¬áł¤": 2437,
      "áł£áłµáł¤": 2438,
      "Ġáłªáłłáł¶áł¢áłªáłł": 2439,
      "Ġáłªáł¥áł®áłªáł¥áł·áł´áł¡áłŃ": 2440,
      "Ġáł±áł¢": 2441,
      "ĠáłŃáłłáł©": 2442,
      "Ġáł¬áł¡áł¸": 2443,
      "Ġáł´áł¢áł¨áł¦": 2444,
      "Ġáł²áł¤áł·áł°áł¢áł¯áłŃ": 2445,
      "áł¯áłłáłŃáł°áłłáł¨": 2446,
      "Ġáł®áł¡áł·áłŃáł¡áłµáł¢áł¯áł²": 2447,
      "Ġáłºáłłáł·áł²": 2448,
      "Ġáł¬áłłáł³áłłáłŃáłłáł¯": 2449,
      "Ġáł¬áł¥áł³áł¡áł¯áł": 2450,
      "Ġáłªáł¥áł²áł¥áłŃáł¡áł¨": 2451,
      "Ġáłłáł®áł¢áł°áł¬áł¤áł¯": 2452,
      "Ġáł°áłłáł¯": 2453,
      "Ġáł³áł¡áłŃáł¡áłŃáł°áł¢áł¯áł¡áłŃáł¦áł¯áł¬áł¦": 2454,
      "Ġáłµáł¢áłŃáłłáłµáł¤": 2455,
      "Ġáł®áł¡áł³áł¡áłŃáł¦áł¯áł¦áł¯áł²áł¡": 2456,
      "Ġáł³áłłáł·áłłáłŃáłłáł¬áł¢": 2457,
      "áł²áłłáłŃ": 2458,
      "ĠN": 2459,
      "Ġáł®áł£áł·": 2460,
      "Ġáłªáł¡áł¶áł¡áł¯áł¡áłŃáł¦áł¯áłµáł¦": 2461,
      "Ġáł¬áł¡áł¯áł¬áł¢áł¶": 2462,
      "Ġáł²áł£áłŃáł²áłłáłŃáł°áłłáł¨": 2463,
      "Ġáł³áł£áł·áł£áłŃ": 2464,
      "Ġáł¬áł¦áł´áł¢áł¯": 2465,
      "Ġáł¡áł·áł¡áłŃáł²áł¡áł¶": 2466,
      "Ġáł°áł¡áłŃáł¦áł¯": 2467,
      "áł¢áł¶áł£áł£": 2468,
      "ĠáłŃáł¡áł®": 2469,
      "Ġáł¨áłłáł°áł¤áł²": 2470,
      "Ġáł¨áł¢áłŃáł¡áł´áł¡": 2471,
      "ĠáłµáłłáłŃáł¤áł´áł¢áł¯": 2472,
      "en": 2473,
      "Ġáł°áł£áł©áłŃáł£áłµáł¤": 2474,
      "Ġáłłáł¬áł¤áł¢": 2475,
      "Ġáł´áł¢áł·áł®áłłáł¶áł¢áł": 2476,
      "Ġáł´áł¢áł³áłłáłªáł¤áł·áł¢áł²áłłáł¨": 2477,
      "Ġáł¬áłłáł®áł²áł¤áł·áłłáł¯áł´": 2478,
      "Ġáł¬áł£áł¯áłªáł£áłŃáłłáł¨": 2479,
      "áłłáłŃáł³áłłáł¬áł¤áł¨": 2480,
      "Ġáł°áłłáłŃáł¤áł´áłł": 2481,
      "áł¤áł·áłłáłŃ": 2482,
      "Ġáłªáł£áł¶áł¢áłµ": 2483,
      "Ġáł¥áł·áł¢áł°áł¥áł¯áł³áł¦áłŃáł¡áł¨": 2484,
      "Ġáł³áł¡áłŃáł¡áłŃáł°áł¢áł¯áł¡áłŃáł¦áł¯áłµáł¦": 2485,
      "Ġáł°áł¢áł©áłŃáł¡áłŃ": 2486,
      "Ġáł³áłłáłŃáłłáł·": 2487,
      "Ġáł²áł¡áłŃáł¡áłªáł¡áł¯": 2488,
      "Ġáł¬áł¡áł¸áł¬áł¡áł³": 2489,
      "Ġáł²áł¡áł©áł´": 2490,
      "Ġáł¬áł¡áł·áł¡áł¯": 2491,
      "Ġáłµáł¢áłŃáł¤áł¯áł´áł¢áł¯áłłáł¯": 2492,
      "Ġáł¬áłłáł®áł²áł¤áł·áłłáł¨": 2493,
      "Ġáł³áłłáłŃáłłáł³áł¬áłłáł¯": 2494,
      "Ġáł´áł§áł¨": 2495,
      "Ġáł¦áłµáł¡áłŃáł¦áł¯áł¦áł¯áłŃáł¡": 2496,
      "Ġáł²áłłáłŃáłłáł·": 2497,
      "ĠF": 2498,
      "Ġáł¬áł¦áł·áł²áł¡áł¯": 2499,
      "Ġáłµáł¤áłŃáłłáł´": 2500,
      "áłłáł«áł£áł¨": 2501,
      "ĠáłŃáł¦áł¨áłµáł¡áłŃ": 2502,
      "Ġáł¤áł´": 2503,
      "Ġáł°áł¢áł¯áłµáł¢áłŃáł¦áł¯áł¦áł¨": 2504,
      "Ġáł°áłłáłŃáł¤áłŃ": 2505,
      "Ġáł¤áł¶áłłáł¯áł³áł¤áłŃ": 2506,
      "Ġáł£áł¨áł£áłª": 2507,
      "Ġáł¤áł®áł³áłłáłŃáłłáł¨": 2508,
      "Ġáł¬áł£áł¶áł¢áł¨": 2509,
      "Ġáłªáłłáł¯áłŃ": 2510,
      "Ġáł£áł¶áł¢áł¯áłłáłŃáłłáł¬áł¤": 2511,
      "Ġáł¨áłłáł³áłł": 2512,
      "Ġáł¬áł¡áł·áł¡áłŃáłµáł¢áłŃáł¦áł¯áł¬áł¦": 2513,
      "Ġáł®áł¡áł·áłŃáł¡áłµáł¢áł¯áł²áł¡áł¨": 2514,
      "ĠH": 2515,
      "Ġáł£áł¨áł´áłł": 2516,
      "áł²áł¢áł¨": 2517,
      "Ġáł¬áł¦áł°áł¡áłµáł¦": 2518,
      "áł¡áł³áł²áł¡": 2519,
      "áł¡áł²áł¡áł¯": 2520,
      "áł¦áł¯áł²": 2521,
      "Ġáłµáłłáł³áłłáł¯áł¤áł¯áł²áłł": 2522,
      "Ġáł¤áł¢": 2523,
      "áł²áł¢áł¨áł´áł¦": 2524,
      "Ġáł´áł¢áł¬áł¤áł¯áłłáł²áłłáł¶": 2525,
      "áł¦áł¬áł¦áł¨": 2526,
      "Ġáł¨áł¢áłŃáł¡áł´áł¢": 2527,
      "ĠáłµáłłáłŃáł¤áł´áł¢áł¯áłłáłŃáł¤áł·": 2528,
      "Ġáł¬áłłáłŃáł¤áł³": 2529,
      "Ġáł¶áłłáł«áł£áł¨": 2530,
      "Ġáłµáł¢áł¶áłł": 2531,
      "Ġáł¶áł¢áł·": 2532,
      "Ġáł³áłłáł©áł°áłłáł¯": 2533,
      "áł¢áł¯áłłáłŃáł´áł¢": 2534,
      "Ġáł¶áłłáłŃáł¤áł®": 2535,
      "®áł¦áł·áł¬áł¦": 2536,
      "Ġáł¶áł¢áł·áł²áł¢áł¨áł´áł¦": 2537,
      "ĠáłŃáł¡áł°áł¢áłŃáł¦áł¨": 2538,
      "ĠáłłáłŃáł¤áł¯áłł": 2539,
      "Ġáł£áł©áłŃáł£áł´": 2540,
      "Ġáł°áł¡áł·áłŃáł¡áł¶áł¢áł¯áł¡áł¨": 2541,
      "Ġáł°áł¢áł¶áłłáł©": 2542,
      "Ġï¸ĸ": 2543,
      "áł¬áł¦áł¯áł¡áł©": 2544,
      "Ġáł¬áłłáł¶áł¢áł": 2545,
      "Ġáł¡áł·áł²áł¡": 2546,
      "Ġáł¬áłłáł¯áł³": 2547,
      "áłµáł§áł¦": 2548,
      "Ġáł´áł£áł¬": 2549,
      "áł¤áł¯áł¤áłŃáł´áł¢": 2550,
      "Ġáł£áłŃ": 2551,
      "Ġáł¡áłŃáł¦áł³áł¡": 2552,
      "Ġáł¤áł·áłŃ": 2553,
      "Ġáł¬áł¡áłªáł´": 2554,
      "Ġáł£áł·áł£áł¯áł´áłłáł¬áł¤": 2555,
      "Ġáł¬áł¡áłªáł´áł¢áł¶áł¡áł¨": 2556,
      "Ġáł¬áł£áł¨": 2557,
      "Ġáł£áł¬áł£áł·": 2558,
      "Ġáł¬áł¡áł³áł¦áł¶": 2559,
      "Ġáł´áł¡áł´áł¡áł·áł¯áł¢áłŃ": 2560,
      "or": 2561,
      "Ġáł´áł¢áł¨áłłáłŃ": 2562,
      "Ġáł²áłłáł¶áł¢áł¯áłªáł¤áł·": 2563,
      "Ġáł³áł¥áł·áłªáł¡áł¨": 2564,
      "Ġáł¬áł¥áł³áł¡áł¯": 2565,
      "áł¢áł¯áłłáł¯áł²áłł": 2566,
      "Ġáł¬áłłáłŃáł¤áł´áł¢áł¨": 2567,
      "Ġáł¬áł£áł·áł¢áłŃ": 2568,
      "áłłáł©áłŃáłłáł©": 2569,
      "Ġáł°áł¤áł·áłªáł¤áł¯áłµáł¢": 2570,
      "Ġáłłáł¬áł¢áłŃáł¤áł¯áł¬áł¤": 2571,
      "Ġáł¡áł¯áł°áł¡áł¬áł¦": 2572,
      "Ġáł¡áł·áł¢áłµáł¦": 2573,
      "Ġáł¡áł¶áł¢áł®áł¦áł·áł¬áł¦": 2574,
      "Ġáł´áł¢áł¬áł¤áł¯áłłáł´áł¢áł¯": 2575,
      "Ġáł¡áł®áł´áł¢": 2576,
      "áł²áłłáłŃáłłáł¨": 2577,
      "Ġáł²áł£áł°áł£": 2578,
      "Ġáł¦áłµáł¡áłŃáł³áł¡áł¯": 2579,
      "Ġáł®áł¡áł³áł¡áłŃáł¦áł¯áł¬áł¦": 2580,
      "áł¤áł¯áł³áłłáłŃ": 2581,
      "áłłáł¯áł³áłł": 2582,
      "Ġáł¯áł¢áł¨": 2583,
      "Ġáł°áłłáł¯áł¬áł¢": 2584,
      "Ġáł«áł·áł¤áłŃ": 2585,
      "Ġáł²áłłáł¯áłłáłªáłłáł¢": 2586,
      "Ġáł¯áł": 2587,
      "áłªáłłáł¯": 2588,
      "Ġáł²áł£áłŃáł²áłłáłŃáł¤áł¨": 2589,
      "Ġáł²áł¥áł¯áł¥áłªáłµáł¢áłŃ": 2590,
      "Ġáłłáł®áł²áłł": 2591,
      "Ġáłµáł¥áł·áł¢áł¶": 2592,
      "áłłáł²áłłáł¨": 2593,
      "Ġáłµáł¢áłŃáł¡áł¯": 2594,
      "Ġáł¨áł¢áł°áł¬áł¡áł¯": 2595,
      "Ġáłłáłµáł¢áł¯áł¯áłłáłŃáłłáł¨": 2596,
      "Ġáł£áłªáł£áłŃ": 2597,
      "Ġáł¨áł¤áł·": 2598,
      "Ġáł¬áł¢áł¨áłłáł¯áł²áłł": 2599,
      "Ġáł²áł£áł¯áł£áłŃáłłáł¶": 2600,
      "Ġáłµáłłáłªáłłáł¯": 2601,
      "Ġáł¹áł¦": 2602,
      "Ġáłµáł¥áł·áł¢áł´": 2603,
      "Ġáł¶áł¦áł¨": 2604,
      "áł¤áł²áł¤": 2605,
      "Ġáł¨áł£áłŃáł£áłŃ": 2606,
      "Ġáł°áł¢áł¯áłŃáłłáł¬áł¤": 2607,
      "Ġáł²áł£áł°áł£áł¨": 2608,
      "Ġáł±áłłáł©áł¬áłłáł¶": 2609,
      "Ġáł°áł¤áł·áł¤áł¯áł´áłłáł¬áł¤": 2610,
      "áłłáłªáł´áł¢": 2611,
      "Ġáłłáłªáł¤áłŃáł°áłłáł¨": 2612,
      "Ġáł¡áłµáł¡áł¨": 2613,
      "Ġáł¡áł·áł¬áł¢áł®": 2614,
      "Ġáłłáł¯áł³áłłáł·": 2615,
      "áłłáł¶áł¢áł²": 2616,
      "Ġáł´áł£áłŃáł´": 2617,
      "ł¼": 2618,
      "áł¼": 2619,
      "Ġáł¤áł·áł²áł¤": 2620,
      "áł£áł¢": 2621,
      "Ġáł¥áłŃáł¦áł¯": 2622,
      "Ġáłªáłłáł´": 2623,
      "Ġáł¬áł¤áł·áł¢áł¶áłłáł¬áł¤": 2624,
      "áł¦áł¶áł¢áł¯": 2625,
      "Ġáł²áł¤áł²": 2626,
      "áł¡áł¶áł¢áł·": 2627,
      "Ġáł³áł¥": 2628,
      "Ġáł²áł£áł¬áł¢áł·áłłáłŃáł¤áł¯áł¬áł¤": 2629,
      "Ġáł¨áł¢áłŃáł²áłł": 2630,
      "Ġáł²áł¦áł°áł¢áłŃ": 2631,
      "áł¢áł¯áł¥": 2632,
      "Ġáł¶áłłáł¨": 2633,
      "Ġáł°áł¢áł¨áłµáł¢áł¯": 2634,
      "Ġáł²áłłáł¯áłªáł¢áłµáł¤": 2635,
      "áł¦áł¯áł´áł¢": 2636,
      "Ġáł¢áł¦áł¶": 2637,
      "Ġáł¬áł¡áł¯áł²": 2638,
      "áł¦áł¯áł¦áłŃáł°áł¡áł¨": 2639,
      "Ġáł²áł£áł¬áł¢áł¶áłłáł¯": 2640,
      "Ġáł®áłłáłŃáłłáł³": 2641,
      "áł¡áł°áł¬áł¦áł¯áł¡áł©": 2642,
      "Ġáłµáł¢áłª": 2643,
      "áł¢áł¬áł¢áł¨": 2644,
      "Ġáł´áł¢áł¯áł¥": 2645,
      "Ġáł¢áł·áł¡áł¬áł¦": 2646,
      "Ġáł°áł¡áłŃáł¦áł¯áł´áł¢": 2647,
      "Ġáł¬áł¤áł³áłłáł¯áł³áł¤áł¬áł¤": 2648,
      "áłłáł·áłłáłŃáł¤áł¯áłµáł¤": 2649,
      "áł¯áł¸áł¢áł°": 2650,
      "Ġáł¬áł¢áł¯": 2651,
      "ĠáłŃáł¦áł¢áł¯áłŃ": 2652,
      "áł¡áłł": 2653,
      "Ġáł£áł·áł£áł°áł¢áłµáł¤": 2654,
      "Ġáł£áł¨áł£áłªáł´": 2655,
      "Ġáł¦áł¨áł³áł¦áł°áł¦áł¯áł¡áłªáł¡áł¯": 2656,
      "Ġáłłáł©áł¬áłłáł·áł¬áł¤": 2657,
      "Ġáł²áł§áł¯áł¸áł¢áł°": 2658,
      "áł¢áłŃáł¤áł·": 2659,
      "Ġáł²áł¦áł·áł¢áł¶": 2660,
      "Ġáł¨áłłáł¢": 2661,
      "Ġáł¦áłµáł¡áł°áł¬áł¦áł¯áł¡áł©": 2662,
      "Ġáł¡áł°áł¡áł¬áł¦áł¯": 2663,
      "Ġáł²áł¡áł¯": 2664,
      "Ġáł²áł¡áł®áł³áł¡áłŃáł¯áł¡áł¯": 2665,
      "Ġáł¨áł¡áł¬": 2666,
      "Ġáł¡áł·áł¡áłŃ": 2667,
      "Ġáł³áłłáłªáł²áłłáł®áłµáł¢": 2668,
      "áłłáł¯áł¯": 2669,
      "ĠáłŃáł¡áł·áł¡áł´áł¢áł¯": 2670,
      "Ġáł°áł¤áł·áłŃáłłáł¯áł²áłł": 2671,
      "Ġáłªáłłáł¬": 2672,
      "ĠáłŃáł¤áł·áłªáłł": 2673,
      "Ġáłµáł£áł´áł¢áł³": 2674,
      "Ġáłªáłłáł¶áł¢áł¯áł³áł¤áł¬áł¤": 2675,
      "Ġáłµáł¥áłªáł¯áł¡áł¯": 2676,
      "áł¦áł¸áł¸": 2677,
      "Ġáłªáł£áłŃáł£áł³": 2678,
      "áł¦áł°áł¦áł¨": 2679,
      "Ġáł¬áł¦áł·áł¦áł¯áł": 2680,
      "Ġáł¬áłłáł³": 2681,
      "Ġáłµáł£áł¬áł¢áł°": 2682,
      "Ġáł¡áłŃáł¡áł¯áłµ": 2683,
      "at": 2684,
      "Ġáł¨áł¢áłŃáł¤áł´áłł": 2685,
      "áł¡áłŃáł¡áł¯": 2686,
      "Ġáł¬áł¦áł·áł¬áł¦": 2687,
      "Ġáłªáłłáł¶áł¢áłŃáł¤áł¯áł¤áłŃáł°áłłáł¨": 2688,
      "Ġáł°áł¢áł¬áł¢áł·": 2689,
      "áł¤áł³áłłáłŃ": 2690,
      "Ġáł°áłłáł¨áłłáł¯": 2691,
      "Ġáł°áłłáłŃáł¤áł·áł¢áł¨": 2692,
      "ģáł¢": 2693,
      "áłłáł®áłłáł³": 2694,
      "Ġáł²áłłáł¯áłªáł¢áł¬áł¤": 2695,
      "Ġáł¥áłŃáł´áł¦": 2696,
      "Ġáłªáłłáł´áł¢áł®": 2697,
      "Ġáł¬áł¤áłªáł¢áł¶": 2698,
      "Ġáł¨áł¡áł¶áł¢áł²áł¡áł¯áł¡áłŃáł°áł¡áł¨": 2699,
      "Ġáł³áłłáł·áłłáłŃáłłáł¯": 2700,
      "áł¤áłªáłłáł¯": 2701,
      "Ġáł³áłłáłªáł¬áł¤áł·": 2702,
      "Ġáł¡áł°áł¡áł·áłŃáł¦áł´áł¡áł¬áł¦": 2703,
      "Ġáł¡áłµáł¢": 2704,
      "Ġáł´áłłáł©": 2705,
      "Ġáł°áł¢áł·áł¢áł°": 2706,
      "áłµáł¤": 2707,
      "Ġáłªáłłáł¶áł¢áłŃáłłáł³": 2708,
      "Ġáłªáłłáł¶áł¢áł¯áłŃ": 2709,
      "Ġáł¬áł¡áł¯áł¡": 2710,
      "Ġáłªáłłáł²áł¤áł¯áłłáłŃ": 2711,
      "Ġáł¥áłªáł¡áł·áł®": 2712,
      "Ġáłªáł¦áł·áł¢áł¯áł³áł¦áł¬áł¦áł¨": 2713,
      "áł¤áł¯áł¢áłŃ": 2714,
      "Ġáłªáłłáł²áł¤": 2715,
      "Ġáł¤áł¶áł¤áł¨áł²áł¤": 2716,
      "Ġáł³áłłáłŃáł¤áł¤": 2717,
      "Ġáł²áł£áł£áł·": 2718,
      "áł¤áł¯áłªáłł": 2719,
      "Ġáł¢áł²áł¡áłŃáł¡áł¯": 2720,
      "áł¬áł¥áł·": 2721,
      "Ġáł¯áł¦áł©": 2722,
      "Ġáł¢áł¯áłłáł©áłŃáł¤áł¶": 2723,
      "Ġáł¬áłłáł©áłŃáłłáł¯áłŃ": 2724,
      "ĠáłŃáł¡áł³": 2725,
      "Ġáł¬áł¦áł¯áł¢áł¶áł¡áł¨": 2726,
      "Ġáł¶áłłáłŃáł¤áł¨": 2727,
      "Ġáł¬áł£áłŃáł£áł·áł£áł¨áł³áł£": 2728,
      "Ġá¡ģáł¢": 2729,
      "Ġáł¬áł£áł£áł°": 2730,
      "Ġáł²áł£áłŃáł²áłłáł®áłłáł¯": 2731,
      "Ġáłªáł¦áł¦": 2732,
      "Ġáł¬áł¥áł©áłŃáł¡áł¨": 2733,
      "Ġáł¬áł¥áłŃáłµáł¢áłŃáł¦áł¯áł¬áł¦": 2734,
      "ĠáłłáłŃáłłáłµ": 2735,
      "áł¦áł¶áł¢áł¯áł¡": 2736,
      "Ġáł¬áł¦áł·áł¢áł¶": 2737,
      "áł¢áłŃáłłáł³": 2738,
      "Ġáł¬áł¦áł·áłªáł¡áł¯": 2739,
      "Ġáł¬áłłáłªáł°áł¤áł·áł¤áł¨": 2740,
      "Ġáłµáłłáł¯áłłáłŃáł¤": 2741,
      "Ġáłªáł¦áł¬áł¦áł¶áł¢áł¯áł¡": 2742,
      "ĠáłłáłŃáłłáłµáł¢áł®": 2743,
      "Ġáł¥áłŃáł¡áł·áł¡áł´áł¢áł¯áł¡áł¯áł²áł¡": 2744,
      "Ġáł¬áł¦áł°áł¦áł¨": 2745,
      "Ġáłµáłłáł¬áł¢áł¶áłłáł¯": 2746,
      "áł¢áł¶áłłáł¯áł³": 2747,
      "Ġáł¬áł¦áł°áł¦áł¨áł¦áłŃ": 2748,
      "áł¦áł¨áł¢": 2749,
      "Ġáł¡áł¬áł¢áł¨": 2750,
      "Ġáł¬áłłáł¶áłłáłŃáł³": 2751,
      "áł¬áłłáł¨áł¢áłŃ": 2752,
      "Ġ18": 2753,
      "Ġáł°áł¡áł·áł¡áł¯": 2754,
      "Ġáł¬áł¥áł·": 2755,
      "Ġáł°áł¢áł¶áłłáł©áłŃáłłáł©": 2756,
      "Ġáł¬áł£áł©": 2757,
      "Ġáł¥áłªáł¡áł·áł®áł¢áł´áł¡": 2758,
      "Ġáł¦áł¬áł¡áł·": 2759,
      "Ġáł¨áł¡áł·áł¡áł¨": 2760,
      "Ġáł®áł§áł¬áłłáł¨áł¢áłŃ": 2761,
      "Ġáł¡áłŃáł¦áł³áł¦áł¨": 2762,
      "Ġáł¦áłµáł¡áł¯": 2763,
      "Ġáł¦áł·áł³áł¡áłŃ": 2764,
      "Ġáł¡áłŃáł¦áł³áł¡áł¨": 2765,
      "Ġáł¬áłłáł·áłłáłŃáłłáł¯áłµ": 2766,
      "Ġáł¦áł¯áł¡áł³": 2767,
      "Ġáł³áł¦áł·áł¢": 2768,
      "Ġáł¥áł·áł²áł¡áłŃáł¡áł¨": 2769,
      "Ġáłµáł¢áł¯áł£áłŃáł£áł³áł¬áł¤": 2770,
      "Ġáł¬áł¦áł·áłŃáł¡áł¬áł¦": 2771,
      "áł³áł¬": 2772,
      "áł£áł¬áłłáł¶": 2773,
      "le": 2774,
      "Ġáł¬áłłáł©áł°áł¢": 2775,
      "Ġáłłáł¬áł¢áłŃáł¤áł¯áłµáł¤": 2776,
      "Ġáł¤áłŃáł°áłłáł·áłłáł¬áł¤": 2777,
      "áł¡áł¯áł¢": 2778,
      "Ġáł¬áłłáłµ": 2779,
      "Ġáł¬áł¡áł²áł¦": 2780,
      "Ġáł¨áł¢áł®": 2781,
      "Ġáł¶áłłáłªáł¤áł¬áł¤": 2782,
      "Ġáł°áł¦áł¨": 2783,
      "Ġáł¨áł£áł´": 2784,
      "áł¡áłŃáł³áł¡áł¬áł¦": 2785,
      "Ġáł³áł¦áł·áł¢áł®": 2786,
      "Ġáł¬áł£áłŃáł£áł¯áłłáł¨": 2787,
      "áł¬áł¥áł®": 2788,
      "Ġáł¨áł£áłŃáł£áłŃáłłáł¨": 2789,
      "Ġáł¢áł¨áł²": 2790,
      "Ġáł£áł·áł´áł¢áł®": 2791,
      "Ġáł²áł¤áł®áł¤": 2792,
      "Ġáłµáł¡áłŃáł¡áł¯áł¢": 2793,
      "Ġáł¬áłłáł¶áłłáłŃáł³áłłáł®áłłáł¯": 2794,
      "Ġáł¬áłłáłŃáł¤áł³áłłáł°áł¤": 2795,
      "áł¡áł®áł¡áł¯áłµ": 2796,
      "Ġáł¶áłłáł·áł¢áł¶áłłáł¨": 2797,
      "Ġáł¨áł¥áłŃ": 2798,
      "áł¬áł¡áł¢": 2799,
      "Ġáł®áłłáł¬": 2800,
      "Ġáł²áł¡áłŃáł¡áłŃáł¡áłªáł¦áł·áł¢": 2801,
      "Ġáł°áł¢áł¨áłµáł¢áł¯áł¡áłŃáł¡áł¨": 2802,
      "Ġáł¡áł¨áł³áł¡": 2803,
      "áł¡áł°áł¦áł²": 2804,
      "Ġáłłáł·áłªáł¢áł¨": 2805,
      "Ġáł¦áł³áł¡": 2806,
      "Ġáłłáł½": 2807,
      "ĠáłŃáł¡áłµáł¡áł¶": 2808,
      "áłłáłº": 2809,
      "Ġáł¦áłµáł¡áł¯áł²áł¡": 2810,
      "ł¹": 2811,
      "áł¹": 2812,
      "Ġáł¬áł¡áł®áłµáł¢áłŃáł¦áł·áł¯áł¢áłŃ": 2813,
      "áłłáłŃáł³áłłáłŃáł°áłłáł¨": 2814,
      "Ġáł³áłłáłŃáłłáłŃáłłáł´áł¢áł¯áłłáł¯áł²áłł": 2815,
      "Ġáł¢áł³áł¡áłªáł¬áł¢áł²áł¡áł¶": 2816,
      "Ġáł¬áł¡áł·áł¡áłŃáł¯áł¡áł³áł¡áłŃ": 2817,
      "Ġáł¬áł¤áł¯": 2818,
      "Ġáłºáł£áł®áł«áł¢áł¦": 2819,
      "áł¡áł¯áłµáł¢áł¨": 2820,
      "Ġáł¬áłłáł·áłłáłŃáłłáł¨": 2821,
      "Ġáł¡áłŃáł¦áł·áłŃáł¡áł¯": 2822,
      "Ġáłłáł®áł²": 2823,
      "Ġáłµáł¢áł®áł¢áł°": 2824,
      "áłłáłŃáł¤áł¯áł¤áł¯": 2825,
      "Ġáł´áł¢áł¨áłłáłŃáł°áł¢áł¯": 2826,
      "Ġáł³áł£áłŃáł¢áł·": 2827,
      "Ġáł®áł¢áł©": 2828,
      "áł´áł¥áłŃ": 2829,
      "áł¤áłŃáł¤áł³": 2830,
      "áł¦áł¬áł¡áł¶": 2831,
      "Ġáł¡áłµáł¡áł®áł°": 2832,
      "Ġáł¤áł²áłłáł°áł¤áł¨": 2833,
      "Ġáł²áł¡áł¦áł¬áł¡": 2834,
      "Ġáł¤áł·áł¤áłŃáł°áłłáł¨": 2835,
      "Ġáł¶áł¡áł·áł¦áł©áł¬áł¡áł¶áł¢áł¯áł¡áłŃáł°áł¡áł¨": 2836,
      "Ġáł²áł£áłŃáłłáł´": 2837,
      "Ġáł´áł¢áł¨áł¢": 2838,
      "áł¢áł³áł¬": 2839,
      "áł¤áłŃáł¤áł¯áłµáł¤": 2840,
      "Ġáł¨áł¡áł¶áł¢áł²áł¡áł¯áł¡áł¬áł¦": 2841,
      "Ġáłµáłłáł°áłłáłµáł¤": 2842,
      "Ġáłłáł¯áł²": 2843,
      "Ġáł¬áł¡áł·áł¡áł®": 2844,
      "áł²áł¥": 2845,
      "Ġáł²áł¤áł°áł¢áł¶áłłáł¯": 2846,
      "Ġáł²áł¢áł©áł¬áł¢áł®": 2847,
      "Ġáł¡áł®áł¦áł¨áł¡áł²áł¦": 2848,
      "Ġáłłáł¬áłłáł®áłłáł³": 2849,
      "Ġáł¬áł¡áł®áłµáł¢áł¯áł²áł¡": 2850,
      "Ġáł¬áł£áłŃáł£áł¯áłł": 2851,
      "Ġáł¢áł³áł¡áł¬áł¦": 2852,
      "Ġáł³áł¥áł·áłªáł¡áł¯áłµáł¢áł¨": 2853,
      "Ġáłłáł·áł¢áł¬áł¢": 2854,
      "Ġ100": 2855,
      "Ġáł²áł¢áłª": 2856,
      "Ġáł¥áłŃáłŃáł¦áłŃáł°áł¡áł¨": 2857,
      "Ġáł°áł£áł©áłŃáł£áł¯áł²áłł": 2858,
      "áł¤áł´áł¢": 2859,
      "ĠW": 2860,
      "Ġ13": 2861,
      "áł¡áł¯áł¡áł¯áł²áł¡": 2862,
      "áł°áłł": 2863,
      "áł³áłł": 2864,
      "Ġáłªáł¢áł¯áł": 2865,
      "áł¡áł¶áł¢áł³": 2866,
      "áł°áłłáłŃ": 2867,
      "Ġáłµáł£áł¬áł¢áł°áł²áłłáł¶": 2868,
      "Ġáł´áł¢áł°áł¤áł¨": 2869,
      "Ġáł¤áł´áłłáł·": 2870,
      "áł¯áłłáłŃ": 2871,
      "ĠáłªáłłáłŃáł²áłłáł¨": 2872,
      "Ġáłłáł¯áł²áłłáł¨": 2873,
      "al": 2874,
      "Ġáł¬áł£áłµ": 2875,
      "Ġáł²áłłáł¶áł¢áł¯": 2876,
      "áł¢áłŃáł¤áł¯áł¬áł¤": 2877,
      "áł¤áł¶áł¢áł": 2878,
      "Ġáł´áł¢áł®áł¡áłŃáł¯áł¡áł¯": 2879,
      "Ġáłµáł¢áłŃáł¡áł¯áł¡áł¯áłŃáł¡": 2880,
      "Ġáł³áł£áł¯áłŃ": 2881,
      "Ġ16": 2882,
      "ĠáłŃáł¡áł²áł¡áł¯": 2883,
      "ªáł¡áłŃ": 2884,
      "Ġáł²áł£áłŃáł²áłłáłŃáłłáłµáł¤": 2885,
      "Ġáłµáł¤áł·": 2886,
      "Ġáł®áł¢áł©áłŃ": 2887,
      "Ġáłłáł·áł¢áł¯áłŃáłłáł¬áł¤": 2888,
      "Ġáł¢áł¯áł¡áł³áł¬": 2889,
      "Ġáł¦áł¶áł¯áł¡áł³áłªáł¦áł·áł¢áł¯áł¡áł¯": 2890,
      "Ġáł¤áł¤áłŃ": 2891,
      "Ġáł²áł£áłŃáł²áłłáłªáł¤áł·": 2892,
      "Ġáł²áł¦áł·áł¦": 2893,
      "Ġáłłáł°áł¢áłŃáł¯áłłáł¨": 2894,
      "áł¤áłŃáł³áłłáłµáł¤": 2895,
      "Ġáł³áł£áł¸áł·áłłáł¬áł¢": 2896,
      "Ġáłµáł£áłŃáł°áł£áłŃ": 2897,
      "áłłáłŃáł³áłłáł¯": 2898,
      "áłłáł¯áłµáł¤": 2899,
      "Ġáłªáł¢áł´áł¢áł¬áłłáł¨": 2900,
      "Ġáł¢áłµáł¢": 2901,
      "Ġáł²áł¥áł·áł¥áłŃ": 2902,
      "áł¤áł¹": 2903,
      "Ġáłªáł£áł¯áł£áł³": 2904,
      "ĠáłŃáłłáł³áłłáłŃáł°áł¢áł¯": 2905,
      "Ġáł¬áł¡áł®áłµáł¢áłŃáł³áł¡áł¯": 2906,
      "Ġáł³áł¦áłŃáł¦áł·": 2907,
      "Ġáł¨áł¡áł®áł¡áłŃáł³áł¡áł¯": 2908,
      "Ġáł¬áł¡áł³áł¦": 2909,
      "Ġáł¬áł¤áłªáł¢áł¶áłłáł·áł¢": 2910,
      "Ġáł²áł¥áł¯áł¥áłªáłµáł¢áłŃáł¦áł¯áłŃáł¡": 2911,
      "Ġá¡º": 2912,
      "ĠáłŃáł¦áł¶áł¯áłŃ": 2913,
      "µáłłáł¶": 2914,
      "áł¯áł¬": 2915,
      "Ġáł°áł¤áł·áłªáł¤áł¯áłµáł¢áł¯áłłáłŃáł´áł¢": 2916,
      "Ġáł¡áł¯áłªáł¡áłŃ": 2917,
      "Ġáł´áł¤áłŃáł¯áłłáłŃáłłáł¨": 2918,
      "áł²áłłáł¨": 2919,
      "Ġáł¬áł¥áł³áł¡áł¯áłŃáł¡áł¬áł¦": 2920,
      "áł¢áł°áł¤": 2921,
      "°áł¤áł¨": 2922,
      "Ġáł²áł£áł¬áł¢áł·áłłáł®áłµáł¢áł²áłłáł¶": 2923,
      "Ġáł¡áłŃáł¡áł¯áłµáł¢": 2924,
      "áł¤áł©áłŃ": 2925,
      "áł¦áł¯áł³áł¡áłŃ": 2926,
      "Ġáłªáłłáł²áł¤áł¯áłłáłµáł¤": 2927,
      "Ġáł¬áł£áłŃáł£áł°": 2928,
      "Ġáł°áł¥áł¨áł¢": 2929,
      "áł¡áł¨áł¡áłŃ": 2930,
      "Ġáł¬áłłáłŃáłłáł¨": 2931,
      "Ġáł¬áłłáł®áłµ": 2932,
      "Ġáł¬áł¦áł¶": 2933,
      "Ġáłłáł¯áł¢áłªáłł": 2934,
      "Ġáłªáł¤áł³áł¤áł¯": 2935,
      "áł¡áłŃáł³áł¡áłŃáł°áł¡áł¨": 2936,
      "Ġáłłáł·áł¢áłŃáł¤áł¨": 2937,
      "áł¡áł°áł¢": 2938,
      "Ġáł¬áł¤áł¸áłłáł©": 2939,
      "Ġáł²áł¦áłŃáł¦áł¬áł¡áł¶": 2940,
      "áł°áł¤áł¨": 2941,
      "Ġ2021": 2942,
      "Ġáłµáł§áł¸": 2943,
      "Ġáł°áłłáł´": 2944,
      "Ġáł¬áł¡áł·áł¡áłŃáł¯áł¡áłŃáł°áł¡áł¨": 2945,
      "Ġáł¬áłłáł®áłµáł¢áł¯áł´": 2946,
      "ĠV": 2947,
      "áłªáł¤áł°": 2948,
      "Ġáł°áł¦áł¶": 2949,
      "Ġáł¬áłłáł·áł¢áłŃáł¤": 2950,
      "áłłáł¯áł¬áł¤": 2951,
      "Ġáłªáł¤áł³áł¤áłŃ": 2952,
      "áł¡áłŃáł³áł¡áłµáł¦": 2953,
      "áł£áł¯áłŃ": 2954,
      "áł²áłłáł¢": 2955,
      "áł¡áł³áł¦áłŃáł¡áł·": 2956,
      "Ġáłªáł¡áł¶áł¡áł¯áł¡áłŃáł¦áł¯áł¬áł¦": 2957,
      "es": 2958,
      "Ġáł±áł§áł©": 2959,
      "áł¤áł¸áłłáł¢": 2960,
      "Ġáłªáłłáł¶áł¢áł·áł¢áł¯": 2961,
      "Ġáłµáł¥áłªáł¯": 2962,
      "áł¦áł¯áł¡áł¬áł¦": 2963,
      "Ġáł²áł£áł¬áł¢áł·áłłáłŃáł¤áł¯áł¤áł¯áł²áłł": 2964,
      "Ġáł³áł£áł¯áłŃáł¢áł¶áłłáł¨": 2965,
      "Ġáł²áł¤áł°áł¢áł¶": 2966,
      "áł¤áł¯áł²": 2967,
      "Ġáł°áł¢áł·áł¬áł¡áłŃ": 2968,
      "Ġáłµáł¢áł±áł¢áł¯áł²áł¡": 2969,
      "Ġáł¬áłłáłŃáł¤áł·áłłáł¶": 2970,
      "Ġáł³áł¡áłŃáł¡áłŃáł°": 2971,
      "Ġáł²áł£áłªáł´áł¢": 2972,
      "áłłáł´áł¢áł¨": 2973,
      "Ġáł²áł¤áł¬áłłáł¢": 2974,
      "áł¢áł£": 2975,
      "Ġáłłáłµáł¢áł¯áł¯áłłáłµáł¤": 2976,
      "áłŃáłŃáł¡": 2977,
      "Ġáł°áłłáł®": 2978,
      "Ġáłµáł¥áł©": 2979,
      "Ġáł¬áł¡áł®áłµáł¢áł¬áł¦": 2980,
      "Ġáł³áłłáłŃáł¤áł·": 2981,
      "Ġáł¡áł®áł¨áł¡áł¨": 2982,
      "áł¡áł°áł¦áł²áł¥": 2983,
      "Ġáł²áł¤áł¨áł¤áłŃ": 2984,
      "áłŃáł£áłŃ": 2985,
      "Ġáłµáł¥áłªáł°áł¢áł¶áł¡áł·áł¡áł¯": 2986,
      "Ġáł£áł¨áł£áłªáł´áł¢áł²áłłáł¶": 2987,
      "Ġáł¢áł·áł¡áł¯áł²áł¡": 2988,
      "áł¡áłŃáł¦áł¯áłª": 2989,
      "Ġáł¹áł¸áł©": 2990,
      "Ġáł¦áł¯áł¡áł³áł¡áłŃ": 2991,
      "Ġáł¬áł£áł¶áł¢áł°": 2992,
      "Ġáł²áł£áł¯áłª": 2993,
      "áł¢áł·áłłáłŃ": 2994,
      "Ġáł³áł¤áł·áłłáł³áł¤áłŃáł°áłłáł¨": 2995,
      "Ġ14": 2996,
      "Ġáł²áł£áł¬áł¢áł¶áłłáł¯áł³": 2997,
      "Ġáł±áł¦áłŃ": 2998,
      "Ġáł¨áł¢áł³áł¦": 2999,
      "Ġáł¬áłłáł¶áł¢áł¨": 3000,
      "10": 3001,
      "Ġáł°áł¢áł·áł¬": 3002,
      "áł¦áł¯áł¢áł¶áł£áł£": 3003,
      "áł£áł³áłłáłŃ": 3004,
      "Ġáłµáł£áł·áł¢áł¯áłŃ": 3005,
      "Ġáłªáł¤áł³áł¤áłµáł¤": 3006,
      "áł°áł¡áł³": 3007,
      "³áłłáłŃ": 3008,
      "Ġáł¦áł¶áł¯áł¡áł³áł¬áł¦": 3009,
      "Ġáł²áł¦áł©": 3010,
      "Ġáł¯áł¸": 3011,
      "ĠO": 3012,
      "áł¤áł°áł¤": 3013,
      "Ġáł¨áł¡áłŃáł¦áł·áł¡áł°áł¦áł²áł¥": 3014,
      "Ġáł°áł£áł·áłŃáł£áłŃ": 3015,
      "Ġáł£áł·áł£áł¯áł´áłłáłŃáł°áłłáł¨": 3016,
      "Ġáł¨áł¢áł³áł¦áł¨": 3017,
      "áł¡áł³áł¡áłŃáł¡áł·": 3018,
      "Ġáł®áł¥áł¬áł¥": 3019,
      "Ġáłµáł¢áłŃáłłáł¬áłłáł¨": 3020,
      "Ġ2020": 3021,
      "Ġáł¡áłµáł¡áł®áł°áł¢áł¯": 3022,
      "áłłáł®áł³": 3023,
      "Ġáł°áł¦áł¯áł¢áł¶áł£áł£": 3024,
      "Ġáł£áł¶áł¢áł¯áłłáłŃáłłáłµáł¤": 3025,
      "áłłáłªáł£áł³": 3026,
      "Ġáł®áłłáł¬áłłáłªáł£áł³": 3027,
      "Ġáł´áł¢áł³áłłáłª": 3028,
      "áł¤áł¯áł¤áł¯áł²áłł": 3029,
      "Ġáłµáł¦áł¢áł¯áł¡áł°": 3030,
      "Ġáł«áł¢áł©": 3031,
      "Ġáł³áł¡áł®": 3032,
      "Ġáłµáł¢áł¶áł¦": 3033,
      "ï¼ħ": 3034,
      "Ġáł¨áłłáł¶áł¢áł³áłłáłªáł¤áł·áł¢áłµáł¢áłŃ": 3035,
      "Ġáł²áł¤áł°áł¢áł¶áłłáł¬áł¤": 3036,
      "Ġáł°áłłáł¶áł¢áł²áłłáł¶": 3037,
      "Ġáł´áł¢áł³áłłáł¯": 3038,
      "Ġáł¨áł¡áł·áł¡áł°": 3039,
      "áłªáł¦áł·áł¢": 3040,
      "âĢĶ": 3041,
      "Â·": 3042,
      "Ġáł°áł¢áł¸": 3043,
      "Ġáł´áł¡áł©": 3044,
      "Ġáłµáł¡áłŃáł¦áł³": 3045,
      "áł¢áłŃáł¡": 3046,
      "Ġáłªáł£áł·áł£áłŃáłłáł¨": 3047,
      "ĠU": 3048,
      "Ġáł¬áł£áł¯áłªáł£áłŃáłłáł²áł¤": 3049,
      "Ġáł£áł·áł£áł¯áł´áłłáłµáł¤": 3050,
      "Ġáł²áł¥áł°áł¦áłª": 3051,
      "Ġáł³áł¥áł·áłªáł¡áł³áł¦áłŃáł¡áł·": 3052,
      "Ġáł°áł¡áł³áł¬áł¢áł´áł¡": 3053,
      "Ġáł´áłłáł¶": 3054,
      "Ġáł¡áł·áłŃáł¢áł¯áł²áł¡": 3055,
      "Ġá¡¼": 3056,
      "Ġáł¤áł·áł®": 3057,
      "áłºáł¦": 3058,
      "Ġ50": 3059,
      "Ġáł¬áłłáł·áł¢áł¶": 3060,
      "Ġáłªáł¤áł·áł¤áłŃáł¤": 3061,
      "Ġáł¯áł¢áł©": 3062,
      "ĠáłŃáł¦áł¸áł§": 3063,
      "Ġáłµáł§áł©": 3064,
      "Ġáłłáł·áłłáł¯áłµáł¢áł¶": 3065,
      "Ġáł¬áł¡áł¯áł²áł¡áł°": 3066,
      "Ġáł¦áł¢áł¯áł¡": 3067,
      "Ġáł²áł¡áł³áł¡áłŃáł¡áł·": 3068,
      "Ġáłªáł£áł¯áł´": 3069,
      "áłłáł®áł°áł¢áłŃ": 3070,
      "Ġáłµáł¡áł·áłŃ": 3071,
      "Ġáł¬áł¡áł¯áł¡áłŃáł°áł¡áł¨": 3072,
      "Ġáł´áł¢áł©áłŃáłłáł³áł¬áłłáłµáł¤": 3073,
      "Ġáł¡áł¶áł¢áł®áł¦áł·áł¬áł¦áł¦": 3074,
      "Ġáł±áł§áł¨": 3075,
      "Ġáł°áł¦áłª": 3076,
      "Ġáłªáł£áłŃáł£áł®": 3077,
      "Ġáł¤áł·áłłáł¯áłłáł¯": 3078,
      "Ġáł´áł¢áłŃáł¯": 3079,
      "Ġáł°áłłáł¨áłłáłŃáłłáł´áł¢áł¯": 3080,
      "áł°áł¢áłŃáł¦áł¯áł¬áł¦": 3081,
      "áłłáł·áł¢áłŃ": 3082,
      "Ġáł°áłłáłŃáł¤áłµáł¤": 3083,
      "áłŃáł¦áł¶": 3084,
      "Ġáł²áł¤áł°áł¬áłłáł¢": 3085,
      "it": 3086,
      "Ġáł¬áłłáłµáłłáłŃáł¤": 3087,
      "ĠáłŃáł¦áł¢áł¯áłŃáł¡áłŃáł¡áł¨": 3088,
      "Ġáł³áł¡áł¯áłŃáł¡áł¨": 3089,
      "áł¡áłªáł¦áł·": 3090,
      "Ġ25": 3091,
      "Ġáłµáłłáł¬áł¢áł·áłŃáłłáł¨": 3092,
      "Ġáł²áł¥áł·áł¥áł¯áł¬": 3093,
      "áł£áł·áł¢": 3094,
      "áł¤áłŃáł¤áł¨": 3095,
      "Ġáł²áł¥áł¬áł¥áł®": 3096,
      "Ġáł²áł£áłŃáł£áł°áł£": 3097,
      "áł¤áł¯áł¤áł¯": 3098,
      "Ġáłłáł¶áł¢áł": 3099,
      "Ġáłªáł¡áł¯áł¡áł³áł¬áł¡áł¯": 3100,
      "Ġáłªáłłáłº": 3101,
      "áł¸áł²": 3102,
      "Ġáł¨áł¥áł¯áł¥áłŃáł¡áł¯áł¡áł¬áł¦": 3103,
      "Ġáł´áłłáłª": 3104,
      "Ġáł¬áłłáł¨áł³áł¤áł°áł¢": 3105,
      "Ġáł¬áł¦áł¨áł³": 3106,
      "Ġáł¶áłłáł®áłłáł·áłªáłł": 3107,
      "ĠáłŃáł¡áł¨áł¡áł³áł²áł¡": 3108,
      "Ġáłµáł¤áł·áłªáł¤áł°": 3109,
      "Ġáł°áłłáł¯áłŃ": 3110,
      "Ġáł¬áł£áłŃáł£áł°áł£áł¨": 3111,
      "Ġáł°áłłáłŃáł¤áł¬áł¤": 3112,
      "Ġáłłáłµáł¢áł¯áł²áłłáł³": 3113,
      "Ġáł²áł¦áł®áł¡": 3114,
      "Ġáł¨áł¤áł·áł®": 3115,
      "Ġáł¬áł¥áł²áł¥": 3116,
      "Ġáł°áł£áł¯áł¢áł¬áł¤": 3117,
      "ic": 3118,
      "Ġ+": 3119,
      "Ġ2023": 3120,
      "Ġáł²áł£áłŃáłłáł´áł¢áł¯": 3121,
      "Ġáł¨áł¡áł¶áł¢áł´": 3122,
      "Ġáł²áł¦áł·áłŃ": 3123,
      "Ġáł²áł¤áł°áłłáł¯áłłáł¬áł¤": 3124,
      "Ġáł³áł¤áł®áł³áłłáł´áł¢": 3125,
      "áł¸áł§": 3126,
      "áł¢áł³áłł": 3127,
      "Ġáł²áł¡áłµáł¢áłŃáł¡áł¯": 3128,
      "áł¦áł®áłµáł¢áł¯": 3129,
      "áł±áłłáł¨": 3130,
      "Ġáł°áł£áł©áłŃáł£áł¨": 3131,
      "Ġáł¤áł®áłłáł·": 3132,
      "Ġáł³áłłáł®áłµáł¢áł¨": 3133,
      "Ġáł¬áł¦áł©": 3134,
      "áł¦áłŃáł¦áł¨": 3135,
      "Ġáłłáł´": 3136,
      "Ġáł¤áł·áł¤áłŃáł°áł¢áł¯": 3137,
      "ĠáłŃáł¤áł¸": 3138,
      "Ġáłªáłłáłºáł²": 3139,
      "áł§áł·áł¢": 3140,
      "Ġáł´áł¡áł¨áł¡áłŃ": 3141,
      "Ġáł²áł¡áł®áł¡áł´": 3142,
      "Ġáł´áł¡áłŃáł¡áłµ": 3143,
      "Ġáł£áłªáł£áłŃáł²áł¤": 3144,
      "áł¡áł¶áł¢áł´": 3145,
      "Ġáł²áłłáł²áłłáł¬áł¤": 3146,
      "áłłáłŃáłłáł¶áł¢áł¯": 3147,
      "áłµáł¢áł¶áłłáł©": 3148,
      "áł°áł¥áł¨": 3149,
      "Ġáł´áłłáł·": 3150,
      "áł¡áł¯áłŃáł¡áł¨": 3151,
      "Ġáł¬áł¥áłŃáł¡áł·áłŃáł¡": 3152,
      "Ġáłłáłµáł¢áł¯áł³": 3153,
      "áł¡áłŃáł¦áł¨": 3154,
      "áł¡áł¯áł¡áłµáł¦": 3155,
      "Ġáłłáłµáł¢áłŃ": 3156,
      "Ġáł¬áł¡áł·áł¡áłŃáł¯áł¡áł¯áł²áł¡": 3157,
      "áł£áł¤": 3158,
      "áł¤áł³áł¤áłŃáłłáł·": 3159,
      "Ġáł®áł¢áł¬": 3160,
      "Ġáł¬áł¤": 3161,
      "áł¢áł¶áłł": 3162,
      "áł¬áłłáłŃ": 3163,
      "Ġáł¬áł¥áłŃáł¡áłŃ": 3164,
      "Ġâ": 3165,
      "áł¢áł®áł¡áł¯": 3166,
      "Ġáł®áł¥áł¬áł¥áł¯áł¢áłŃ": 3167,
      "áł¢áłµáł¢áł·": 3168,
      "Ġáłłáł®áłł": 3169,
      "Ġáł´áł¢áł³áłłáłªáł¬áł¢": 3170,
      "Ġáł°áł¦áł¶áł³": 3171,
      "Ġáł¶áłłáł·áł¢áł¶": 3172,
      "Ġ24": 3173,
      "Ġáł´áł£áł©": 3174,
      "Ġáł¨áł¢áłŃáł¡áł³áł¦áł¯áł²": 3175,
      "ĠáłŃáł¥áł·": 3176,
      "Ġáłµáł¤áłµ": 3177,
      "ĠáłŃáł¡áł®áł²": 3178,
      "Ġáłµáłłáł¯áłŃáłłáłŃ": 3179,
      "Ġáł²áł¦áł·áł¢áł¶áł¡áł°": 3180,
      "Ġáł¡áł´áł¢áłŃáł¡": 3181,
      "Ġáł¬áł¦áł°áł¦áł¨áł¦áłŃáł²áł¦": 3182,
      "ĠáłªáłłáłŃáł¤áł¯áłŃ": 3183,
      "Ġáł¬áł¤áłªáł¢áł¶áłłáł¨": 3184,
      "Ġáłłáłªáł¤áł·": 3185,
      "Ġáł¨áł¡áłªáł²áł¡áł·áł¡áł¬áł¦": 3186,
      "Ġáł²áł¤áł°áłł": 3187,
      "Ġáł¬áł¤áłªáł¢áł°": 3188,
      "Ġáł´áł¢áł¨áłłáłŃáł°áł¢áł¯áłłáłªáłłáł¯": 3189,
      "áł´áł¢áł¯áł¡áł¬áł¦": 3190,
      "Ġáł¬áł¦áł¦": 3191,
      "Ġáłģ": 3192,
      "Ġáł±áł¤": 3193,
      "Ġáł¬áł£áł¬áł¢áł·": 3194,
      "áłłáł²áł¤áł·": 3195,
      "Ġ17": 3196,
      "Ġáłªáł¦áł³áł¦áłŃáł¡áł¨": 3197,
      "Ġáł¢áł¯áł¡áł·áł¡áłŃáł¦áł¯áł¦áłŃáł°áł¡áł¨": 3198,
      "Ĥáł¢": 3199,
      "ł½": 3200,
      "áł½": 3201,
      "áł¤áł¯áłµáłłáł¶": 3202,
      "Ġá¡Ĥáł¢": 3203,
      "Ġáł®áł¡áł³áł¡áłŃáł¡áł¨": 3204,
      "áł£áł¶áł¢áł": 3205,
      "ĠáłŃáł£áłŃ": 3206,
      "Ġáłłáł¶áł¤áł¯áłŃ": 3207,
      "Ġáł¬áł¤áł·áłłáł®áł³": 3208,
      "Ġáł°áł¦áł¶áł³áł¬áł¡áł¯": 3209,
      "Ġáł¨áł¡áł®áł¡áłµáł¦": 3210,
      "Ġáł¡áł°áł¡áł·áłŃáł¦": 3211,
      "Ġáł°áł¦áł¢áł³áł¬áł¡áł¯": 3212,
      "áł¦áł²áł¡áł¨": 3213,
      "áł¢áł¢áł¨": 3214,
      "áł°áłłáłŃáłłáł·": 3215,
      "áł¤áłŃáł¤áł¯áł¤áł¨": 3216,
      "oo": 3217,
      "Ġáłªáł¡áł¬": 3218,
      "ĠáłªáłłáłŃáłłáł²áł¤áł·": 3219,
      "Ġáł²áłłáł¶áł¢áłª": 3220,
      "Ġáł¬áł¡áł¯áł¡áł¯áł´": 3221,
      "Ġáłµáłłáł¶áł¢áł¯áłłáł°áł¬": 3222,
      "ĠáłŃáł¦áł¶áł¯áłŃáł¡áłŃáł¡áł¨": 3223,
      "Ġáł²áł¤áł²áł¤áł®": 3224,
      "Ġáł¬áł¢áłµáłłáłŃáłłáł·áł¯áłłáł¬áł¤": 3225,
      "Ġáł¶áłłáł©áłµáł¤": 3226,
      "Ġáłªáłłáł¶áł¢áł¯áł³áł¤áłŃáłłáł¨": 3227,
      "Ġáł¸áł¸áł¨": 3228,
      "Ġáł²áł¡áł¯áł¡áł¶": 3229,
      "Ġáł²áłłáł¬": 3230,
      "Ġáł¦áł¨áł¡áł¨áł´áł¢": 3231,
      "Ġáł¨áłłáł®áłªáłł": 3232,
      "ĠáłŃáł¦áł¨áłµáł¡áłŃáł¡áł¶": 3233,
      "Ġáł¯áł¦": 3234,
      "Ġáł´áł¢áłŃáł¢áł·áłłáłŃ": 3235,
      "Ġáł°áłłáł": 3236,
      "Ġáł¬áł¡áłµ": 3237,
      "Ġáł¤áł¨áł²": 3238,
      "Ġáł®áłłáł©": 3239,
      "Ġáł¬áł¢áł¯áł¢": 3240,
      "Ġáł°áł¡áł·áłŃáł¦áłŃ": 3241,
      "Ġáłªáł£áłŃáł£áł®áł²áłł": 3242,
      "Ġáł°áłłáł¬áł¢áłŃ": 3243,
      "áłłáł®áł°áłłáł·": 3244,
      "Ġáł¨áłłáłŃáł¤áł·": 3245,
      "Ġáł£áł·áł£áł¶": 3246,
      "Ġáł£áł³áł£áł¨": 3247,
      "Ġáł¬áł¡áł·áł¡áłŃáłµáł¢áłŃáł¦áł¯áłµáł¦": 3248,
      "Ġáł¨áł¡áł¶áł¢áł²áł¡áł¯áł¡áłµáł¦": 3249,
      "áł³áł¡áł¨": 3250,
      "ł¯áł²": 3251,
      "áł¯áł²": 3252,
      "Ġáł³áłłáłŃáłłáłŃáłłáł®áłłáłŃáłłáł¶": 3253,
      "áł¬áł¢áł·": 3254,
      "áł¸áł°": 3255,
      "áł¬áł£": 3256,
      "áł¢áł³áł¦": 3257,
      "Ġáł¬áł¦áł´áł¦áł¯": 3258,
      "Ġáł³áł¡áłªáł²áł¡áł·": 3259,
      "áł¢áł´áłł": 3260,
      "Ġáł¯áłłáłªáł²áłłáł¶": 3261,
      "Ġáł±áł§áł¨áłµáł§áł¨": 3262,
      "áłłáł°áł¢áł¨": 3263,
      "ĠáłŃáłłáł¶áł¢áł": 3264,
      "áł¤áłŃáł³áłłáłŃáł°áłłáł¨": 3265,
      "Ġáł¦áłµáł¡áłŃáł¦áł¯áłµáł¦": 3266,
      "Ġáł°áł¤áł·áł²": 3267,
      "áł¨áł¡áł·": 3268,
      "Ġáł¬áłłáł·áł¢áł¶áłłáł¯": 3269,
      "Ġáł¤áł·áł³áł¤": 3270,
      "áł²áł¡áł¢": 3271,
      "Ġáł®áł¡áł³áł¡áłŃáł¡áł¯": 3272,
      "Ġáł°áł¤áł·áł¤áłŃáł´áł¢": 3273,
      "ĠáłŃáłłáł³áłłáłŃáł°áł¢": 3274,
      "Ġáł¬áłłáł¶áł¢áł¯": 3275,
      "áł£áł¯áłłáł¯": 3276,
      "Ġáł°áł¡áł¯": 3277,
      "Ġáł´áł¤áł¬": 3278,
      "áł´áł¡áł¶": 3279,
      "Ġáł¯áłłáłªáł¯áłłáł¯áł²áłł": 3280,
      "Ġ2019": 3281,
      "áł¯áł¡áłŃáł°áł¡áł¨": 3282,
      "Ġáł¨áł¢áłŃáł¡áł³áł¦áł¯áł²áł¡áł¶": 3283,
      "Ġáł°áł¢áł¨áłµáł¢": 3284,
      "Ġáł¨áł£áł´áł¢áł²áłłáł¶": 3285,
      "Ġáłµáł¤áłµáłłáłŃáłłáł¨": 3286,
      "áł¢áł®áł¦áł°áł¦áł¨": 3287,
      "áł¤áł²áłł": 3288,
      "Ġáł²áłłáł²áłłáłµáł¤": 3289,
      "Ġáłªáł¦áł·áł¢áł®áł¦áł°áł¦áł¨": 3290,
      "áł¤áł¸áłł": 3291,
      "Ġáł¢áł¦áł¢": 3292,
      "Ġáłªáłłáł¶áł¢áł·áł¢áł°": 3293,
      "Ġáłłáłªáł¤": 3294,
      "ĠáłŃáł£áł£áł¯áł³áłłáł¯áłŃ": 3295,
      "Ġáł²áł£áł¬áł¢áł·áłłáłŃáł¤áł¯áłµáł¤": 3296,
      "áł¢áł¨áłµáł¢áł¨": 3297,
      "Ġáłºáł¢áł¯": 3298,
      "áł¦áłŃáł¡áł³": 3299,
      "ĠáłŃáłłáł·áł¤áł¯áł²áłł": 3300,
      "Ġáłłáł³áłłáł¯áł¢áł¬áłłáł¨": 3301,
      "Ġáł¬áłłáł®áłłáłŃáłłáł¯áłłáł¯": 3302,
      "Ġáł³áłłáłŃáł¤áł¨": 3303,
      "el": 3304,
      "Ġáłµáł¢áł¶áłłáł¨": 3305,
      "Ġáł¬áł¦áł·áł¦áł¯áł´áł¡áł¬áł¦": 3306,
      "Ġáłłáłµáł¢áł¯áł³áłłáł¨": 3307,
      "Ġáł¬áł¡áł²áł¦áł·áł¬áł¡áł¶": 3308,
      "Ġáł¤áłŃáł²": 3309,
      "Ġáł£áł´áł¢áłµáł¤": 3310,
      "Ġáł³áł¡áł¯áłŃáł¡áł´áł¡": 3311,
      "®áł¦áł·áł¢": 3312,
      "Ġáł®áł£áł³áł£": 3313,
      "Ġáłłáł·áłŃáłłáł´": 3314,
      "Ġáł²áł£áł¯áłªáł£": 3315,
      "Ġáł½áł¢": 3316,
      "Ġáł¨áł¤áł¨": 3317,
      "áł¤áł¯áł°áł¤áł¨": 3318,
      "áłªáł¢áł°": 3319,
      "áłŃáłłáł¨áł¢áłŃ": 3320,
      "Ġáłłáł°áłłáł·áłłáł®áłµáł¢": 3321,
      "Ġáłµáł¤": 3322,
      "ĠáłłáłŃáł¤áł¯áłłáł¨": 3323,
      "Ġáł®áłł": 3324,
      "áłłáł¶áł¢áł´": 3325,
      "Ġáł¬áł¤áłªáł¢áł·áłłáłŃáł¤áł¯áł¬áł¤": 3326,
      "Ġáł¡áłŃáł¦áł¯áł¡áł¨": 3327,
      "Ġáł²áł£áł·": 3328,
      "áł³áłłáłŃáł°áłłáł¨": 3329,
      "áł¤áł´áł¤áł³": 3330,
      "áł²áł¤áł·": 3331,
      "áł¦áł®áł¡áł¯": 3332,
      "áłłáł¯áłłáłŃáł°áłłáł¨": 3333,
      "Ġáł¨áł¤áł¨áł²áłłáłŃ": 3334,
      "áł¡áł·áł¡áł¬áł¦": 3335,
      "Ġáł¥áł¬áł¢áł¨": 3336,
      "¯áłłáł·": 3337,
      "Ġáł¸áłłáł¨": 3338,
      "Ġáł¬áł¤áł·áł¢áł¶": 3339,
      "Ġáł³áł¡áł®áłµáł¢áł¯áłŃáł¡": 3340,
      "ł¾": 3341,
      "áł¾": 3342,
      "Ġáł¬áłłáłªáł¤áł·": 3343,
      "Ġáłµáł£áł¬áł¢áł¶áłłáłŃáł´áł¢": 3344,
      "Ġáł¢áł³áł¡áłµáł¦": 3345,
      "Ġáł£áł·áłŃáłłáł¨áł¢áłŃ": 3346,
      "Ġáł³áłłáłŃáłłáłŃáłłáł®áłłáł¯": 3347,
      "áłłáł¨áł²": 3348,
      "áł£áł¯áł¯áłłáł·": 3349,
      "Ġáłµáł¢áł·áłŃáł¤áłŃáłłáł¨": 3350,
      "Ġáł¬áłłáłªáł²áłłáł°áł¤áł¨": 3351,
      "ĠáłŃáł¦áł¢áł´áł¡áł³áł¬áł¡áł¬áł¦": 3352,
      "Ġáł²áł¤áł©": 3353,
      "Ġáł¡áłªáł¦áł¯": 3354,
      "Ġáłłáł®áłłáł·áłłáł¯áł²áłł": 3355,
      "Ġáłªáł¥áłŃáł¡áł®": 3356,
      "¯áłªáł¤áł·áł¢": 3357,
      "áł¢áł½": 3358,
      "Ġáł°áłłáł¬áł¢áłŃáł¤áł¯áł°áł¤áł¨": 3359,
      "Ġáł¬áł¥áł®áł¦áłµáł¢áłŃáł¦áł¯áł¬áł¦": 3360,
      "Ġáł¬áł£áł¨áłµ": 3361,
      "ĠáłŃáł¦áł·": 3362,
      "Ġáł¶áł§": 3363,
      "ro": 3364,
      "Ġáł´áłłáłŃáłłáł·áł¢áłŃ": 3365,
      "Ġáł²áł£áłŃáł¯áłłáł¯áł²áłł": 3366,
      "Ġáł°áł£áł·áł¢áł¨áłµáł¢áł¨": 3367,
      "Ġáłºáł£áł³": 3368,
      "Ġáł¬áł¡áł¨": 3369,
      "áłłáł®áłłáłŃ": 3370,
      "Ġáł´áł¢áł°áł¤": 3371,
      "Ġáł¨áł¥áłŃáł¥áłŃáł¡": 3372,
      "Ġáł®áł¤áł·": 3373,
      "áłłáłµáł¢áłŃ": 3374,
      "Ġáł¬áłłáł©áłŃáłłáłŃáł°áłłáł¨": 3375,
      "Ġáł¤áł¨áł²áłłáł·": 3376,
      "Ġáł¬áł¥áł³áł¡áł¯áł®áł¦áł·áł¢": 3377,
      "Ġáł¨áł¡áłŃáł¡áłŃáł¡áłµáł¦": 3378,
      "Ġáł¬áł¥áł¬áł¡": 3379,
      "Ġáł¡áł¶": 3380,
      "Ġáł£áł©áłŃáł£áł´áłł": 3381,
      "st": 3382,
      "Ġáłµáł£áł¯": 3383,
      "Ġáł¡áł·áł³áł¡áł¨": 3384,
      "Ġáł¡áł·áł¬áł¢áł¯áł¡áłŃáł´áł¢": 3385,
      "áłłáł·áłłáłµáł¤": 3386,
      "ĠK": 3387,
      "Ġáł¥áł®áł´áł¢áł¯": 3388,
      "áł¦áł¯áł¦áł¯áł²áł¡": 3389,
      "áłłáł®áłµáł¢áł¯": 3390,
      "Ġáł²áł£áłŃáł²áłłáł´áłł": 3391,
      "Ġáł¬áł¢áł¯áłª": 3392,
      "Ġáł¬áłłáł·áłŃ": 3393,
      "Ġáł¬áł¢áł¯áłªáłłáł·": 3394,
      "Ġáł¥áł·áł¨áł¢áłŃáł¦áł¯áłµáł¦": 3395,
      "áłłáłŃáł¤áł¯áłł": 3396,
      "Ġáłłáł·áł¢áł¬áł¢áł¨": 3397,
      "Ġáł¶áł£áł°áł£áł¯áłłáł¯": 3398,
      "áłłáłŃáł°áłłáł³": 3399,
      "Ġáł°áł¢áłŃáł¦áł¬áł¦": 3400,
      "Ġáł³áł£áł·áł£áłŃáł°áł¢": 3401,
      "áł¦áłµáł¢": 3402,
      "Ġáł¢áł©áłŃáł¢áłªáł¡áł¯": 3403,
      "Ġáł²áł¤áł°áłłáłŃáłłáł·": 3404,
      "Ġáłªáł¤áł³áł¤áł¯áł¢áł¶áłłáł¨": 3405,
      "Ġáł²áłłáł¬áł¢áł¨": 3406,
      "ĠáłŃáłłáł¶áł¢áł¬": 3407,
      "áł¨áłłáł¨": 3408,
      "Ġáł¬áł¦áł´áł¦áł¯áł¡áł´áł¡": 3409,
      "¯áł¯": 3410,
      "Ġáłłáł®áł¢áł³áł¤áł·": 3411,
      "Ġáłªáł£áłŃáł£áł³áłłáł¯": 3412,
      "Ġáł¡áł·áł¡áł®áł¡áł¯áłµ": 3413,
      "Ġáłłáł½áł¢áł¶": 3414,
      "ĠáłłáłŃáł¤áł·áł¬áłłáł¶": 3415,
      "ĠáłµáłłáłŃáłłáł¯áł³": 3416,
      "Ġáł¦áł¨áł³áł¦áł°áł¦áł²áł¡áł¨": 3417,
      "Ġáł¬áłłáł·áł¢áłŃáł¤áł¯áł²áłł": 3418,
      "ĠáłłáłŃáł¤áł¯áłµ": 3419,
      "áł´áł¢áł¯áłłáł¯": 3420,
      "ĠáłŃáł¤áł¸áłłáł©áł³áł¦": 3421,
      "Ġáł¶áł¡áł·áł¦áł©áł¬áł¡áł¢": 3422,
      "mm": 3423,
      "Ġáł¢áł¯áł¡áł·áł¬áł¡áł¶áł¢áł¯áł¡áł¬áł¦": 3424,
      "Ġáł°áł¢áł¶áł³áłªáł¦áł·áł¢áł¯áł¡áłµáł¦": 3425,
      "Ġáł°áłłáłŃáłłáł³": 3426,
      "Ġáł²áł£áłŃáłłáł´áł¢áł¯áłłáłŃáł°áłłáł¨": 3427,
      "Ġáłµáłłáł¯áłłáłŃ": 3428,
      "áłłáł°áł¢áł·": 3429,
      "Ġáł°áłłáłªáłł": 3430,
      "Ġáłªáł£áł°": 3431,
      "Ġáłłáł³áł¬": 3432,
      "Ġáł®áł¢áł©áłŃáłłáł¨": 3433,
      "ĠáłŃáł£áł£áł¯áł¯": 3434,
      "Ġáłªáłłáł¯áłŃáłłáł°áł¤áł¨": 3435,
      "áł¤áł°áł¤áł¨": 3436,
      "Ġáł²áł¤áł¯": 3437,
      "áł¸áł¤": 3438,
      "Ġáł¨áł¡áł®áł¡áł¬áł¦": 3439,
      "Ġáł¬áł¥áł·áł¥áłŃ": 3440,
      "Ġáł£áł¶áł¢áł¯áłłáłŃáłłáłŃáł³áłłáł¬áł¤áł¨": 3441,
      "Ġáł¥áł©áłŃáł¡áł·áł¡áłŃ": 3442,
      "Ġáł°áłłáłŃáł¤áłŃáłłáł¯áł¢": 3443,
      "ĠáłŃáł£áł¸áł¯áł³áłłáł¯áłŃ": 3444,
      "Ġáł³áł¤áł®áł³áłłáł¬áł¢": 3445,
      "Ġáł¢áł®áłłáłŃ": 3446,
      "Ġáł¨áł¡áł·áł¡áł²áł¦": 3447,
      "áł¡áł´áł¢áł¨": 3448,
      "Ġáł¦áł·áłªáł¢áł°": 3449,
      "Ġáł²áł¤áł¬áł¢áł·": 3450,
      "áł¸áł¯": 3451,
      "áł£áł¯áł²áłł": 3452,
      "Ġáł¨áł¢áł·": 3453,
      "Ġáłłáł·áłłáł°áł¤": 3454,
      "Ġáł´áł¡áł©áłŃáł¡áł¯": 3455,
      "Ġáł¦áł¨áł¡áł¯áł¡áł¯áł²áł¡": 3456,
      "²áł¤": 3457,
      "Ġáł²áł£áłŃáł£áłŃáłłáł¨": 3458,
      "Ġáł³áł¡áł¯áł¡áł¬": 3459,
      "ĠáłŃáł£áł¶": 3460,
      "Ġáł¦áł·áłªáł¢áł°áł¦áł¯": 3461,
      "áł°áł¡áłŃ": 3462,
      "áł¯áł¥áłŃáł¡": 3463,
      "Ġáłªáł¢áł¯áł¢áłŃ": 3464,
      "Ġáł£áł·áł£áł°áł¢áł¨": 3465,
      "Ġáł°áł¡áł¯áłªáł¢áł¨": 3466,
      "50": 3467,
      "ĠáłŃáł¥": 3468,
      "Ġáł¡áłŃáł¦áł°áłŃáł¡áłŃáł´áł¢": 3469,
      "Ġáł¬áł£áł·áł£áłŃ": 3470,
      "áł°áł²": 3471,
      "Ġáł¬áłłáł¯áł¢áł°áł¤": 3472,
      "Ġáł¡áł´áł¡": 3473,
      "Ġáł®áł§áł¶": 3474,
      "áłŃáł¡áł¯áł¢áłŃ": 3475,
      "áł¤áłŃáł¤áł¯": 3476,
      "Ġáł£áł¶áł¢áł¯áłłáłŃáłłáłŃáł°áłłáł¨": 3477,
      "Ġáłªáł¡áł·áł¬áł¡": 3478,
      "Ġáł°áłłáł¨áłłáłŃáłłáł´áł¢áł¯áłłáłŃ": 3479,
      "Ġáł¬áłłáł³áłłáłŃáłłáł¯áłłáł®áłµáł¢": 3480,
      "ĠáłŃáłłáł·áłŃáłłáł¨": 3481,
      "et": 3482,
      "Ġáł²áł¡áł©áłŃáł¡áł¯áł¢áłŃ": 3483,
      "Ġáł°áł¢áł¯áł¦áłŃ": 3484,
      "Ġáł¨áł¥áł¬áł¥áł·": 3485,
      "Ġáł£áł¶áł¢áł¯áłłáłŃáłłáł¯áł²áłł": 3486,
      "Ġáłªáł¢áł´áł¢áł¬áł¦": 3487,
      "Ġáł¡áł¦": 3488,
      "Ġáł¦áł¶áł¯áł¡áł³áł¦áł¯": 3489,
      "Ġáł¶áł¢áł°": 3490,
      "Ġáł´áł¢áł¯áł¥áłŃ": 3491,
      "ĠáłŃáł¤áł¯áłŃ": 3492,
      "Ġáłªáł¤áł·áł¬áłłáł¨": 3493,
      "Ġáł£áł·áł£áłŃáł¤áł¯áł¤áł¨": 3494,
      "ĠáłŃáł£áł¸áł¯áł": 3495,
      "Ġáł¥áłª": 3496,
      "Ġáł¬áł¤áł¨áł³áłłáłŃ": 3497,
      "Ġáł¡áłŃáł¦áł°áł¬áł¦": 3498,
      "Ġáł¥áł·áł¯áł¥áłŃáł¡": 3499,
      "ĠáłŃáł£áł®": 3500,
      "áł¥áłŃáł¡áł¯": 3501,
      "Ġáł¬áł¦áł´áł¦áł³áł¡áł¯": 3502,
      "Ġáł¬áł¦áł¢áł²áł¡áł¨": 3503,
      "ĠáłŃáł¤áł¸áłłáł¨": 3504,
      "Ġáł¢áł®áłłáłŃáł²áłł": 3505,
      "Ġáł¬áł¡áł·áł¡áłŃáł°áł¡áł¬áł¦": 3506,
      "Ġáłµáł¤áłŃáłłáł´áłłáł¯": 3507,
      "Ġáł¡áł·áł³áł¡áł¨áł¢": 3508,
      "Ġáłªáłłáł¶áł¢áł´áłłáłŃáłłáłµáł¤": 3509,
      "Ġáł³áłłáłªáł²áłłáł¨": 3510,
      "Ġáł¬áłłáł¯áł³áłłáłªáł¤áł·": 3511,
      "Ġáł¥áł¨áł´áł¥áłŃ": 3512,
      "Ġáł°áłłáłŃáł°áł¤áł¨": 3513,
      "Ġáł¦áł¢áł¯áł¡áł³áłªáł¦áł·áł¢áł¯áł¡áł¬áł¦": 3514,
      "áł´áł¢áł¬áł¦": 3515,
      "Ġáł°áł¢áłªáł²": 3516,
      "Ġáłµáłłáł¯áłłáłŃáł¤áł´áł¤áł³": 3517,
      "áł¢áłŃáł°áł¡áł¨": 3518,
      "Ġáł¬áł¥áł¯áł¥": 3519,
      "Ġáł¡áł·áł¢áł¬áł¦": 3520,
      "Ġáłłáłµáłł": 3521,
      "Ġáł¢áł¯áłŃáłłáł¨": 3522,
      "Ġáł¦áł¨áł¡áł²áł¦": 3523,
      "áł¡áł³áł¡": 3524,
      "Ġáłªáł£áł¯áłªáłł": 3525,
      "áłłáłŃáłłáł¶áł¢áł¯áłłáł¨": 3526,
      "áłµáł¢áłŃáł¤áł¯áł¬áł¤": 3527,
      "Ġáłªáłłáł·áł¢áł®áł²áłłáł¯áłłáłµáł¤": 3528,
      "ĠáłªáłłáłŃáłłáł°áł¬áłłáł¬áł¤": 3529,
      "Ġáł±áłłáł°áł¢áł¨": 3530,
      "Ġáł¨áłłáł°áł¢": 3531,
      "ac": 3532,
      "áłłáł¯áł¢áł©": 3533,
      "Ġáł®áłłáł©áł¯": 3534,
      "ĠáłłáłŃáł¤áł¯áł¤áłŃáł³": 3535,
      "Ġáł¨áł¡áłŃáł¡áł¯áł¡áł¬áł¡áł¶": 3536,
      "Ġáł³áłłáłªáłłáłµáł¤": 3537,
      "Ġáł¨áł¡áł®áł¡áłŃáł³áł¡áłŃáł¦áł¯áł¬áł¦": 3538,
      "Ġáłłáł©áł¬áłłáł·áł´áł¤": 3539,
      "Ġáł¤áł·áłŃáł¤áł®áłłáł¯": 3540,
      "áł¸áł¦": 3541,
      "Ġáł¢áł²áł¡áłŃáł¡áł®áłµáł¢": 3542,
      "Ġáł¨áł¢áłŃáł²": 3543,
      "Ġáł¡áł²áł¡áłŃáł¡áł·": 3544,
      "Ġáłłáłªáł´áł¢áł·áłłáłµáł¤": 3545,
      "Ġáł´áł¢áłŃáł¢áłŃ": 3546,
      "Ġáł´áł¤áłŃáł¯áłłáłŃáł¤áł¯áł¬áł¤": 3547,
      "áł¡áłŃáł¦áł¯áł³áł¡áłŃ": 3548,
      "Ġáł°áłłáł¯áłªáł¤áł·áł¢": 3549,
      "Ġáł²áłłáł¨áł¢áł¯áł´áłłáłŃáł¤áł¯áłŃ": 3550,
      "Ġáł¬áłłáł·áł¢áł´áłłáłŃáł¤áł¯áłªáłłáł¯": 3551,
      "áł¢áłªáłłáł¯": 3552,
      "Ġ21": 3553,
      "ĠáłªáłłáłŃáł¤áł·áłłáłŃáł¤áł¯áł¬áł¤": 3554,
      "Ġáłµáł¦áł¢": 3555,
      "ĠJ": 3556,
      "Ġáł¬áł¦áł·áłŃáł¡áłµáł¦": 3557,
      "Ġáłªáłłáł¶áł¢áł¯": 3558,
      "áł³áł¦áł¨áł¢": 3559,
      "Ġáł´áłłáłŃáłłáł°áł¤áł¨": 3560,
      "Ġáł¦áłµáł¡áłŃáł°áł¡áł¨": 3561,
      "Ġáł´áłłáł¯áł¢áł©": 3562,
      "ĠáłŃáł¤áł¸áłłáł©áłµáł§áł¦": 3563,
      "Ġáł¨áł¡áłª": 3564,
      "Ġáł²áł¤áł·áł°áł¢": 3565,
      "Ġáł²áł¥áł¯áł¥áłªáł¯áł¡áł¬áł¦": 3566,
      "Ġáł²áłłáł¯áłłáł·": 3567,
      "Ġáł¬áłłáł·áł¢áł¯áł´áłłáł¬áł¤": 3568,
      "Ġáł°áł¢áł¤áł¢": 3569,
      "Ġáł£áł¨áł£áł°": 3570,
      "Ġáł¦áł¨áł³áł¦áł°áł¦": 3571,
      "Ġáł¤áł¬áł¢áł¶áłłáł¬áł¤": 3572,
      "¸áłłáł¨": 3573,
      "Ġáł¬áł£áł¶áł¢áł²áł¤": 3574,
      "ĠáłŃáł¤áł¶áł¤áł´áł¢áł¯áłłáł¯": 3575,
      "ĠáłŃáł£áł¶áł£": 3576,
      "Ġáł²áł¡áłŃáł¤": 3577,
      "Ġáłªáłłáł¶áł¬áł¤": 3578,
      "Ġáł²áł¤áł©áłŃ": 3579,
      "Ġáł¢áł¯áł²": 3580,
      "§áł²": 3581,
      "Ġáłªáłłáł·áł¢áł¬áł¤": 3582,
      "áł¤áłŃáł¤áł¯áł¤áłŃáł°áłłáł¨": 3583,
      "Ġáł³áłłáł·áł¤áł®": 3584,
      "Ġáłªáł£áł¯áł´áł¢áł¬áłłáł¨": 3585,
      "Ġáł¨áł¡áł¶áł¢áł³": 3586,
      "Ġáł®áł¡áł³áł¡áłµáł¦": 3587,
      "ĠáłŃáł£áł¸áł¯áł³áłłáłŃáł¤": 3588,
      "Ġáł´áłłáłªáłłáł¤": 3589,
      "Ġáł¤áł¬áłłáł®áł°áłłáł·": 3590,
      "Ġáłłáł¶áł¤áł¯áłŃáł¦áł¶": 3591,
      "Ġáł£áł¶áł¤áł¨áł´áł¢": 3592,
      "Ġáł¡áłªáł¯áł¡áł¯": 3593,
      "°áł¢áłŃ": 3594,
      "Ġáł¤áł®áłłáł·áłłáł²áł¤": 3595,
      "Ġáł¬áł¡áł¶": 3596,
      "Ġáł°áł¢áł¢áł³": 3597,
      "Ġáł³áłłáł¯áł³áłł": 3598,
      "Ġï¹": 3599,
      "Ġáł®áłłáł¯": 3600,
      "Ġáł¨áł¡áł®áł¡áłŃáł³áł¡áłµáł¦": 3601,
      "Ġáł¡áł·áł¡áł®áł¡áł¯áłµáł¡áł¯": 3602,
      "áł¡áł³áł¬áł¡áł¨": 3603,
      "Ġáł¯áłłáł¨": 3604,
      "Ġáł°áł£áł¨áł¢áł·áł¬áłłáł¯": 3605,
      "Ġáł¤áł³áł¤áł·áł¢áł³áł¤áł¯áłŃ": 3606,
      "áł¢áł³áł¡": 3607,
      "Ġáł³áł¤áł¨áł¤áłŃ": 3608,
      "Ġáł«áłłáł¶áł¢áł": 3609,
      "áł¦áł©áł¨": 3610,
      "Ġáł¢áł¯áł¡áł·áł¬áł¡áł¶": 3611,
      "áł¡áł·áł¡áł¯": 3612,
      "áł³áł¡áłŃáł°áł¡áł¨": 3613,
      "Ġáł¬áłłáł¢": 3614,
      "Ġáł¤áł©áł°áł¢áł¬áł¤": 3615,
      "Ġ40": 3616,
      "Ġáł°áł¤áł·áł¤áł¯áł´áłłáł¯áłŃ": 3617,
      "Ġáł¬áł¦áł¯áł¢áł¶áł¡áł¬áł¦": 3618,
      "Ġáł°áł¢áł¶áł³áłªáł¦áł·áł¢áł²áł¦": 3619,
      "Ġáł²áł£áłŃáł²áłłáłŃáłłáł¯áł²áłł": 3620,
      "Ġáł³áłłáł·áł¤áł®áłłáł¯áł¯": 3621,
      "Ġáł¶áł¢áł©": 3622,
      "Ġáł¨áł¢áł³áł¤áł¨": 3623,
      "Ġáł°áł¤áł³áł¤áł¯áł¬áł¤": 3624,
      "Ġáł¬áł£áł¶áłłáłŃáł¤áł¯áłł": 3625,
      "Ġáł°áł¤áł¯áłł": 3626,
      "Ġáłłáł®áł¢áł²áłłáł¨": 3627,
      "Ġáł¨áł¡áł®áł¡áł·": 3628,
      "Ġáł¬áłłáł·áł¢áłŃáł¤áł´áłłáł¯áłŃáłłáł²áłłáł¨": 3629,
      "áł¤áł·áłŃáł¤": 3630,
      "Ġáł°áł¢áł¢áł³áłªáł¦áł·": 3631,
      "áłłáł¯áł²áłłáł¶": 3632,
      "áł¡áł²áł¡áł¨": 3633,
      "Ġáł²áłłáł¶áł¢áł¯áł¤áł¨": 3634,
      "Ġáłªáł¥áłŃáł¡áłŃáł¡áł¨": 3635,
      "ĠáłªáłłáłŃáł²áłłáłŃáłłáłŃáł°áłłáł¨": 3636,
      "Ġáłłáł´áł¢": 3637,
      "Ġáłªáł£áł¯áłŃáłłáł³áłłáłŃ": 3638,
      "Ġáł°áł¢áł¶áł¦": 3639,
      "Ġáłªáł¦áł²áł¦áłŃáł¡áł¬áł¦": 3640,
      "Ġáł²áł¦áł¯áł¬": 3641,
      "Ġáł´áł¢áł³áł¬": 3642,
      "áł¡áł´áł¢áł¯áł¡áł¨": 3643,
      "Ġáłµáłłáł·áł´áł¢áł®": 3644,
      "Ġáłªáł£áł¢": 3645,
      "Ġáł³áł¡áł©": 3646,
      "Ġáł«áłłáł¶áł¢áł°áłł": 3647,
      "Ġáł¬áł¦áł´áł¢áł¯áł²": 3648,
      "áł³áłłáłµáł¤": 3649,
      "Ġ2018": 3650,
      "Ġáł¬áłłáł·áł¢áł´áłłáł©áłŃáł¤áł¶": 3651,
      "áł¡áł´áł¡áł¯áł³": 3652,
      "Ġáł¨áł¢áł®áłª": 3653,
      "Ġáł¬áł£áł¬áł¢áł·áłłáł¯": 3654,
      "Ġáł£áł¨áł´áłłáłŃáłłáł¶áł¢áł¯áłłáł¨": 3655,
      "áłŃáł¢áł¯": 3656,
      "áł¢áłªáł£áł·áł¢": 3657,
      "Ġáł¬áł£áł¨áłµáł¢áłªáł£áł·áł¢": 3658,
      "Ġáł¬áł£áłµáł¢áł®": 3659,
      "Ġáł¬áł¥áłŃáł¡áłŃáł¡áł´áł¡áł¯áł³": 3660,
      "ĠáłªáłłáłŃáł²áłłáłŃ": 3661,
      "Ġáłªáł£áł¯áł³áłłáłŃ": 3662,
      "Ġáłªáł¢áł¯áł§áł²": 3663,
      "Ġáł°áł¢áł¦": 3664,
      "áłłáł°áłłáł·": 3665,
      "Ġáł²áł¥áł·áł¥áł¯áł¬áł¢áł²áł¡áł¨": 3666,
      "Ġáł²áłłáł®áł¢áł·áł´áł¢áł¨": 3667,
      "³áłł": 3668,
      "Ġáłłáł¶áłłáł¨áł³áłłáłŃáłłáł¨": 3669,
      "Ġáł¢áł¯áł¡áł·áł¡áłŃáł¦áł¯áłµáł¦": 3670,
      "Ġáł²áłłáł·áł¢áł¶": 3671,
      "Ġáł¶áłłáłŃáłłáł¬áł¢áłµáł¤": 3672,
      "Ġáł¬áł¦áł·áł¦áł¨": 3673,
      "Ġáł°áł¤áł·áł¬áł¤": 3674,
      "ï¸µ": 3675,
      "áł¦áłł": 3676,
      "Ġáł°áł¢áł¶áł³áłªáł¦áł·áł¢áł¯": 3677,
      "Ġáł´áł¢áł¯áłłáłŃáł¤": 3678,
      "Ġáł®áłłáł¨áł³": 3679,
      "Ġï¸ķ": 3680,
      "áł¢áł²áł¡áł¢": 3681,
      "Ġáł¨áł¡áł¶áł¢áł´áł¡áł¬áł¦": 3682,
      "Ġáłµáł¦áłŃ": 3683,
      "áł²áł£áłŃ": 3684,
      "Ġáł¬áł¦áł´áł¢áł¯áł²áł¥": 3685,
      "Ġáł£áł®": 3686,
      "Ġáłłáł®áłłáł°áłłáł·": 3687,
      "Ħĥ": 3688,
      "Ġáłªáł¥áł¸áł§": 3689,
      "Ġáł¬áł£áł·áł£áł¬áłłáł¶": 3690,
      "Ġáłªáł£áł¯áłªáłłáł°áł¤áł·áłłáłŃáł¤áł¯áł¤áł¯": 3691,
      "áł¢áł®áłłáłŃ": 3692,
      "Ġáł³áłłáłŃáłłáłµáł¤": 3693,
      "Ġáł³áłłáłŃáł¤áł¸": 3694,
      "Ġáłłáł°áł¢áłŃáł²áłłáł¶": 3695,
      "áłłáł²áłłáł¢": 3696,
      "Ġáł¤áł¢áł¢áł·": 3697,
      "Ġáł¦áł³": 3698,
      "âĦĥ": 3699,
      "Ġc": 3700,
      "Ġáłµáł¥áłªáł°áł¢áł¶áł¡áł·áł¡áł¬áł¦": 3701,
      "Ġáł¨áł¢áł©": 3702,
      "Ġáł³áłłáł©áł°áłłáł¯áłłáłŃáł¤áł¯áł¤áłŃáł°áłłáł¨": 3703,
      "Ġáł¶áłłáł·áł¢áł¯áł´áłłáł¬áł¤": 3704,
      "Ġáł¨áł¥áł¬áł¥áłªáł¥áł·áł¢": 3705,
      "ĠáłŃáłłáł³áłłáłŃáł°áł¢áł¯áłłáłŃáł¤áł¯áł¬áł¤": 3706,
      "Ġáł°áł¡áł¯áłªáł¢áłŃ": 3707,
      "áłłáł¶áł¢áł°": 3708,
      "Ġáł²áłłáł¶áł¢áł¸áłłáł¨": 3709,
      "Ġáł¬áł¤áł·áł´áłł": 3710,
      "Ġáł²áł¦áł·áł¦áłŃáł¦áł¦": 3711,
      "áłłáł®áł§áł²": 3712,
      "re": 3713,
      "Ġáł¤áł¶áłłáł¯áł³áł¤áłŃáł¤áł¯áł¤áł¨": 3714,
      "Ġáł¬áł£áł°áł¢áłŃ": 3715,
      "Ġáł¬áł¤áłªáł¢áł¶áłłáł¯áł´": 3716,
      "Ġáł²áł¤áł°áłłáł¯": 3717,
      "Ġáł®áł¥áł·áłŃ": 3718,
      "Ġáł¨áł¡áłªáł²áł¡áł·áł¡áłŃ": 3719,
      "Ġáłłáł°áł¢áłŃáł¯áłłáł¬áł¤": 3720,
      "Ġáł³áł¡áł®áł¡áł¶": 3721,
      "Ġáłµáłłáłªáł°áłłáł·": 3722,
      "Ġáł¡áł©áł¨": 3723,
      "Ġáł¡áł¨áł¡áł¬áł¦": 3724,
      "Ġáł°áł¦áłªáł¡áłŃ": 3725,
      "Ġáł®áł¡áł³áł¡áłŃáł°áł¡áł¨": 3726,
      "áł´áł¤áł¸áłłáł¨": 3727,
      "Ġáł¶áłłáł¯": 3728,
      "Ġáł¶áł¦áł©": 3729,
      "Ġáł¹áłłáł©": 3730,
      "Ġáłµáł¤áł¨": 3731,
      "áł¡áł¶áł¢áł°": 3732,
      "Ġáł¤áł¬áłłáłŃáł¤áł¯áłŃ": 3733,
      "Ġáł¬áł£áł¯áłł": 3734,
      "Ġáłłáł·áłªáł¢áł¯áłłáł¬áł¤": 3735,
      "Ġáł¬áł¥áł¯áł³": 3736,
      "áł¬áł¤áł¸áłł": 3737,
      "Ġáł±áł¦áłµáł¢": 3738,
      "ĠáłªáłłáłŃáłłáł¨": 3739,
      "ÃĹ": 3740,
      "Ġáł¢áł·áł¡áłµáł¦": 3741,
      "áłłáł³áłłáł¬áł¢": 3742,
      "Ġáł¬áł¥áłŃáł¥áł·áłŃáł¡": 3743,
      "áł¦áłŃáł¦áł¯áł¬áł¦": 3744,
      "Ġáł¡áł®áł¦áł°": 3745,
      "Ġáłªáłłáł¶áł¢áł©áłŃ": 3746,
      "Ġáł¬áłłáłªáł²": 3747,
      "ĠáłŃáłłáł·áłłáł®": 3748,
      "Ġáłµáł¢áłŃáł°áłłáłŃáłłáł¯áł²áłł": 3749,
      "Ġáł²áł¢áł²": 3750,
      "Ġáł²áłłáł¨áł¢áł¬áł¤": 3751,
      "Ġáł¬áłłáł©áłŃáłłáł¨": 3752,
      "Ġáł¬áłłáł¯áł¬": 3753,
      "Ġáłµáł§áł¨": 3754,
      "áł£áł´áł¢": 3755,
      "Ġáłµáł§áł¦": 3756,
      "Ġáł³áł¡áł¶áł¢áł¯": 3757,
      "Ġ22": 3758,
      "Ġáł£áł¯áłŃáł£áł¬áł¤": 3759,
      "Ġáł¨áł¢áł³áł¤áł¨áł¤áł¨": 3760,
      "ĠáłłáłŃáł¤áł°áł¤áł¯áł´": 3761,
      "áł¯áł¦": 3762,
      "ĠáłŃáł¡áł·áł¡áł¯áł²": 3763,
      "áł¢áł³áłłáł¯": 3764,
      "Ġáł¥áł·áł¥áłŃáł¡áł¨": 3765,
      "Ġáł°áł£áł¯áł¢áł¯áł´áłłáłŃ": 3766,
      "Ġáł¤áł²": 3767,
      "áł¢áłŃáł¦áł¯": 3768,
      "Ġáł¨áł¡áłªáł²áł¡áł·áł¡áłŃáł¦áł¯áłŃáł¡": 3769,
      "Ġáł´áł¢áł·áłłáł¶": 3770,
      "áł¤áłŃáłłáł¶": 3771,
      "Ġáł¹áł·": 3772,
      "Ġáł¬áłłáł²áłłáłŃ": 3773,
      "Ġáł³áł¡áłŃáł¦áł¦": 3774,
      "Ġáł°áł¡áłŃáł¦áł¯áł¡áł·": 3775,
      "Ġáł¬áłłáł®áł²áł¤áł·áłłáł¯áł´áłłáłŃáłłáł¨": 3776,
      "Ġáł¡áł®áł¡áłŃ": 3777,
      "Ġáł¬áł¡áł¯áłª": 3778,
      "Ġáł®áł¥áł·áł¡áł¨": 3779,
      "Ġáł¡áłµáł¡áł©áł¨áł¡áł¨": 3780,
      "Ġáłªáł¦áł²áł¦áł¨": 3781,
      "áł¡áł¶áł¢áł´áł¦áł³": 3782,
      "áł¡áłŃáł¦áł¯áłªáł¡": 3783,
      "ĠáłŃáł¡áł·áł¡áł´áł¢": 3784,
      "Ġáłªáł¤áł³áł¤áł¯áł¢áł¶áłłáł¨áł²áłłáł¶": 3785,
      "Ġáł¨áł¡áł¶áł¢áł³áł¡áł®": 3786,
      "Ġáł¢áł¯áł¢áł³áł¦": 3787,
      "Ġáł³áłłáłŃáł¤áł¯": 3788,
      "áł²áł¡áł¶áł¢áł´áł¦áł³": 3789,
      "Ġáł³áłłáłŃáłłáłŃáł¤áł¯áł¤áł¨": 3790,
      "Ġáłµáł¥áł·áł¢áł´áł¡áłŃáł°áł¡áł¨": 3791,
      "Ġáł³áłłáłŃáłłáł·áł¢áł¯áł²áłł": 3792,
      "áł´áłłáł¶": 3793,
      "Ġáł²áłłáł©áłŃ": 3794,
      "áł¢áł³áłłáłŃ": 3795,
      "Ġáłªáł¤áł´áłłáłµáł¤": 3796,
      "Ġáł¶áłłáłªáł¤áłµáł¤": 3797,
      "Ġáł±áłłáł¨áł³áł¦": 3798,
      "Ġáłªáłłáł³áłłáł·áłłáłŃáł¤áł¯áłµáł¤": 3799,
      "Ġáłµáł£áł¬áł¢áł¨": 3800,
      "Ġáł°áłłáłŃáł¤áł³áłłáł¯": 3801,
      "Ġáł¬áł£áł¯áłªáł£áłŃáł³áłłáł¬áł¤": 3802,
      "Ġáł³áł¡áłŃáł¡áłŃáł°áł¢áł¬áł¢": 3803,
      "áłłáł·áłłáłŃáł°áłłáł¨": 3804,
      "Ġáł¨áł¡áłŃáł¦áł·áł¡áł°áł¦áł¨": 3805,
      "áł¡áł¯áł¡áł¯": 3806,
      "Ġâĳ": 3807,
      "ĠáłŃáł·": 3808,
      "Ġáł¨áł¡áł¶áł¢áł¯áł¡áł®áł¡áł¯": 3809,
      "áł¡áł¯áłªáł¡áł·": 3810,
      "Ġáł¥áłŃáł¡áł·áł¡áł´áł¢áł¯áł¡áł¬áł¦": 3811,
      "Ġáł£áł·áł£áłŃáł¤áł¯áł¤áłŃáł´áł¢": 3812,
      "Ġáł°áł¤áł·áłłáłŃ": 3813,
      "áłłáłŃáłłáł·áłłáł¶": 3814,
      "áł¤áłªáłł": 3815,
      "Ġáł¬áł¤áł¸áłłáł·": 3816,
      "Ġáł´áł¢áł·áł®áłłáł¶áł¢áł¨": 3817,
      "ł¯áł²áł¡": 3818,
      "áł¯áł²áł¡": 3819,
      "Ġáł³áł£áł¯": 3820,
      "Ġáł¡áłªáł³": 3821,
      "Ġáł¬áł£áłª": 3822,
      "Ġáł°áł¡áłµáł¢áłŃ": 3823,
      "Ġáł¨áł¡áłªáł²áł¡áł·áł¡áłŃáł¦áł¯áł¬áł¦": 3824,
      "Ġáłµáłłáł·áł¯áł¢áłŃ": 3825,
      "Ġáłªáłłáł¶áł¢áłŃáł¤áł¯áł¤áł¨": 3826,
      "áł¡áł·áłŃáł¦": 3827,
      "Ġáłªáł£áł³áł£áł¯áł¬áł¢áł¯áłłáł¬áł¤": 3828,
      "Ġáłµáł¡áłŃáł¦áł³áł¦": 3829,
      "Ġáł¡áł¯áłŃ": 3830,
      "Ġáł¤áł¸áł¯": 3831,
      "Ġáł¬áł£áł·áł£áłŃáł³áłłáł¯": 3832,
      "áł´áł¢áł¯áłłáłŃáł°áłłáł¨": 3833,
      "áłĤï¸½": 3834,
      "Ġáł£áł¨áł³": 3835,
      "áł°áł¢áł¶áłłáł¨": 3836,
      "áł¢áł·áł¦": 3837,
      "ĠáłŃáłłáłŃáł´": 3838,
      "Ġáłªáł¤áł¯áł´": 3839,
      "Ġáł¶áłłáł³áłłáłŃ": 3840,
      "Ġáł¬áł¦áł·áł³": 3841,
      "Ġáłµáł¢áłªáł¡áł·áł¡áł¬áł¦": 3842,
      "áł¤áł´áł¢áł¯áłłáł¬áł¤": 3843,
      "Ġáł±áłłáłŃ": 3844,
      "Ġáł¨áł¡áł·áł¡áł¶áł¢áł³": 3845,
      "Ġáł¯áł¢áł¶áłłáł©": 3846,
      "Ġáł°áł¢áł©áłŃáł¡áłŃáł¡áł¯áł²áł¡": 3847,
      "Ġáł¬áłłáłŃáł¤áł·áł®áłłáłŃ": 3848,
      "Ġáłªáł£áł·áł£": 3849,
      "Ġáłµáł¦áł¶áł¯áł¡áł°": 3850,
      "Ġáł²áł£áłŃáł²áłłáłŃ": 3851,
      "Ġáł¬áłłáł·áłłáłŃáł¤áł¯áłµáł¤": 3852,
      "Ġáł¥áł¯áł¥": 3853,
      "Ġáł¢áł¯áł²áłłáł°áł¤": 3854,
      "Ġáł¡áł¬áł¢áł¯áł¡áłµáł¦": 3855,
      "áłłáłŃáł³áłłáł³áłłáłŃ": 3856,
      "Ġáł¡áłŃáł¦áł°áł¦áłŃáł°áł¡áł¨": 3857,
      "Ġáł®áłłáł·áłŃ": 3858,
      "áłłáł°áłł": 3859,
      "áł¡áłŃáł¡áł¬áł¦": 3860,
      "Ġáł²áł¤áł¯áłŃáłłáłŃáł¤áł·": 3861,
      "Ġáł¦áł¨áł¡áł¯áł¡áł¨": 3862,
      "Ġáł´áł¢áł¨áł°áłłáłŃ": 3863,
      "Ġáł¡áł®áł¬áł¢": 3864,
      "áł¬áłłáł¶áł¢áł¯áłłáł¨": 3865,
      "Ġ23": 3866,
      "áł¢áł¯áł¬": 3867,
      "áł´áł¢áł©": 3868,
      "áł³áłłáł·": 3869,
      "áł¢áłŃáł¤": 3870,
      "Ġáł¦áłµáł¡áłŃáł´áł¢áł³": 3871,
      "Ġáł¶áł£áł°áł£áł²": 3872,
      "Ġáłµáł¢áł°": 3873,
      "Ġáłªáł¦áł·áł¬áł¦áłŃáł¦áł¯": 3874,
      "Ġáł²áł¤áł°áł¬áłłáł¶áł¢áł¯áłłáł¨": 3875,
      "Ġáł°áłłáł¯áłµáł¤": 3876,
      "Ġáł³áł¡áł¯áł¡áł¬áł¡áł¢": 3877,
      "Ġáłªáłłáł¶áł¢áł©áłŃáł¤": 3878,
      "áł¡áłŃáł¦áł¯áł¦áł¯": 3879,
      "Ġáłµáł¢áł·áłŃáłłáł¯": 3880,
      "Ġáłłáł·áłŃáłłáł´áłłáł¬áł¤": 3881,
      "Ġáł®áł¡áł°": 3882,
      "Ġáł¬áłłáł³áłłáłŃáłłáł¯áłłáłµáł¤": 3883,
      "Ġáł¢áł©áłŃáł¢áłµáł¦": 3884,
      "Ġáł³áł¡áł¯áłªáł¡áł·": 3885,
      "Ġáł¶áł£áł°áł£áł¨": 3886,
      "áł¬áłłáłŃáł°áłłáł¨": 3887,
      "Ġáł²áł¦áł°áł¢áłŃáł¯áł¡áł¨": 3888,
      "Ġáł¬áł¦áł´áł¦áł²": 3889,
      "Ġáł°áłłáł¨áłłáłŃáł¤áł¯áłŃ": 3890,
      "Ġáł´áł¢áł¶": 3891,
      "Ġáłµáłłáł°áłłáł®áłłáł¯": 3892,
      "Ġáłłáł®áł¤": 3893,
      "12": 3894,
      "Ġáłªáł¢áł²áł¡áłŃáł¦áł®áłµáł¢áł¯": 3895,
      "Ġáł²áł¡áłª": 3896,
      "Ġáł¤áł¨áł²áłłáł·áłłáłŃáłłáł¬áł¤": 3897,
      "Ġáł¢áł¨áł¢áł¶": 3898,
      "Ġáł®áłłáł·áł²": 3899,
      "Ġáłªáłłáł¶áł¢áłŃáł¤áł¯áłŃ": 3900,
      "ĠáłŃáł¡áł®áł²áł¦áł¯": 3901,
      "Ġáłµáł¢áł¯áł£áłŃáł£áł´áł¢": 3902,
      "Ġáłµáłłáł¬áł¢áł³áłłáł¯": 3903,
      "Ġáł¶áłłáłªáł¤áłŃáł³": 3904,
      "Ġáł¢áł·áłłáłŃáł¤": 3905,
      "Ġáł¬áłłáł·áł¢áł¯áł´áłłáłŃ": 3906,
      "Ġáł¡áłªáł¬": 3907,
      "Ġáł²áł£áł¨áł£áłŃáł¯áłłáł¯": 3908,
      "áł®áł¦": 3909,
      "Ġáł²áł¡áł©áł´áł¡áłŃáł¦áł·": 3910,
      "Ġáłłáł´áł¢áł¶áłłáł¯": 3911,
      "Ġáł°áłłáł¶áł¢áłµáł¢áł·áłłáłŃáł¤áł¯áł¬áł¤": 3912,
      "Ġáł´áł¢áł®áł¡áłŃáł¡": 3913,
      "Ġáł¢áł¨áłłáłŃ": 3914,
      "Ġáłµáłłáł·áł¤áł´": 3915,
      "ï¼īáłĤ": 3916,
      "Ġáł¤áł¬áł¢áł¶": 3917,
      "Ġáł²áł¤áłŃ": 3918,
      "Ġáł³áłłáł¯áłłáł¶": 3919,
      "ĠáłŃáł£áł¸áł¯áł¯": 3920,
      "Ġ2017": 3921,
      "Ġáł¥áłªáł¡áł·áł²áł¡áłŃáł¡áł¨": 3922,
      "Ġáłłáł¨áłŃ": 3923,
      "am": 3924,
      "Ġáł´áł¢áłŃáł¯áł¡áłŃáł¦áł¯áł¦áł¨": 3925,
      "Ġáł±áłłáł²áł¤": 3926,
      "Ġáłłáłªáł¢áł¶": 3927,
      "áł²áł¡áł·": 3928,
      "Ġáł¡áł¬áł¢áł¯áł¡áł¯áł²áł¡": 3929,
      "Ġáł²áł¤áł©áłŃáłłáł¯áłłáłŃ": 3930,
      "áł¡áł¬áł¡áł¶": 3931,
      "áł¡áł¬áł¦áł¶": 3932,
      "Ġáł²áłłáł·áł¬áłłáłŃáłłáł¬áł¤": 3933,
      "Ġáłµáł¦áł©": 3934,
      "Ġáł¶áł¤áł¸áłłáł¢": 3935,
      "Ġáł¬áłłáłªáł²áłłáłŃáłłáł¶": 3936,
      "Ġáłªáłłáł¬áłłáł·": 3937,
      "Ġáł¬áł¦áł¯áł¢áł¶áł¡áłµáł¦": 3938,
      "Ġáł£áł·áłŃáł¢áł¯": 3939,
      "Ġáł¥áł©áłŃáł¡áł·áł¡áł¯áł²áł¡": 3940,
      "Ġáł¨áłłáł¶áł¢áł·áłłáłŃáł¤áł¯áł¤áłŃáł´áł¢": 3941,
      "°áłłáł¨": 3942,
      "Ġáł¶áłłáł·áł¢áł¬áł¤": 3943,
      "Ġáł²áł¥áł·": 3944,
      "ĠáłŃáł¦áł¶áł´áł¡áł³": 3945,
      "Ġáł³áł£áł¬": 3946,
      "Ġáł¬áł¦áł©áłŃáł¡áł¨": 3947,
      "Ġáł¶áłłáł³": 3948,
      "Ġáł¦áł¯áł¢áł¶": 3949,
      "Ġáł²áł¤áł·áł°áł¢áł¨": 3950,
      "Ġáł¬áł¥áł¨áł¥áłŃáł¡áł¯": 3951,
      "áł³áł¡áłŃáł¡": 3952,
      "Ġáł¡áł·áłŃáł¢áł¯áł³": 3953,
      "Ġáł¦áł¬": 3954,
      "as": 3955,
      "Ġáł®áł¡áł³áł¡áłŃáł³áł¡áł¯": 3956,
      "Ġ60": 3957,
      "Ġáł¢áł°áł¬": 3958,
      "Ġáł³áłłáł·áłłáłŃáłłáł¯áłłáł¯": 3959,
      "áł¤áł¯áł´áłłáłŃ": 3960,
      "Ġáł¶áł£áł°áł£áł²áłłáł¶": 3961,
      "áł¡áł¸": 3962,
      "Ġáłªáłłáł¶áł¢áł¯áłŃáłłáł¬áł¤": 3963,
      "Ġáł¬áł¤áł³áłłáł¯áł³áł¤áłŃ": 3964,
      "Ġáł¥áł©áłŃáł¡áł²áł¦": 3965,
      "ĠáłŃáł¤áł³": 3966,
      "Ġáł¶áłłáł³áłłáłŃáł¤": 3967,
      "Ġáłªáł¥áłŃáł¡áłŃáł¡áł¨áł¡áł·áł¡áł¯": 3968,
      "Ġáłµáł¤áłŃ": 3969,
      "Ġáł³áłłáł·áł¤áłµáł¤": 3970,
      "Ġáł¥áł³": 3971,
      "pp": 3972,
      "Ġáł¹áł¢áł½": 3973,
      "áł¡áł¯áł´áł¢": 3974,
      "Ġáłµáł§áłµáł¢áł¶áłłáł©": 3975,
      "Ġáł³áłłáłªáłłáłŃáł°áłłáł¨": 3976,
      "Ġáł¦áł°áł¦áł¨": 3977,
      "Ġáł°áł¡áł³áł¬áł¦áł¯": 3978,
      "Ġáł¨áłłáł®áł¤áł·": 3979,
      "Ġáł³áł¤áł·áłłáł¯áłłáł¯": 3980,
      "Ġáłªáł¢áł·": 3981,
      "áł¥áł¨": 3982,
      "Ġáłłáł°áł¢áłŃáł¯": 3983,
      "ĠáłŃáłłáł©áł¨": 3984,
      "áł¦áł¯áłµáł¡áł¶": 3985,
      "Ġáł²áł¥áł¯áł¥áłŃáł¡áł¯áł¡áłŃáł´áł¢": 3986,
      "Ġáł³áł£áł²áł£áł¨": 3987,
      "Ġáł¬áł¦áł¨áł³áł¦áł³": 3988,
      "Ġáłªáł¥áłµáł¢áłŃ": 3989,
      "áł¼áł¢": 3990,
      "Ġáł®áł¡áł°áł¡": 3991,
      "Ġáł³áł¥áłŃáł¥áł®áł¬áł¡áł¨": 3992,
      "Ġáł¹áł·áłłáł¨": 3993,
      "Ġáł²áłłáł¶áł¢áł°áłłáł¨": 3994,
      "Ġáł²áłłáł©áł°áłł": 3995,
      "Ġáł¡áł¬": 3996,
      "Ġáłµáł£áłŃáł°áł£áł¬áł¤": 3997,
      "áł³áł¤áł·": 3998,
      "Ġáł¤áł·áłª": 3999,
      "Ġáł¯áł£áł©": 4000,
      "Ġáł¤áł¯áł¡áłł": 4001,
      "ĠáłłáłŃáł¤áł¯áł¤áłŃáł³áłłáł´áłł": 4002,
      "Ġáł¯áłłáłªáł³": 4003,
      "Ġáł´áł£áł¯": 4004,
      "áł¢áłŃáł¦áł·": 4005,
      "Ġáł´áłłáł¬áł¢áłŃáł¤áł·": 4006,
      "ĠáłłáłŃáł¤áł³": 4007,
      "Ġáł³áł¤áł·áłłáł°": 4008,
      "áł¤áł¨áł¢": 4009,
      "Ġáłªáł¦áł·áł¢áł³áł¬áł¡áł¯": 4010,
      "áłłáł´áł¤áł³": 4011,
      "Ġ28": 4012,
      "Ġáł´áłłáłŃáłłáł°áł¤": 4013,
      "om": 4014,
      "ãĢĬ": 4015,
      "Ġáł²áłłáłŃáłłáł¯": 4016,
      "áłłáł¯áł³áł¤áłŃáłłáł¨": 4017,
      "áłłáł³áłłáłŃáł´áł¢": 4018,
      "Ġáł³áł¦áł·áł°": 4019,
      "Ġáł¸áłłáłŃáłłáł·": 4020,
      "Ġáł°áł¢áł·áłŃ": 4021,
      "Ġáł´áł¡áłªáł¡áł·áł¯áł¡áł¬áł¦": 4022,
      "Ġáł¬áł¤áł¨áł³áłłáłŃáłłáł²áł¤": 4023,
      "Ġáłłáłªáł¤áłŃáłłáł³": 4024,
      "Ġáłµáłłáł¬áł¢áł·áł¤áł¯": 4025,
      "Ġáł¬áłłáł®áł¢áłŃ": 4026,
      "Ġáłµáł¢áłŃáłłáł°áł¤": 4027,
      "Ġáł¨áł£áłª": 4028,
      "30": 4029,
      "Ġáł°áł¢áł·áłª": 4030,
      "Ġáłªáł¦áł²áł¦áłŃáł¡áł¯áł´áł¢": 4031,
      "Ġáł·áłłáł³": 4032,
      "Ġáł¨áł¡áłŃáł¦áł·áł¡áł°áł¦": 4033,
      "áł¤áł¤áł·": 4034,
      "Ġáł¡áłµáł¡áł¯áł¡áł¬áł¦": 4035,
      "áł²áłłáł·áłŃ": 4036,
      "is": 4037,
      "ĠáłªáłłáłŃáłłáł°áł¬áłłáłµáł¤": 4038,
      "Ġáł£áł·áł£áł¯áłłáł¨": 4039,
      "Ġáł³áłłáłŃáłłáłŃáłłáł¬áł¤": 4040,
      "Ġáł¬áł¥áł¨áł³áł¡áł¶": 4041,
      "áłłáł·áł¬áłłáł¶": 4042,
      "Ġáł¡áłŃáł¡áł¯": 4043,
      "Ġáł¥áł®áł´áł¢áł¯áł¡áł¯": 4044,
      "Ġáł´áł¥": 4045,
      "áł¦áł©áłŃáł¦áł¶": 4046,
      "Ġáł¬áł¡áł·áł¡áłŃáł¯áł¡áłŃáł¡": 4047,
      "Ġáłªáł¤áłµ": 4048,
      "Ġáł²áł£áłªáł´áł¢áł¯áłłáł¯": 4049,
      "áł£áł¯áł³": 4050,
      "Ġáł¡áłªáł¬áł¡áł®áł¡áł¯": 4051,
      "áłłáł·áłłáł¯": 4052,
      "Ġáł´áł¦áł©": 4053,
      "ãĢĭáłĤ": 4054,
      "Ġáł¬áł¡áł¯áł¡áł¯áłŃáł¡áł¨": 4055,
      "áł£áłµ": 4056,
      "Ġáł°áł¢áł¬áłłáł®": 4057,
      "Ġáłłáł®áł¢áł³áł¤áł¯áł¢áłŃ": 4058,
      "Ġáł³áł¡áłªáł°": 4059,
      "Ġáł°áł¢áłªáłłáł·": 4060,
      "ĠáłªáłłáłŃáł²áłłáłŃáłłáł®áłµáł¢": 4061,
      "Ġáł¬áł¡áł·áł¡áłŃáł¯áł¡áłªáł¡áł¯": 4062,
      "Ġáł£áł·áł´áł¢áłŃ": 4063,
      "Ġáł¦áł¯áł¦": 4064,
      "Ġáł¬áł¦áł·áł¦áł©": 4065,
      "Ġáł£áł¯áłŃáł£áłŃáł°áłłáł¨": 4066,
      "áłłáłªáłłáł·": 4067,
      "11": 4068,
      "Ġáł·áł¦áł¢": 4069,
      "áłłáł¯áł²áłłáł¨": 4070,
      "ĠX": 4071,
      "Ġáł°áł£áł¯áł¢áłµáł¤": 4072,
      "Ġáł¨áł¢áł®áłªáłłáł¶": 4073,
      "Ġáłłáł©áł¬áłłáł³áłłáłŃáł´áł¢": 4074,
      "Ġáł£áłŃáł²áłłáł·áłŃ": 4075,
      "áł¡áłªáł¦áł·áł¢áł¯áł¡áł¬áł¦": 4076,
      "Ġáł´áł£": 4077,
      "Ġáł¯áł¦áł¸áł§": 4078,
      "Ġáł¨áł£áłªáł°áł¢": 4079,
      "Ġáł¯áłłáłªáł³áłłáłŃáł¤áł¨": 4080,
      "ou": 4081,
      "60": 4082,
      "Ġáł²áłłáł¶áł¢áłªáł¤áł©": 4083,
      "ĠáłµáłłáłŃáłłáłŃ": 4084,
      "Ġáł¨áłłáł®áł²áłłáł·": 4085,
      "áłłáł¯áłłáł©": 4086,
      "Ġáł²áłłáłŃáł¤áł¨": 4087,
      "Ġáł²áł¡áł·áł¡áłŃ": 4088,
      "Ġáł³áłłáł®áłµáł¢áłŃáł¤áł¯áł¤áłŃáł´áł¢": 4089,
      "áłĭáłĤ": 4090,
      "Ġáłªáł¡áł¯áł¡áłŃ": 4091,
      "ion": 4092,
      "Ġáłªáłłáł¯áłŃáłłáł°áł¤": 4093,
      "Ġáłµáłłáłªáł°áł¢áł¶áłłáł¨": 4094,
      "ĠáłŃáł¦áł©": 4095,
      "Ġáłµáł¢áł·áł®": 4096,
      "áłłáłŃáł¤áł¯áł³áłłáłŃ": 4097,
      "Ġáł°áł¢áł¯áłµáł¢áł®áł¡áł¯": 4098,
      "Ġáł°áł£áł¨áł£áł°áł¬áł¤": 4099,
      "áł³áł¡áłŃáł¦áł¦": 4100,
      "Ġáłªáł¤áł¯áł¤áł©": 4101,
      "Ġáł®áłłáł©áł¯áłłáł¶": 4102,
      "ĠáłŃáłłáł·áł¤áł¢": 4103,
      "Ġáł²áłłáłªáłłáłŃ": 4104,
      "áłŃáł¨áł¢áłŃ": 4105,
      "Ġáł¬áł¡áł¯áł¡áł¯áł´áł¡áłŃáł¡áł·": 4106,
      "Ġáł¤áł·áł¢áłµáł¤": 4107,
      "Ġáł¤áł³áłłáł¯": 4108,
      "Ġáł¬áł¥áł¬": 4109,
      "áł¤áł±": 4110,
      "áł¢áł¯áł³áłł": 4111,
      "Ġáł°áł§áł´áł¤áł¸áłłáł¨": 4112,
      "Ġáł²áł§áłŃáł¨áł¢áłŃ": 4113,
      "ĠáłŃáłłáł®áł°áł¢áłŃ": 4114,
      "Ġáł¬áłłáł®áł²áł¤áł·áłłáł¯áł´áłłáłŃ": 4115,
      "Ġáł´áł£áł¯áłł": 4116,
      "Ġáł³áł¡áł®áłµáł¢áł¬áł¦": 4117,
      "Ġáłªáłłáł²áł¤áł¯áłłáł¨": 4118,
      "Ġáł¢áł¯áł¡áł·áł¡áłŃáł¦áł¯áł¬áł¦": 4119,
      "Ġáł¬áł¥áłŃáłµáł¢áłŃáł¦áł¯áł¦áł¯áł²áł¡": 4120,
      "áł¡áł°áł¢áł¯": 4121,
      "Ġáł¬áł¥áł°áł¢áłŃ": 4122,
      "Ġáł¶áłłáłŃáłłáł·": 4123,
      "Ġáł¡áłŃáł¦áł³áł¦áł¯áł²áł¡": 4124,
      "Ġáł¸áł¢áł·áł¦": 4125,
      "Ġáł²áł£áłŃáł¯áłłáłŃáł´áł¢": 4126,
      "Ġáł¡áłµáł¡áł®áł°áł¢áłŃ": 4127,
      "Ġáł³áłłáł¬áł¢áł¨áł²áłł": 4128,
      "Ġáłłáł·áłłáł´áł¢áł¯": 4129,
      "Ġáłªáł¢áł´áł¢áłµáł¦": 4130,
      "áł¢áł³áł¢áł£": 4131,
      "Ġáł°áłłáł´áł¤áł·": 4132,
      "Ġáł¬áł£áł¯áł¢áł®áłłáłŃ": 4133,
      "áł¡áłµáł¡áł¢": 4134,
      "áł¡áł°áł¢áł¨": 4135,
      "Ġáł²áł¤áł¨": 4136,
      "ing": 4137,
      "áł£áł·áł¢áł¶áłł": 4138,
      "áł¤áłªáłłáł·": 4139,
      "Ġáł£áł·áł£": 4140,
      "Ġáłªáłłáł¶áł¢áł·áł¢áł¯áłłáłŃáł¤áł¯áł¤áł¯áł²áłł": 4141,
      "ch": 4142,
      "Ġáłºáłłáł³": 4143,
      "ĠáłµáłłáłŃáł¤áł·": 4144,
      "áł°áł¥áł¯áł²áł¡": 4145,
      "Ġáłłáł®áł²áłłáł²áł¤": 4146,
      "Ġáł¥áł®áł¡áł¨": 4147,
      "Ġáł´áł¤áł¬áł¤áł®": 4148,
      "ĠÂ·": 4149,
      "Ġáł³áłłáł³áł¬áłłáł¯": 4150,
      "Ġáłłáłªáł¤áłŃáłłáł¶": 4151,
      "Ġáł®áł¥áł´áł¡": 4152,
      "Ġáł¥áł°áł¥áłŃ": 4153,
      "Ġáł°áłłáł¯áłłáłŃáłłáł¨": 4154,
      "il": 4155,
      "Ġáł¤áł¬áłłáłŃáłłáł¨áł´áł¢": 4156,
      "Ġáłªáł¡áł¯áłŃáł¡": 4157,
      "Ġáł¸áł¢áł³áł¢áł£": 4158,
      "Ġáł¡áłµáł¡áł®áł³áł¡áłµáł¦": 4159,
      "áłµáł¢áłŃáł¦áł¯áłµáł¦": 4160,
      "áł¬áł¡áł¬áł¦": 4161,
      "îī": 4162,
      "ĠáłŃáł¡áł·áł¡áł´áł¢áł¯áł¡áł¯": 4163,
      "Ġáłªáłłáł·áłłáłŃáł°áłłáł¨": 4164,
      "áł¤áł¯áłłáł¬áł¤": 4165,
      "Ġáł¬áłłáł®áł²áł¤áłªáłłáł·": 4166,
      "Ġáł¨áłłáł¢áł®áłłáł¨": 4167,
      "áł£áł©áłŃ": 4168,
      "Ġáł²áł£áł³áł£": 4169,
      "Ġáłµáł¢áłŃáłłáł°áł¤áł¨": 4170,
      "Ġáł²áłłáł¨áł¢áł¯áł´áłłáłŃáł¤áł¯áł¤áłŃáł°áłłáł¨": 4171,
      "Ġáł°áł£áł©áłŃáł£áł³áłłáłŃ": 4172,
      "Ġáł°áłłáł©": 4173,
      "Ġáł¤áł³áł¤áł·áł¢áł³áł¬áł¤": 4174,
      "Ġáłłáł¬áł¢áł´áłł": 4175,
      "Ġáł³áłłáłŃáłłáłŃáłłáłµáł¤": 4176,
      "Ġáłµáł¢áłŃáł³áł¡": 4177,
      "Ġáł²áłłáł©áłŃáł¢áł°": 4178,
      "Ġáł²áł¥áł¯áł¥áłªáł¦áł·áł¢": 4179,
      "Ġáłłáł¶áłłáł¨áł´áł¢áł³": 4180,
      "Ġáłºáł£áł·áł¢áł¶áłł": 4181,
      "Ġáł¥áł°áł¥áł¯áł²áł¡": 4182,
      "Ġáł°áł¢áł·áł¦áłŃáł¦áł¨": 4183,
      "Ġáł£áłŃáł²": 4184,
      "Ġáł¤áłŃáł¤áł²áłł": 4185,
      "áłłáł·áłłáłŃáł¤áł¯áł¤áł¨": 4186,
      "áłłáł·áłłáł¬áł¤": 4187,
      "Ġáł¬áł¦áł´áł¢áł·áł³áł¡áł¯": 4188,
      "Ġáł°áłłáł¨áłłáłŃáł¤áł¯": 4189,
      "Ġáł®áł¡áł³áł¡áłŃáł¡áł¯áł¡áł¯": 4190,
      "Ġáł²áł¦áł¯": 4191,
      "Ġáłªáłłáł¶áł¢áłŃáł¤áł¯áł¤áłŃáł³áłłáłŃáł°áłłáł¨": 4192,
      "Ġáł²áłłáł·áł¢áł¶áłłáł¨": 4193,
      "Ġáł°áł¡áł³áł¦áłªáł²áł¦": 4194,
      "Ġáł¨áł¡áł·áłª": 4195,
      "Ġáł¬áł¡áł·áł¡áłŃáł²áł¡áł¢": 4196,
      "áł¡áłŃáł¦áł¯áł¦áłŃáł´áł¢": 4197,
      "Ġáł¡áł·áł¡áłŃáł¦áł¯áłµ": 4198,
      "Ġáł°áł¢áł¯áłŃáłłáłŃáł¤áł¯áł¤áłŃáł´áł¢": 4199,
      "ĠáłŃáł¦áł¨áłµáł¡áłŃáł¡áł¶áł¢áł·": 4200,
      "Ġáł¬áł£áł·áł¢áł¢": 4201,
      "Ġáłµáłłáł¯áłŃáłłáłŃáłłáł³": 4202,
      "Ġáł±áłłáł¯": 4203,
      "Ġáł°áł¤áł·áł¤áł¯áł´áłłáłµáł¤": 4204,
      "Ġáł¢áł¯áł¡áłŃáł¦áł¸": 4205,
      "Ġáł¬áł¢áł¯áłŃ": 4206,
      "Ġáłµáł£áł¬áł¢áł¶áłłáł®áłłáł¯": 4207,
      "Ġáł¥áł¨áł³áł¡áłŃáł¡": 4208,
      "Ġáł²áł¡áł¨": 4209,
      "Ġáł«áłłáł·": 4210,
      "áł¢áł´áłłáł²": 4211,
      "Ġáł£áłªáł£áł·": 4212,
      "Ġáłªáł¢áł²áł¡áłŃáł¡áł¶": 4213,
      "áł£áł£áł": 4214,
      "Ġ2016": 4215,
      "Ġáł´áł§áł©áł³áł¦": 4216,
      "Ġáł¬áłłáł®áłłáłŃáłłáł¯áłłáłµáł¤": 4217,
      "Ġáł¬áł¢áł¨áłłáł®áłłáłŃáłłáł¶": 4218,
      "Ġáł¤áł¬áł¢áł¶áłłáłµáł¤": 4219,
      "Ġáł¶áł¢áł¨": 4220,
      "Ġáł¬áł£áł¶áł¢áł¨áłłáł¬áł¢": 4221,
      "Ġáł¨áłłáł¶": 4222,
      "áł¡áłŃáł¡áł·áł¡áł¶": 4223,
      "Ġáł²áł¢áł²áł¢áł®": 4224,
      "áł£áł®áł§áł²": 4225,
      "Ġáł²áł¥áł·áł¥áłŃáł³áł¡áł¯": 4226,
      "Ġáł²áł£áłŃáł²áłłáłŃáłłáł¨": 4227,
      "Ġáł²áł¡áł°áłªáł¦áł·": 4228,
      "Ġáł¡áł¬áł¢áł¯áł¡áł¬áł¦": 4229,
      "Ġáłªáł¤áł·áł´áłłáłŃ": 4230,
      "Ġáł¤áł©áł°áł¢áłŃ": 4231,
      "Ġáł´áł¦áł©áł´áł¢áł©": 4232,
      "Ġáłłáł°áł¢áłŃáł¯áłłáł¯áł²áłł": 4233,
      "áł¢áłªáł²áł¤áł·": 4234,
      "Ġáł³áłłáłŃáł¤áł°áł¤áłŃáł°áłłáł¨": 4235,
      "Ġáł¤áł¬áłłáłŃáł³áłłáł¬áł¤áł¨": 4236,
      "Ġáłµáłłáł¬áł¢áł¶áłłáł¯áłłáłŃ": 4237,
      "áł´áł¤áł³": 4238,
      "Ġáł²áł¥áłªáł¯áł¡áł·áł¡áłŃáł¦áł¯áł¦áł¨": 4239,
      "Ġáłłáł³áłłáł¯áł¢áłªáł²áł¤áł·": 4240,
      "Ġáł°áł¤áł·áłªáł¤áł¯áłµáł¢áł¯áłłáłŃ": 4241,
      "Ġáł¨áł¡áł®áł¡áłŃáł³áł¡áłŃáł¦áł¯áłµáł¦": 4242,
      "Ġáł¹áłłáł¨": 4243,
      "Ġáł¸áł¢áł´áłłáł²": 4244,
      "Ġáł²áł¥áł·áł¬áł¦": 4245,
      "¶áł¢áł³áłł": 4246,
      "áł§áł¢": 4247,
      "Ġáł®áł¢áłº": 4248,
      "ĠáłµáłłáłŃáł¤áł´áł¢": 4249,
      "Ġáłªáł¥áł®áłªáł¥áłŃ": 4250,
      "Ġáłªáłłáł·áł¢áł®áłµáł¢áł¶áłłáł²áł¤": 4251,
      "Ġáł®áł¡áł¬": 4252,
      "ĠáłŃáł¤áł³áł¤áł®áłµáł¢": 4253,
      "Ġáł¡áł·áł¬áł¢áł¯áł¡áł¬áł¦": 4254,
      "Ġ26": 4255,
      "Ġáł¡áłªáł¡áł³áł¬áł¦": 4256,
      "Ġáł²áłłáłªáł¤áł³áł¤áłŃáłłáł·": 4257,
      "Ġáł¦áłµáł¡áł¶": 4258,
      "Ġáł¥áł´": 4259,
      "Ġáł¹áł·áłłáł¨áł¼áł¢": 4260,
      "ol": 4261,
      "áł¤áł·áłŃáłłáł¨": 4262,
      "Ġ27": 4263,
      "Ġáłłáł¨áłłáłŃáłłáł¬áł¤": 4264,
      "Ġáłºáł¸": 4265,
      "Ġáł³áł¤áł²áłłáłŃáł³áłłáł¯": 4266,
      "Ġáł®áł¡áł³áł¡áł·áł¡áł¯": 4267,
      "Ġáł¯áłłáłªáł¯áłłáł¬áł¤": 4268,
      "Ġáł¬áł¥áł¨áł³áł¡áł¶áł¢áł·": 4269,
      "Ġáł¬áł¦áł·áł¦áłŃáł°áł¡áł¨": 4270,
      "Ġáł¨áłłáł°áł¤áł²áłłáł¶": 4271,
      "Ġáł¨áł¡áłŃáł¡áłŃáł¡áłŃáł°áł¡áł¨": 4272,
      "Ġáł¬áł¢áł®áł³áłł": 4273,
      "Ġáł¢áł¯áłłáł¯áł²áłł": 4274,
      "áł«áł¢áł·": 4275,
      "Ġáł¬áłłáłªáł¤áł³": 4276,
      "Ġáłªáł£áł¯áł¤áł¯áł´áłłáłŃ": 4277,
      "Ġáł³áłłáł·áłłáłŃáłłáł¯áłłáł¨": 4278,
      "Ġáł¡áłŃáł¦áł³áł´áł¦": 4279,
      "áł¤áł¶áł¢": 4280,
      "Ġáł¬áłłáł·áłłáłŃáłłáł¯áłµáłłáł¯": 4281,
      "Ġáłłáł·áł¢áłŃáł¤áł³": 4282,
      "áłłáłµáłłáł©": 4283,
      "Ġáł¬áł¥áł¯áł¥áł°áł¥": 4284,
      "Ġp": 4285,
      "ªáł¤áł·": 4286,
      "áłłáł¯áłµáł¢": 4287,
      "Ġáł°áł¤áł³áłłáł¯": 4288,
      "ĠáłŃáł¤áł¯": 4289,
      "Ġáłªáł¤áł¯áłµ": 4290,
      "Ġáł±áł¦áłŃáł¦áł¬áł¦": 4291,
      "Ġáłłáł©áł¬áł¢áł¯": 4292,
      "Ġáł¥áł´áł¦áł¬áł¡áł¨": 4293,
      "Ġáł¦áłµáł¡áłŃáł¡áł³": 4294,
      "áł¡áł³áł¦áł¢": 4295,
      "Ġáł°áł¢áł¦áł³áłłáł¨": 4296,
      "Ġáł¬áł¤áł¯áłł": 4297,
      "Ġáł²áłłáł©áł¬áł¢áł®": 4298,
      "ĠáłŃáł¤áł¶áł¤áł´áł¢áł¯áłłáł¬áł¤": 4299,
      "Ġáł¬áł¢áł´áł¢áł¶": 4300,
      "Ġáłªáł¦áł·áł¢áł¯áł³áł¦áłŃ": 4301,
      "Ġáłłáł¯áłłáłŃ": 4302,
      "Ġáł¡áł·áł¡áł°": 4303,
      "ĠáłŃáłłáł¬áłłáł¶": 4304,
      "Ġáł¥áł·áł¥áłŃáł¡": 4305,
      "Ġáłªáł¢áł´áł¢áł¯áłŃáł¡": 4306,
      "Ġáł¤áłŃáł¤áł·áłłáłŃ": 4307,
      "ãĢķ": 4308,
      "Ġáł°áł¢áł²áłłáł®": 4309,
      "Ġáł¡áł·áłŃáł¢áł´": 4310,
      "Ġáł¢áł¯áłŃáłłáłŃ": 4311,
      "Ġáł´áł¢áł·áł®áłłáł¶áł¢áłµáł¤": 4312,
      "Ġáł²áł£áłŃáł£áłŃ": 4313,
      "Ġáł²áł¤áł°áł¤": 4314,
      "Ġáł¶áłł": 4315,
      "Ġáł¥áłŃáłŃáł¦áł¨": 4316,
      "áł¡áłµáł¢áłŃáł¦áł¯áł¬áł¦": 4317,
      "Ġáł³áłłáł¯áłłáł¢": 4318,
      "áłµáł¦": 4319,
      "Ġáł¹áł¢áł½áł¢áłº": 4320,
      "Ġáł¬áłłáł·áłª": 4321,
      "Ġáł³áł£áł·áł£áłŃáł°áł¢áł¯": 4322,
      "Ġáł¡áłµáł¡áł¯áł¡áłµáł¦": 4323,
      "Ġáł£áł©áłŃáł£áł´áłłáł¨": 4324,
      "Ġáł²áł¡áł¸": 4325,
      "Ġáłµáłłáł¯áłŃáłłáł¬áł¤": 4326,
      "Ġáłłáł©áł¬áł¢áł¯áł¤áł®": 4327,
      "Ġáłµáł£áłŃáł°áł£áłŃáłłáł¬áł¤": 4328,
      "Ġáł®áł¡áł³áł¡áłŃáł´áł¢áł³": 4329,
      "ĠáłªáłłáłŃáłłáł´áł¤áł³": 4330,
      "áłłáł³áł¦": 4331,
      "Ġáłµáł¥áłŃáł¡áłŃ": 4332,
      "ĠáłŃáł£áł¶áł¢áł³áłł": 4333,
      "Ġáł¬áł¦áł·áł¦áł©áłŃáł¡": 4334,
      "Ġáłªáłłáł·áł¢áł¯": 4335,
      "Ġáł¾áł¤áł¶áł¢": 4336,
      "Ġáłªáłłáł¶áł¢áł·áł¢áł¨": 4337,
      "Ġáł·áł¦áł©": 4338,
      "ĠáłŃáł¤áł¯áł¢áł·": 4339,
      "Ġáłµáł¢áłŃáłłáł¯áł²áłł": 4340,
      "áłłáł¶áł¢": 4341,
      "Ġáłªáł£áł¯áłªáłłáł°áł¤áł¨": 4342,
      "Ġáł¬áł¡áł¯áł¡áłªáł¡": 4343,
      "Ġáł¦áł¢áł¯áł¡áł³áł¦áł¯áłŃáł¡": 4344,
      "Ġáł¨áłłáł¢áł®": 4345,
      "Ġáł´áł£áł©áł¬áł£": 4346,
      "Ġáł±áłłáłŃáłłáłµáłłáł©": 4347,
      "Ġáł²áł¡áł³áł¬": 4348,
      "Ġáł°áł¤áł·áł²áłłáł¯": 4349,
      "Ġîī": 4350,
      "Ġáłªáł¤áł¯áłµáł¦": 4351,
      "áłŃáł¡áłµáł¦": 4352,
      "Ġ199": 4353,
      "Ġáł¡áł®áł´áł¢áł¯áł¡áłŃáł¡": 4354,
      "Ġáł¬áł¥áłŃáłµáł¢áł¬áł¦": 4355,
      "Ġáł¦áł¨áłŃáłŃáł¡": 4356,
      "Ġáł£áł·áł´áł¢áł¯": 4357,
      "Ġáłµáł¢áł¶áłłáł©áł°áł¦": 4358,
      "ĠáłŃáł¡áł°áł¢áłŃ": 4359,
      "áł¢áł¶áł¡áł³áł¡": 4360,
      "áł¢áłł": 4361,
      "ed": 4362,
      "Ġáł®áłłáłŃáł¤áł³": 4363,
      "Ġáł®áł¢áłºáł·": 4364,
      "áł²áł¤áł¨áł¢": 4365,
      "Ġáł¾áł¸": 4366,
      "Ġáłłáł·áłłáł¯": 4367,
      "Ġáł°áł¦áłªáł¡áłŃáł´áł¢áł¯": 4368,
      "Ġáłªáł¤áł³áłłáłŃ": 4369,
      "Ġáłªáł¡áł¯áł¡áł¨": 4370,
      "Ġáł´áł£áł®": 4371,
      "Ġáł¬áł¡áłµáł¢áł¶áł¡áł³áł¡": 4372,
      "Ġáł¬áł¥áł³áł¡áł¯áłŃáł¡áłŃáł¦áł·áł²áł¦": 4373,
      "ĠáłŃáł¸": 4374,
      "Ġáł³áł¡áłªáł°áł¢áłŃ": 4375,
      "Ġáł¨áł¡áłªáł²áł¡áł·áł¡áł¯áł´": 4376,
      "Ġáł°áł¡áł·áłŃáł¦áłŃáł¡áł¬áł¦": 4377,
      "áł£áł³áł£áł¨": 4378,
      "áł°áł¦áłŃ": 4379,
      "áł´áłłáłµáł¢áłŃ": 4380,
      "Ġáł´áł¢áł¦": 4381,
      "Ġáł¬áł¥áł¨áł³áł¡áł¯áł¡áł¨": 4382,
      "Ġáłªáłłáł¶áłłáł°": 4383,
      "Ġáł¬áł¦áł¶áł¦áł³áł¡áł¯": 4384,
      "Ġáł¬áł£áł·áł¢áł¨": 4385,
      "Ġáł´áłłáł¶áł¢áł·": 4386,
      "Ġáł°áł¢áł·áł¬áłłáł²": 4387,
      "Ġáł°áł¢áł©áłŃáł¡áłŃáł¡áł¬áł¦": 4388,
      "Ġáł¡áł®áł¡áłŃáł²áł¡áł¶áł¢áł´áł¦áł³": 4389,
      "Ġáł®áłłáł¯áł²": 4390,
      "Ġáł¬áłłáł®áł¢áł¶áłłáł·áł¤áłŃáł´áł¢": 4391,
      "Ġáł²áł¦áł·áł¦áłŃáł¦áł¸": 4392,
      "Ġáł°áł¢áłŃáł¤áł¶": 4393,
      "15": 4394,
      "Ġáł³áłłáłŃáł¤": 4395,
      "Ġáł¤áłŃáł°áłłáł·áłłáłµáł¤": 4396,
      "Ġáłµáł¢áł¯áł£áłŃáł£áł³áł´áł¤": 4397,
      "áłłáł½": 4398,
      "Ġáł¨áł£áł": 4399,
      "Ġáł´áł¢áł·áł®áłłáł¶áł¢áł¯áłŃ": 4400,
      "áł£áłªáł´áł¢": 4401,
      "Ġáł¢áł¯áł¡áł·áł¡áłµáł¦": 4402,
      "ãĢī": 4403,
      "Ġáł²áłłáł¯áłłáł°": 4404,
      "ĠáłªáłłáłŃáł²áłłáłŃáłłáł¨": 4405,
      "Ġáłªáłłáł¶áł¢áłµáłłáł¶": 4406,
      "áł¦áł¬áł¦áł·": 4407,
      "Ġáł¬áłłáł·áłłáł®": 4408,
      "áłłáł¶áł¢áł°áł§áł·": 4409,
      "Ġáł³áłłáł¬": 4410,
      "Ġáł³áł¡áł©áł³áł¡áłŃáł¦áł¦": 4411,
      "áł¦áł®áłµáł¢áł¯áł¡áł¬áł¦": 4412,
      "Ġáł´áł¢áł¶áłłáł¨": 4413,
      "Ġáł¯áł£áł£": 4414,
      "Ġáł¡áł®áł¬áł¢áł¯": 4415,
      "Ġáłµáł¢áł¶áł§": 4416,
      "Ġáł¢áł²áł¡áłŃáł¡áłµáł¦": 4417,
      "Ġáł¯áł¢áł¶áłłáł¨": 4418,
      "ï¼Ī": 4419,
      "Ġáł¬áł¡áł¦áł¬áł¡áł¨": 4420,
      "Ġáłµáł£áł·áł¢áłŃáłµáł¢áłŃ": 4421,
      "Ġáł¢áł·áłŃáł¡áł¨": 4422,
      "Ġáł¬áł¤áł·áł³áł¤áł¨": 4423,
      "Ġáł¢áł·áł¡áłŃ": 4424,
      "Ġáł¶áłłáłŃáłłáł¬áł¢áłŃáłłáł³": 4425,
      "Ġáł¤áł·áł¤áłŃáł°": 4426,
      "Ġáł¢áł·áł£áłŃáłłáł·": 4427,
      "áł¬áłłáł·": 4428,
      "Ġáł¡áł¯áł¡áł°áł¦áł¨": 4429,
      "Ġáł³áł¤áł²áłłáłŃáł³áłłáłµáł¤": 4430,
      "ï¸Ķ": 4431,
      "Ġáłµáł¡áł®": 4432,
      "Ġáł²áł¥áł¯áł¥áłªáł¯áł¡áłŃáł¡áł¨": 4433,
      "áł¦áł²áł¦": 4434,
      "Ġáł¬áł¦áł´áł¦áł²áł¡áł¶": 4435,
      "Ġáł®áłłáł¶áł¢áł": 4436,
      "Ġáł¥áłŃáł¡áł·áł¡áł´áł¢áł¯áł¡áł¨": 4437,
      "Ġáłµáł£áł£": 4438,
      "áł¢áł¨áł¢": 4439,
      "Ġáłªáł¥áł®áłªáł¥áłŃáł¡áł´áł¢áł¨": 4440,
      "Ġ2015": 4441,
      "Ġa": 4442,
      "Ġáł¯áłłáł¶áł¢áł°áł§áł·": 4443,
      "Ġáłłáł·áł¢áł¯áłŃáłłáłµáł¤": 4444,
      "áłłáł°áłłáł¨": 4445,
      "Ġáł¤áł¤áłŃáł¤áł¬áł¤": 4446,
      "áł§áł¨áłłáł¨": 4447,
      "áł¤áłº": 4448,
      "áł¨áł¤áłŃáł¤áł³": 4449,
      "Ġáł¬áł¦áł´áł¢áł·áł²áł¡áł¶": 4450,
      "Ġáł¨áł¡áł®áł¡áłŃáł³áł¡áł¬áł¦": 4451,
      "Ġáł¬áłłáł®áł¤áł·": 4452,
      "Ġáł³áłłáł®áłµáł¢áłŃáł¤áł¯áłµáł¤": 4453,
      "áł¡áł¡áłŃ": 4454,
      "80": 4455,
      "łĬ": 4456,
      "áłĬ": 4457,
      "Ġáł²áłłáł¨áł¢áł¯áł²áłł": 4458,
      "Ġáł¨áł£áł¬áłłáł¶": 4459,
      "ï¸ĸ": 4460,
      "Ġáł´áł¢áł¬áł¤áł¯áłłáł´áł¢áł¯áłłáłµáł¤": 4461,
      "Ġáłłáł©áł¬áł¢": 4462,
      "Ġáłłáł°áł¢áłŃáł¯áłłáł®áłµáł¢": 4463,
      "áł¡áł³áł¬áł¡áłŃáł°áł¡áł¨": 4464,
      "Ġáł¨áł¡áł·áł¡áł¶áł¢áł³áł¦áł¯": 4465,
      "áł®áłłáłŃáłłáł¶": 4466,
      "Ġáł¬áłłáł¶áł¢áł¯áł¤áł°áł¢": 4467,
      "áł¡áł®áłµáł¢áł²áł¦": 4468,
      "Ġáłłáł®áłłáł¨": 4469,
      "Ġáł²áł¤áł°áł¬áłłáł¯": 4470,
      "19": 4471,
      "Ġáł¤áł·áłªáłłáł¯": 4472,
      "ĠáłµáłłáłŃáł¤": 4473,
      "Ġáł¨áłłáł¶áł¢áł·áłłáłŃáł¤áł¯áł¤áł¨": 4474,
      "Ġáł¡áł¯áł¢áłŃ": 4475,
      "Ġáłłáł°áłłáłŃáł¤áł¯áł²áłł": 4476,
      "Ġáłªáł¡áł¯áłŃ": 4477,
      "Ġáł°áł£áł©áłŃáł£áłŃáł°áłłáł¨": 4478,
      "Ġáł¡áł·áł¦áłŃáł¡": 4479,
      "Ġáł±áł¤áł·áłłáłŃ": 4480,
      "Ġáł´áł¢áł³áłłáłŃáł°áłłáł¨": 4481,
      "Ġáłªáł¢áł³áłł": 4482,
      "Ġáłªáłłáł¶áłłáł·áł¯áłłáł¨": 4483,
      "Ġáł²áłłáł·áł¢áł¬áł¢áł¨": 4484,
      "ĠQ": 4485,
      "Ġáłªáł¡áł·áł¬": 4486,
      "Ġáł£áłŃáł²áłłáł·áłŃáł¤áł¶": 4487,
      "Ġáł¦áł·áł³áł¡áłŃáł¡": 4488,
      "ĠáłŃáł¢áł¯": 4489,
      "Ġáł°áł¤áłªáł¤áł·áłŃ": 4490,
      "Ġáł¬áł¤áłªáł¢áł¶áłłáłµáł¤": 4491,
      "Ġáł¡áłŃáł¡áł³": 4492,
      "Ġáł³áł¡áłªáł²": 4493,
      "Ġáł¡áł©áł¨áł¡áłŃáł¡": 4494,
      "áł¡áłªáł°áł¡áłŃ": 4495,
      "Ġáł¬áł¦áł°áł¡áł¨": 4496,
      "Ġáł¬áłłáłªáł°áł¤áł·áł´áł¤": 4497,
      "Ġáłµáłłáł¶áłłáłŃ": 4498,
      "Ġáłºáł¢áł¯áł£áł®áł§áł²": 4499,
      "22": 4500,
      "Ġáł¤áł·áł¢áł²": 4501,
      "Ġáł¬áł¤áłªáł¢áł·áłłáłŃáł¤áł¯áłµáł¤": 4502,
      "Ġáł´áł¢áł©áłŃáłłáł³áł¬áłłáł¬áł¤": 4503,
      "Ġáł¤áł¨áł¤áł¯": 4504,
      "Ġáł¬áł£áł³": 4505,
      "Ġáł¬áł£áł³áł£áłŃ": 4506,
      "Ġáł®áłłáłŃáł²": 4507,
      "Ġáł¥áł©áłŃáł¡áł¨": 4508,
      "ĠáłªáłłáłŃáł¤áł¯áłŃáłłáł¬áł¤": 4509,
      "Ġáł¤áł¬áł¢áł¶áłłáł¯áłŃ": 4510,
      "Ġáłªáł¥áłŃáł¡áł·": 4511,
      "Ġáł°áł¢áł¶áłł": 4512,
      "Ġáł¨áłłáłªáł´áł¢": 4513,
      "Ġáł¨áł¡áł¶áł¢áł´áł¡áłŃáł°áł¡áł¨": 4514,
      "Ġáł³áł¡áłŃáł¡áłŃáł°áł¢áł¯áł¡áłŃáł¦áł¯áł¦áł¨": 4515,
      "Ġáł¥áł·áłŃáł¡áł³áł¬áł¡áł¬áł¦": 4516,
      "ĠáłªáłłáłŃáł¤áł·áłłáłµáł¤": 4517,
      "Ġáłµáł¦áłŃáł¡áł·": 4518,
      "Ġáłµáł¡áłªáł°áł¡áłŃ": 4519,
      "Ġáł¢áł³áł¡áł°áł¢áł¨": 4520,
      "ĠãĢĪ": 4521,
      "Ġáł¤áł·áł¤áł¢": 4522,
      "Ġáłµáłłáł³áłłáł¯áł¬áł¤": 4523,
      "áł²áł¤áł°": 4524,
      "Ġáł¦áłµáł¡áł³áł¡áłŃ": 4525,
      "Ġáłºáł£áł®áł¢áł°": 4526,
      "Ġáł¥áł©áłŃáł¡áł·áł¡áł¬áł¦": 4527,
      "Ġáł·áł§áł¨": 4528,
      "Ġáł¡áł°áł¢": 4529,
      "Ġáłłáł°áłłáłŃáł¤áł¨": 4530,
      "ĠáłŃáłłáł·áł´áłłáłŃ": 4531,
      "Ġáł¡áłŃáł¦áł·áłŃáł¡áł¯áł¡áł¬áł¦": 4532,
      "Ġáł¶áł¡áł¬áł¡áł³áł¡": 4533,
      "Ġáł¢áł¯áł¡áłŃáł¦áł¬áł¡áł¨": 4534,
      "Ġs": 4535,
      "Ġáł²áłłáłŃáłłáł¯áłłáł®áłµáł¢áł²áłłáł¶": 4536,
      "Ġáłµáł¢áł·áł¤áł¬áł¤": 4537,
      "áł¢áł«": 4538,
      "áł¢áł¬áł¦áł¶": 4539,
      "Ġáłłáł¯áł¤áł°áł¯áłłáłŃáł°áłłáł¨": 4540,
      "áłłáłŃáł¤áł¯áłªáłł": 4541,
      "Ġáł²áł¤áł°áłłáł¯áłłáł®áłµáł¢": 4542,
      "Ġáł²áł¡áłŃáł¤áłł": 4543,
      "Ġáłµáłłáł¶áł¢áł¯áłłáł°áł¬áł¢áł¬áł¦": 4544,
      "áł¢áłµáł¢áł¯áł²áłł": 4545,
      "Ġáł°áłłáłŃáłłáł²": 4546,
      "Ġáł®áł¡áł³áł¡áłŃáł¦áł¯áł¦áłŃáł°áł¡áł¨": 4547,
      "áłłáł¶áł¢áł´áł¤áł³": 4548,
      "Ġáł¨áłłáł¶áł¢áł³áłłáłªáł¤áł·áł¢áł²áłłáł¶": 4549,
      "Ġáł´áł£áłŃáł´áłłáł¯áłłáł¬áł¤": 4550,
      "Ġáł¨áłłáłŃáłłáł¯áł³áł¤áłŃ": 4551,
      "Ġ80": 4552,
      "Ġ500": 4553,
      "Ġáł¾áł§áł©": 4554,
      "Ġáł¬áł¤áłŃáł¤áł´áłłáłŃáłłáł²áł¤": 4555,
      "Ġáł²áł¡áł·áł¢áłŃáł¦áł¯": 4556,
      "¸áł°": 4557,
      "áł¤áłªáł´áł¢": 4558,
      "Ġáł¬áł¡áłŃáł¡áł¨": 4559,
      "Ġáł²áł¤áł¢áł·": 4560,
      "Ġáł¨áł¢áł®áłŃáł¡áł¨": 4561,
      "Ġáł²áłłáł¨áł¢áł¯áł´áłłáłŃáł¤áł¯áł¬áł¤": 4562,
      "Ġáł¨áłłáł¨áł³": 4563,
      "Ġ31": 4564,
      "Ġáł¡áłªáł¡áł°áł¦": 4565,
      "áłµáł¢áł·": 4566,
      "Ġáł²áł£áłŃáł£áł°áł¬": 4567,
      "Ġáł¨áł¡áł¬áł¡áł®áł¡áł¯": 4568,
      "áł¢áłŃáł¤áł¯áłµáł¤": 4569,
      "ĠáłŃáłłáłŃáł´áłłáłŃáłłáł·": 4570,
      "ĠáłŃáł£áł¶áł£áł¯": 4571,
      "Ġáł²áłłáł¯áłłáł°áł²áł¤": 4572,
      "Ġáł¢áł³áł¡áłŃ": 4573,
      "áł²áłłáł¬áł¢": 4574,
      "Ġáł¬áł£áł·áł¢áłŃáł¯áłłáł¬áł¤": 4575,
      "Ġáłªáł£áł¯áł¤áł°áł¢": 4576,
      "Ġáł°áł¤áł³áł¤áł¯áł¤áł¯": 4577,
      "áł¤áł°áł¢áł²áłłáł¶": 4578,
      "Ġáł¡áłŃáł¦áł°áł´áł¦": 4579,
      "Ġáłµáłłáł©áłŃáł¢áłµáł¢áł¯áł²áłł": 4580,
      "áłłáłµáłłáł¢": 4581,
      "áł¬áł¡áłµáł¦": 4582,
      "Ġáłµáł¢áł°áł¦": 4583,
      "Ġáłªáłłáł¶áł¢áł·áł¢áł°áł¢áł¯": 4584,
      "Ġáł¬áłłáł´áł¢áł¨": 4585,
      "Ġáł¬áł£áł¸áł·": 4586,
      "Ġáł¤áł·áł²": 4587,
      "Ġáł¦áł¶áł¡áł¯áł¡áł¯": 4588,
      "Ġáł¹áł¦áłµ": 4589,
      "Ġáł¬áł¥áł°": 4590,
      "ĠãĢĶ": 4591,
      "Ġáł¨áł¥áł¬áł¥áł³": 4592,
      "áłłáł¤áł·áł¢": 4593,
      "Ġáłłáł¯áł³áłłáł¬áł¤": 4594,
      "áł¦áł³áł¡áłŃ": 4595,
      "Ġáł¨áł¡áłŃáł¡áłŃáł¡áł¯áł²áł¡": 4596,
      "Ġáł¬áł¡áł¯áłªáł¡áł¯áłµ": 4597,
      "Ġáł¬áł¡áłŃáł¡áł¨áł´áł¢áł·": 4598,
      "Ġáł¬áł£áł¯áł¬": 4599,
      "áł¡áł°áł¦áłª": 4600,
      "áł¡áł°áł¦áłªáł¡áł¨": 4601,
      "Ġáłªáł£áł¶áł¢áłµáł¢áł¯áł²áłł": 4602,
      "Ġáł°áłłáł¤áł·áł¢": 4603,
      "Ġáł¬áł¡áł¶áł¢áł°": 4604,
      "ĠáłŃáł¡áł°áł¢áłŃáł¦áł³": 4605,
      "Ġáłªáł£áłŃáł£áł³áłłáł¯áł¯": 4606,
      "áłłáł¯áł´áłłáłŃ": 4607,
      "Ġáł¬áł¤áł·áł¤áłŃáł¤": 4608,
      "áł¶áłłáł©": 4609,
      "Ġáł¬áł¢áłµáłłáłŃáłłáł·áł¯áłłáł¯": 4610,
      "Ġáł¥áłªáł¡áł°áł¦áłªáł¡áł¨": 4611,
      "Ġáł°áł£áł¨áł¢áł·áł¬": 4612,
      "Ġáł±áł¤áł¤áłŃ": 4613,
      "ĠáłªáłłáłŃáł¯áłłáłŃ": 4614,
      "Ġáłłáł¯áł®": 4615,
      "Ġáł°áł¤áłªáł¢áł¯áłłáł¯áł²áłł": 4616,
      "Ġáł¹áł¸": 4617,
      "áł¢áł²áłłáł¢": 4618,
      "áł¨áł¢áłŃáł¡": 4619,
      "ĠáłłáłŃáł¤áł³áłłáł®": 4620,
      "Ġáł«áł·áł¤áł¹": 4621,
      "Ġáł²áł¤áł¬áłłáł¶áł¢áł¯áłłáłªáłłáł¯": 4622,
      "Ġáł¯áł¤áł²áł¤": 4623,
      "Ġáł¨áłłáł¶áł¢áł·áłłáłŃáł¤áł¯áł¬áł¤": 4624,
      "Ġáł£áł¶áł¢áł": 4625,
      "Ġáł²áł¡áł©áł´áł¡áłŃáł°áł¡áł¨": 4626,
      "Ġáł¢áł¯áłµáł¢áł·": 4627,
      "Ġáł¬áł¥áł²áł¥áł¯áł¥": 4628,
      "Ġáłºáłłáł©": 4629,
      "áłłáł°áł¢áłŃ": 4630,
      "Ġ29": 4631,
      "ĠáłŃáł·áłłáł³áł¦": 4632,
      "ri": 4633,
      "Ġáł¦áł¶áł¯áł¡": 4634,
      "ĠáłŃáł£áłŃáł£áłµ": 4635,
      "Ġáł®áł¢áł¬áłłáł¨": 4636,
      "Ġáł¬áłłáłªáł°áł¤áł·áł¤áł¯áłŃ": 4637,
      "Ġáł¢áł¯áł¡áł³áł²áł¡": 4638,
      "áłªáł¢": 4639,
      "Ġáłµáł¡áł·áłŃáł¡áł´": 4640,
      "áł£áłºáł²": 4641,
      "Ġáł¥áłŃáł¦áł¯áł¡áłªáł¦áł·áł¢": 4642,
      "áł´áł£áłŃ": 4643,
      "Ġáłªáłłáł¶áł¢áł¯áłŃáłłáłµáł¤": 4644,
      "áł¦áł¯áłŃáł¡áł¨": 4645,
      "áłªáł¦": 4646,
      "Ġáł°áł¡áł³áł¬áł¢áł¬áł¦áł¶": 4647,
      "Ġáł¨áł¡áł®áł¡áł·áł¢": 4648,
      "Ġáł°áł¡áł¯áł¡áłŃ": 4649,
      "Ġáł®áł¡áł³áł¡áł·áł¡áł®áłµáł¢": 4650,
      "Ġáł²áł¦áł·áł¢áł¶áł¡áł°áł¦áł¯": 4651,
      "Ġáłµáłłáł°áłłáł¯áł²áłł": 4652,
      "Ġáł¤áł·áł¢áł³áłłáłªáłłáł·": 4653,
      "Ġáł¬áł¥áłŃáłµáł¢áłŃáł¦áł¯áłµáł¦": 4654,
      "áł°áł§": 4655,
      "Ġáł³áłłáłŃáł¤áł·áł¢áł¶": 4656,
      "Ġáł°áł¤áł·áł´áł¤": 4657,
      "Ġáł´áłłáł¶áł¢áł": 4658,
      "Ġáł¦áł°áł¦": 4659,
      "Ġáł¢áł¶": 4660,
      "Ġáł¢áł¯áłłáłµáł¤": 4661,
      "Ġáł²áł¦áł·áłªáł¡áł¨": 4662,
      "Ġáł¥áłŃáł¦áł¯áł¡áł¯": 4663,
      "áł¡áł¯áł¡áłŃáł°áł¡áł¨": 4664,
      "Ġáłłáł¨áłŃáł¬áł¢": 4665,
      "Ġáł°áłłáłªáłłáł¯": 4666,
      "Ġáł¡áłµáł¡áł®áł°áł¢áłµáł¦": 4667,
      "Ġáł¬áł¢áł¨áł¢": 4668,
      "ED": 4669,
      "Ġáł£áł¯áłŃáł£áłµáł¤": 4670,
      "Ġáł°áłłáł¯áł¬áł¤": 4671,
      "Ġáł²áł¡áłŃáł¦áł°áł¬áł¦": 4672,
      "Ġáłªáł£áł³áł£áł¯áł¬áł¢áł¯áłłáłµáł¤": 4673,
      "Ġáł²áł¢áł¶áłłáł¨áłµáł¢áł¨": 4674,
      "Ġáł°áł£áł©áłŃáł£áłŃ": 4675,
      "áł¦áłŃáł°áł¡áł³": 4676,
      "Ġáłªáł¦áł²áł¦áłŃáł¡áłŃáł°áł¡áł¨": 4677,
      "áł¢áł¯áł¢áł®": 4678,
      "áł¥áł°áł¥": 4679,
      "ĠáłŃáłłáłª": 4680,
      "Ġáł¡áłµáł¡áł®áł³áł¡áł¯": 4681,
      "Ġáł°áł¡áł·áłŃáł¡áł¶áł¢áł¯áł¡áł¯áł²áł¡": 4682,
      "áł¡áł¢áł¢áłł": 4683,
      "Ġáłªáłłáł¶áł¢áł´áłłáłŃ": 4684,
      "Ġáł³áłłáłŃáł¤áł³": 4685,
      "ĠáłŃáł¢áł¯áłª": 4686,
      "Ġáł¬áłłáłªáł¤áł³áłłáł·": 4687,
      "Ġáłªáł¢áł²áł¡áłŃáł¦áł®áłµáł¢áł¯áł¡áł¬áł¦": 4688,
      "Ġáł¬áł¡áłŃáł¡áł·": 4689,
      "½ŀ": 4690,
      "Ġáł¬áł¥áłŃáłµáł¢áłµáł¦": 4691,
      "Ġáł´áł¢áł¤áł¸áłłáł¨": 4692,
      "áł£áł¶áł¢áł²": 4693,
      "Ġáłªáł¢áł°áł¢áł·": 4694,
      "áł¢áł®áłłáł¯": 4695,
      "Ġáł¢áł³áł¡áłŃáł³áł¡áł¯": 4696,
      "áłłáł¯áłª": 4697,
      "Ġáł¤áł·áł¤áłŃáł°áł¢áł²áłłáł¶": 4698,
      "Ġáł¬áł¦áł¬áł¦áł·": 4699,
      "Ġáł°áł£áł¯áł¢áł¯áł´áłłáłŃáłłáł¨": 4700,
      "áł¡áł®áłµáł¢áł¢": 4701,
      "Ġáł°áł¦áł®": 4702,
      "Ġáł¢áł·áł¡áłŃáł¡áł³áł¦áł¢": 4703,
      "Ġáł¬áł¡áł®áłµáł¢áł¢": 4704,
      "Ġáł²áł£áł·áłŃ": 4705,
      "áł¯áł¤áłŃ": 4706,
      "Ġt": 4707,
      "Ġáł¢áł²": 4708,
      "Ġáłµáł£áł¬áł¢áł´áłłáł©áłŃáł¤áł¶": 4709,
      "Ġáł¦áł¢áł¯áł¡áł³áłªáł¦áł·áł¢áł¯áł¡áłŃáł°áł¡áł¨": 4710,
      "Ġáł²áł¥áł¯áł¥áłªáł¯áł¡áłµáł¦": 4711,
      "ĠáłŃáłłáł·áł®áłłáłŃáłłáł¶": 4712,
      "áł³áł¤áłŃ": 4713,
      "Ġáł¬áł£áł¶áł¢áł°áł¢áł³áłł": 4714,
      "Ġáł¦áł¨áł¡áł¯áł¡áł¬áł¦": 4715,
      "Ġáł¶áłłáł·áł¢áłµáł¤": 4716,
      "Ġáł¡áł°áł¡": 4717,
      "Ġáł¨áł¢áł¯áł¬": 4718,
      "Ġáłªáł¦áł·áł¢áł³": 4719,
      "Ġáł¬áł¦áł·áł³áł¦": 4720,
      "Ġáł£áł¨áł³áł£áł£": 4721,
      "áł¡áł³áł¦áł·": 4722,
      "ĠáłłáłŃáł¤áłµ": 4723,
      "Ġáł¬áł£áł¯áł¬áł£áłªáł´áł¢": 4724,
      "Ġáł¨áłłáł°áł¤áł²áłłáł¨": 4725,
      "Ġáł°áł¢áł¯áłŃáłłáł·áłłáłŃáł¤áł¯áł¬áł¤": 4726,
      "Ġáł²áł£áł¬áł¢áł·áłłáłŃáł¤áł¯áł¤áł¨": 4727,
      "Ġáł¢áł¯áł¡áł³áł¬áł¡áł¬áł¦": 4728,
      "Ġáłªáł£áł¯áłªáłłáł°áł¤áł·áłłáł©áłŃáł¤áł¶": 4729,
      "áł¯áł¢áł´áł¢": 4730,
      "Ġáłµáłłáł°áłłáłªáł¤áł·áł¢": 4731,
      "Ġáł³áł¡áłªáł°áł¢áł¬áł¦": 4732,
      "Ġáł³áłłáł©áł°áłłáł¯áłłáłŃáł¤áł¯áł¬áł¤": 4733,
      "Ġáł²áł£áł³áł£áł·áł¬áłłáł¶áł¢áł¯áłłáł¯áł²áłł": 4734,
      "Ġáł¨áłłáłŃáłłáł³áł¬áł¤": 4735,
      "Ġáł³áłłáłªáł¤áł°áł¤": 4736,
      "Ġáł¨áł¥áł¬áł¥áłªáł¥áł·áł¢áł¯áł¡áł¬áł¦": 4737,
      "Ġáł²áł¤áł°áł¤áł¨": 4738,
      "Ġáł¢áł¯áł¡áł·áł¡áłŃáł°áł¡áł¨": 4739,
      "Ġáł¤áł·áł²áł¤áł³": 4740,
      "ĠáłłáłŃáł¤áł°áł¬áł¢áł¨": 4741,
      "Ġáł±áł¸áł¨": 4742,
      "Ġáł¡áłŃáł¦áł°áłŃáł¡áł¬áł¦": 4743,
      "Ġáł¶áł£áł£": 4744,
      "ĠáłŃáłłáł¯áł²áł¤": 4745,
      "Ġáł¬áł¤áłªáł´áłłáł°áł¤áł¨": 4746,
      "Ġáł°áłłáł³": 4747,
      "ĠáłŃáł¦áł¶áł´áł¡áł³áł¬áł¡áł¬áł¦": 4748,
      "ĠáłŃáł£áłŃáł´áł£áłŃ": 4749,
      "Ġáł²áł¡áł©áł´áł¡áłŃáł¦áł·áł¢": 4750,
      "Ġáł¬áł¥áł³áł¡áł¯áł¦áł©áłŃáł¦áł¶": 4751,
      "Ġáł°áłłáł¯áłŃáłłáł¬áł¤": 4752,
      "áłªáł¸áł¢": 4753,
      "Ġáł¡áłµáł¡áł®áł°áł¢áł¬áł¦": 4754,
      "Ġáłµáł¢áł¶áłłáł°áłł": 4755,
      "Ġáł¬áł£áł¸áł°": 4756,
      "Ġáł²áł¦áł·áł¢áł¶áł¡áł°áł¦áł¯áł¡áł¬áł¦": 4757,
      "Ġáł®áł¸": 4758,
      "Ġáł«áł¦": 4759,
      "Ġáł´áł¦áł¨": 4760,
      "Ġáł¤áł¨áł²áłłáł¬áł¤": 4761,
      "Ġáł¥áł¯áł¢áłŃáł¡áł·": 4762,
      "Ġáł±áłłáł¬áłłáł¶": 4763,
      "Ġáł°áł§áłºáł¦": 4764,
      "Ġáł³áłłáłŃáłłáł¤": 4765,
      "áłŃáł¡áłŃ": 4766,
      "áł¬áł£áł": 4767,
      "áłŃáł¤áł·": 4768,
      "Ġáł¬áłłáł·áł°áł¢áł¯": 4769,
      "Ġáł¬áł¥áł³áł¡áł¯áł¬áł¦": 4770,
      "Ġáł£áł·áł¢áł¶": 4771,
      "Ġáł¬áł¦áł·áł¦áł¯áł´": 4772,
      "ad": 4773,
      "Ġáł³áłłáł³": 4774,
      "Ġáł´áł¢áł¯áł¥áłŃáł¡áł²áł¡áł¶": 4775,
      "Ġi": 4776,
      "Ġáłłáłªáł´áł¢áł·áłłáł¬áł¤": 4777,
      "Ġáł°áł¡áłŃáł¦áł³áł¡áł·áł¯áł¡áł¬áł¦": 4778,
      "áł¢áł¬áł¡áł¨": 4779,
      "Ġáł¦áł·áłŃáł¦áł¯áłµáł¢áł¯áł¡áł¬áł¦": 4780,
      "Ġáł²áłłáłªáł¤": 4781,
      "Ġáł¬áł¦áł·áł¦áł¨áłŃáłŃáł¡": 4782,
      "Ġáł¨áłłáłŃáłłáł³áł¤": 4783,
      "Ġáł¬áłłáł°áł¢": 4784,
      "ĠáłŃáł¥áł¯": 4785,
      "áł¤áł¯áł²áłłáł²áł¤": 4786,
      "Ġáłªáł¤áł´áłłáł¯áłŃ": 4787,
      "Ġáłªáł¡áł¶áł¡áł¯áł¡áłŃáł¦áł¯áł¦áłŃáł°áł¡áł¨": 4788,
      "Ġáł°áłłáł¬áł¢áł¯áłŃ": 4789,
      "Ġáł¬áł£áł¯áłªáł£áł¯áł³": 4790,
      "PP": 4791,
      "Ġáłµáł¢áł¯áł£áłŃáł£áł³áł£áł¯áłŃ": 4792,
      "Ġáłªáłłáł·áł¢áłµáł¤": 4793,
      "Ġáł°áł¢áł²áłłáł®áłłáł¬áłłáł¶": 4794,
      "áł¡áł¯áł²áł¡áł¶": 4795,
      "áł¦áłªáł³": 4796,
      "áł¡áł¯áł¢áłŃ": 4797,
      "Ġáł¨áłłáł°áł¤áł²áłłáł¶áł¢áł´áł¤áł³": 4798,
      "Ġáł¦áł·áł¦áłªáł³": 4799,
      "Ġáł²áłłáł²áłłáłŃáłłáł¯": 4800,
      "áł¤áł¶áłłáłŃ": 4801,
      "áł¡áłŃáł¡áł¢": 4802,
      "Ġáł³áłłáł¶áł¢áł¯": 4803,
      "Ġb": 4804,
      "Ġm": 4805,
      "Ġáł¥áłŃáł²áł¡áłŃ": 4806,
      "Ġáł³áłłáł·áł¤áł¯áł²áłłáł²áł¤": 4807,
      "Ġáłªáł¢áł¨": 4808,
      "ĠáłŃáł¥áł¯áł¢áł¶áł¡áł¨": 4809,
      "Ġáł¡áł·áł´áł¢áł®": 4810,
      "Ġáł³áł¦áłŃáł¦áł·áł¡áł©": 4811,
      "Ġáł°áł¢áł·áł¬áł¡áłŃáł¯áł¢áłŃ": 4812,
      "ï¸¾áłĭ": 4813,
      "Ġ300": 4814,
      "Ġáł¦áł°áł¦áł·": 4815,
      "Ġáł¬áłłáłŃáłłáł·": 4816,
      "áł¢áł°áł¬áł¡áł·": 4817,
      "Ġáł°áł¦áł©": 4818,
      "Ġáł¬áł¦áłª": 4819,
      "Ġáł³áł¡áłªáł¢áł°áł¬áł¡áł·": 4820,
      "Ġáł¨áł¡áł¢": 4821,
      "Ġáł¬áłłáł¨áł¢": 4822,
      "Ġáł°áł¡áł·áłŃáł¡áł¶áł¢áł¯áł¡áłµáł¦": 4823,
      "Ġáł·áłłáł³áł¢áł£": 4824,
      "Ġáł³áł£áł²áł£áł¨áł£": 4825,
      "Ġáł°áłłáł¶áł¢áł³": 4826,
      "Ġáł¢áł¯áł¡áł·áł¬áł¡áł¶áł¢áł¯áł¡áłŃáł°áł¡áł¨": 4827,
      "Ġáłłáł¯áł³áłłáłŃáł°áłłáł¨": 4828,
      "Ġáł´áł£áłŃáł´áłłáł¯": 4829,
      "ĠáłŃáłłáł·áł¤áł¨": 4830,
      "Ġáłµáłłáł¶áł¢áł¯áłłáł°áł¬áł¢áłµáł¦": 4831,
      "Ġáł³áłłáłªáł°": 4832,
      "Ġáł¡áł·áłŃáł¢": 4833,
      "Ġáł£áł¯áłŃáł£áł¯áł²áłł": 4834,
      "áł³áł¤áł®áł³": 4835,
      "Ġáł¨áł¦áł¬áł¡": 4836,
      "ĠáłŃáłłáł¶áł¢áł¬áłłáł®áł°áł¢áłŃ": 4837,
      "ĠáłŃáł¡áł³áł¦": 4838,
      "Ġáł¢áł¯áł¡áł·áł¬áł¡áł¶áł¢áł¯áł¡áł¯áł²áł¡": 4839,
      "Ġáł¦áł¶áł¯áł¡áł³áłªáł¦áł·áł¢áł¯áł¡áł¬áł¦": 4840,
      "Ġáł¼áłłáł¢": 4841,
      "áł¯áłµ": 4842,
      "Ġáł¥áł·áł¨áł¢áłŃáł¦áł¯áł¬áł¦": 4843,
      "Ġáł²áł¡áł¸áł¬áł¡": 4844,
      "áłµáł¢áł©": 4845,
      "Ġáł´áłłáłŃáł³áłłáłŃ": 4846,
      "Ġáł¼áł¤áł¤": 4847,
      "áł§áł¯": 4848,
      "Ġáł²áł¥áł¯áł¥áłªáł¯áł¡áłŃáł°áł¡áł¨": 4849,
      "ï½ŀ": 4850,
      "Ġáłµáł¡áł°": 4851,
      "Ġáłµáł¢áł·áłŃáł¤áł³áł¤áłŃáłłáł·": 4852,
      "Ġáł¨áłłáł°áł¤áłµ": 4853,
      "áł¯áł£áł·": 4854,
      "Ġáł¬áłłáł·áłłáłŃáł³áłłáł³áłłáłŃ": 4855,
      "Ġáł®áł¡áł³áł¡áł³áł¡áłŃ": 4856,
      "Ġáł¯áł¢áł¶": 4857,
      "Ġáł¨áł¡áł®áł¡áłŃáł³áł¡áłŃáł¦áł¯áł¦áł¨": 4858,
      "Ġáłłáłªáł³áłłáł·": 4859,
      "Ġáł¶áłłáłŃáłłáł¬áł¢áłŃáł°áłłáł¨": 4860,
      "ĠAI": 4861,
      "Ġáł¨áł¢áłŃáł²áłłáł¯áłłáł¨": 4862,
      "Ġáł³áł¡áł¯áłŃáł¡áł·áł¡áłŃáł¦áł¯áł¬áł¦": 4863,
      "áł¡áłŃáł¦áł¯áłµáł¡áł¶": 4864,
      "Ġáł¨áłłáłª": 4865,
      "Ġáł¦áł¯áł¢áł¶áł¡áłŃáł¦áł·": 4866,
      "Ġáł´áł¢áł¨áłłáł·áł²áłłáł¢": 4867,
      "Ġáł¬áłłáł·áł¢áł¶áłłáł¯áłłáłŃáł³áłłáł¬áł¤": 4868,
      "Ġáł°áł¡áł¢áł¢áłł": 4869,
      "Ġáłªáł¤áłµáłłáł·": 4870,
      "áł¢áł¶áłłáł®áł§áł²": 4871,
      "Ġáł¬áł¤áł³áł¬": 4872,
      "áł¡áłŃáł³áł¡áł¨": 4873,
      "Ġáł°áł¢áłªáł²áł¦áł·": 4874,
      "Ġáł®áłłáł·áł¢áł¶": 4875,
      "Ġáł¬áł¡áł¯áł¡áł³áł¡áłŃ": 4876,
      "Ġáłªáł¦áł·áł¢áł¯áł³áł¦áłŃáł°áł¡áł¨": 4877,
      "Ġáł³áł¡áłŃáł¡áłŃáł°áł¢áł¯áł¡áł¬áł¦": 4878,
      "Ġáł¯áłłáł©": 4879,
      "áł¬áłłáł°áłłáł¨": 4880,
      "áł¦áłªáł´áł¢": 4881,
      "Ġáł²áłłáł²áłłáłŃáł°áłłáł¨": 4882,
      "Ġáł°áł¢áł¯áłµáł¢áłŃáł¦áł¯áł¬áł¦": 4883,
      "Ġáł¬áłłáł¯áłłáł®áłµáł¢áł¯": 4884,
      "Ġáł¬áłłáł°áł¤áłµáł¤": 4885,
      "Ġáł¤áł¶áłłáł¨": 4886,
      "Ġáłµáł¢áł·áł¦áł¬áł¡áł¨": 4887,
      "Ġáł¡áł·áłŃáł¢áł¯áł¡áłŃáł°áł¡áł¨": 4888,
      "Ġáł£áł·áł£áł¯áłłáł¬áł¤": 4889,
      "áł£áł³áł£": 4890,
      "Ġáłµáł¢áł·áł¦áł¬áł¡": 4891,
      "Ġáłłáłªáł´áł¢áł·áłłáłŃáł°áłłáł¨": 4892,
      "Ġáłªáł¤áł´áłłáłŃáłłáł¬áł¤": 4893,
      "áł«áł¢áłº": 4894,
      "Ġáł¡áł¸": 4895,
      "Ġáłºáł¦áł¨": 4896,
      "Ġáłªáł£áł·áł£áł¯áłłáłŃáł¤áł¯áł¤áł¯áł²áłł": 4897,
      "áł£áł¸": 4898,
      "Ġáł¬áłłáł³áł¬": 4899,
      "Ġáł²áł¥áł·áł¥áłŃáł°áł¡áł¨": 4900,
      "ot": 4901,
      "Ġ35": 4902,
      "Ġáł°áłłáłª": 4903,
      "ĠáłŃáł¢áł¨": 4904,
      "40": 4905,
      "Ġáł´áł£áł©áł¬áł£áł¨": 4906,
      "Ġáłµáł¢áłµáł¢áłŃáł¯áł¡áł¨": 4907,
      "áł¡áł°áł¢áł¶áł¡áł¯": 4908,
      "Ġáł¦áł¬áłłáł¨": 4909,
      "áł¸áł°áł°áł¤áł·": 4910,
      "Ġáł¡áł¬áł¢áł¯áł¡áłŃáł°áł¡áł¨": 4911,
      "Ġáł¬áł£áłªáł£áł·": 4912,
      "Ġáł¡áł·áłŃáł¢áł¯áł¡áł¬áł¦": 4913,
      "Ġ70": 4914,
      "Ġáł¥áł·áłŃáł¡áł³áł¬áł¡áłµáł¦": 4915,
      "Ġáł¨áł¢áł·áł¤áłŃáł¤": 4916,
      "Ġáł³áłłáł®áłµ": 4917,
      "Ġáł£áł´áł¢áł¬áł¤": 4918,
      "Ġáł®áłłáł¨áłłáł¨": 4919,
      "Ġáł³áł¡áłŃáł¡áł³": 4920,
      "Ġáł¬áłłáł·áłłáł¬áł¤": 4921,
      "Ġáł¸áł§áł¢": 4922,
      "Ġáłªáł¤áł¬": 4923,
      "Ġáł²áł¤áł°áł¢áł¶áłłáłŃáł°áłłáł¨": 4924,
      "áł¡áł©áłŃáł¦áł¶": 4925,
      "Ġáł²áł¤áł·áł°áł¢áłµáł¤": 4926,
      "Ġáł²áł£áł¸áł·": 4927,
      "Ġáłªáł£áł¯áłŃáłłáłµáłłáł¶": 4928,
      "Ġáłªáł¢áł´áł¢áłŃáł°áł¡áł¨": 4929,
      "Ġ1000": 4930,
      "Ġáł®áł£áł·áłłáł¯": 4931,
      "Ġáł¬áł¦áł·áł²áł¡áłŃ": 4932,
      "Ġáł´áł¡áłŃáł´": 4933,
      "Ġáł²áł¤áł³": 4934,
      "áł¥áł¯áł¥": 4935,
      "Ġáłłáłªáł¤áłŃáł´áł¢": 4936,
      "Ġáł¬áł¦áł·áł¢áł¶áł¡áł¯áł¡áł¯": 4937,
      "Ġáł°áłłáł¶áł¢áł°": 4938,
      "áł·áłłáł¯": 4939,
      "ĠáłŃáłłáł³áłłáłŃáł¤áł·": 4940,
      "Ġáł¡áł²": 4941,
      "Ġáł¢áł¶áł£áł¨": 4942,
      "Ġáł°áł¢áł¯áł¢áł³áł¡áłŃáłµáł¢áłŃáł¦áł¯áł¬áł¦": 4943,
      "Ġáłµáłłáł¯áłŃáłłáł®áłµáł¢áł¯": 4944,
      "Ġáł¤áł°áł¤áł²": 4945,
      "Ġáł¬áłłáł¨áł¢áł²áłłáł¨": 4946,
      "Ġáł¬áł¥áł·áł¬áł¥": 4947,
      "Ġáłªáł¤áł¯áł´áł¢áł©": 4948,
      "áł¤áł´áłłáł²áł¤": 4949,
      "Ġáł³áł¥áł¯áłŃ": 4950,
      "ĠáłŃáł¤áł¤": 4951,
      "Ġáłµáł£áłŃáł°áł£áłµáł¤": 4952,
      "ay": 4953,
      "Ġáłłáł°áł«áł¢áł·": 4954,
      "áł¦áł¯áł²áł¦": 4955,
      "Ġáł¨áł¡áł®áł¡áł¯áł²áł¡": 4956,
      "Ġáł²áł¦áł·áł¦áłŃáł³áł¡áł¯": 4957,
      "Ġáł¡áłŃáł¡áł´áł¢": 4958,
      "Ġáł¬áłłáł®áł¢áł¶áłłáł·áł´áł¤": 4959,
      "Ġáł´áł¡áłŃáł´áł¡áł¯áł¡áł¨": 4960,
      "Ġáł²áł£áł¬áł¢áł·áłłáłŃáł¤áł¯áł¤áłŃáł´áł¢": 4961,
      "Ġáł°áłłáł®áłªáłłáł·": 4962,
      "Ġáł¶áł¡áł·áł¦áł©áł¬áł¡áł¶áł¢áł¯áł¡áł¨": 4963,
      "Ġáł¬áł¢áł³áł¡áłŃ": 4964,
      "Ġáł³áł¡áł®áłµáł¢áłµáł¦": 4965,
      "Ġáł¦áłµáł¡áł¨": 4966,
      "áł·áł£áł¨áł²": 4967,
      "16": 4968,
      "Ġáł¬áł¤áł·áł¢áł¶áłłáł¨": 4969,
      "áł¡áł¯áł²áł¦": 4970,
      "Ġáł¹áł·áł£áł¨áł²": 4971,
      "Ġáł¢áł°áł¦áł¯áł³": 4972,
      "Ġáł¬áł¦áł·áł³áł¦áł¨": 4973,
      "Ġáł²áł¤áł¸": 4974,
      "Ġáł¦áłµáł¦áł®": 4975,
      "Ġáł³áł¤áłŃáł¤áł¶": 4976,
      "Ġáł¥áł®áł´áł¢áł¯áł¡áł¬áł¦": 4977,
      "Ġáłµáł¢áłŃáł¤áł·": 4978,
      "Ġáł²áł¡áłŃáł¦áł°áł¦áłŃáł°áł¡áł¨": 4979,
      "Ġáł¡áł·áł¬áł¢áł¨": 4980,
      "Ġáł³áł¡áł¯áłªáł¡áł·áł¡áł¯áł²áł¡": 4981,
      "ĠáłŃáł¬áł¢áł·": 4982,
      "Ġáł³áłłáłŃáłłáłŃáłłáł´áłł": 4983,
      "Ġáłłáł°áł«áł¢áł·áłłáł¨áł²": 4984,
      "Ġáł¬áł£áłµáł¢áł³": 4985,
      "Ġáł¢áłª": 4986,
      "Ġáł±áł¥áł¯áł¥": 4987,
      "áł´áł¢áł¯áł¡áłŃáł°áł¡áł¨": 4988,
      "Ġáł¡áł®áł¬": 4989,
      "Ġáł¦áł¢áł¯áł¡áł´áł¢áł¯áł¡áł¬áł¦": 4990,
      "Ġáł¬áł¤áł¤": 4991,
      "Ġáłµáł¤áł¤áł¬": 4992,
      "Ġáłłáłªáł¢áł¶áłłáł°": 4993,
      "ĠáłªáłłáłŃáł¤áł·áłłáł¶": 4994,
      "Ġáł´áł¤áłŃáł¯áłłáłŃáł¤áł¯áłµáł¤": 4995,
      "ĠáłŃáł·áłłáł®": 4996,
      "Ġáł®áł¡áł³áł¡áłŃáł¦áł¯áłµáł¦": 4997,
      "Ġáł¡áł¯áł¡áłŃáł³áł¡áł¯": 4998,
      "Ġáł£áł·áł£áłŃáł¤áł¯áł¤áłŃáł´áł¢áł³": 4999,
      "ent": 5000,
      "Ġáłªáłłáł¶áł¢áł·áł¢áł¯áłłáłµáł¤": 5001,
      "Ġáł¶áł¢áł°áł¦áł¨": 5002,
      "Ġáł´áł¢áł³áłłáł³áłłáłŃ": 5003,
      "18": 5004,
      "Ġáł¬áł¡áłµáł¢áł¶": 5005,
      "ĠáłŃáłłáł·áł³áłłáłŃ": 5006,
      "Ġáłłáł·áłªáł¢áł¯áłłáłµáł¤": 5007,
      "Ġáłªáł¦áł²áł¦áłŃáł¡áł¨": 5008,
      "Ġáł³áł¡áłŃáł¡áł°áł¦": 5009,
      "Ġáłªáł£áł³áł£áł¯": 5010,
      "BA": 5011,
      "Ġáł¡áłŃáł¦áł·áłŃáł¡áł¯áł¡áłµáł¦": 5012,
      "Ġáł¨áłłáł¶áł¢áł³áłłáłªáł¤áł·áł¢áłµáł¢áłŃáł¤áł¯áłµáł¤": 5013,
      "Ġáł¾áł§áł¨áłłáł¨": 5014,
      "Ġ00": 5015,
      "ow": 5016,
      "Ġáłµáł¢áłŃáł°áłłáłŃáłłáł¯": 5017,
      "Ġáłłáł¯áł³áłłáł·áł²áł¤": 5018,
      "Ġáł¬áł¥áłŃáłµáł¢áłŃáł°áł¡áł¨": 5019,
      "Ġáł¡áł·áłŃáł¢áłŃ": 5020,
      "Ġáł°áł¢áł¢áł³áłªáł¦áł·áł¢áł¯áł¡áł¬áł¦": 5021,
      "Ġáł°áł¢áł³áł¤áł·áłŃáł¤": 5022,
      "áł¤áł¯áłªáł¤áł·": 5023,
      "ĠáłŃáł¦áł©áł°áł§": 5024,
      "Ġáł°áł¤áł¯": 5025,
      "áł¤áł¬áłłáł¨": 5026,
      "áł£áł¯áł§": 5027,
      "Ġáł³áł¡áł¯áłª": 5028,
      "Ġáł³áł¤áł°": 5029,
      "áł£áł¯áł§áłºáł¦": 5030,
      "áł¢áłµáł¢áł·áłłáł¯": 5031,
      "Ġáł¤áł°áłłáł³": 5032,
      "Ġáł¬áł¤áł·áł¢áł®": 5033,
      "áłłáł°áł¤áł²áł¤": 5034,
      "Ġ90": 5035,
      "Ġáł¬áłłáł¶áłłáłµáł¤": 5036,
      "Ġáł¡áł·áł¬áł¡áł²áł¡áł¨": 5037,
      "Ġáł³áł¡áłŃáł¡áłŃáł°áł¢áł¯áł¡áłµáł¦": 5038,
      "Ġáł¬áł¥áł®áł¦áłµáł¢áłŃ": 5039,
      "Ġáł²áł£áłŃáł²áłłáłªáł¤áł·áł¢áłµáł¢áłŃ": 5040,
      "Ġáł¬áł¤áłªáł¢áł·áłłáłŃ": 5041,
      "eb": 5042,
      "Ġáł°áłłáł¶áł¢áł²áłłáł¢": 5043,
      "id": 5044,
      "Ġáł¬áłłáł®áłµáł¢áł¯áł´áłłáł¨": 5045,
      "ĠáłŃáł¤áł¶áł¤áł´áł¢áł¯áłłáłŃáł´áł¢": 5046,
      "Ġáł®áł£áł¯áł§áłºáł¦": 5047,
      "Ġáł²áł¤áł¯áłŃáłłáł·áłłáłµáł¤": 5048,
      "Ġáł¨áł¡áł¶áł¢áł²áł¡áł¯áł¢áłŃ": 5049,
      "Ġáłªáł¦áł·áł¬áł¦áłªáł´áł¢": 5050,
      "23": 5051,
      "áł°áł¡áłŃáł¡áł·": 5052,
      "áł§áł·áł®áłłáł¨": 5053,
      "áł¡áł¯áł³áł¡": 5054,
      "Ġáł¬áłłáł·áłłáłµáł¤": 5055,
      "áłłáł¯áłłáł¯áł²áłł": 5056,
      "Ġáłªáł£áł³áł£áłµáł¤": 5057,
      "Ġáłłáł³áł¬áł¤áłµáł¤": 5058,
      "áłŃáł°áłłáł¨": 5059,
      "Ġáłłáł®áł¢áłµáł¢áł·áłłáł¯": 5060,
      "Ġáł²áł¥áł¯áł¥áłŃáł¡áł¯áł¡áłŃáł´áł¢áł³": 5061,
      "Ġáł´áł¢áł¬áł¢": 5062,
      "Ġáł³áł£áł·áł£áł¨": 5063,
      "Ġáł²áł¦áłŃáł¡áł®áł¡áł¯áłµ": 5064,
      "áłµáł§": 5065,
      "Ġáłµáł¢áłªáł¬": 5066,
      "Ġáł°áłłáł·áłłáł¨": 5067,
      "Ġáł¬áł¤áł³áł³áł¤áłŃ": 5068,
      "Ġáł®áł¥áł·áłŃáł¥áł¯áł³": 5069,
      "Ġ~": 5070,
      "áł³áł¤áł®áł³áłłáł³áł¤": 5071,
      "Ġáł£áł¶áł¢áł·áłłáł¯áł´áłłáłŃ": 5072,
      "áł°áł¢áł¶": 5073,
      "Ġáł¦áłµáł¡áłŃáł¦áł¯áł¦áłŃáł°áł¡áł¨": 5074,
      "Ġáł³áłłáł·áł¤áł¬áł¤": 5075,
      "Ġáł¡áł¬áł¡áł¨": 5076,
      "Ġáł¡áł¬áł¡áł¨áł¡áł·": 5077,
      "Ġáł¡áłŃáł¡áł³áł¡áł©": 5078,
      "Ġáłµáłłáł·áł¤áł¯áłŃ": 5079,
      "Ġáł¨áłłáł°áł¤áłµáł¢áł¯": 5080,
      "ĠáłŃáł¡áł·áł¡áł¯áł²áł¦áłŃ": 5081,
      "ĠáłŃáł¤áł¶áł¤": 5082,
      "Ġáł¨áł¡áłŃáł¡áłŃáł¡áł¯áłŃáł¡": 5083,
      "Ġáł¬áłłáł·áł°áł¢": 5084,
      "Ġáł´áłłáł°áł¤áł¨": 5085,
      "Ġáł´áł£áł·": 5086,
      "**": 5087,
      "ĠCh": 5088,
      "Ġáł¨áł£áł®áł§áł·áł²áł¤": 5089,
      "Ġáł´áł¡áł¨áł¡áłŃáł¯áł¡áł¬áł¦": 5090,
      "áł¡áłŃáł¦áł¯áłªáł¡áł¯": 5091,
      "Ġáł£áł³áł£áł¬áł¢": 5092,
      "Ġ2014": 5093,
      "áłµáł¤áł¨": 5094,
      "Ġáł°áłłáł¨áł°áłłáł·": 5095,
      "Ġáł¦áł·áł¡áłµ": 5096,
      "Ġáł¬áł¤áł¨áłłáł¨": 5097,
      "ĠáłŃáł¦áł¨áłµáł¡áłŃáł¡áł¢": 5098,
      "áł·áłłáł¯áł¢áł¶": 5099,
      "Ġáł°áł¢áł³áł¦áł¨": 5100,
      "áł¥áł©": 5101,
      "Ġáł¬áł¥áł·áł¥áł°áł¥": 5102,
      "áł¢áł¯áł³áł¦": 5103,
      "Ġáł¢áł°áł¦áł¯": 5104,
      "Ġáłµáł£áł¯áłŃ": 5105,
      "Ġáłłáłµáł¢áł¯áł¯áłłáłŃáł¤áł¯áł¬áł¤": 5106,
      "Ġáł¬áł¡áł¯áłªáł¡áł·áł¢áł²áł¦": 5107,
      "¬áł¡áłŃ": 5108,
      "áłŃáł¡áł¬áł¦": 5109,
      "Ġáłµáł¦áł·": 5110,
      "Ġáł¬áł¤áł°": 5111,
      "Ġáł¡áłŃáł¦áł°áłŃáł¡áł¨": 5112,
      "áł¤áłŃáłłáł·áłłáł¶": 5113,
      "Ġáłªáł£áł¯áłŃáł£áł®": 5114,
      "Ġáł°áł£áł´": 5115,
      "ĠáłŃáł¡áłµáł¢áłŃ": 5116,
      "Ġáłµáł¢áłŃáłłáł¬áł¤": 5117,
      "Ġáłµáł¢áłŃáł°áłłáłŃ": 5118,
      "25": 5119,
      "Ġáłªáł£áł·áł³": 5120,
      "Ġáł²áł¡áł¦áł¬áł¡áł¨": 5121,
      "Ġáł°áł¢áł·áł¡áłŃáł¡áł¨": 5122,
      "Ġáł²áłłáł¬áł¢áł¶áłłáł¨": 5123,
      "Ġáł¬áłłáł·áł¢áłŃáł¤áł´áłłáłµáł¤": 5124,
      "Ġáł²áł¡áł®áł³áł¡áłŃáł¯áł¡áł¬áł¦": 5125,
      "áł¦áłŃáł¦áł³": 5126,
      "áł¢áłŃáł¤áł¯áłŃ": 5127,
      "áłłáł´áł¢áł¬": 5128,
      "Ġáł±áł¤áł¸": 5129,
      "Ġáł²áłłáł¯áłłáł·áł¬áłłáłµáł¤": 5130,
      "áł¤áłŃáł°áłłáł³": 5131,
      "un": 5132,
      "ĠáłŃáł§áł·áł®áłłáł¨": 5133,
      "Ġáł¯áł¢áł²": 5134,
      "áł¡áłŃáł´áł¡": 5135,
      "Ġáł³áł¥áł¯áłŃáł¢áł¨": 5136,
      "Ġáł²áłłáł¯áłłáł¢": 5137,
      "Ġáł°áł£áł¨áł£áł°áł´áł¤": 5138,
      "Ġáł²áł£áłŃáłłáł²áł¤": 5139,
      "Ġáł¬áł¢áłµáłłáłŃáłłáł·áł¯": 5140,
      "Ġáł³áłłáłŃáłłáł¯áł³áł¤áłŃ": 5141,
      "Ġáłµáł£áł·áł¢áł¯áł²áłł": 5142,
      "áł°áł¡": 5143,
      "Ġáł¬áł£áł°áł¢áłŃáł¤áł´áł¢": 5144,
      "Ġáł±áł£áłŃ": 5145,
      "Ġáł¬áł¤áłªáł¢áł·áłłáł¬áł¤": 5146,
      "Ġáł¹áł¸áł¢": 5147,
      "Ġáł²áł¥áł¯áł¥áłªáł¯áł¡áł¨": 5148,
      "áł³áł¬áł¡áł´áł¡": 5149,
      "Ġáł´áł¤áł¤": 5150,
      "Ġáł²áł¤áł¢áł¬": 5151,
      "Ġáł¡áł®áłŃáł¡áłŃ": 5152,
      "áł´áł¥áłŃáł¡áł³áł¦áł·": 5153,
      "Ġáł£áł³áł£áł¬áł¢áł´": 5154,
      "Ġáł²áłłáłŃáł¤": 5155,
      "Ġáł¤áł³áłłáłŃáłłáł°áł¢áł·": 5156,
      "Ġáł¥áł³áł¬áł¡áł´áł¡": 5157,
      "Ġáł°áł¡áł·áł¡áłµáł¦": 5158,
      "Ġáł²áł¤áł²áł¤áł·áłŃ": 5159,
      "Ġáłºáłłáł¶": 5160,
      "Ġáł£áł¨áł£áł¯": 5161,
      "Ġáł²áł¦áł·áł¬": 5162,
      "Ġáłłáłªáł´": 5163,
      "Ġáł¬áł¤áł·áł³áł¤áł´áłłáł²áł¤": 5164,
      "Ġáłłáł¶áł¢áł¯": 5165,
      "Ġáłµáł¤áł¸áłłáł©": 5166,
      "Ġáł²áł¤áł°áł¬": 5167,
      "Ġáł¯áł¸áł¢": 5168,
      "ĠáłŃáł¡áł³áł¡áł°áł¦áł¨": 5169,
      "Ġáłªáł·": 5170,
      "Ġáł³áł¡áłªáł²áł¦áłŃ": 5171,
      "áł´áł¢áłµáł¦": 5172,
      "áłºáł¸": 5173,
      "Ġáł¥áł¬": 5174,
      "Ġáł¬áłłáł®áł²áł¤áł·áłłáłŃáł°áłłáł¨": 5175,
      "Ġáł²áł£áłŃáł²áłłáłªáł¤áł·áł¢áł²áłłáł¶": 5176,
      "Ġáł²áł¤áł¢áł¬áł¦áł®": 5177,
      "áł¯áłłáłŃáłłáł°áł¤": 5178,
      "Ġáł®áł¤áł·áł¤áł¶": 5179,
      "Ġáł²áł¥áłªáł¯áł¡áł·áł¡áłŃáł¦áł¯áłµáł¦": 5180,
      "Ġáł¬áłłáł·áł¢áł¯áł´áłłáłµáł¤": 5181,
      "Ġáł¨áłłáłŃáłłáł³áł¤áłŃáł´áł¢áł³": 5182,
      "Ġáł¤áł³áł¤áł®": 5183,
      "Ġáł¢áł®": 5184,
      "áłłáł¨áł³": 5185,
      "Ġáł²áł£áł¨áł£áłŃáł¯áłłáłŃáłłáł°áł¤": 5186,
      "Ġáł¬áł¢áł¨áłłáłŃáł´áł¢": 5187,
      "Ġáł´áł¤áłª": 5188,
      "Ġáł°áł¢áł³áł¦": 5189,
      "Ġáł¶áłłáł·áł¢áł¯áł´áłłáłµáł¤": 5190,
      "Ġáł¤áł°áł¤áł²áł¥": 5191,
      "Ġáł¤áł©áł°áł¢áłµáł¤": 5192,
      "Ġáł¡áłµáł¡áł©áł¨áł¡áł¬áł¦": 5193,
      "áł¬áłłáłŃáł´áł¢": 5194,
      "Ġáł¬áłłáł·áłłáł¬áłłáł¨": 5195,
      "Ġáłªáł¸áł²": 5196,
      "Ġáł¤áł©áł°áł¢áł¯áłŃ": 5197,
      "Ġáłªáłłáł·áł¢áłŃ": 5198,
      "Ġáł´áł¢áł¶áł£áł¤": 5199,
      "Ġáł²áł¡áł·áł¡áł´áł¢áł¯áł¡áł¨": 5200,
      "Ġáł¬áł¦áł¢áł³": 5201,
      "Ġáł¡áł°áł¡áł·áłŃáł¦áł´áł¡áł¯": 5202,
      "ag": 5203,
      "áł¡áł®áł°áł¦áłŃ": 5204,
      "áł¢áł¯áłł": 5205,
      "Ġáł¬áł¦áł·áł´áł¡áł¶": 5206,
      "Ġáł¥áłŃáł¡áł¬áł¦": 5207,
      "Ġáł¦áł·áłŃáł¦áł¯áłµáł¢áł¯": 5208,
      "us": 5209,
      "ig": 5210,
      "Ġáł¢áł³áł¡áłªáł¬áł¢": 5211,
      "Ġáłµáł¥áłªáł¯áł¡áł¯áłŃáł¡": 5212,
      "Ġáłłáł°áł¢áłŃáł¯áłłáłµáł¤": 5213,
      "Ġáłłáł¶áłłáł°": 5214,
      "áł¤áł³áłł": 5215,
      "Ġáł²áłłáł¯áłªáł¢áł¨": 5216,
      "Ġáł²áłłáł·áłłáłŃáłłáł´áł¢": 5217,
      "Ġáł°áł¢áł¤áł¸áłłáł¨": 5218,
      "Ġáł²áł£áł³áł£áł·áł¬áłłáł¶áł¢áł¯áłłáł¬áł¤": 5219,
      "ĠY": 5220,
      "Ġáłªáł£áł°áł£áłŃ": 5221,
      "áł¢áł°áł¢": 5222,
      "Ġáł³áł£áł¬áł¢áł¶": 5223,
      "ĠáłŃáł¤áłª": 5224,
      "Ġ2000": 5225,
      "Ġáł¬áłłáł·áł¢áł¶áłłáł²áł¤": 5226,
      "áł¢áł¯áł¡áłŃáł¡": 5227,
      "Ġáł¨áł¢áłŃáł¤áł·áł²áłłáł¨": 5228,
      "Ġáł²áł¡áł©áł´áł¡áłŃ": 5229,
      "Ġáł°áłłáł³áł¤áł¨": 5230,
      "Ġáł¬áł¡áł®áłµáł¢áł¨": 5231,
      "Ġáłµáłłáł¶áł¢áł¯áłłáł°áł¢": 5232,
      "Ġáł¬áłłáł©áłµáł§áł¦": 5233,
      "áłłáł®áł¢áł¨": 5234,
      "Ġáłªáł£áłŃáł£áł¨": 5235,
      "Ġáł¨áł¢áłŃáł²áłłáł´áłł": 5236,
      "áłłáł¬áł¤áł¶": 5237,
      "Ġáłłáłªáł¤áł·áłŃáł¤": 5238,
      "Ġáł¨áłłáł¶áł¢áł³áłłáłªáł¤áł·áł¢áłµáł¢áłŃáł¤áł¯áł¬áł¤": 5239,
      "Ġáłłáł¯áłªáłłáł³": 5240,
      "Ġáł¬áł£áł¶áłłáł³áłłáł¬áł¢": 5241,
      "Ġáł¥áł´áł¥áłŃáł¡áł³áł¦áł·": 5242,
      "Ġáłªáł¡áł¯áł¡áł³áł¬áł¡áłµáł¦": 5243,
      "Ġáłºáłłáł¨": 5244,
      "Ġáł¨áł¡áł¶áł¢áł²áł¡áł¯áł¡áłªáł¡": 5245,
      "Ġáłªáłłáł¶áł¢áł¬": 5246,
      "Ġáł£áł¯áłµáłłáł¶": 5247,
      "á¡": 5248,
      "áł¤áł¯áł³áłł": 5249,
      "Ġáł¨áłłáł¶áł¢áł·áłłáł®": 5250,
      "Ġáł¬áł¤áłªáł¢áł¶áłłáł¬áł¤": 5251,
      "Ġáł®áł¡áł·áłŃáł¡áł°áł¢áł¯": 5252,
      "Ġáłªáł£áł¯áłªáłłáł¯": 5253,
      "Ġáł´áł¤áłŃáł´áłłáłµáł¢áłŃ": 5254,
      "ĠáłŃáłłáł¨": 5255,
      "Ġáł²áłłáł¶áł¢áł¯áłªáł¤áł·áł¢": 5256,
      "Ġáł³áłłáłŃáł¤áł·áł¢áł¶áłłáł®áłłáł¯": 5257,
      "Ġáł¡áłŃáł¡áł¯áł¢áł¯áł¡áłŃáł¡": 5258,
      "Ġáł¬áłłáłªáł´áł¢áłŃ": 5259,
      "Ġáł¡áł¨áł³áł¡áł¯": 5260,
      "Ġáł¢áł³áł¡áłªáł¬áł¢áł²áł¡áł¢": 5261,
      "Ġáł°áł¢áł¸áł³áłłáł¨": 5262,
      "Ġáł°áłłáł´áł¤áł·áłłáłŃ": 5263,
      "Ġáł¸áł¢áł²": 5264,
      "Ġáł²áł¥áł¯áł¥áłŃáł¡áł¯áł¡áłµáł¦": 5265,
      "Ġáł¬áł£áł¶áł¢áł°áł¢": 5266,
      "Ġáł¬áł¤áł¢": 5267,
      "áłłáłŃáł´áłł": 5268,
      "áłµáł§áł¸": 5269,
      "Ġáł®áł¤áł¬": 5270,
      "ĠáłŃáł¢áł¯áłªáłłáłŃ": 5271,
      "Ġáł²áł¡áłµáł¢áłŃáł¡áł¬áł¦": 5272,
      "Ġáł¡áł®áł¬áł¢áł¯áł¡áł¨": 5273,
      "Ġáł´áłłáł·áł´": 5274,
      "Ġáł¤áł¬áł¤áł·": 5275,
      "Ġáł°áł£áłŃ": 5276,
      "áł¦áłŃáł¦áł¯áł¦áłŃáł°áł¡áł¨": 5277,
      "Ġáł¬áł¡áł¶áł¢áł°áłªáł¦áł·áł¢": 5278,
      "Ġáł²áłłáłŃáłłáł·áłłáłŃáł¤áł¯áłµáł¤": 5279,
      "ĠáłŃáłłáł·áłªáłłáł¯": 5280,
      "Ġáłµáłłáł¬áł¢áł·áłŃ": 5281,
      "Ġáł²áł¤áłŃáł¤áł·": 5282,
      "áł·áł¥áłŃáł´": 5283,
      "Ġáłµáł¢áł·áł¤áł®áłµáł¢áł¯": 5284,
      "Ġáł¬áł¦áł¶áł²áł¡áł¨": 5285,
      "Ġáłµáł¢áł±áł¢áł¬áł¦": 5286,
      "Ġáł¬áł¤áł·áł¢áł¶áłłáł©áłŃ": 5287,
      "Ġáłªáł£áłŃáł£áł³áłłáł¯áł¯áłłáł¬áł¤": 5288,
      "Ġáł¬áł¥áł°áł¢áłŃáł¡": 5289,
      "Ġáł¨áłłáł¶áł¢áł³áłłáł¯áłŃ": 5290,
      "ĠáłŃáł¡áł³áł¡áł·áłŃáł¦": 5291,
      "Ġáł²áłłáł¯áłªáł¢áłŃáł°áłłáł¨": 5292,
      "Ġáłªáł¦áł²áł¦áłŃáł¡áłµáł¦": 5293,
      "Ġáłµáłłáł©áłµáł¤áł¨": 5294,
      "Ġáł¡áł¯áł¡áł°áł¦": 5295,
      "Ġáł´áł¡áłªáł¡áł·áł°áł¢áłŃáł¦áł¯áł¬áł¦": 5296,
      "Ġáł¬áł¥áłŃáłµáł¢áł¶áł¡áł¨": 5297,
      "Ġáł´áł¢áł¯áł¥áłŃáł¡áł²áł¦": 5298,
      "ĠáłªáłłáłŃáł¤áł·áłłáłŃáł¤áł¯áłµáł¤": 5299,
      "ĠZ": 5300,
      "Ġáł´áł£áł¬áł¢áł¬áł¤": 5301,
      "Ġáł²áł¥áł°áł¦áłŃ": 5302,
      "Ġáłªáł¡áł¯áł¡áł³áł¬": 5303,
      "áł¢áłªáł¡": 5304,
      "Ġáł´áł¥áłŃ": 5305,
      "Ġï¸¿": 5306,
      "áł¨áłłáł®": 5307,
      "Ġáł¨áł¢áłŃáł¤áł´": 5308,
      "Ġáł¬áłłáł®áłłáłŃáłłáł¯áłłáłŃáł´áł¢": 5309,
      "ĠáłŃáł¡áł¢": 5310,
      "Ġáł¬áłłáł¨áł³áł¤áł¬áł¤": 5311,
      "Ġáł¤áł¯áłłáł®áłµáł¢áł¯áłłáł¯": 5312,
      "Ġáł°áł¢áł©áłŃáł¡áłŃáł¡áł¨": 5313,
      "Ġáł°áł¤áł·áł²áłłáł¬áł¤áł¨": 5314,
      "Ġáł³áłłáł·áł¤áłŃáłłáł°áł¤": 5315,
      "Ġáł¬áłłáł·áł¢áłŃáł¤áł´áłłáł¯áłŃáłłáł²áł¤": 5316,
      "Ġáł¥áł°áł´áł¦": 5317,
      "áłµáł¢áłŃáł¦áł¯áł¦áł¨": 5318,
      "Ġáł¬áł¡áłªáł²": 5319,
      "Ġáł²áłłáł·áł¢áł¶áłłáł´áł¢áł¨": 5320,
      "Ġáł®áłłáł¶áł¢áł®": 5321,
      "Ġáłªáł£áł³áłłáł²áłłáł¢": 5322,
      "Ġáł°áłłáł¨áł²": 5323,
      "Ġáł²áł¤áł°áł¢áł¶áłłáł¯áł²áłłáł¨": 5324,
      "Ġáł¶áłłáł°áł¤áł¨": 5325,
      "áł·áł¥áłŃáł´áł¢áł²áł¦": 5326,
      "áł¯áł¡áłŃáł¦áł·": 5327,
      "os": 5328,
      "Ġáłµáł¥áłªáł°áł¢áł¶áł¡áł·áł¡áłŃáł°áł¡áł¨": 5329,
      "Ġáł°áł¢áł¶áł³áłªáł¦áł·áł¢áł¯áł¡áłŃáł°áł¡áł¨": 5330,
      "ĠIn": 5331,
      "ĠIP": 5332,
      "Ġáł¬áł¤áł³áłłáł¯áł³áł¤áłµáł¤": 5333,
      "Ġáł®áł¤áł¤": 5334,
      "Ġáł¦áł¨áł³áł¦áł°áł¦áł¯áł¡áłµáł¦": 5335,
      "Ġáł¬áł¥áłªáł¥áł©": 5336,
      "Ġáł¬áł¤áł·áł¢áł¶áłłáł©áłŃáł¤áł¶áł¢áł¯": 5337,
      "Ġáł¢áł¯áł¡áł·áł¡áł¬áł¦": 5338,
      "Ġáł³áł¥áł²áł¡": 5339,
      "áłŃáł£": 5340,
      "Ġáłłáłªáł¤áł¨": 5341,
      "áł£áł¬áłłáł¨": 5342,
      "Ġd": 5343,
      "Ġáłłáł·áłªáłł": 5344,
      "ec": 5345,
      "Ġáł¤áł¸áłŃ": 5346,
      "¯áł¬áł¤": 5347,
      "áł¢áł®áł«áł¢áłº": 5348,
      "Ġáł¡áł¢": 5349,
      "ĠáłŃáł¤áł·áłªáłłáł³áłłáł¬áł¢": 5350,
      "Ġáł°áł¡áłª": 5351,
      "Ġáł¨áł¡áł¶áł¢áł¯áł¡áłŃáł¦áł¯áł¬áł¦": 5352,
      "Ġáłªáł¡áł·áł¬áł¡áł°áł¢áł¶áł¡áł¯": 5353,
      "Ġáł²áł¡áł·áł¢áłŃáł¦áł¯áł¡áłŃáł´áł¢": 5354,
      "Ġáłłáłªáł¤áł·áłłáł¨": 5355,
      "Ġáł´áł¥áł·": 5356,
      "Ġáł¨áłłáł¶áł¢áł·áłłáł¯áłŃ": 5357,
      "Ġáł¶áłłáł·áł¢áłŃáł°áłłáł¨": 5358,
      "ĠáłŃáł¡áł·áł¡áł¯áł²áł¦áłŃáł¦áł¯áłŃáł¡": 5359,
      "ĠáłŃáł¦áł¶áł´áł¡áł³áł¬áł¡áł¯": 5360,
      "Ġáł¨áł¡áł¬áł¡áł®áłµ": 5361,
      "Ġáłµáł£áł¬áł¢áł´áłłáłŃáł¤áł¯áł¬áł¤": 5362,
      "Ġáłµáł£áłªáłłáł¯áłłáł©": 5363,
      "Ġáł¬áł£áł£áł·áł²áł¤": 5364,
      "Ġáł¦áł·áł²áł¡áłŃáł¡": 5365,
      "Ġáł£áł¯áł¢áł®áł«áł¢áłº": 5366,
      "Ġáł²áł£áł¬áł¢áł·áłłáłŃáł¤áł¯áł¤áłŃáł°áłłáł¨": 5367,
      "Ġáłłáł¯áłº": 5368,
      "Ġáł²áł£áłŃáł²áłłáłªáł¤áł·áł¢áł²áł¤": 5369,
      "Ġ45": 5370,
      "Ġáł²áł¥áł¯áł¥áłªáł¯áł¡áłŃáł´áł¢": 5371,
      "Ġáł´áł¢áł¯áł¥áłŃáł¡": 5372,
      "Ġáłµáł£áłŃáł£áł°áł£áł¨": 5373,
      "áłłáłŃáł¤áł¯áł¤áł¶": 5374,
      "Ġáł°áłłáłŃáł¤áłŃáł³áłłáł¯": 5375,
      "Ġáł°áł¤áł·áłªáł¤áł¯áłµáł¢áł¯áłłáł¬áł¤": 5376,
      "áł¦áłŃáł¦áł¯áł¦áł¨": 5377,
      "áł·áł¡áł¨": 5378,
      "Ġáłµáł£áłªáłłáł¨": 5379,
      "Ġáł°áłłáł¨áłłáłŃáł¤áł¯áł¤áł®áłµáł¢": 5380,
      "Ġáł¬áł£áł¯áłªáł£áłŃáł³áłłáłŃáł°áłłáł¨": 5381,
      "Ġáł°áł¢áłªáł²áł¤áł¯": 5382,
      "áł¤áł¯áłłáłŃ": 5383,
      "Ġáł«áłłáł¨": 5384,
      "áł£áł£áł¯": 5385,
      "88": 5386,
      "13": 5387,
      "Ġáł¨áłłáłªáł´áł¢áł¨": 5388,
      "áł¥áłŃáł¡áł³": 5389,
      "Ġáł¢áłµáł¢áł¯": 5390,
      "Ġáł¢áł·áł¡áł¬áł¦áł¶": 5391,
      "Ġáł¦áł©áłŃáł¡": 5392,
      "Ġáł²áł£áłªáł´áł¢áł¢": 5393,
      "Ġáł¡áłŃáł¦áł³áł¦áłŃáł°áł¡áł¨": 5394,
      "ĠáłŃáłłáł·áłŃáłłáłµáłłáł¶": 5395,
      "Ġáł¬áłłáł¶áł¢áł·áłłáł¯áłłáł¬áł¤": 5396,
      "áł£áł³áł¤áłŃáłłáł·": 5397,
      "Ġáł²áł¥áł®": 5398,
      "Ġáłłáł¯áł³áłłáłµáł¤": 5399,
      "Ġáł¡áł³áł¦áł¶": 5400,
      "Ġáł¨áłłáł¨áłµáł¢áł©": 5401,
      "Ġáł³áł¤áł²áłłáł®áłłáłŃ": 5402,
      "Ġáł¬áł¡": 5403,
      "áł¢áł®áłµáł¢": 5404,
      "áł¢áłµáłłáł¶": 5405,
      "Ġáłªáłłáł·áł¢áł¯áł³": 5406,
      "Ġáł¨áłłáłŃáłłáł¯áł³": 5407,
      "Ġáłłáł®áł²áłłáł²áłłáł¶": 5408,
      "Ġáł¦áł¯áł¡áł³áł¡áłŃáł¡áłµáł¦": 5409,
      "Ġáłµáł¢áł·áł¤áłŃáłłáł°áł¤": 5410,
      "áł¦áł¯áł¡áłŃáł°áł¡áł¨": 5411,
      "Ġáł²áł¥áłªáł¡áł³": 5412,
      "Ġáł°áł¢áłªáł²áł¤áł¯áł¤áł¯áł²áłł": 5413,
      "Ġáł¨áł¡áł®áł¡áłŃáł³áł¡áłŃáł°áł¡áł¨": 5414,
      "Ġáł¶áłłáłªáł¤áłŃáł¤áł¯áł¬áł¤": 5415,
      "Ġáł²áł£áłªáł´": 5416,
      "Ġáł²áłłáł·áł¢áł¬áł¢": 5417,
      "Ġáł¦áł¢áł¯áł¡áł³áłªáł¦áł·áł¢áł¯áł¡áłµáł¦": 5418,
      "Ġáł¤áł¶áłłáł¯áł³áł¤áłŃáł¤áł¯áłµáł¤": 5419,
      "Ġáł³áłłáł©áł°áłłáł¨": 5420,
      "Ġáłµáłłáł³áłłáł¯áł¤áł¨": 5421,
      "Ġáł¥áł©áłŃáł¡áł²áł¡áł¶": 5422,
      "Ġáł¡áł°áł²": 5423,
      "em": 5424,
      "Ġáłłáł½áł£áł²": 5425,
      "Ġáł±áłł": 5426,
      "Ġáł³áł£áł¯áł£áł³áł¤áłŃáłłáł·": 5427,
      "Ġáł¡áł·áł¡áłŃáł¦áł¯áłµáł¢áł¯": 5428,
      "áł²áł¦áł¨áł¢": 5429,
      "áł¤áł²áłłáł¨": 5430,
      "áł£áłªáłłáł¯": 5431,
      "Ġáł¦áł¨áł¦áł·áł²áł¦": 5432,
      "Ġáłµáłłáł·áł¯áłłáł¬áł¤": 5433,
      "áł¦áł½": 5434,
      "Ġáł¥áłŃáłŃáł¦áł¶": 5435,
      "Ġáł°áł¢áłªáł²áł¦áł·áł²áł¦": 5436,
      "áłłáł®áłµ": 5437,
      "Ġáł³áłłáł·áł¤áł´áłł": 5438,
      "áł¢áł¨áł¢áł³": 5439,
      "ĠáłŃáł¦áł·áłªáł¡áł¯": 5440,
      "Ġáł²áłłáł¶áł¢áł¯áłªáł¤áł·áł¢áł¯áłłáł¬áł¤": 5441,
      "Ġáłłáł°áłłáłŃáł¤áł¬áł¤": 5442,
      "Ġáł¬áł¦áł´áł¦áł¯áł¡áł¨": 5443,
      "áł´áł¢áł¯áł²áł¡": 5444,
      "Ġáł¦áł·áł¦áłªáł³áł¡áł°áł¦": 5445,
      "ĠáłªáłłáłŃáł¤áłµáł¤": 5446,
      "Ġáł°áł¢áł¤áł¸áłłáł¢": 5447,
      "áł£áł¶áł¢áł²áłłáł¨": 5448,
      "iv": 5449,
      "Ġáłłáł®áł¢áł³áł¤áł·áłłáłµáł¤": 5450,
      "Ġáł²áłłáł¶áł¢áł¯áł¤áł®áłµáł¢": 5451,
      "Ġáłłáłµáł¢áł¯áł¯áłłáłŃáł´áł¢": 5452,
      "Ġáł¢áł³áł¡áłªáł¡áł¯": 5453,
      "Ġáłªáł£áł¶áł¢áłµáł¢áłŃáł¤áł¯áł¬áł¤": 5454,
      "áł¤áłŃáł¤áł°áł¢áł²áłłáł¶": 5455,
      "Ġáł²áłłáł·áł¬áłłáł¯áł²áłł": 5456,
      "Ġáł®áł¤áł·áł¤áł¶áł¢áł": 5457,
      "Ġáł°áł¦áł·áł¦áłŃ": 5458,
      "ĠSt": 5459,
      "99": 5460,
      "Ġáł¬áłłáł¤áł¯áł¢áł´áł¢": 5461,
      "Ġáł®áł¸áł©": 5462,
      "Ġáłµáł¢áłŃáł°áłłáł¯": 5463,
      "Ġáł£áł¬áł£áł·áł¬áłłáł¨": 5464,
      "Ġáł±áł¦áłŃáł¦áłŃáł¦áł·": 5465,
      "Ġáłµáł¢áł·áł®áł¦áł°": 5466,
      "ĠáłªáłłáłŃáł¤áł¬áł¤": 5467,
      "Ġáł²áł¡áłµáł¢áłŃáł¡áł¨": 5468,
      "200": 5469,
      "Ġáł²áł£áłŃáł²áłłáł¨": 5470,
      "Ġáł¤áł·áł³áł¦": 5471,
      "Ġáłµáł¢áł¯áł¤áłŃáł¤áł³": 5472,
      "áł¢áł³áł¤": 5473,
      "Ġáł°áł¡áł³áł¬áł¢áł®áłµáł¢": 5474,
      "Ġáł°áł£áł¯áł¢áł¯áł´áłłáł¬áł¤": 5475,
      "áł¡áłªáł¡áł¯áł¢": 5476,
      "Ġáł¤áłŃáł²áł¤áł¨": 5477,
      "Ġáł¨áł¡áł¡áłŃ": 5478,
      "Ġáł´áł¢áł©áł³": 5479,
      "Ġáł°áł¢áł¯áł¤áłŃáł¤áł¨": 5480,
      "Ġáł¬áł¤áł²áłł": 5481,
      "Ġáł¡áłŃáł¦áł°áłŃáł¡áłµáł¦": 5482,
      "Ġáł¨áł¡áł¶áł¢áł¯áł¡áłŃáł¦áł¯áłµáł¦": 5483,
      "áł¤áł¯áłłáł©": 5484,
      "Ġáł´áł£áłŃáł´áłłáł¯áłłáłªáł¤áł·áł¢": 5485,
      "Ġáł°áłłáł¨áłłáłŃáł³áłłáł¨": 5486,
      "Ġáłªáłłáł³áłłáłŃ": 5487,
      "Ġáł¨áłłáł¶áł¢áł·áłłáł®áł³áłłáł¬áł¤": 5488,
      "Ġáł¬áł¥áłŃáł¡áł·": 5489,
      "Ġáł³áł¥áł·áłªáł¡": 5490,
      "Ġáł²áł¡áłŃáł¡áłŃáł¡áłªáł¦áł·áł¢áł¯áł¡áł¬áł¦": 5491,
      "Ġáłµáł£áł¬áł¢áł¶áłłáłµáł¤": 5492,
      "Ġáłµáł£áł¬áł¢áł¶áłłáł¬áł¤": 5493,
      "Ġáł³áłłáłªáłłáł·áł¬áłłáł¶": 5494,
      "Ġáł¨áł£áł¶": 5495,
      "Ġáł²áł¤áł¬áł¢áł¶": 5496,
      "Ġáłªáł¤áł¬áł¢áł¨áł¢áł³": 5497,
      "Ġáłµáł¡áłŃáł¦áł¦": 5498,
      "áł¦áł©áł¨áł¡áł¯áł²áł¡": 5499,
      "Ġáł³áłłáł¶áł¢áł´": 5500,
      "Ġáł¬áł¤áł³áłłáł¯": 5501,
      "Ġáł®áł¥áł°áł¥": 5502,
      "Ġáł¨áł£áł¶áł¢áł²áłłáł¨": 5503,
      "Ġáł¡áłŃáł¦áł¯": 5504,
      "14": 5505,
      "Ġáłłáł¨áł¾": 5506,
      "Ġáł¢áł¯áłµáł¢áł·áł¡áł¬áł¦": 5507,
      "áł¤áł¯áłłáłµáł¤": 5508,
      "Ġáł²áł¡áł³áł¬áł¦áł¬áł¦": 5509,
      "áł²áł¡áł¬áł¢": 5510,
      "Ġáł°áł¤áłªáł¤áł³": 5511,
      "Ġáł¡áł®áł¦áł°áł´áł¦": 5512,
      "Ġáł¬áłłáł¯áł¬áłłáłªáł´áł¢": 5513,
      "Ġáł¬áł¡áłªáł¡áł¯áł¢": 5514,
      "Ġáłµáł¢áł¡áł·": 5515,
      "Ġáł¡áłŃáł¦áł·áł¢áł³áł¡": 5516,
      "Ġáł²áłłáł¯áł¬": 5517,
      "Ġáł¬áł¦áł¨áł³áł¦áł·": 5518,
      "Ġáł¤áł°áł¦áłł": 5519,
      "Ġáłªáłłáł¶áł¢áł²": 5520,
      "Ġáł²áł¡áłŃáł°": 5521,
      "ĠáłŃáł¦áł¢áł¯áłŃáł¡áłŃáł¡": 5522,
      "Ġáł²áł£áłªáł´áł¢áł¶áłłáł¨": 5523,
      "Ġáłµáł¥áłªáł³": 5524,
      "ter": 5525,
      "Ġáłªáł¢áł¯áł¬": 5526,
      "Ġáłªáł¦áł²áł¦áłŃáł¡áł¯áł²áł¡": 5527,
      "Ġáł²áł¦áł·áł¢áł¶áł¡áł°áł¦áł¨": 5528,
      "Ġáł³áłłáł¶áł¢áł¨": 5529,
      "Ġáł°áł¡áł·áł¡áł®áłµ": 5530,
      "Ġáłłáł´áł¢áł¶": 5531,
      "Ġáł½áł¸": 5532,
      "Ġáł®áł¡áł¨áł³": 5533,
      "Ġáł°áł¤áł³áł¤áł¯áł¤áł¯áł²áłł": 5534,
      "®áł§áł¨": 5535,
      "Ġáłªáł¤áł´áłłáł¬áł¤": 5536,
      "áł¥áł·áł¥áł®": 5537,
      "Ġáł£áł¯áłµ": 5538,
      "ĠLED": 5539,
      "Ġáłªáł£áł¯áł¤áł®": 5540,
      "ĠáłŃáłłáł´": 5541,
      "Ġáł°áł¢áłŃáł¤áł·": 5542,
      "Ġáł¶áłłáł·áł¢áł¯áł´áłłáłŃ": 5543,
      "Ġáł¡áł·áłŃáł¢áł¯áł¡áłµáł¦": 5544,
      "Ġáł²áł£áłªáł´áł¢áł¯áłłáł¨": 5545,
      "Ġáł£áł·áł´áł¢áł¯áłłáł©": 5546,
      "Ġáł¯áł£áł©áł¬áł£": 5547,
      "Ġáł¦áł¯áł¡áł³áł¡áłŃáł¡áł¬áł¦": 5548,
      "Ġáł²áł¤áł¯áł¤áłŃáłłáł¨": 5549,
      "áł¦áł¶áł¢áł¨": 5550,
      "Ġáł³áłłáł®áłµáł¢áłŃáł¤áł¯áłŃ": 5551,
      "Ġáłµáł¢áł·áł¤áł®áł¯áłłáł¨": 5552,
      "Ġáł³áł¤áł²áłłáłŃáł¤": 5553,
      "áł¡áł³áł¡áł°áł¦": 5554,
      "Ġáł¹áłłáł°": 5555,
      "Ġáłµáł£áł¬áł¢áł´áłłáł¬áł¤": 5556,
      "Ġáłµáł¢áł·áł¤áł®áłµáł¢áłŃ": 5557,
      "Ġáł´áł¥áłŃáł¥áł·áł¥áł®": 5558,
      "Ġáł°áł¦áł·áł´áł¢áł¬áł¦": 5559,
      "Ġáł°áł£áł¨áł¢áł·áł¬áłłáł¯áł²áłłáł¶": 5560,
      "Ġáł±áłłáł©áł¬áłłáł¢": 5561,
      "Ġáłµáł¢áłŃáł¦áł·": 5562,
      "lo": 5563,
      "Ġáł°áł¤áł·áłŃáłłáł¬áł¤": 5564,
      "Ġáł£áł·áł£áł¯áłłáłŃáł´áł¢": 5565,
      "ĠáłŃáłłáł·áłŃáłłáł¯áł²áłł": 5566,
      "Ġáłªáłłáł¶áł¢áłŃáł¤áł¯áł¤áł¯áłŃ": 5567,
      "Ġáł²áł¤áł°áł¦áłł": 5568,
      "Ġáłµáł¥áłªáł³áł¡áł¯áł´": 5569,
      "áł´áł¢áł¯áłłáł¬áł¤": 5570,
      "Ġáł¶áł¡áł¬áł¡áł²áł¡áł¶": 5571,
      "Ġáł¦áł¯áł¡áł³áł¡áłŃáł°áł¡áł¨": 5572,
      "áł¡áł¯áł¬áł¡áłŃ": 5573,
      "Ġáł¬áł¦áł°áł¡áł¯áł¡áł©": 5574,
      "Ġáłªáł¤áł³áłłáłŃáłłáł¨": 5575,
      "Ġáłªáł¡áł¶áł¡áł´áł¢": 5576,
      "Ġáł²áłłáł·áł¢áł®áłłáł¯": 5577,
      "Ġáł³áłłáł©áł°áłł": 5578,
      "Ġáł²áł¤áł¤": 5579,
      "áł¤áł¯áł²áłłáł¶": 5580,
      "Ġáł¨áł¢áł°áł¬áł¦": 5581,
      "Ġáł²áłłáł©áł°áłłáł¨": 5582,
      "Ġáł¨áł¥áł¯áł¥áłŃáł¡áł¯áł¡áł¨": 5583,
      "Ġáł£": 5584,
      "Ġáł£áł¯áł¤áł¨": 5585,
      "áł¡áł¯áł¡áł¬áł¦áł¨": 5586,
      "áł¡áł®áł¡áłŃáł´áł¡": 5587,
      "Ġáł¬áł¥áł¬áł¡áł®": 5588,
      "Ġáł¸áłłáłº": 5589,
      "Ġáł¦áł·áł¡áłµáł¢áłŃáł¦áł¯áł¬áł¦": 5590,
      "Ġáł¬áł¥áłŃáłµáł¢áłŃáł¦áł¯áł¦áł¨": 5591,
      "Ġáłªáł¥áł¬áł¥áł³áł¡": 5592,
      "Ġáł¬áł¤áł·áł¤áł¬": 5593,
      "Ġáł¦áł¶áł¡áł°": 5594,
      "Ġáł²áł¡áł¨áł³áł¡": 5595,
      "Ġáł³áłłáł·áł¤áł®áłłáł¯áł¯áłłáł¬áł¤": 5596,
      "ĠáłŃáł§áł¨": 5597,
      "áł´áł¢áł¯áł¡áł¨": 5598,
      "áł¦áł³áł¦áłŃáł¡áł·": 5599,
      "Ġáł±áł¤áł¤áłŃáł¢áł¶áłłáł¨": 5600,
      "Ġáł³áłłáłŃáłłáłŃáłłáłŃáł°áłłáł¨": 5601,
      "Ġáł´áł¢áłŃáł¢áłŃáł²": 5602,
      "Ġáł¬áł¥áł¨áł³áł¡áł¶áł¢áł·áł¡áłŃáł¦áł¯áł¬áł¦": 5603,
      "Ġáł¡áł³áł¦áłŃáł¡": 5604,
      "ĠáłŃáł¡áł·áł¡áł´áł¢áł¯áł¡áł¬áł¦": 5605,
      "od": 5606,
      "Ġáł¡áłŃáł¦áł¯áł¡": 5607,
      "ra": 5608,
      "Ġáł²áł¤áł°áł¢áł¶áłłáłµáł¤": 5609,
      "Ġáł²áł£áł©": 5610,
      "áł¢áł¹": 5611,
      "Ġáł²áł¡áłŃáł¦áł¯áł³áł¡áł·áłµáł¢áłŃáł¦áł¯áłµáł¦": 5612,
      "he": 5613,
      "Ġáł¡áłµáł¡áł¯áł¡áł¬áł¦áł¨": 5614,
      "Ġáłµáłłáł¯áłŃáłłáłµáł¤": 5615,
      "Ġáł¥áł¨áł¢": 5616,
      "áł¦áł·áł¡áł¯": 5617,
      "Ġáł²áł¡áł¢": 5618,
      "Ġáł¬áł¥áłªáł¡áłŃáł¡áł¨": 5619,
      "Ġáł£áł£áł": 5620,
      "Ġáł°áłłáłŃáł¤áł·áł¢áł¯áłłáł¨": 5621,
      "Ġáł¹áł¦áłµáł¢áł¶áłłáł¨": 5622,
      "Ġáłłáł¯áłŃ": 5623,
      "OS": 5624,
      "áł²áł£áłŃáłłáł¶áł¢áł¯": 5625,
      "áł³áłłáłŃáł¤áł¯áł¬áł¤": 5626,
      "áł¤áłŃáłłáł´áł¢": 5627,
      "21": 5628,
      "Ġáł·áł£áł®": 5629,
      "Ġáł£áł®áł²áł£áłŃáłłáł¶áł¢áł¯": 5630,
      "Ġáłªáł¢áł²áł¡áłŃáł¦áł®áłµáł¢áł¯áł¡áłŃáł°áł¡áł¨": 5631,
      "Ġáł£áł£áł®áł§áł¨": 5632,
      "áł¬áł£áł¶áłłáł·": 5633,
      "Ġáł¥áłŃáł´áł¡áł¶": 5634,
      "Ġáł¬áł¡áł¯áł¡áłµáł¡áł¶": 5635,
      "Ġáłµáł¢áłªáł¬áł¤áłŃ": 5636,
      "ĠáłªáłłáłŃáł¤áł·áłłáł¬áł¤": 5637,
      "Ġáł¬áł¡áł¯áł¬áł¢áł¶áł¡áł¨": 5638,
      "Ġáł´áł¢áł©áł³áł£áł¤": 5639,
      "Ġáł£áł·áł£áł°áł¢áł¬áł¤": 5640,
      "Ġáł®áł¤áł°": 5641,
      "áł²áł¦áł·": 5642,
      "áł¢áłŃáł¡áł³": 5643,
      "áł¢áł³áł¤áłŃáłłáł·": 5644,
      "Ġ2013": 5645,
      "Ġáł®áł¥áł·áł¥": 5646,
      "Ġáł°áł¡áł¶áł¢áł¯": 5647,
      "Ġáł±áłłáł¨áł°áł¢": 5648,
      "Ġáł´áł¥áł·áł¬áł¡áł¯": 5649,
      "Ġáł¬áł¤áł¨áłłáł·": 5650,
      "Ġáł¤áłª": 5651,
      "Ġáł³áł¡áł¯áłŃáł¡áł·áł¡áłµáł¦": 5652,
      "Ġáł¨áł¡áł¶áł¢áł¯áł¡áłŃáł¦áł¯áł¦áł¨": 5653,
      "áłłáł¯áłŃáłłáł¨": 5654,
      "Ġ400": 5655,
      "Ġáł°áł¡áł¯áł¡áłŃáł¦áł´": 5656,
      "and": 5657,
      "Ġáł°áłłáł¨áł³áł¤áł·": 5658,
      "Ġáł¬áł¤áłŃáł¤áł·": 5659,
      "ĠáłªáłłáłŃáł²áłłáłŃáłłáłµáł¤": 5660,
      "ĠáłŃáł¥áł·áł³áł¡áłµáł¦": 5661,
      "Ġáł³áł¤áł¯áłłáłŃ": 5662,
      "Ġáł¬áł¡áł·áł¡áłŃáł°áł¡áł¨": 5663,
      "Ġáł³áł¡áł¶áł¢áł¯áł¦áłŃ": 5664,
      "Ġáł°áł¢áł¯áłµáł¢áł¬áł¦": 5665,
      "Ġáł®áł¦áł½": 5666,
      "Ġáł¬áł¦áł·áłŃáł¡áł¨": 5667,
      "Ġáł²áł£áł¬áł¢áł¶áłłáł¯áł³áł¤áł³áłłáłŃ": 5668,
      "Ġáłªáł¸": 5669,
      "Ġáłµáłłáł³áłłáł¯áłµáł¤": 5670,
      "Ġáł²áł¤áł¶áł¢áł": 5671,
      "áł¼áł¢áł¨": 5672,
      "Ġáłłáł¯áłłáł¬áł¤": 5673,
      "Ġáł³áłłáł®áłµáł¢áłŃáłłáł³": 5674,
      "Ġáł£áł·áł£áł¯áł´áłłáłŃáł°áłłáł³": 5675,
      "Ġáł³áł¤áł·áłłáł°áł¬áłłáł¯": 5676,
      "Ġáł£áł¶áł¢áł·áłłáł³": 5677,
      "Ġáłºáł¯áł¦": 5678,
      "Ġáł²áłłáł°áł¤áł¯áł¬áł¤": 5679,
      "Ġáł¬áłłáł·áł¢áłŃáł¤áł¯áł¬áł¤": 5680,
      "Ġáł¬áł¥áł²áł¥áł¯áł¥áł¨": 5681,
      "Ġáł¬áł¥áł©": 5682,
      "ĠáłŃáł¤áł¯áłŃáł¤áłŃáł¤áł·": 5683,
      "Ġáł°áłłáł¶áł¢áłµáł¢áł·áłłáłŃáł¤áł¯áłµáł¤": 5684,
      "Ġáł²áł£áłŃáłłáł´áłłáłŃ": 5685,
      "áł¡áłŃáł¡áł¶": 5686,
      "Ġáł°áł¦áł·áł´áł¢áł¨": 5687,
      "ĠáłŃáł£áł£áł¯áł¯áłłáł¨": 5688,
      "Ġáł°áł¤áłªáłłáłŃ": 5689,
      "Ġáł¸áłłáłºáł¼áł¢áł¨": 5690,
      "Ġáłµáłłáł·áłŃáł¤": 5691,
      "áł¢áłŃáł¤áł¯áł¤áłŃáł´áł¢": 5692,
      "áłµáł¸áł¤": 5693,
      "Ġáł¶áłłáłªáł¤áłŃáł³áłłáłµáł¤": 5694,
      "Ġáł¤áł¬áł¢áł¶áłłáł¨": 5695,
      "Ġáł´áł¡áłŃáł¡áł·": 5696,
      "Ġáł¶áł¦áł¨áł¨áłłáł¨": 5697,
      "Ġáłªáłłáł¬áłłáł¨": 5698,
      "Ġáł²áłłáł®áłłáłŃ": 5699,
      "Ġáł²áłłáł¨áł¢áł¯áł´áłłáłŃáł¤áł¯áłµáł¤": 5700,
      "Ġáł³áł¥áł¯áł¥": 5701,
      "áł¢áłŃáł¤áł¯áł¤áł¨": 5702,
      "Ġáł¨áłłáł®áłłáł¶áł¢": 5703,
      "Ġá¡»": 5704,
      "Ġáłµáł¤áł¤": 5705,
      "Ġáł´áł¢áł¶áłłáł©": 5706,
      "Ġáł¬áł¦áł¯áł¡áł®áłµáł¢": 5707,
      "Ġáł«áłłáł·áłłáł®áł§áł²": 5708,
      "Ġáł³áł¤áł¯áłłáłŃáłłáł¯": 5709,
      "ook": 5710,
      "Ġáłµáł¢áł¦": 5711,
      "áł°áł¢áł¶áłłáł©": 5712,
      "Ġáł´áł¢áł¬áł¤áł¯áłłáł´áł¢áł¯áłłáł¬áł¤": 5713,
      "áł¥áł³": 5714,
      "Ġáł³áł¡áłŃáł¡áłŃáł°áł¢áł¯áł¡áł¯áł²áł¡": 5715,
      "Ġáł¶áłłáłªáłłáłŃáłłáł¨": 5716,
      "Ġáł±áłłáł¯áłł": 5717,
      "áł°áł£áłŃ": 5718,
      "Ġáł¬áł¥áłŃáł¡áł°áł¦": 5719,
      "Ġáł¯áł£áł©áł¬áł£áł¨": 5720,
      "Ġáł¯áł§": 5721,
      "Ġáł¨áł¡áł·áł¡áł³áł¦": 5722,
      "Ġáłªáł¡áł¯áł¡áł³áł¬áł¡áł¬áł¦": 5723,
      "Ġáł¡áł·áł¡áł¯áł¬áł¡áłŃ": 5724,
      "áłłáł¹": 5725,
      "Ġáł°áł¥áł©": 5726,
      "áłłáł²áłłáł¯": 5727,
      "Ġáł¤áłŃáł²áł¤áłµáł¤": 5728,
      "Ġáł¶áł¢áł°áł¦áł³áł¦áłŃáł¡áł·": 5729,
      "Ġáłªáłłáł·áł°": 5730,
      "Ġáł¡áłªáł¦áłŃáł¡": 5731,
      "Ġáłªáłłáł·áł¢áł®áł²áłłáł¯áłłáł¨": 5732,
      "Ġáłłáł®áł¢áł³áł¤áł·áłłáł¬áł¤": 5733,
      "áł¡áł¶áł¢áł²": 5734,
      "Ġ36": 5735,
      "Ġáł¨áł¤áłŃ": 5736,
      "Ġáł´áł£áł®áł£": 5737,
      "Ġáł°áł¢áł¶áł³áłªáł¦áł·áł¢áł¯áł¡áł¨": 5738,
      "ĠáłªáłłáłŃáł¤áł¯áłŃáłłáł¨": 5739,
      "Ġáł²áłłáł·áł¬áłłáłŃáłłáłŃáł°áłłáł¨": 5740,
      "áł¡áłŃáł°áł¡áł³": 5741,
      "áłłáł¯áłµáł¢áł¨": 5742,
      "Ġáł²áłłáł°áł¤áł¯áłŃ": 5743,
      "Ġáł¨áł¥áł¯áł¥áłŃáł¡áł¯áł¡áłµáł¦": 5744,
      "Ġáł°áł¦áł¨áł¡áł°áł¦": 5745,
      "áł£áł°áł¢áłŃ": 5746,
      "Ġáł¬áł£áł¯áłªáł£áł¨": 5747,
      "áł¦áł¯áłªáł¡": 5748,
      "áłłáłŃáł´áł¢áł³": 5749,
      "áłłáłŃáłłáł²áł¤": 5750,
      "Ġáłµáłłáł¢": 5751,
      "Ġáł¥áł¬áł¡áł¶áł¢áł³": 5752,
      "ĠáłŃáłłáł·áłŃáłłáłªáłł": 5753,
      "áł¢áł¤": 5754,
      "Ġáł¡áłªáł¡áł·": 5755,
      "Ġáłłáł©áłŃáł¢áłµáł¢áł·": 5756,
      "Ġáł¡áł¯áł³": 5757,
      "Ġáł¬áł¡áł¯áł¬áł¢áł¢": 5758,
      "Ġáł²áłłáł¨áł¢áłµáł¤": 5759,
      "Ġáłªáłłáł¶áłłáł°áł¤áł¯": 5760,
      "Ġáł¬áł¥áł³áł¡áł¯áł¦áł¯": 5761,
      "Ġáł°áłłáłŃáł¤áł¯áłŃ": 5762,
      "Ġáł¬áłłáł¯áłłáłŃ": 5763,
      "Ġáłªáł¦áł²áł¦áłŃáł¡áł¯áłŃáł¡": 5764,
      "Ġáł³áłłáłŃáł¢áłµáł¤": 5765,
      "Ġáł¬áł¢áł²áł¤áłŃ": 5766,
      "áł¤áł¯áłªáł¤áł·áł¢": 5767,
      "Ġáł³áłłáłŃáłłáłŃáł¤áł¯áłµáł¤": 5768,
      "Ġáł¨áłłáł¨áł³áł¢áł¨": 5769,
      "Ġáł¬áłłáł¶áł¢áł´": 5770,
      "Ġáł°áł£áł³áł£áł¨": 5771,
      "ĠáłŃáł¤áłªáł¢áłŃáł¤áł¯áłŃ": 5772,
      "Ġáł¡áł·áł³áł¡áł®áł²áł¡áł¨": 5773,
      "Ġáł°áłłáłŃáł¤áł·áł¢áł¯áłłáłŃáł°áłłáł¨": 5774,
      "Ġáł¬áł¦áłµ": 5775,
      "Ġáł¥áł¯áłµ": 5776,
      "Ġáł¬áłłáł·áł¢áłŃáł¤áł´áłłáł¨": 5777,
      "Ġáł¬áłłáł®áłµáł¢áł¯áł´áłłáł¬áł¤": 5778,
      "Ġáł¬áł£áł¯áłªáł£áłŃáłłáł¯áłłáł¨": 5779,
      "áłłáł·áłłáł¨": 5780,
      "áł£áł²áł¤": 5781,
      "Ġáł¬áłłáł°áł¤áł¬áł¤": 5782,
      "Ġáł£áł¬": 5783,
      "Ġáł¡áłŃáł´áł¡": 5784,
      "Ġáł²áł¤áł¯áłł": 5785,
      "Ġáł¨áł¦áł¬áł¡áł¨": 5786,
      "Ġáłłáł¯áł³áłłáłŃ": 5787,
      "Ġáł¬áł¡áł²áł¦áł·áł¡áłŃáł°áł¡áł¨": 5788,
      "17": 5789,
      "SO": 5790,
      "Ġáł®áłłáł¨áł³áłłáł¯": 5791,
      "áłłáł¶áł¢áłµ": 5792,
      "áł£áłŃáł£áł·": 5793,
      "Ġáł°áł¢áł¶áł³áłªáł¦áł·áł¢áł¯áł¡áł¯áł²áł¡": 5794,
      "áł¢áł°áłº": 5795,
      "Ġáłµáł£áł¬áł¢áł¶áłłáłŃáł°áłłáł¨": 5796,
      "Ġáł¬áł¥áłªáł¡áłŃáł¦áł¨": 5797,
      "Ġáł¡áłŃáł¡": 5798,
      "Ġáłłáł·áłłáł¯áłµáł¢áł¶áłłáł¯": 5799,
      "ĠáłŃáł£áł£áł¯áł´": 5800,
      "Ġáł²áłłáłŃáłłáł°": 5801,
      "Ġáłªáł£áł¯áłªáłłáł°áł¤áł·áłłáłŃáł¤áł¯áłµáł¤": 5802,
      "Ġáł³áłłáł°": 5803,
      "Ġáł¬áłłáł®áł²áł¤áł¯áł¢áłŃ": 5804,
      "ĠáłŃáłłáłªáł¢áł¶": 5805,
      "Ġáł¤áł·áł¢áł²áłłáł¯": 5806,
      "Ġáł´áłłáł°áł¤": 5807,
      "áł¦áł¯áł¢áłŃ": 5808,
      "áłłáł¯áł³áł¤áłµáł¤": 5809,
      "Ġáł¡áłªáł³áł¡áł·": 5810,
      "Ġáł´áł¤áłŃáł¯áłłáł·áłłáł¯": 5811,
      "im": 5812,
      "áł¦áł³áł¡": 5813,
      "Ġáł«áł¸": 5814,
      "Ġáł¬áłłáł·áłłáł®áł°": 5815,
      "Ġáł¬áł¡áł·áł¡áłŃáłµáł¢áłŃáł¦áł¯áł¦áłŃáł°áł¡áł¨": 5816,
      "Ġáł¬áłłáł²áłłáłŃáł¤áłµ": 5817,
      "Ġáł¬áłłáł¨áł¤áł®": 5818,
      "Ġáł¦áłµáł¡áłŃáł¡áł·áł¡áł¶": 5819,
      "Ġáłµáł£áł·áł¢áłŃáł²áłłáł¶": 5820,
      "áłłáłŃáł¤áł·áł¢": 5821,
      "Ġáł¬áłłáł®áłłáłŃáłłáł¯áłłáł¨": 5822,
      "áł¬áłłáł³áłłáłŃ": 5823,
      "Ġáł°áł¦áłµ": 5824,
      "Ġáł¡áł·áł²áł¡áł¬áł¡áł¨": 5825,
      "Ġáł²áłłáł·áł¬áłłáłŃáłłáłµáł¤": 5826,
      "Ġáł¬áł¥áł²áł¥áł¯": 5827,
      "áł¡áłŃáł¡áłµáł¢": 5828,
      "Ġáłªáł¦áł²áł¦áłŃáł°áł¡áł¨": 5829,
      "Ġáł²áł¤áł¨áł¦áł¬": 5830,
      "Ġáł¦áł¶áł¯áł¡áł³áł¦áł¯áłŃáł¡": 5831,
      "Ġáłªáł¥áł°": 5832,
      "Ġáł¦áł·áłŃáł¦áł¯áłµáł¢áł¯áł¡áłŃáł°áł¡áł¨": 5833,
      "Ġf": 5834,
      "Ġáłªáł¢áł©": 5835,
      "áł¦áł·áł¢áłŃáł¦áł¯áł¬áł¦": 5836,
      "Ġáł¬áłłáł·áłłáł©áłŃáł¤áł¶": 5837,
      "Ġáł²áł¦": 5838,
      "Ġáł¬áłłáł·áłłáłŃáłłáł¯áłµáłłáłŃáł°áłłáł¨": 5839,
      "Ġáł¬áł¤áł·áłłáł®áłłáł¯": 5840,
      "áł¢áł°áł¤áł¨": 5841,
      "Ġáł²áłłáł¶": 5842,
      "áł¢áł®áłłáł¬áłłáł¶": 5843,
      "Ġáł¤áł²áł¤áłŃ": 5844,
      "Ġáł¬áłłáłŃáłłáł¯áłŃ": 5845,
      "áłłáłŃáł¤áł¯áł¤áłŃáłłáł³": 5846,
      "Ġáł¦áł³áł²áł¡áł·": 5847,
      "Ġáł®áł¥áł·áł¥áłŃáł¡áł³": 5848,
      "áłŃáł¡áł³": 5849,
      "Ġáł°áł¡áł³áł¦áł¯áł²áł¡": 5850,
      "Ġáł¬áłłáłªáł°": 5851,
      "Ġáł¬áł£áł¯áłªáł£áłµáł¤": 5852,
      "Ġáł°áł£áł¯áłª": 5853,
      "Ġáł²áłłáł®áłłáł¬áł¢": 5854,
      "áł°áł¢áł¬áł¤": 5855,
      "Ġï¹Ģ": 5856,
      "Ġáł®áłłáł¶áł¢áł®áłłáł¶": 5857,
      "Ġáł³áłłáłŃáłłáłŃáłłáł¨": 5858,
      "PS": 5859,
      "Ġáł´áł¢áł³áł¬áł¤áł¬áł¤": 5860,
      "ĠáłŃáłłáł·áł¤áł¯": 5861,
      "Ġáł²áł¸áł©": 5862,
      "Ġáł¬áłłáł·áł¢áł®áłłáł¬áłłáł¶": 5863,
      "Ġáł³áł£áłŃáł³": 5864,
      "Ġáłłáłªáł´áł¢áłŃ": 5865,
      "áł¨áł¦áłŃáł¦áł³": 5866,
      "Ġáł°áł¢áłŃáł¦áł°": 5867,
      "Ġáłłáłªáłłáł´": 5868,
      "áł£áł³áłłáł¯": 5869,
      "of": 5870,
      "Ġáłłáł¨áł¾áł¦": 5871,
      "Ġáłªáłłáł¶áłłáł¨": 5872,
      "Ġáł¶áłłáł·áł°áł¢áłŃ": 5873,
      "Ġáłªáłłáł¶áł¢áłŃáł¤áł¯áł¤áłŃáł³áłłáłµáł¤": 5874,
      "áłªáł¡áł³áł¡áłŃ": 5875,
      "Ġáł°áł¡áł·áłŃáł¡áłŃ": 5876,
      "Ġáł°áł¡áł·áł¡áł®áłµáł¢": 5877,
      "Ġáł®áłłáłŃáłłáł³áł¯áłłáł¨": 5878,
      "Ġáł¦áłŃáł¡áł°": 5879,
      "Ġáłªáł¤áł¶áłłáł¨": 5880,
      "Ġáł¶áłłáłªáł¤áłŃáł¤áł¯áłµáł¤": 5881,
      "áłłáł¯áł¼": 5882,
      "áł¦áł·áłŃ": 5883,
      "Ġáł¡áł¯áł³áł¡áłª": 5884,
      "Ġáłµáł¢áł±áł¢áłŃáł°áł¡áł¨": 5885,
      "Ġáłłáł¶áł¢áłµ": 5886,
      "Ġáłłáłªáł°áłłáł·": 5887,
      "Ġáł¬áłłáł¯áł³áłłáłªáł¤áł·áł¢áł¯áłłáł¯": 5888,
      "NA": 5889,
      "Ġáł¦áłªáł¡áł³áł¡áłŃ": 5890,
      "Ġáł¦áłªáł¡áł³áł¡áłŃáł°áł¢": 5891,
      "Ġáł®áł¦": 5892,
      "Ġáłłáł¯áł²áłł": 5893,
      "Ġáł²áł¡áłŃáł¦áł°áł¬áł¡áł¯": 5894,
      "áł¢áł¶áłłáł©áł¬áł¤áł¸áłł": 5895,
      "Ġáłºáłłáł¨áłłáł³áłł": 5896,
      "ut": 5897,
      "âĢį": 5898,
      "áł½áł¢": 5899,
      "Ġáł²áłłáł¬áł¢áł¶": 5900,
      "Ġáł®áłłáł¨áł³áł¤áłŃáł¤áł¯áł¬áł¤": 5901,
      "áł¦áł¯áł¦áłŃ": 5902,
      "Ġáł¢áł°áł¬áł¡áłŃáł¦áł·": 5903,
      "Ġáł¬áłłáł®áłłáł·": 5904,
      "Ġáł´áł¢áł³áłłáł®áłłáłŃáłłáł¶": 5905,
      "áł¬áł¦áł·": 5906,
      "ĠAPP": 5907,
      "áł¤áł·áłłáł³": 5908,
      "Ġáłªáł£áłŃáł£áł·": 5909,
      "Ġáł°áł¢áł¯áłµáł¢áł¯áł²áł¡": 5910,
      "Ġáłªáł£áłŃáł£áł·áł°áł£áłŃ": 5911,
      "ie": 5912,
      "Ġáł´áłłáł¬áł¢áł®": 5913,
      "áł¡áł¯áł¬áł¦": 5914,
      "Ġáł¥áł·áł¨": 5915,
      "ĠPC": 5916,
      "Ġáł¦áł¯áł¡áł³áł¡áłŃáł³áł¡áł¯": 5917,
      "áłµáł¢áłł": 5918,
      "Ġáł²áł¡áł®áłµáł¢áłł": 5919,
      "Ġáł³áłłáł·áł¤áłªáł´áł¢": 5920,
      "Ġáł¬áłłáł³áłłáł¨": 5921,
      "Ġáł²áł¤áł³áł¤áł®": 5922,
      "Ġáł°áłłáłŃáł°": 5923,
      "Ġáł®áł¡áł³áł¡áłªáł¡áł¯": 5924,
      "Ġáł¤áł·áł¤áłŃáł°áł¢áł¯áłłáłµáł¤": 5925,
      "Ġáłµáłłáł¯áłŃáłłáłŃáłłáł°áł¤": 5926,
      "Ġáł±áł¦áł·áłŃ": 5927,
      "Ġáłµáłłáł¯áłŃáłłáłŃáł¤áł·": 5928,
      "Ġáł¦áł¶áł¯áł¡áł´áł¢áł¯áł¡áł¬áł¦": 5929,
      "ur": 5930,
      "Ġáł¬áłłáł·áł¢áłµáł¤": 5931,
      "ĠáłŃáł¦áł¢áł´áł¡áł³áł¬": 5932,
      "ĠáłªáłłáłŃáł¤áł·áłłáł¯áł²áłł": 5933,
      "áł¯áłłáłŃáł¤áł·": 5934,
      "Ġáł¨áłłáł·áłł": 5935,
      "Ġáłłáł¶áł¢áłµáłłáł®": 5936,
      "Ġáł¤áł¢áł·": 5937,
      "Ġáłłáł³áłłáł¯áł¢áł³áł¬": 5938,
      "Ġáł°áł¤áł®áł¤": 5939,
      "áł£áł¬áł£áł·": 5940,
      "Ġáł¬áł¥áł¯áł³áł¡áłŃáł¡áł¬áł¦": 5941,
      "áł³áłłáł¯áł¢": 5942,
      "Ġáł¬áł¢áłªáł¡áł¯": 5943,
      "Ġáł¬áłłáł¯áł³áłłáłŃáł°áłłáł¨": 5944,
      "Ġáł±áł£áł°áł¢áłŃ": 5945,
      "Ġáł°áł¡áł¬": 5946,
      "áłłáł±": 5947,
      "Ġáł²áł¥áł·áł¥áł¯áł¬áł¢": 5948,
      "Ġáł°áł¢áł¯áłŃáłłáłµáł¤": 5949,
      "Ġáł°áł¤áł·áłŃáłłáł¯": 5950,
      "Ġáł°áł¥áł·": 5951,
      "áł°áł¢áłŃáł°áłłáł¨": 5952,
      "Ġáł¢áł·áłŃáł¡áł³": 5953,
      "Ġáł´áł¥áł·áł¬áł¡áł¯áł¡áłŃáł¡": 5954,
      "Ġáłµáłłáł¬áł¢áł¶áłłáł¯áłłáł¨": 5955,
      "áł£áłŃáł¢áłŃ": 5956,
      "ab": 5957,
      "áł¦áłŃáł¦áł¯áł¢áłŃ": 5958,
      "Ġáł´áł¤áłŃáł´áłłáłµáł¢áłŃáł¤áł¯áł¤áłŃáł°áłłáł¨": 5959,
      "Ġáłłáł®áłłáł·áłłáł¬áł¤": 5960,
      "Ġáł¬áłłáł²áłłáłŃáł¤áł·": 5961,
      "Ġáł°áłłáł¨áł³áłłáł¯áł¢": 5962,
      "Ġáł°áł¡áł·áł¡áł®áłµáł¢áł¯": 5963,
      "áłłáł¤áł¯": 5964,
      "Ġáł¬áł¡áłªáł°áł¢áłŃáł¦áł¯áł¬áł¦": 5965,
      "Ġáł¥áłŃáł¡áł·áł¡áł´áł¢áł¯áł¡áłµáł¦": 5966,
      "áł«áłłáł¨áł¢": 5967,
      "áł¡áł°áł¬áł¡": 5968,
      "Ġáł³áłłáł¬áł¢áłŃáłłáł³": 5969,
      "Ġáł®áł¡áł³áł¡áłŃáł³": 5970,
      "Ġáł¬áł¦áł·áłŃáł¡áł¯áł²áł¡": 5971,
      "Ġáł´áł¤áłªáł¤áł·áłłáł¯": 5972,
      "Ġáłªáłłáł¶áł¢áłŃáł°áłłáłŃáłłáł·": 5973,
      "Ġáł¬áł¡áł®áłµáł¢áłµáł¦": 5974,
      "Ġáł¨áł¡áł¶áł¢áł°": 5975,
      "Ġáł¬áł¤áłªáł¢áł·áłłáłµáł¤": 5976,
      "áł¯áł¡áłŃáł´áł¢": 5977,
      "áł¤áł©áłŃáł¤áł¶": 5978,
      "Ġáł³áłłáłªáłłáł¬áł¤": 5979,
      "Ġáł³áłłáł°áł¬": 5980,
      "áł¡áłµáł¤": 5981,
      "Ġáł¯áł£áłŃáł¢áłŃ": 5982,
      "áłłáł²áłłáłŃáłłáł¶": 5983,
      "Ġáłµáł¢áłŃáł¤áł²": 5984,
      "Ġáł¹áł¢áł¯áł¢áł®": 5985,
      "ĠáłŃáł¤áł¸áłłáł©áł°áł¢": 5986,
      "Ġáłłáł¯áłªáłłáł³áłłáł¯áłŃ": 5987,
      "Ġáłºáłłáł¯áł¼": 5988,
      "Ġáłªáł¤áł¯áł¤áł¤": 5989,
      "70": 5990,
      "Ġáł³áłłáł°áł¬áłłáł¯áłµ": 5991,
      "Ġ2012": 5992,
      "Ġáłłáł³áłłáł¯áł¢áł³": 5993,
      "Ġáłłáł¯áł®áł¤áł·áłłáł³": 5994,
      "Ġáł£áł¶áł¤áł¨áł¯áł¢áłŃ": 5995,
      "Ġáł³áłłáł¶áł¢áł": 5996,
      "Ġáł®áł¤áł¬áł¤áł¯áłłáłŃ": 5997,
      "Ġáł£áł¶áł¢áł·áłłáł²": 5998,
      "ĠáłŃáł£áł¸áł¯áł¯áłłáł¨": 5999,
      "Ġáłªáł¦áł³áł¦áłŃáł¦áł¯áł¢áłŃ": 6000,
      "Ġáł³áł£áłŃáł¢áł·áłłáł¬áł¤": 6001,
      "áłµáł¢áł±": 6002,
      "Ġáł¬áł¢áłµáłłáłŃáłłáł·áł¯áłłáłµáł¤": 6003,
      "Ġáł²áł¥áł®áł¥áł°áł¥": 6004,
      "Ġáł¬áł¡áł®áłµáł¢áł¯áł³áł¦": 6005,
      "Ġáł¢áł¯áł¡áł·áł¡áł¨": 6006,
      "Ġáł®áłłáł¯áł²áłłáł¬áł¤": 6007,
      "áłłáłŃáł¤áł¯áłªáłłáł¯": 6008,
      "Ġáł¬áł£áł·áł¢áł³áł¤áłŃáłłáł·": 6009,
      "Ġáł±áłłáł³áł¤": 6010,
      "Ġáł³áłłáł°áł¬áłłáł¯áłµáł¢áłŃáł¤áł¯áł¤áłŃáł´áł¢": 6011,
      "Ġáłªáłłáł³áłłáł·áłłáłŃáł¤áł¯áł¬áł¤": 6012,
      "Ġáł¨áł¡áł¶áł¢áł°áł¯áł¡áł¯": 6013,
      "Ġáł¬áł£áł³áł£áłŃáł£áł³áł£": 6014,
      "Ġáłªáł£áł¯áł¤áł®áłµáł¢": 6015,
      "Ġáł³áłłáł³áł¤áł¯áłŃ": 6016,
      "Ġáł¦áł¢áł¯áł¡áł³áł´áł¦": 6017,
      "Ġáł£áł¨áł£áłŃ": 6018,
      "Ġáł®áł£áł·áł¢": 6019,
      "áłłáł·áł¤": 6020,
      "Ġáł¨áł£áłŃáł£áłŃáłłáł·": 6021,
      "á¡ģ": 6022,
      "Ġáł²áł¢áłŃ": 6023,
      "Ġáł°áł¸": 6024,
      "Ġáłªáł¡áł¬áł¡": 6025,
      "áł¤áł²áłłáł¶": 6026,
      "Ġáł°áł£áł¯áłªáł¢áł´": 6027,
      "35": 6028,
      "Ġáł±áł¦áł¨": 6029,
      "Ġáł³áłłáł¯áł³": 6030,
      "Ġáł°áłłáł¬áł¢áłµáł¤": 6031,
      "Ġáł³áłłáłŃáł¤áł·áł¢áł¶áłłáł¯": 6032,
      "ĠáłłáłŃáł¤áł¯áłµáł¤": 6033,
      "Ġáł¦áł¨áł³áł¦áł°áł¦áł¯áł¡áł¯": 6034,
      "Ġáł¢áł¯áł¡áł³áł¬áł¡áł®áłµáł¢": 6035,
      "áłłáł¯áł³áł¤áłŃáł°áłłáł¨": 6036,
      "Ġáłµáł¥áłŃáł¡áłŃáł¡áłªáł¦áł·áł¢áł¯áł¡áł¬áł¦": 6037,
      "100": 6038,
      "24": 6039,
      "Ġáł¤áł©áł°áł¢áłŃáł´áł¢áł³": 6040,
      "Ġáł°áł¡áł©": 6041,
      "Ġáł°áł¢áł¨áłµáł¢áł¶áłłáł©": 6042,
      "Ġáł¢áł³áł¡áł·": 6043,
      "Ġw": 6044,
      "Ġáł¬áłłáł©áłŃáłłáł³áłłáłŃ": 6045,
      "Ġáł²áłłáł¶áł¢áł¯áł¬áł¤": 6046,
      "áł¡áłŃáł¦áł¯áł¦áłŃáł¡áł³": 6047,
      "Ġáł¤áł¨áł´": 6048,
      "áł¦áł¯áł³áł¡": 6049,
      "Ġáł²áłłáł¯áłªáł¢áłŃáł¤áł·": 6050,
      "Ġáł¥áłŃáł´": 6051,
      "Ġáł¬áł¦áł¬áł¡": 6052,
      "Ġáł¬áł¤áł³áłłáł¯áł³áł¤áłŃáłłáł´áł¢áł³": 6053,
      "Ġáł³áł¡áłªáł°áł¢áłŃáł¦áł¯áł¬áł¦": 6054,
      "Ġáł¤áł·áł¤áłŃáł°áł¢áł¯áłłáł¬áł¤": 6055,
      "ĠáłŃáł¤áł¨": 6056,
      "Ġáł¬áł¤áłªáł¢áł·áłłáłŃáł¤áł¯áł¤áł¨": 6057,
      "ation": 6058,
      "Ġáłªáł¤áł¯áł¤áł¤áłł": 6059,
      "Ġáł¬áł¦áł³áł¡áł·": 6060,
      "Ġáł¬áł¡áł·áł¡áłŃáł´áł¡áłŃáł¡áł¨": 6061,
      "Ġáł¨áł¡áłªáł²áł¡áł·áł¡áłŃáł¦áł¯áłµáł¦": 6062,
      "Ġáł²áł£áł¬áł¢áł·áłłáłŃáł¤áł¯áłŃ": 6063,
      "Ġáł°áł¡áł³áł¬áł¢áłŃ": 6064,
      "Ġáł¬áłłáł·áł¢áłŃáł¤áł´áłłáł¬áł¤": 6065,
      "Ġáłªáłłáł¶áł¢áł´áłłáłŃáłłáłŃáł°áłłáł¨": 6066,
      "Ġáł®áł¤áł¤áł·": 6067,
      "Ġáłªáł£áł¯áłªáłłáł°áł¤áł·áłłáł¬áł¤": 6068,
      "Ġáł¬áł¤áł¯áł¤áłŃáłłáł¨": 6069,
      "áł¸áłº": 6070,
      "Ġáłµáł¤áłŃáłłáł´áłłáłŃáł°áłłáł³": 6071,
      "Ġáłªáł¤áł¯áł´áł¢áł·": 6072,
      "Ġáł¤áł®áłª": 6073,
      "Ġáł¬áł¦áł¢áł³áł¡áł¨": 6074,
      "Ġáłµáłłáł¨": 6075,
      "Ġáł¦áł¢áł¯áł¡áł´áł¢áł¯áł¡áłŃáł¦áł·": 6076,
      "ĠáłŃáł¤áł´áł¢áł¨": 6077,
      "Ġáł°áł¦áł¯áłµáł¢áł¢": 6078,
      "Ġáł®áł¡áł³áł¡áłŃáł¡áł¯áł¡áłŃáł°áł¡áł¨": 6079,
      "Ġáł³áł£áłŃáł¢áł·áłłáłŃáł¤áł¯áł¤áł¨": 6080,
      "ĠáłŃáłłáł°áł¢áłŃ": 6081,
      "áł¢áł¯áł¡áł¯áł²áł¡": 6082,
      "Ġáł¡áłŃáł¡áłŃáł¦áł¯áł¦áł¨": 6083,
      "Ġáł°áł£áł·áł£áł¬áł¤": 6084,
      "Ġáł°áł¡áł·áł¢áłŃáł¦áł¨": 6085,
      "ï¸¾áłĤï¸½": 6086,
      "Ġáł¤áł¯áłłáł®áłµáł¢áł¯áłłáł¨": 6087,
      "Ġáł°áł¤áł©áłŃ": 6088,
      "Ġáł£áł¯áł³áłłáłŃ": 6089,
      "Ġáłłáł²": 6090,
      "Ġáł²áł¥áł°áł¦áłªáł¯áł¡áł¯": 6091,
      "Ġáł±áł¦": 6092,
      "áł¯áłŃáł¡": 6093,
      "Ġáłµáłłáł°áłłáł¨": 6094,
      "Ġáł²áłłáł·áł¢áł¯áłŃ": 6095,
      "Ġáł¤áł³áł¤áł·áł¢áł³áł¤áł®áłµáł¢": 6096,
      "Ġáł¬áł¥áłŃáł¡áłŃáł¡áł´áł¡áł¯áł³áł¦áł¬áł¦": 6097,
      "Ġáłµáł¢áł·áł®áł¦áł°áł¦áł¨": 6098,
      "Ġáł¬áł¡áł·áł¡áł°áł¬áł¡": 6099,
      "Ġáł³áł¡áłŃáł¡áł°áł¦áł¨": 6100,
      "Ġáł°áł£áł¬áł£áł·": 6101,
      "ĠáłªáłłáłŃáł¤áł·áłłáłŃáł°áłłáł¨": 6102,
      "Ġáł¬áł¦áł·áł³áł¡áłŃ": 6103,
      "Ġáł±áłłáłŃáłłáł·áł³áłłáłµáł¤": 6104,
      "Ġáł°áł£áł¯áł¢áłŃ": 6105,
      "Ġáł®áł¡áł³áł¡áłŃáł¡áłµáł¢": 6106,
      "Ġáł¥áł·áł¢áł°áł¥áł¯áł³áł¦áł¬áł¦": 6107,
      "Ġáł¬áł¥áłªáł¦áł®áł¡áł¯": 6108,
      "áłµáł¢áłŃáł¤áł¨": 6109,
      "Ġáł¥áł³áł¬áł¡áł¨": 6110,
      "¯áł²áł¤": 6111,
      "Ġáłłáłµáł¢áłŃáł¯áłłáł¬áł¤": 6112,
      "áł¤áłµáłłáł¶": 6113,
      "Ġáł¨áł¢áł¯áłª": 6114,
      "Ġáłµáł¢áł·áłŃáł¤áłŃ": 6115,
      "Ġáł¬áłłáł¶áł¢áłŃ": 6116,
      "Ġáł´áł¤áł¸áłłáł¨": 6117,
      "Ġáł²áł¡áł¬áł¢": 6118,
      "Ġáłłáł¶áł¤áł¬áł¤": 6119,
      "áł¡áł³áł¬áł¡áłŃ": 6120,
      "Ġáł²áłłáł¨áł¢áł¯": 6121,
      "Ġáłłáł¨áłłáł¶": 6122,
      "Ġáł¬áłłáłªáł°áł¤áł·áł¤áł®áłµáł¢": 6123,
      "Ġáł£áł®áł£áłŃ": 6124,
      "Ġáł²áł¡áł¬áł¢áłł": 6125,
      "Ġáł®áł¢": 6126,
      "áłłáł·áłłáłŃáł¤áł¯áł¤áłŃáł°áłłáł¨": 6127,
      "ĠáłŃáł¡áłµáł¢áłŃáł¡": 6128,
      "Ġáł°áł¤áł¨": 6129,
      "Ġáł¤áł·áł¤áł°áł´áłł": 6130,
      "Ġáł¬áł£áł´": 6131,
      "ĠáłŃáł¦áł¶áł¦áł¯áłŃáł¡áł¨": 6132,
      "áł¡áł¯áł¡áł·": 6133,
      "Ġáł²áł¥áł¯áł¥áłŃáł¡áł¯áł¡áł¬áł¦": 6134,
      "áł¤áł¬áł¢áł·": 6135,
      "Ġáł¬áł¦áł´áł¢áł·áł³": 6136,
      "Ġáł´áł¡áłŃáł¡áłµáł¢áł¯áł¡áłµáł¦": 6137,
      "Ġáł±áłłáłŃáłłáł·áł³áłłáł¨": 6138,
      "Ġáłªáłłáł¶áłŃ": 6139,
      "Ġáł³áł¤áł·áłłáł³áł¬áł¤": 6140,
      "áł£áł´áł¢áł¯áłłáłŃáł°áłłáł¨": 6141,
      "85": 6142,
      "Ġáł¨áł¡áłŃáł¦áł³áł¡áł¯": 6143,
      "Ġáł®áł£áł·áł¢áł¨": 6144,
      "Ġáł³áł¤áł·áłłáł³áł¤áł¨": 6145,
      "Ġáł³áł¡áłªáł¢áł°": 6146,
      "Ġáłªáł¦áł·áł¢áł¯áł³áł¦áłŃáł¦áł¯áłµáł¦": 6147,
      "..": 6148,
      "um": 6149,
      "Ġáł´áł¤áłŃáł¯áłłáłŃáł¤áł¯áł¤áłŃáł°áłłáł¨": 6150,
      "ï¼īáłĥ": 6151,
      "Ġáł¥áł©": 6152,
      "Ġáłłáł¶áł¤áłµáł¤": 6153,
      "Ġáł¬áł£áł´áł£áł·": 6154,
      "Ġáł¾áł¯áł£áł·": 6155,
      "Ġáł¬áłłáł®áł¢áł¶áłłáł·áł¤áł¨": 6156,
      "Ġáł¶áłłáł·áł¢áł¯áł´áłłáłŃáłłáł¨": 6157,
      "Ġáł¾áł·": 6158,
      "ĠáłŃáł§": 6159,
      "Ġáł²áł¤áł¯áł¬áł¤": 6160,
      "Ġáł¬áłłáł²áłłáłŃáł¤áłµáł¢áł¯áł²": 6161,
      "Ġáłłáł¹": 6162,
      "Ġáł¡áł¯áł¢áłŃáł¡áł¨": 6163,
      "Ġ2010": 6164,
      "®áłª": 6165,
      "Ġv": 6166,
      "ĠáłŃáłłáł·áł³": 6167,
      "Ġáłªáł£áł¯áłŃáłłáłªáłł": 6168,
      "Ġáłªáł£áł¯áłŃáł£áł®áłµáł¢áł²áłłáł¶": 6169,
      "ĠáłŃáł¦áł¢áł´áł¡áł³áł¬áł¡áł¯": 6170,
      "Ġáł¤áł´áłłáł·áłłáłŃáł°áłłáł¨": 6171,
      "Ġáł²áł¤áł¤áł±": 6172,
      "áł´áł¦áł³": 6173,
      "Ġáł£áł·áł´áł¢áłŃáł¤áł¯áłŃ": 6174,
      "Ġáł¢áł³áł¡áłªáł¬áł¢áłµáł¢áłŃ": 6175,
      "Ġáł¡áł¨áł³áł¡áł¬áł¢": 6176,
      "Ġáłªáł¤áł¯áł´áł¢áł·áł¬áłłáł¶": 6177,
      "áł¤áł¶áł¢áł¬áłłáł¨": 6178,
      "Ġáł¬áł¤áł·áł¢áł¶áłłáłµáł¤": 6179,
      "Ġ32": 6180,
      "Ġáł¬áł£áł·áł®": 6181,
      "Ġáł³áł¤áł¬áł¢áł·": 6182,
      "Ġáł²áł£áł³áł£áł·áł¬áłłáł¶áł¢áł¯áłłáłŃáł°áłłáł¨": 6183,
      "Ġáł¤áł·áł¤áł¯áł³": 6184,
      "Ġáł¡áł·áł¡áłŃáł¦áł¦": 6185,
      "op": 6186,
      "Ġn": 6187,
      "Ġáł±áł¦áł¢áł¨áł¢": 6188,
      "Ġáł²áł£áłŃáłłáł´áłłáłŃáł³áłłáł¨": 6189,
      "Ġáł¦áł¬áł¡áł¢": 6190,
      "Ġáł®áł¡áł³áł¡áłŃáł³áł¡áł¬áł¦": 6191,
      "Ġáł°áł£áł´áł¢áłŃ": 6192,
      "Ġáł³áł£áłª": 6193,
      "ir": 6194,
      "Ġáłµáł¥áłªáł¯áł¡áł¯áłŃáł¡áł¨": 6195,
      "Ġáł¥áł·áł¥áł®": 6196,
      "áłµáł¢áł±áł¢áł¶áł¡áł¯áł¡áłªáł¡áł¯": 6197,
      "Ġáł¬áł¤áł·áłłáł®áł³áł¤áłŃ": 6198,
      "Ġáł°áł¤áł³áł¤áł¯áłµáł¤": 6199,
      "Ġáł´áłłáł·áłłáłŃ": 6200,
      "áł³áłłáłŃáł¤áł¯áł¤áł¨": 6201,
      "Ġáł¡áł¨áł¡áł³áł¬áł¡áłŃ": 6202,
      "Ġáł´áł¤áł¤áł·": 6203,
      "Ġáłłáł¯áł³áłłáł¨": 6204,
      "áł¯áłłáł¨áł³": 6205,
      "áł¡áł¨áł¡": 6206,
      "av": 6207,
      "Ġáł¬áł¡áł¦áł·": 6208,
      "Ġáł¬áłłáł¨áł³áł¢áłª": 6209,
      "Ġáł¶áł¢áł¦": 6210,
      "Ġáł¦áł·áł¦áłŃáł¡": 6211,
      "Ġáłłáł¶áł¤áł¯áł²áłłáł¶": 6212,
      "áł¨áłłáł¬áł¤": 6213,
      "Ġáł´áł¢áł³áł¬áł¥áł·": 6214,
      "Ġáł¢áł²áł¡áłŃáł¡áł®áłµ": 6215,
      "Ġáł¦áł¨áł¡áł¨áł¬áł¦": 6216,
      "ĠáłŃáł¢áł¨áłµáł¢": 6217,
      "Ġáł«áł¤áł¤": 6218,
      "Ġáł¬áł¸": 6219,
      "Ġáł¬áłłáł¨áł³áł¤áł¯áłŃ": 6220,
      "Ġáł°áł¤áł®": 6221,
      "Ġáł¦áł®": 6222,
      "Ġï¹ĩ": 6223,
      "Ġáł¬áł£áł¯áłªáł£áł¬áł¤": 6224,
      "Ġáłłáłªáł°áłłáł·áł¬áłłáł¨": 6225,
      "Ġáłªáł£áłŃáł´": 6226,
      "Ġáł³áłłáłªáł¤áł°áł¤áł¨": 6227,
      "Ġáłµáł£áłªáłłáłŃáł¤áł·áł¢": 6228,
      "Ġáł®áł¢áłºáł·áł£áłª": 6229,
      "¡áłŃ": 6230,
      "Ġáłªáł¤áł´áłłáłŃáłłáł¨": 6231,
      "Ġáł£áł·áł¬": 6232,
      "Ġáł±áłłáłª": 6233,
      "ĠáłłáłŃáł¤áł°áł¤áł®áłłáł¯": 6234,
      "Ġáł¬áłłáłªáł¢": 6235,
      "Ġáł¬áł¥áł³áł¡áł¯áł®áł¦áł·": 6236,
      "Ġáł¨áł¡áł¬áł¡áł³áł¡áł°áł¦": 6237,
      "Ġáł£áł¬áł¢": 6238,
      "Ġáłªáł¡áł¬áł¢": 6239,
      "Ġáł¬áł¤áł·áłłáł¯áł³áł¤áłŃ": 6240,
      "Ġáł²áłłáł°áł¤áł¯": 6241,
      "Ġáł°áł¢áł²áłłáł¯áł²áłł": 6242,
      "Ġáł®áł¥áł·áłŃáł¥": 6243,
      "Ġáł¬áł¦áł°áł¡áł³áł¡áłŃ": 6244,
      "Ġáłªáłłáł²áł¤áł¯áłłáłŃáł°áłłáł¨": 6245,
      "áł¡áł¯áł³áł¦": 6246,
      "Ġáł¬áł¡áł³áł¦áł¶áł¢áł¨": 6247,
      "áłłáł³áłłáł¨": 6248,
      "Ġáł°áłłáłŃáł¤áłŃáł°áłłáł¨": 6249,
      "ia": 6250,
      "áł¯áł¡áł³áł¡áłŃ": 6251,
      "Ġáł¬áł¢áł¯áłªáłłáł·áł¬áłłáł¨": 6252,
      "ĠáłŃáł¤áł²": 6253,
      "Ġáłªáł£áł£áł": 6254,
      "Ġáł¬áłłáł¯áłłáł®áłµáł¢": 6255,
      "ĠáłŃáł¤áł¯áł³": 6256,
      "Ġáł²áł¢áł¶": 6257,
      "Ġáł¬áłłáł¨áł¤áł®áłµáł¢áł²áłłáł¶": 6258,
      "áł¯áłłáłŃáł¤áł¯áł¤áł¨": 6259,
      "Ġáł±áłłáłŃáłłáł·áł³áłłáł¬áł¤": 6260,
      "áł£áłŃáłłáł³": 6261,
      "Ġáłłáłµáł¢áł¯áł¯áłłáłŃáł¤áł¯áłµáł¤": 6262,
      "áł¡áłŃáł¦áł¦": 6263,
      "Ġ2011": 6264,
      "Ġáł¡áłªáł¡áł°áł¦áł¨": 6265,
      "Ġáł²áłłáłŃáłłáł°áł¢áł¶áłłáł¯": 6266,
      "Ġáłłáł®áł¢áł¨": 6267,
      "Ġáł«áł¢áł¶áł£áł£": 6268,
      "Ġáł³áłłáłªáł¬áł¤áł´": 6269,
      "Ġáł²áł¥áłªáł¯áł¡áł·áł¡áł¯": 6270,
      "Ġáłłáł®áłłáł¯áłłáł¯áł²áłł": 6271,
      "Ġáł²áłłáł³áłł": 6272,
      "áł¤áł¯áł¢": 6273,
      "Ġáłªáłłáł¶áł¢áłŃáł¤áł¯áł¤áłŃáł³": 6274,
      "Ġáł¬áłłáł¯áłłáłŃáł¤áł·": 6275,
      "Ġáł¬áł¢áł³": 6276,
      "áł¹áł£áł·": 6277,
      "áł¡áł¯áłµáł¦": 6278,
      "Ġáł®áł¤áł°áł¬": 6279,
      "Ġáł¡áł°áł¢áł²áł¦": 6280,
      "Ġáł³áł¤áł·áłłáł³áł´áł¤": 6281,
      "Ġáł°áł¤áł³áł¤áł·": 6282,
      "Ġáł´áł£áł¬áł¢áł¯áł²áłł": 6283,
      "Ġáł¤áł³áł¤áł·áł¢áł³áł¤áłŃáłłáł´áł¢": 6284,
      "Ġáł¤áł³áł¤áł¨": 6285,
      "Ġáł¦áł·áł¡áłµáł¢áł¯": 6286,
      "áłłáł´áł¢áł³": 6287,
      "áł¦áł¯áł´": 6288,
      "ĠáłŃáł¤áł¶áł¤áł´áł¢áł¯áłłáłŃáł°áłłáł¨": 6289,
      "Ġáłłáłµáł¢áł¯áł¯áłłáłŃáł°áłłáł¨": 6290,
      "Ġáł³áł¡áłŃáł¦áłµ": 6291,
      "Ġáł¤áł¤áłŃáł¤áłµáł¤": 6292,
      "Ġ33": 6293,
      "Ġáł¨áł¡áłŃáł¦áł¯áłŃ": 6294,
      "Ġáł³áł£áłŃáł³áł£áł¯": 6295,
      "Ġáł¨áłłáł¢áł®áłłáł³áł¤áłŃáłłáł·": 6296,
      "áłłáł¶áł¢áł³": 6297,
      "Ġáł¦áł¢áł¯áł¡áł³áł¦áłŃáł°áł¡áł¨": 6298,
      "áł£áł°áł¹áł£áł·": 6299,
      "áł¦áł¯áł¡áłµáł¦": 6300,
      "Ġáł°áł¦áłµáł§áł¦": 6301,
      "Ġáł¬áł¤áłªáł¢áł°áł¬áłłáł¯": 6302,
      "Ġáł²áł¡áł°áłªáł¦áł·áł¢áł²áł¡áł¶": 6303,
      "Ġáł´áł¡áłªáł¡áł·áł¯áł¡áłµáł¦": 6304,
      "áł¢áł®áł¤": 6305,
      "Ġáłłáł°áłłáłŃáł¤áłŃáł°áłłáł¨": 6306,
      "Ġáłłáł¶áł¢áł®": 6307,
      "Ġáł°áł¥áłŃ": 6308,
      "Ġáł£áłŃáł²áł£áł¯": 6309,
      "áł´áłłáłŃáłłáł¨": 6310,
      "Ġáłµáł¢áł·áł¤áłŃáł°áłłáł¨": 6311,
      "Ġáł¬áł¤áł¯áł¤áł°áł¤áł¨": 6312,
      "Ġáł¤áł¨áłłáł¬áł¤": 6313,
      "Ġáł³áł¡áł©áł°": 6314,
      "Ġáł¨áł£áł¶áł¢áł·": 6315,
      "ub": 6316,
      "Ġáł²áł¤áł¶áłłáłŃ": 6317,
      "Ġáł¨áł¢áł¦": 6318,
      "Ġáł²áłłáł¨áł¢áł¯áł´áłłáłŃáł¤áł¯áł¤áł¶": 6319,
      "Ġáł²áł¡áł©áł´áł¡áłŃáł¦áł¦": 6320,
      "Ġáł²áł¡áłŃáł¡áł·": 6321,
      "Ġáł¡á¡ģ": 6322,
      "Ġáł¹áł£áł°áł¹áł£áł·": 6323,
      "Ġáł°áłłáł¨áłłáłŃáł¤áł¯áł¬áł¤": 6324,
      "Ġáł¬áł¤áł¸áłłáł¨": 6325,
      "ĠáłŃáł£áł£áł¯áł´áł¢": 6326,
      "Ġáł£áł¯áłµáłłáłªáł¤áł·áł¢": 6327,
      "ĠáłŃáł£áł·": 6328,
      "Ġáł²áł¦áł·áłªáł¡": 6329,
      "Ġ-": 6330,
      "ap": 6331,
      "Ġáł°áł¢áł¯áłŃáłłáł·": 6332,
      "áł¡áł¶áł¢áł²áł¦": 6333,
      "Ġáł®áł¦áł½áł§áł¶": 6334,
      "áł¤áł¹áł¸": 6335,
      "áł¦áłµáł¡áł¶": 6336,
      "Ġáł²áł¤áł°áł¦": 6337,
      "ĠáłłáłŃáł¤áł¯áłµáłłáł·": 6338,
      "Ġáł²áł¦áłŃáł¦áł®": 6339,
      "áł¢áł³áł¢": 6340,
      "Ġáł°áł¢áłµáł¢áł·": 6341,
      "Ġáł¬áł¤áł³áłłáł¯áł³áł¤áłŃáł°áłłáł¨": 6342,
      "Ġáłłáł®áłłáłªáł´áł¢": 6343,
      "Ġáł¡áł¬áł¢áł¯áł¡áłŃáł¦áł¯áł¬áł¦": 6344,
      "Ġáłµáłłáł¶áł¢áł¯áłłáł¬áł¤": 6345,
      "Ġáłªáłłáł¶áł¢áł²áłłáł¯": 6346,
      "Ġáł¬áłłáł·áłŃáł¤áłŃáł¤áł¯áł¬áł¤": 6347,
      "áł¡áł³áł¡áłŃáł¡": 6348,
      "áł¬áł¡áłŃáł´áł¢áł¨": 6349,
      "Ġáłªáłłáł·áłłáłŃáł¤áł¨áł°áł¢": 6350,
      "Ġáł°áłłáłŃáł¤áł¯": 6351,
      "Ġáł´áł¢áł©áłŃáłłáł·áłłáłŃáł¤áł¯áłµáł¤": 6352,
      "Ġáłªáł£áł¯áłªáłłáł°áł¤": 6353,
      "áł¡áł³áłªáł¦áł·áł¢": 6354,
      "Ġáł¤áłŃáł°áłłáłŃ": 6355,
      "Ġáł£áł¢": 6356,
      "Ġáł´áł¢áł¬áł¡áł´áł¢": 6357,
      "75": 6358,
      "Ġáł¬áłłáł²áł¤áł¨": 6359,
      "ul": 6360,
      "Ġáł¬áł¤áł·áł¤áł¬áłłáł¢": 6361,
      "Ġáłµáł¢áłŃáł°áłłáłŃáłłáłŃáł°áłłáł¨": 6362,
      "Ġáłµáł¥áłªáł¯áł¡áłŃáł´áł¢": 6363,
      "Ġáł²áł£áłŃáł¯áłłáłŃáł°áłłáł¨": 6364,
      "Ġáł°áł¦áłªáł¡áłŃáł´áł¢áł¯áł¡áłµáł¦": 6365,
[...]
