{"<unk>":0,"<pad>":1,"<bos>":2,"<eos>":3,"!":4,"\"":5,"#":6,"$":7,"%":8,"&":9,"'":10,"(":11,")":12,"*":13,"+":14,",":15,"-":16,".":17,"/":18,"0":19,"1":20,"2":21,"3":22,"4":23,"5":24,"6":25,"7":26,"8":27,"9":28,":":29,";":30,"<":31,"=":32,">":33,"?":34,"@":35,"A":36,"B":37,"C":38,"D":39,"E":40,"F":41,"G":42,"H":43,"I":44,"J":45,"K":46,"L":47,"M":48,"N":49,"O":50,"P":51,"Q":52,"R":53,"S":54,"T":55,"U":56,"V":57,"W":58,"X":59,"Y":60,"Z":61,"[":62,"\\":63,"]":64,"^":65,"_":66,"`":67,"a":68,"b":69,"c":70,"d":71,"e":72,"f":73,"g":74,"h":75,"i":76,"j":77,"k":78,"l":79,"m":80,"n":81,"o":82,"p":83,"q":84,"r":85,"s":86,"t":87,"u":88,"v":89,"w":90,"x":91,"y":92,"z":93,"{":94,"|":95,"}":96,"~":97,"¡":98,"¢":99,"£":100,"¤":101,"¥":102,"¦":103,"§":104,"¨":105,"©":106,"ª":107,"«":108,"¬":109,"®":110,"¯":111,"°":112,"±":113,"²":114,"³":115,"´":116,"µ":117,"¶":118,"·":119,"¸":120,"¹":121,"º":122,"»":123,"¼":124,"½":125,"¾":126,"¿":127,"À":128,"Á":129,"Â":130,"Ã":131,"Ä":132,"Å":133,"Æ":134,"Ç":135,"È":136,"É":137,"Ê":138,"Ë":139,"Ì":140,"Í":141,"Î":142,"Ï":143,"Ð":144,"Ñ":145,"Ò":146,"Ó":147,"Ô":148,"Õ":149,"Ö":150,"×":151,"Ø":152,"Ù":153,"Ú":154,"Û":155,"Ü":156,"Ý":157,"Þ":158,"ß":159,"à":160,"á":161,"â":162,"ã":163,"ä":164,"å":165,"æ":166,"ç":167,"è":168,"é":169,"ê":170,"ë":171,"ì":172,"í":173,"î":174,"ï":175,"ð":176,"ñ":177,"ò":178,"ó":179,"ô":180,"õ":181,"ö":182,"÷":183,"ø":184,"ù":185,"ú":186,"û":187,"ü":188,"ý":189,"þ":190,"ÿ":191,"Ā":192,"ā":193,"Ă":194,"ă":195,"Ą":196,"ą":197,"Ć":198,"ć":199,"Ĉ":200,"ĉ":201,"Ċ":202,"ċ":203,"Č":204,"č":205,"Ď":206,"ď":207,"Đ":208,"đ":209,"Ē":210,"ē":211,"Ĕ":212,"ĕ":213,"Ė":214,"ė":215,"Ę":216,"ę":217,"Ě":218,"ě":219,"Ĝ":220,"ĝ":221,"Ğ":222,"ğ":223,"Ġ":224,"ġ":225,"Ģ":226,"ģ":227,"Ĥ":228,"ĥ":229,"Ħ":230,"ħ":231,"Ĩ":232,"ĩ":233,"Ī":234,"ī":235,"Ĭ":236,"ĭ":237,"Į":238,"į":239,"İ":240,"ı":241,"Ĳ":242,"ĳ":243,"Ĵ":244,"ĵ":245,"Ķ":246,"ķ":247,"ĸ":248,"Ĺ":249,"ĺ":250,"Ļ":251,"ļ":252,"Ľ":253,"ľ":254,"Ŀ":255,"ŀ":256,"Ł":257,"ł":258,"Ń":259,"á¡":260,"á¢":261,"á¡ª":262,"á¡Ń":263,"á¡¬":264,"á¡ªá¢":265,"Ġá¡":266,"Ġá¢":267,"á¡ªá¡":268,"á¡Ńá¢":269,"á¡¬á¢":270,"á¡§":271,"á¡±":272,"áł":273,"Ġá¡¥":274,"á¡³":275,"á¡ªá¡§":276,"á¡¨":277,"Ġá¢ĺ":278,"á¡Ńá¡§":279,"Ġá¡³":280,"Ġáł":281,"á¡«":282,"Ġá¡¬":283,"á¡Ńá¡¬á¢":284,"á¡ªá¢Ĭ":285,"á¡Ńá¢ĳ":286,"á¡ªá¢ŀ":287,"á¡ªá¡±":288,"á¡ªá¡¬":289,"á¡ªá¡ª":290,"á¡ªá¡±á¡±":291,"á¡ªá¢Ļ":292,"á¡±á¡±":293,"á¡Ńá¢ŀ":294,"Ġá¡¯":295,"Ġá¢Ķ":296,"á¡ªá¡«":297,"á¡ªá¢ĳ":298,"Ġá¢Ĭ":299,"á¡ªá¢Ŀ":300,"á¡ªá¢Ķ":301,"á¡¬á¡§":302,"Ġá¡¸":303,"Ľá¡³":304,"á¢Ļ":305,"Ġá¡´":306,"á¡ªá¡³":307,"ĠáłĤ":308,"á¡Ńá¡¬":309,"á¡ªá¡¨":310,"Ġá¡Ńá¡§":311,"á¡¬á¢ĳ":312,"Ġá¡¥á¢":313,"á¡ªá¢Ĳ":314,"Ġá¢Ļ":315,"Ġá¢Į":316,"Ġá¡¥á¡Ńá¡¬á¢":317,"Ġáłĥ":318,"Ġá¢ļ":319,"á¢Ĭ":320,"á¡Ńá¢Ļ":321,"Ġá¡¬á¡¬á¡§":322,"Ġá¢ĭ":323,"Ġá¢ľ":324,"á¡ªá¢Ľá¡³":325,"á¡ªá¢İ":326,"á¡ªá¢ĭ":327,"Ġá¢Ļá¡³":328,"Ġá¡³á¡ªá¡¬":329,"á¡¬á¢Ļ":330,"á¢Ķ":331,"á¢ļ":332,"īá¡¨":333,"Ġá¢ĭá¡Ńá¡¬á¢":334,"á¡Ńá¢Ĭ":335,"á¡Ńá¡±á¡±":336,"ãĢ":337,"á¡ªá¢Ķá¡ªá¡§":338,"á¡ªá¡Ńá¡§":339,"á¡Ńá¢Ĳ":340,"Ġá¡¥á¡Ńá¡¬á¢Ĭ":341,"á¡Ńá¡ª":342,"á¡¬á¢ŀ":343,"á¡ªá¡¬á¡¨":344,"°á¡¨":345,"ĠãĢ":346,"á¡¬á¡":347,"á¡ªá¢ļ":348,"Ġá¢Ī":349,"Ġá¡¥á¡Ńá¡¬":350,"Ġá¡¯á¡«":351,"Ġá¡¬á¡¬":352,"á¡¬á¢Ĭ":353,"á¡Ńá¢Ķ":354,"á¡ªá¢ĩ":355,"Ġá¡´á¡Ńá¢ĳ":356,"Ġá¡«":357,"á¡Ńá¢Ŀ":358,"á¡Ńá¡ªá¢Ĭ":359,"á¡¥":360,"á¡ªá¢ĭá¡Ń":361,"á¢Ľ":362,"á¡ªá¢Ľ":363,"á¡¬á¢ľ":364,"áłł":365,"Ġá¡¬á¡«":366,"ļá¡§":367,"Ġá¡¥á¡Ńá¡¬á¢Ĭá¡ªá¡«":368,"Ġá¡¥á¡Ńá¢ŀ":369,"á¡¬á¢Ĳ":370,"Ġá¡³á¡ªá¡§":371,"á¡ªá¡ªá¡³":372,"Ġá¡¥á¢ļá¡§":373,"á¡Ńá¡³":374,"Ġá¢ĺá¡ªá¡«":375,"á¡ªá¡ªá¡ªá¡³":376,"Ġá¡´á¡Ńá¡¬á¢":377,"á¡ªá¡´":378,"á¡¬á¡±":379,"áłłáł":380,"á¡¬á¡±á¡±":381,"á¡¬á¡¦":382,"á¢ĳ":383,"Ġá¡¥á¡Ńá¢ĳ":384,"á¡Ńá¢į":385,"á¢Ķá¡ªá¡§":386,"á¢ĭ":387,"Ġá¢ĺá¡Ńá¡¬á¢":388,"á¡´":389,"Ġá¡³á¡ªá¢Ŀ":390,"á¡ªá¡±á¡±á¡Ńá¢ĳ":391,"á¡Ńá¡«":392,"á¡ªá¡±á¡±á¡ªá¡§":393,"áł¢":394,"Ġá¡¬á¡¬á¡ªá¡§":395,"á¡ªá¢ĳá¢Ļ":396,"Ġá¢ĺá¡ªá¢ŀ":397,"á¡Ńá¢ľ":398,"á¡ªá¡ªá¢Ĭ":399,"á¡Ńá¢İ":400,"á¡ªá¢īá¡¨":401,"áł¡":402,"áł¤":403,"Ġá¢ĺá¡ªá¢Ĭ":404,"á¡Ńá¢ĵ":405,"Ġá¢ĭá¡Ńá¡¬á¢İ":406,"á¡Ńá¢ļ":407,"ĠãĢĭ":408,"á¡Ńá¡ªá¢Ĭá¡±á¡±":409,"á¡ªá¢Ļá¡³":410,"á¡¬á¢ļ":411,"ĠãĢĬ":412,"á¡ªá¡ªá¡ªá¢Ķá¡ªá¡§":413,"á¢ĺ":414,"á¡¬á¢Ľá¡³":415,"á¡¬á¢İ":416,"á¡Ńá¡ªá¡ª":417,"Ġá¡¥á¢ŀ":418,"á¡¬á¡°á¡¨":419,"Ġá¡³á¡ªá¡¬á¡¬":420,"á¡Ńá¡ªá¡ªá¢Ķá¡ªá¡§":421,"á¡Ńá¢ĩ":422,"Ġá¡¯á¡¬á¢Ĭ":423,"á¡«á¡¨":424,"á¢Ĭá¡ªá¡¨":425,"á¡ªá¢ľ":426,"á¢Ľá¡³":427,"á¡ªá¢Ŀá¡¨":428,"áł¢áł":429,"Ġá¡¸á¡ªá¢ŀ":430,"áł¡áł":431,"á¡Ńá¡Ńá¡§":432,"á¡¬á¢Ķ":433,"á¢īá¡¨":434,"Ġá¡¥á¡ªá¢ŀ":435,"á¡¬á¡¬":436,"á¡Ńá¡":437,"á¡ªá¡°á¡¨":438,"á¡ªá¢Ĳá¡¨":439,"Ġá¢Ķá¡Ńá¢ŀ":440,"á¡ªá¢Ĭá¡ªá¡¨":441,"á¡Ńá¡±":442,"Ġá¡¥á¡ªá¢İ":443,"Ġá¢ļá¡³":444,"Ġá¢Ĭá¡ªá¢Ľá¡³":445,"á¡ªá¢Ĭá¢Ķá¡ªá¡§":446,"áł¤áł":447,"á¡¬á¡ªá¡ª":448,"Ġá¢ı":449,"Ġá¢ĭá¡Ńá¡¬á¢İá¡Ńá¡§":450,"á¡ªá¢į":451,"Ġá¢ľá¡Ńá¢į":452,"Ġá¢Įá¡Ńá¡ªá¢Ĭá¡±á¡±":453,"á¡¬á¢ĭ":454,"á¢Ł":455,"á¡¬á¡¬á¡¨":456,"Ġá¡¬á¡¬á¡ªá¢Ŀ":457,"á¡ªá¡ªá¡¬á¡¨":458,"á¡¬á¢Ŀ":459,"á¡¬á¢ĩ":460,"Ġá¢ĺá¡³":461,"á¡¬á¡±á¡«":462,"Ġá¢ĺá¡Ńá¡¬á¢ŀ":463,"áł¦":464,"Ġá¢Ĭá¡ªá¢Ļ":465,"Ġá¢Įá¡Ńá¡ªá¢Ĭá¡±á¡±á¡Ńá¢Ĳ":466,"á¡Ńá¢Ľá¡³":467,"á¡Ńá¡°á¡¨":468,"Ġá¢Ĭá¡ªá¢ĳ":469,"á¡ªá¡ªá¢Ķá¡ªá¡§":470,"Ġá¢Ĭá¡ªá¢ŀ":471,"á¡ªá¢Ĭá¡ªá¡§":472,"á¡ªá¡±á¡±á¡³":473,"á¢Ļá¡§":474,"á¡ªá¢Ķá¡«":475,"Ġá¡³á¡ªá¡¬á¡¬á¡°á¡¨":476,"Ġá¢ľá¡ªá¡´":477,"Ġá¢ĭá¡Ńá¡¬á¢ŀ":478,"Ġá¡¥á¡Ńá¢Ļ":479,"Ġá¡¸á¡Ńá¢ŀ":480,"Ġá¡¥á¡±":481,"Ġá¡¥á¡¬á¢ŀ":482,"Ġá¡³á¡ªá¢ŀ":483,"á¡ªá¢Ļá¡§":484,"Ġá¢ĭá¡Ńá¡¬":485,"á¡¬á¡«á¡¨":486,"Ġá¢Ķá¡ªá¡¬":487,"Ġá¡¥á¡Ńá¡¬á¢Ľ":488,"á¡ªá¢ĭá¡Ńá¢ĳ":489,"Ġá¢ĺá¡ªá¡±á¡±":490,"Ġá¡¯á¡¬á¢Ĭá¡ªá¡¨":491,"á¡³á¡ªá¡¨":492,"Ġá¡¬á¡Ńá¡¬":493,"Ġá¡¯á¡ªá¡¬":494,"Ġá¢Īá¡ªá¢ŀ":495,"á¡Ńá¢Ĭá¡ªá¡¨":496,"Ġá¡¸á¡ªá¢İ":497,"Ġá¢ĺá¡ªá¢ĳ":498,"Ġá¡´á¡Ńá¢Ĳ":499,"á¡ªá¢Ķá¡³":500,"á¢ļá¡³":501,"á¡Ńá¢īá¡¨":502,"á¡ªá¢Ĭá¢Ļ":503,"áłĤ":504,"á¡ªá¢Ĭá¢Ĭ":505,"Ġá¡¥á¡Ń":506,"á¢ĭá¡Ń":507,"Ġá¡´á¡Ńá¢Ļ":508,"á¡¸":509,"á¡¬á¢į":510,"Ġá¡¥á¡ªá¢Ľ":511,"á¡ªá¢ļá¡«":512,"á¡ªá¡Ńá¡ªá¢Ĭ":513,"á¡Ńá¡¬á¢ŀ":514,"Ġá¡¥á¡±á¡§":515,"Ġá¡³á¡ªá¡¬á¡¬á¢Ļ":516,"Ġá¢Ĺ":517,"Ġá¢ıá¡§":518,"Ġá¡Ĵ":519,"á¡¬á¢Ľ":520,"Ġá¢Įá¡ªá¢Ļ":521,"á¡ªá¡ªá¡ª":522,"á¡¬á¢īá¡¨":523,"Ġá¡¥á¢Ĭ":524,"á¡Ńá¡ªá¡ªá¢Ļ":525,"á¢ļá¡«":526,"Ġá¡¥á¢Ļ":527,"áł¦áł":528,"á¡ªá¡ªá¡ªá¢Ļ":529,"á¡¬á¡±á¡±á¡Ńá¢ĳ":530,"á¡ªá¡¬á¡¬á¢ĳ":531,"á¡¬á¡³":532,"á¢ŀ":533,"Ġá¢ĺá¡ªá¢İ":534,"ĠáłĦ":535,"Ġá¡¥á¢İ":536,"á¡ªá¢ĭá¡Ńá¡§":537,"Ġá¡¥á¡Ńá¢ĳá¡Ńá¢ĵ":538,"Ġá¡¬á¡ªá¢ŀ":539,"á¡¬á¢ľá¡ªá¡§":540,"Ġá¡³á¡¬á¡¦":541,"Ġá¡¥á¡Ńá¡¬á¡±":542,"Ġá¡¥á¡ªá¢ĳ":543,"á¡±á¡±á¡ªá¡§":544,"á¡ªá¢ĳá¢Ļá¡§":545,"á¡ªá¡ªá¢Ļ":546,"á¡Ńá¢ŀá¡«":547,"á¡Ńá¡ªá¡ªá¡³":548,"Ġá¡¸á¡Ńá¢ľ":549,"á¡Ńá¢Ķá¡³":550,"á¢Ļá¡³":551,"Ġá¢ĺá¡ªá¢ŀá¡§":552,"Ġá¢ľá¡ªá¢ŀ":553,"Ġá¡¬á¡¬á¢ŀ":554,"á¡ªá¡Ńá¢Ĭ":555,"á¡Ńá¢Ľ":556,"Ġá¡³á¡ªá¡¬á¡¬á¡ªá¡ªá¢Ķá¡ªá¡§":557,"á¡ªá¡³á¡ªá¢Ĳ":558,"Ġá¢ľá¡ªá¢Ĭá¡ªá¡¨":559,"á¡¬á¡Ńá¡§":560,"á¡Ńá¢ĭ":561,"Ġá¢ĺá¡Ńá¢İ":562,"á¡Ńá¡±á¡±á¡Ńá¢ĳ":563,"á¡ªá¡±á¡±á¡ªá¡Ńá¡§":564,"Ġá¡ĵ":565,"á¡¯":566,"á¡ªá¢ĵ":567,"Ġá¢ľá¡ªá¡±á¡±":568,"Ġá¡³á¡ªá¡¬á¡¬á¢īá¡¨":569,"Ġá¡¥á¡Ńá¡¬á¡³":570,"á¡¬á¡ªá¡ªá¡ªá¡§":571,"Ġá¢ĭá¡Ńá¡¬á¢Ĭ":572,"Ġá¡³á¡ªá¡¬á¡¬á¡ªá¡ªá¡³":573,"á¡ªá¡«á¡¨":574,"Ġá¡¥á¡ªá¡³":575,"Ġá¡¥á¡Ńá¡¬á¢ŀ":576,"Ġá¡³á¡¬á¢ļ":577,"Ġáłª":578,"Ġá¡¥á¡Ńá¡¬á¡ªá¢Ļ":579,"á¡ªá¢Ļá¡ªá¢ĩ":580,"á¡¦":581,"Ġá¡¥á¢ĭ":582,"á¡³á¡ªá¡§":583,"Ġá¢ĺá¡Ńá¢ĳ":584,"á¡Ńá¢Ĭá¢Ķá¡ªá¡§":585,"Ġá¡´á¡Ńá¡«":586,"á¡¬á¡ªá¡ªá¡³":587,"Ġá¢ĺá¡Ńá¢Ļ":588,"á¡ªá¢Ĭá¡ªá¡Ńá¡§":589,"Ġá¡¥á¡ªá¡´":590,"Ġá¡¥á¡¬á¢ĳ":591,"Ġá¡¸á¡Ńá¡³":592,"Ġá¢Ķá¡Ńá¢ŀá¡±á¡±":593,"á¡ªá¡³á¡ªá¡¨":594,"á¡Ńá¡¬á¢Ĭ":595,"Ġá¢Ĭá¡ªá¢Ļá¡ªá¡¬á¡¨":596,"Ġ(":597,"Ġá¡´á¡Ńá¡¬á¢ĭ":598,"Ġá¡¥á¡Ńá¡¬á¡¬á¢ĳ":599,"Ġáł¤":600,"á¡ªá¡Ń":601,"Ġá¢Įá¡¬á¡±á¡«":602,"á¡Ńá¡¬á¡¨":603,"á¡¬á¢Ļá¡§":604,"Ġá¡¥á¡Ńá¢ĳá¡ªá¡§":605,"Ġá¢Ķá¡ªá¡Ńá¡ªá¢Ĭ":606,"Ġá¡¥á¡Ńá¡¬á¡«á¡¨":607,"Ġá¡¥á¢Ľ":608,"Ġá¢Ķá¡¬á¢ĳ":609,"á¡Ńá¡±á¡±á¡ªá¡Ńá¡§":610,"Ġá¡¥á¡Ńá¢ļ":611,"Ġá¢Ĭá¡ªá¡Ńá¢Ĭ":612,"á¡ªá¡ªá¢Ĭá¢Ĭ":613,"á¢Ľá¡¬á¢ĳ":614,"Ġá¢Ķá¡ªá¡±":615,"á¡ªá¢ļá¡³":616,"á¡ªá¢Ľá¡ªá¢Ŀ":617,"á¢Į":618,"Ġá¡¥á¡ªá¢İá¡¬á¢Ļ":619,"Ġá¢ĺá¡ªá¡³":620,"Ġá¡³á¡ªá¡¬á¡¬á¢Ļá¡ªá¢ĩ":621,"Ġá¡³á¡ªá¢ľ":622,"Ġá¡¥á¡¬":623,"á¡Ńá¢ĳá¢ļ":624,"Ġá¡¸á¡Ńá¢ľá¡ªá¢Ŀ":625,"Ġá¢ĺá¡ªá¢Ĭá¡ªá¢Ŀá¡¨":626,"á¢Ĭá¡ªá¡§":627,"Ġ)":628,"á¡Ńá¡±á¡±á¡ªá¡§":629,"á¡Ńá¢Ŀá¡¨":630,"Ġáł¬":631,"Ġá¢Īá¡ªá¢Ľá¡ªá¢Ŀ":632,"á¡Ńá¢Ļá¡Ńá¢ĩ":633,"á¡Ńá¢Ļá¡ªá¢Ĳ":634,"á¡ªá¡±á¡±á¡Ńá¡§":635,"Ġá¡¬á¡Ńá¢Ĭ":636,"Ġá¢ĺá¡Ńá¢ŀ":637,"Ġá¡¥á¡ªá¢Ķ":638,"Ġá¢Ĭá¡ªá¢Ŀ":639,"Ġá¢Ķá¡ªá¡±á¡±":640,"čĊ":641,"Ġá¡´á¡Ńá¢ĳá¡ªá¡ªá¡³":642,"á¡¬á¢ľá¡ªá¢Ĳ":643,"á¢Ľá¡«":644,"á¡ªá¢Ļá¡ªá¡¬á¡¨":645,"á¢İ":646,"Ġá¡¥á¡Ńá¡§":647,"¯áł":648,"Ġá¢ĺá¡ªá¢Ļ":649,"á¡Ńá¡ªá¡ªá¡ªá¡«":650,"Ġá¡¥á¡Ńá¡¬á¡³á¡ªá¢Ŀ":651,"á¡¬á¡±á¡³":652,"Ġá¡¯á¡Ńá¢Ļá¡Ńá¢ĩ":653,"á¡ªá¢Ķá¡Ńá¡§":654,"Ġá¢ĺá¡Ńá¡±á¡±":655,"Ġá¡´á¡Ńá¢ŀ":656,"Ġá¡¬á¡¬á¢Ĳ":657,"Ġá¢ĺá¡Ńá¢Ķ":658,"Ġá¢Ļá¡ªá¡±á¡±á¡ªá¡§":659,"á¡Ńá¢Ļá¡ªá¡§":660,"á¡ªá¡±á¡±á¡Ńá¢ĳá¡«":661,"á¡ªá¡ªá¡ªá¡§":662,"Ġá¡¥á¢Ļá¡Ńá¢Ŀ":663,"á¡¬á¢İá¡³":664,"Ġá¢ļá¡¬á¢Ļ":665,"Ġá¡¸á¡Ńá¢ĳ":666,"Ġá¡´á¡Ńá¡¬á¢Ĭ":667,"á¡ªá¢Ĭá¡¬á¡¦":668,"á¡ªá¢Ķá¡§":669,"á¡ªá¢ĳá¢ļ":670,"Ð°":671,"Ġá¢Ĭá¡ªá¢İ":672,"Ġá¢ĺá¡ªá¡¬":673,"Ġá¢Ĭá¡ªá¡Ńá¢Ĭá¡ªá¡Ńá¡§":674,"Ġá¢ĺá¡ªá¢Ĳá¡¨":675,"áłłáłŃ":676,"Ġáł²":677,"á¡Ńá¢ŀá¡ªá¢Ĳ":678,"á¡¬á¢ĭá¡Ńá¢ĳ":679,"á¡Ńá¡¬á¢ĭ":680,"á¡ªá¡ªá¡ªá¢Ķá¡«":681,"Ġá¢ĺá¡ªá¢ĭá¡Ńá¡§":682,"á¡Ńá¡¬á¢ĳ":683,"Ġá¡¥á¡¬á¢Ļ":684,"Ġá¡¥á¡ªá¢ĳá¢Ļ":685,"áłĥ":686,"Ġáł¤áł":687,"Ġá¡¥á¢ŀá¢Ĭ":688,"Ġá¡¥á¡Ńá¡¬á¢ĳ":689,"á¡Ńá¢Ļá¡§":690,"Ġá¢Ķá¡Ńá¢ŀá¡±á¡±á¡ªá¡±á¡±á¡Ńá¢ĳá¡«":691,"Ġá¡¸á¡ªá¡¬":692,"Ġá¡´á¡Ńá¡¬á¢Ļ":693,"Ġá¡Ńá¡³":694,"Ġá¡´á¡Ńá¢ĳá¢Ľá¡³":695,"Ġá¡¥á¡Ńá¢ŀá¡Ńá¡§":696,"Ġá¡¥á¡Ńá¡¬á¢Ĭá¡ªá¡¨":697,"á¡Ńá¡¬á¡§":698,"Ġá¢Ķá¡ªá¡¬á¡¬á¡ªá¡ªá¡ªá¡§":699,"áłłáł¨":700,"á¡ªá¢ĳá¡ªá¢Ľá¡³":701,"Ġá¢ļá¡ªá¢ĩ":702,"Ġá¡¯á¡ªá¢ŀ":703,"á¡Ńá¢Ķá¡Ńá¡§":704,"Ġá¢ĺá¡Ńá¡¬":705,"Ġá¢ļá¡¬á¡±á¡«":706,"Ġá¢ĺá¡Ń":707,"á¡ªá¢Ľá¡ªá¡«":708,"áłİ":709,"á¡¬á¡ªá¡ªá¢Ķá¡ªá¡§":710,"Ġáł¶":711,"Ġá¡³á¡ªá¢Ķá¡§":712,"á¡Ńá¢ĳá¢Ļ":713,"á¡¬á¢Ķá¡«":714,"Ġá¡³á¡ªá¡±á¡±":715,"á¡ªá¢Ĭá¡ªá¢Ŀ":716,"Ġá¡¥á¡Ńá¡ªá¡ª":717,"á¡ªá¢Ļá¡ªá¡«":718,"Ġá¡´á¡Ńá¡¬á¢ŀ":719,"Ġá¢Ĭá¡ªá¢ĭá¡Ń":720,"á¡ªá¢Ĭá¢ĳ":721,"Ġá¢Ķá¡ªá¢ŀ":722,"á¡¬á¢ĭá¡Ń":723,"Ġá¢Ķá¡ªá¡Ńá¡ªá¢Ĭá¡¬á¢Ĳ":724,"Ġá¡³á¡¬á¢ĳ":725,"Ġá¡¥á¡³":726,"á¡¬á¡±á¡±á¡ªá¡Ńá¡§":727,"Ġá¡³á¡ªá¡ªá¡ªá¢Ķá¡«":728,"Ġá¡¬á¡ªá¢ĳ":729,"Ġá¡¥á¡ªá¢ľ":730,"á¡Ńá¡ªá¡ªá¢Ķ":731,"Ġá¢ĭá¡Ńá¡¬á¢İá¡Ńá¢ĵ":732,"á¡ªá¢ŀá¢Ļ":733,"Ġá¡¥á¡ªá¡¬":734,"áłŃ":735,"Ġá¡³á¡ªá¡¨":736,"Ġá¢Ķá¡¬á¡³":737,"á¡¬á¢Ŀá¡¨":738,"á¡ªá¡±á¡±á¡ªá¢Ŀ":739,"á¡Ńá¢Ĭá¡ªá¡§":740,"Ġá¢Īá¡Ńá¢ŀ":741,"Ġá¢ĭá¡Ńá¡¬á¢Ļ":742,"Ġá¢Ĭá¡ªá¢Ķá¡ªá¡§":743,"áł¢áł¨":744,"Ġá¡´á¡Ńá¢ĳá¡Ńá¡ªá¡ªá¢Ķá¡ªá¡§":745,"á¡ªá¢ĭá¡Ńá¡³":746,"Ġá¡¥á¡ªá¢Ľá¡¬á¢Ĳ":747,"á¡ªá¢Ĭá¡ªá¡«":748,"Ġá¡¥á¡ªá¡±á¡±á¡Ńá¢ĳ":749,"Ġá¡³á¡ªá¡«á¡¨":750,"Ġá¢Ķá¡Ńá¡±":751,"Ġá¡¯á¡ªá¢İ":752,"Ġá¡Ńá¡Ńá¡§":753,"Ġá¡¬á¡ªá¢Ķ":754,"Ġá¡¯á¡¬á¢Ĭá¡ªá¡§":755,"Ġá¡¥á¡¨":756,"á¡¬á¡ªá¢Ĭ":757,"Ġá¢Ļá¡ªá¢Ĭá¡ªá¡§":758,"á¡Ńá¡±á¡±á¡³":759,"á¡¬á¢Ļá¡³":760,"á¡ªá¢ļá¡¬á¢ĳ":761,"Ġá¡¬á¡ªá¢ŀá¢Ĭá¡ªá¡¨":762,"á¡ªá¢ĳá¢Ľ":763,"Ġá¢Ķá¡ªá¡¬á¡¬á¡§":764,"Ġá¡¥á¡ªá¢Ļ":765,"á¡ªá¢ĩá¡¨":766,"Ġá¡´á¡Ńá¢ĳá¡Ńá¡°á¡¨":767,"Ġ-":768,"á¡Ńá¡±á¡±á¡ªá¢Ŀ":769,"Ġá¢Īá¡Ń":770,"á¡Ńá¡¬á¡ªá¢Ĭ":771,"Ġá¢Ķá¡¬á¢ŀ":772,"Ġá¡³á¡ªá¢ĳ":773,"Ġá¢ĺá¡Ńá¡¬á¢ĳ":774,"Ġá¡´á¡Ńá¢Ķ":775,"á¢ľ":776,"á¡ªá¢İá¡ªá¢Ŀ":777,"á¡ªá¡ªá¢Ĭá¡±á¡±":778,"á¡ªá¢Ĭá¢Ļá¡ªá¡«":779,"á¢Ļá¡ªá¡§":780,"Ġá¢ĭá¡Ńá¡¬á¡³":781,"á¡Ńá¢Ķá¡¬á¡±á¡±":782,"á¡²":783,"Ġá¢ĺá¡Ńá¡ªá¡ªá¡ªá¡«":784,"Ġá¢Įá¡ªá¡§":785,"Ġá¢Ķá¡Ńá¢ľ":786,"á¡Ńá¢ĳá¢īá¡¨":787,"Ġá¡´á¡Ńá¢ľ":788,"á¡ªá¢ĳá¡«":789,"Ġá¢ĭá¡Ńá¡¬á¢ļ":790,"Ġá¢Ļá¡§":791,"Ġá¡¥á¡Ńá¡¬á¢Ķ":792,"á¡¬á¢ĵ":793,"Ġá¢Ķá¡¬":794,"áłłáł·":795,"áł¡áłŃ":796,"Ġáłģ":797,"Ġá¡¸á¡Ńá¡±á¡±":798,"Ġá¡¥á¡ªá¡±á¡±":799,"á¡¥á¡Ńá¡¬":800,"Ġá¡¬á¡Ńá¢ŀ":801,"Ġá¡´á¡Ńá¢ĳá¡³":802,"Ġá¡¸á¡ªá¡±á¡±":803,"á¡¬á¢Ĳá¡¨":804,"á¡¬á¢Ļá¡ªá¡§":805,"Ŀá¡¨":806,"Ġá¡³á¡¬á¢Ķá¡«":807,"á¢ļá¡¬á¡§":808,"Ġá¢Įá¡¬á¡±á¡³":809,"Ġá¢Ĭá¡ªá¡³":810,"Ġá¡¥á¡Ńá¢ļá¡¬á¢Ŀ":811,"Ġá¢Ķá¡ªá¢ĳ":812,"á¡¬á¡ª":813,"Ġá¡¥á¡Ńá¢Ļá¡³":814,"Ġá¡¥á¡Ńá¢ľ":815,"Ġá¢Ķá¡ªá¢Ŀá¡¨":816,"Ġá¡¬á¡Ńá¡¬á¡¬á¢Ĳ":817,"ĠãĢī":818,"Ġá¡³á¡¬á¢Ļá¡§":819,"Ġá¡¸á¡Ńá¢Ķá¡¬á¡±á¡±":820,"á¡ªá¢ĳá¡ªá¡§":821,"á¡Ńá¢Ĳá¡¨":822,"Ġá¡¥á¡Ńá¡¬á¡ªá¢Ļá¡Ńá¢Ķ":823,"á¡±á¡±á¡ªá¢Ľá¡³":824,"á¡ªá¢ļá¡§":825,"Ġá¡¥á¢Ľá¡«":826,"á¡ªá¢ļá¡¬á¡§":827,"á¡Ńá¢Ł":828,"á¢Ļá¡ªá¢ĩ":829,"á¡¬á¡ªá¡¬á¡¨":830,"ĠãĢĪ":831,"Ñį":832,"á¡ªá¢Ĭá¢ļá¡«":833,"á¢Ī":834,"á¡ªá¢ŀá¢ĳ":835,"Ġá¡¥á¡ªá¢ŀá¡ªá¡Ńá¡§":836,"Ġá¡¥á¡Ńá¡±":837,"Ġá¡¸á¡ªá¢Ļ":838,"Ġá¢Ķá¡Ńá¢ľá¡Ńá¢Ĳ":839,"á¡¬á¢Ĭá¢Ķá¡ªá¡§":840,"á¡Ńá¢Ļá¡³":841,"Ġáłł":842,"Ġá¢ľá¡ªá¡±á¡±á¡ªá¢Ĭ":843,"áł£":844,"Ġá¡³á¡ªá¡¬á¡¬á¡±á¡±á¡Ńá¢ĳ":845,"áł³":846,"Ġá¡¥á¢ĳ":847,"Ġáł¦":848,"Ġá¢ĺá¡Ńá¡ªá¡ªá¢Ļ":849,"ãĢĬ":850,"á¡ªá¡±á¡«":851,"ĠÐ":852,"Ġá¢ĺá¡Ńá¡¬á¢ŀá¡³":853,"Ġáł°":854,"Ġá¢Ĭá¡¬á¢Ļ":855,"áł¬":856,"Ġá¢ĭá¡Ńá¡¬á¢ĳ":857,"Ġá¡¸á¡Ńá¡¬":858,"Ġá¢ĺá¡ª":859,"Ġá¡¥á¡ªá¢İá¡¬á¢Ļá¡Ńá¢ŀá¡ªá¢Ĳ":860,"Ġá¡³á¡¬á¢ĳá¡§":861,"Ġá¢Įá¡Ńá¡¬á¢ŀ":862,"Ġá¡¯á¡Ńá¡¬á¢ĭ":863,"á¡¬á¢ľá¡ªá¢ĳ":864,"Ġá¢Ķá¡¬á¢ĩ":865,"Ġá¡¥á¡ªá¢Ľá¡¬á¢ĳ":866,"á¡¬á¢ĳá¡ªá¢Ľá¡³":867,"Ġá¡¯á¡Ńá¢į":868,"Ġá¢Įá¡ªá¢ŀ":869,"á¡Ńá¢ĳá¡§":870,"Ġá¡¯á¡ªá¡±á¡±":871,"Ġá¡³á¡ªá¡¬á¡¬á¢Ľá¡³":872,"á¡´á¡Ńá¢ĳ":873,"á¡Ńá¢Ļá¡ªá¡«":874,"Ġá¢ĺá¡ªá¡±":875,"Ġá¢Ĭá¡ªá¢ĳá¡§":876,"á¡¬á¢ĳá¢ļ":877,"Ġáł³":878,"Ġá¢ĺá¡Ńá¡¬á¢İ":879,"á¡ªá¡±á¡±á¡Ńá¢ĳá¢Ľá¡³":880,"Ġá¡¸á¡ªá¢ĳ":881,"Ġá¢Ķá¡Ńá¡¬":882,"Ġá¢ļá¡¬á¡±":883,"Ġá¡¯á¡ªá¢Ŀ":884,"á¡Ńá¢ļá¡¬á¡§":885,"á¡¬á¢Ĭá¡ªá¡¨":886,"Ġá¢Įá¡Ńá¡¬á¡§":887,"áł°":888,"á¡¬á¢ĳá¢Ļ":889,"á¡Ńá¡ªá¡ªá¢ļá¡«":890,",\"":891,"á¡³á¡ªá¡¬":892,"Ġá¡¥á¡Ńá¡¬á¡ªá¢Ļá¡Ńá¢Ķá¡Ńá¢Ļá¡ªá¡§":893,"Ġá¢ľá¡ªá¢İá¡ªá¢Ŀ":894,"Ġá¢ĺá¡ªá¡¬á¡¬á¢ĳ":895,"Ġá¡¥á¡ªá¡´á¡Ń":896,"á¡ªá¡²":897,"Ġá¡³á¡ªá¢īá¡¨":898,"á¡ªá¡ªá¢Ĭá¢Ĭá¡¬á¡¦":899,"á¡Ńá¢įá¡¨":900,"Ġá¡¥á¢ŀá¢Ļ":901,"Ġáł¨":902,"Ġá¡³á¡¬á¢ļá¡¬á¡¬á¡¨":903,"Ġá¡¥á¡ªá¢ŀá¢īá¡¨":904,"Ġá¡¸á¡ªá¢ŀá¡¬á¡§":905,"Ġá¡¥á¡ªá¡ªá¡ª":906,"Ġá¡¥á¡´":907,"Ġá¢Īá¡ªá¢Ļ":908,"á¡¬á¢Ĭá¡ªá¡Ńá¡§":909,"Ġá¡´á¡Ńá¢ľá¡³":910,"Ġá¢Īá¡Ńá¡Ńá¢Ĳ":911,"Ġá¡¥á¡ªá¢ŀá¡³":912,"įá¡¨":913,"Ġá¢Ķá¡Ńá¢Ļ":914,"Ġá¢ĺá¡Ńá¢İá¢Ļ":915,"Ġá¡¥á¡ªá¡ªá¢Ĭ":916,"áł¡áł¨":917,"Ġá¡¸á¡Ń":918,"áł¡áł·":919,"Ġá¢Ĭá¡ªá¢Ķ":920,"Ġá¡¸á¡ªá¢İá¡Ńá¢ĩ":921,"Ġá¡³á¡ªá¡¬á¡¬á¢Ĳá¡¨":922,"á¡Ńá¡ªá¡ªá¡ª":923,"áł¢áłŃ":924,"Ġá¢ĺá¡Ńá¡¬á¢ĭ":925,"á¡Ńá¢Ļá¡ªá¢ĩ":926,"Ġá¢ĭá¡Ńá¡¬á¢Ķ":927,"á¡ªá¢Ĭá¢Ķ":928,"á¡Ńá¢ĳá¢Ļá¡§":929,"Ġá¢ĺá¡ªá¢ĳá¡³":930,"Ġá¡¯á¡ªá¢Ŀá¡¨":931,"Ġá¡¥á¡¬á¡¬á¢İá¡³":932,"á¡ªá¢ĭá¡Ńá¢Ĳ":933,"á¡ªá¢ĳá¡ªá¡ªá¡ªá¡³":934,"á¢ŀá¡«":935,"Ġá¡´á¡Ńá¡¬á¢Ļá¡Ńá¢Ĭ":936,"á¡¬á¢ĳá¡ªá¡§":937,"Ġá¢ľá¡ªá¡±á¡±á¡³":938,"Ġá¢Īá¡ªá¢Ŀ":939,"Ġá¡¸á¡ªá¡±á¡±á¡ªá¡§":940,"Ġá¢ĺá¡ªá¢Ķ":941,"Ġá¢Ĭá¡ªá¡Ńá¡§":942,"á¡ªá¡ªá¡ªá¡«":943,"Ġáł¤áł¨":944,"á¡ªá¢ļá¡¬á¡Ńá¡§":945,"Ġá¢Ķá¡¬á¡°á¡¨":946,"Ġá¡´á¡Ńá¢ĳá¡Ńá¡§":947,"á¡ªá¡´á¡Ńá¢ŀá¡«":948,"Ð°Ð":949,"á¡Ńá¡±á¡±á¡ªá¡«":950,"Ġá¡¸á¡Ńá¡³á¡¬á¡¦":951,"á¡±á¡±á¡ªá¡ªá¡ªá¡³":952,"Ġá¢ĭá¡Ńá¡¬á¢İá¡Ńá¢Ľ":953,"Ġá¡¬á¡ªá¢į":954,"á¡´á¡Ńá¢Ŀ":955,"á¡ªá¢ĳá¢īá¡¨":956,"Ġá¡¥á¢İá¡Ńá¡°á¡¨":957,"Ġá¡¥á¢ĭá¡Ńá¡§":958,"áł¢áł¯":959,"Ġá¡¬á¡Ńá¡¬á¡³":960,"Ġá¢ļá¡ªá¡±á¡±á¡ªá¡§":961,"á¡¬á¢Ļá¡ªá¡«":962,"á¡ªá¢İá¢Ķ":963,"Ġáłµ":964,"Ġá¡¥á¢Ķ":965,"á¡Ńá¡ªá¢Ĭá¢Ķ":966,"á¡Ńá¡±á¡«":967,"Ġá¢Ĭá¡¬á¢ļ":968,"á¡ªá¢ĳá¢Ĭá¡ªá¡¨":969,"Ġá¢Ł":970,"Ġá¢Įá¡Ńá¡¬á¡ªá¢Ĭ":971,"á¡¥á¡Ńá¢ŀ":972,"áł¤áł·":973,"Ġá¡¥á¡Ńá¡¬á¢ĭ":974,"á¡ªá¢ŀá¡ªá¢Ľá¡³":975,"Ġá¢Ĭá¡ªá¢Ļá¡Ńá¡§":976,"á¢Ľá¡ªá¡«":977,"Ġá¡¥á¢Ĭá¡ªá¡¨":978,"Ġáł¡":979,"Ġá¢Įá¡ªá¢Ļá¡³":980,"Ġáł¢":981,"á¡¬á¢įá¡¨":982,"Ġá¢ļá¡ªá¢ŀ":983,"Ġá¡¥á¡Ńá¡¬á¡ªá¢Ĭá¢Ĭ":984,"Ġá¡´á¡Ńá¡¬á¢ĳ":985,"Ġá¡¸á¡Ńá¢ĳá¡´":986,"Ġáłłáł":987,"á¡Ńá¡¬á¢İ":988,"á¡¬á¢Ľá¡ªá¡«":989,"Ġá¡¸á¡Ńá¢Ļá¡§":990,"á¡ªá¡±á¡±á¡Ńá¢ĳá¡ªá¡ªá¡³":991,"á¡ªá¢ĳá¢Ļá¡³":992,"Ġá¢Ĭá¡ªá¢ŀá¡ªá¡¬á¡¨":993,"á¡´á¡Ńá¢ŀ":994,"Ġá¢ļá¡¬á¢ĳ":995,"á¡ªá¡ªá¡ªá¢ļá¡«":996,"Ġá¡¬á¡¬á¢ŀá¡±á¡±":997,"Ġá¡¥á¡Ńá¡ªá¡ªá¡ªá¡±á¡±á¡ªá¡§":998,"Ġá¡¥á¡ªá¢Ľá¡¬á¢ĳá¢ĳ":999,"Ġá¡´á¡Ńá¡¬á¢Ŀ":1000,"Ġá¢ĺá¡Ńá¡¬á¢İá¡ªá¡§":1001,"ãĢĭ":1002,"Ġá¡¸á¡ªá¢İá¢Ļá¡³":1003,"á¡ªá¢ĳá¡¬á¢ĩ":1004,"á¡³á¡ªá¢ŀ":1005,"Ġá¢Ĭá¡ªá¢ŀá¡ªá¢Ĭá¢Ļá¡ªá¡«":1006,"á¢Łá¡¦":1007,"á¡Ńá¢ļá¡§":1008,"Ġá¡¯á¡ªá¡¬á¡¬á¢ŀ":1009,"Ġá¢Ķá¡¬á¡¬á¡¨":1010,"Ġá¡¯á¡ªá¢į":1011,"á¢Ľá¡¬á¡«á¡¨":1012,"Ġá¡³á¡ªá¡¬á¡¬á¢Ļá¡ªá¢Ĳ":1013,"Ġ;":1014,"Ġá¡¥á¡Ńá¢ŀá¡Ńá¢Ķ":1015,"áłłáł¯":1016,"á¢Ļá¡ªá¢Ĳá¡¨":1017,"áłłáł¢":1018,"Ġá¡¯á¡ªá¡¬á¡¬á¢Ĭ":1019,"Ġá¡¯á¡Ńá¡±á¡±":1020,"Ġá¡¸á¡ªá¡¬á¡¬á¢ŀ":1021,"Ġá¡´á¡Ńá¡¬á¢Ĭá¡ªá¡Ńá¡§":1022,"á¡ªá¡ªá¡ªá¢Ķ":1023,"Ġá¡¥á¡ªá¢Ķá¡ªá¡±á¡±":1024,"á¡Ńá¢ĳá¡«":1025,"Ġá¢ĭá¡Ńá¡¬á¢Ĭá¢Ľ":1026,"á¡ªá¢Ļá¡Ńá¢Ŀ":1027,"Ġá¢ĺá¡ªá¢Ĭá¢ŀá¡«":1028,"Ġá¢Ĭá¡¬á¢Ļá¡ªá¡Ńá¡§":1029,"á¢ĭá¡Ńá¢ĳ":1030,"Ġá¢ĭá¡Ńá¡¬á¢Ļá¡ªá¢ĳ":1031,"á¡¬á¢ĳá¢īá¡¨":1032,"á¡ªá¢ĳá¡ªá¢Ĳ":1033,"Ġá¡¥á¡¬á¢ŀá¡ªá¢Ĭá¢Ķá¡ªá¡§":1034,"Ġá¡¸á¡ª":1035,"Ġá¢ĺá¡ªá¢ĳá¡ªá¢Ĭá¡ªá¡«":1036,"á¢Łá¢ŀ":1037,"Ġá¡¥á¢ŀá¢Ĭá¡ªá¡¨":1038,"Ġá¢ľá¡ªá¡±á¡±á¡Ńá¢įá¡¨":1039,"Ġá¢Ķá¡Ńá¡¬á¢ĳ":1040,"á¡Ńá¢ĳá¢ļá¡Ńá¡Ńá¡§":1041,"á¡ªá¢Ļá¡ªá¡§":1042,"Ġá¢ľá¡ªá¡´á¡Ńá¢Ļá¡ªá¢Ĳ":1043,"Ġá¢ĺá¡ªá¡´":1044,"Ġá¢ĺá¡Ńá¢ĵ":1045,"á¡Ńá¢ĭá¡Ń":1046,"Ġá¢Ķá¡ªá¡±á¡ªá¢īá¡¨":1047,"Ġá¢¤":1048,"Ġá¢ĺá¡Ńá¢İá¢Ļá¡ªá¢Ļá¡³":1049,"Ġá¡¸á¡Ńá¢Ķá¡¬á¡±á¡±á¡Ńá¡§":1050,"Ġá¡´á¡Ńá¡¬á¢ĭá¡Ńá¡§":1051,"á¡ªá¡ªá¡ªá¢Ĳ":1052,"á¢Ļá¡ªá¡¬á¡¨":1053,"á¢ĳá¡ªá¢Ĳ":1054,"á¡¥á¡Ńá¡¬á¢Ĭ":1055,"Ġá¢Īá¡Ńá¢ŀá¡³á¡ªá¡§":1056,"Ġá¢ĺá¡ªá¢ŀá¡ªá¢īá¡¨":1057,"á¡ªá¡ªá¡ªá¡ªá¡§":1058,"á¡Ńá¢Ĭá¡ªá¡Ńá¡§":1059,"Ġá¡¬á¡ªá¢Ĭ":1060,"Ġá¡¥á¡Ńá¡ªá¢Ĭá¢Ķ":1061,"Ġá¡³á¡ªá¢Ļ":1062,"á¡¬á¢Ĭá¡ªá¢Ŀ":1063,"Ġá¢Ĭá¡ªá¡°á¡¨":1064,"áł¤áł¯":1065,"á¡Ńá¡ªá¡ªá¢ĳ":1066,"Ġá¢ļá¡ªá¢ŀá¡¬á¡¬á¡¨":1067,"á¡¬á¡ªá¡ªá¢Ļ":1068,"Ġá¢ĺá¡Ńá¢İá¢Ļá¡§":1069,"Ġá¢Įá¡Ńá¡¬á¢":1070,"áł¤áłŃ":1071,"Ġá¡¬á¡Ńá¢Ĭá¡¬á¢ľá¡ªá¢Ĳ":1072,"Ġá¢ļá¡«":1073,"á¢ĩ":1074,"Ġá¡¥á¡Ńá¡´":1075,"Ġá¡´á¡Ńá¡¬á¢ĭá¡Ń":1076,"á¡¬á¢İá¡ªá¢ĩ":1077,"Ġá¢ļá¡ªá¢ļ":1078,"Ġá¢ļá¡¬":1079,"Ġá¢Ĭá¡ªá¢ŀá¡ªá¢Ĭá¢ĳ":1080,"Ġá¡¯á¡¬á¡±á¡±":1081,"á¡ªá¡ªá¡Ńá¢Ŀ":1082,"Ġá¡´á¡Ńá¢Ķá¡Ńá¡Ńá¡§":1083,"á¢ĩá¡¨":1084,"Ġá¢Ĭá¡¬á¢Ľá¡³":1085,"Ġá¡¥á¡ªá¡³á¢ļá¡³":1086,"á¡ªá¢Ķá¡¬á¡§":1087,"á¡³á¡ªá¢Ĳ":1088,"Ġá¢Įá¡ªá¢Ĳ":1089,"á¡¬á¡¨":1090,"á¡¬á¢Ļá¡ªá¢ĩ":1091,"Ġá¢ļá¡ªá¡±á¡±":1092,"á¢Łá¢":1093,"Ġá¡¥á¡ªá¡¬á¡¬á¢Ĳ":1094,"áł¨":1095,"Â·":1096,"Ġá¢ĺá¡§":1097,"Ġá¡¬á¡¬á¡±á¡±":1098,"á¡ªá¢ĺ":1099,"á¡Ńá¢ŀá¡¬á¡§":1100,"á¡ªá¢Ľá¡¬á¢ĳ":1101,"Ġáł¶áł¢áł¨":1102,"Ġá¡¥á¡Ńá¡¬á¡±á¡ªá¡§":1103,"Ġá¡¯á¡ªá¡¬á¡¬á¢Ĭá¡ªá¢į":1104,"á¡ªá¢İá¢Ľá¡¬á¢ĳ":1105,"áł·":1106,"á¡±á¡±á¡³":1107,"Ġá¡¬á¡Ńá¡±á¡±":1108,"Ġá¢ĺá¡Ńá¢Ĭ":1109,"á¡ªá¡±á¡±á¡ªá¡«":1110,"Ġá¡¥á¡Ńá¡¬á¡ªá¢Ĭá¢Ĭá¡ªá¢ŀ":1111,"Ġá¢ĺá¡ªá¡¬á¡¬á¢İá¡³":1112,"á¡Ńá¡«á¡¨":1113,"á¡ªá¢ĭá¡Ńá¢ĳá¢Ľá¡³":1114,"ĠáłŃ":1115,"Ġá¡¥á¡Ńá¡¬á¢Ŀá¡¨":1116,"á¢ļá¡¬á¢ĳ":1117,"Ġá¡¥á¢Ĭá¡¬á¢ĳ":1118,"Ġá¢Ķá¡¬á¢Ļ":1119,"Ġá¢Ĭá¡ªá¡§":1120,"Ġá¢Ĭá¡¬á¢ĳ":1121,"Ġáł´":1122,"Ġá¢ĺá¡Ńá¢Ļá¡Ńá¢Ŀá¡¨":1123,"á¡ªá¢Ľá¡«":1124,"Ġá¢ĺá¡ªá¢ĳá¢Ĭ":1125,"á¡Ńá¡ªá¡ªá¡ªá¡§":1126,"Ġá¢Įá¡ªá¢Ķá¡«":1127,"Ġá¢Įá¡Ńá¡ªá¢Ĭá¡±á¡±á¡Ńá¢ĳá¢ļá¡Ńá¡Ńá¡§":1128,"Ġá¡¬á¡ªá¢Ķá¡ªá¢ĩ":1129,"á¡ªá¢ĭá¡Ńá¢ĳá¢ĭá¡Ń":1130,"á¡ªá¡´á¡Ńá¢ŀ":1131,"Ġá¡¸á¡ªá¢Ŀá¡¨":1132,"á¡ªá¡ªá¢Ĭá¡±":1133,"Ġá¡¥á¡Ńá¡¬á¢Ĭá¢ĭ":1134,"Ġá¡¸á¡ªá¡¬á¡¬á¢Ŀá¡¨":1135,"Ġá¡¥á¡¬á¡ªá¢Ĭá¢Ĭ":1136,"Ġá¢Ķá¡Ńá¢Ļá¡Ńá¢ĳ":1137,"á¡¬á¢ŀá¢Ļ":1138,"Ġá¢ŀ":1139,"ĠÑ":1140,"Ġá¢ĺá¡ªá¡Ńá¢Ĭá¡ªá¡¨":1141,"Ġá¢ĭá¡Ńá¡¬á¢İá¡Ńá¢Ľá¡¬á¢Ĳ":1142,"Ġá¡¥á¡Ńá¢Ļá¡ªá¢īá¡¨":1143,"Ġá¢Īá¡ªá¡ª":1144,"á¡ªá¢ĭá¡Ńá¢Ļ":1145,"Ġá¢ĺá¡Ńá¡¬á¢ĭá¡Ńá¢ŀ":1146,"Ġá¢Ķá¡Ńá¡±á¡Ńá¢Ķ":1147,"Ġá¢ĺá¡ªá¡±á¡±á¡Ńá¡³":1148,"Ġá¡¬á¡ªá¢ŀá¡¬á¢į":1149,"Ġá¢ľá¡Ńá¢Ķ":1150,"Ġá¢ĺá¡Ńá¡¬á¡³":1151,"á¡ªá¡ªá¢Ĭá¢Ķ":1152,"Ġá¢ļá¡ªá¢Ĭ":1153,"á¡¬á¢ľá¡ªá¢ŀ":1154,"Ġá¡¸á¡Ńá¢Ļ":1155,"á¡¬á¢ľá¡ªá¢Ľá¡³":1156,"á¡ªá¡³á¢Ķ":1157,"á¡Ńá¡ªá¡¬á¡¨":1158,"Ġáł®":1159,"Ġá¡¸á¡ªá¢ľ":1160,"á¢Ĭá¡¬á¡§":1161,"á¡¬á¢ŀá¡«":1162,"á¡Ńá¢İá¢Ľá¡«":1163,"Ġá¢Ķá¡Ńá¡¬á¢":1164,"Ġá¡¥á¡ªá¡¬á¡¬á¢İá¡ªá¢ĩ":1165,"á¡Ńá¢ŀá¢ĳ":1166,"Ġá¡¸á¡ªá¢Ķ":1167,"ÑĢ":1168,"á¢Įá¡Ńá¡ªá¢Ĭá¡±á¡±":1169,"Ġá¢Ĭá¡ªá¢İá¡ªá¡§":1170,"Ġá¡³á¡ªá¢ŀá¡ªá¡±á¡±á¡Ńá¡§":1171,"Ġá¢ĺá¡Ńá¢Ļá¡Ńá¢ŀ":1172,"Ġá¢ļá¡¬á¢İ":1173,"Ġá¡¯á¡ªá¢Ķá¡Ńá¡§":1174,"âĢ":1175,"ĠÂ·":1176,"áł´":1177,"Ġá¢Ķá¡Ńá¡¬á¡±":1178,"Ġá¡´á¡Ńá¡¬á¢Ķ":1179,"Ð½":1180,"á¡¬á¢ĭá¡Ńá¡§":1181,"Ġá¡¥á¡ªá¡±á¡±á¡Ńá¢ĳá¡§":1182,"Ġá¢Ķá¡¬á¢ĳá¡Ńá¡¬á¡¨":1183,"á¡ªá¢Ĭá¢Ĭá¡ªá¡¨":1184,"á¡Ńá¡¦":1185,"Ġá¡¥á¡Ńá¡¬á¡´á¡Ńá¢Ŀ":1186,"Ġá¡´á¡Ńá¡¬á¢Ĭá¡ªá¡¨":1187,"Ġá¡¥á¡Ńá¡¬á¡ªá¢Ļá¡Ńá¢Ŀ":1188,"áł¡áł³":1189,"Ġá¢Ĭá¡¬á¢ĭá¡Ń":1190,"á¡ªá¡³á¢Ļ":1191,"Ġá¡¬á¡Ńá¡³":1192,"Ġá¡¥á¡³á¡ªá¡Ń":1193,"Ġá¡¥á¡Ńá¢ŀá¡ªá¡§":1194,"á¢Ĭá¡¬á¡¦":1195,"Ġá¡³á¡ªá¡¬á¡¬á¢Ľá¡ªá¡«":1196,"Ġá¢ļá¡¬á¡ªá¡ª":1197,"áł¤áł¯áł":1198,"á¡ªá¢İá¢Ľá¡«":1199,"á¡¬á¡³á¡ªá¡¨":1200,"Ġá¡¥á¡ªá¢ŀá¡³á¡ªá¡§":1201,"Ġá¡³á¡ªá¡¬á¡¬á¡³á¡ªá¡¨":1202,"Ġá¢Įá¡ªá¢Ļá¡ªá¢ĭá¡Ń":1203,"á¡ªá¢įá¡¨":1204,"Ġá¢Ķá¡Ńá¢İ":1205,"á¡¬á¢Ĭá¡¬á¡¦":1206,"Ġá¡¬á¡ªá¢ĭá¡Ńá¡§":1207,"Ġá¢ļá¡¬á¢ŀ":1208,"á¢Ĭá¡ªá¢Ľá¡³":1209,"á¡Ńá¢Ĭá¡ªá¢Ŀ":1210,"Ġá¡¯á¡ªá¢Ķá¡³":1211,"áł¤áł¨":1212,"áł¦áł·":1213,"Ġá¡¥á¡Ńá¢İ":1214,"Ġá¡¥á¡Ńá¢ĳá¢Ľá¡³":1215,"Ġá¡¥á¢ļ":1216,"Ġá¢ĺá¡Ńá¡Ńá¢Ŀá¡¨":1217,"á¡ªá¢Ļá¡Ńá¡±á¡±á¡ªá¢Ŀ":1218,"á¡Ńá¡²":1219,"Ġá¡¸á¡Ńá¡±á¡±á¡Ńá¢ļ":1220,"Ġá¢ĭá¡Ńá¡¬á¡ªá¢Ļ":1221,"áłłáł¶":1222,"Ġá¡¥á¡¬á¢Ļá¡ªá¢Ĭ":1223,"á¡¥á¡Ńá¢ĳ":1224,"á¡Ńá¡ªá¢Ĭá¢Ĭ":1225,"á¡ªá¡±á¡±á¡ªá¢Ľá¡³":1226,"á¡ªá¡±á¡±á¡ªá¡ªá¡ªá¡³":1227,"Ġá¡¥á¡Ńá¡¬á¢Ķá¡Ńá¡¬á¡¨":1228,"áł¯":1229,"Ġá¡´á¡Ńá¢ĳá¡ªá¡ªá¡Ńá¢Ŀ":1230,"Ġá¡¶":1231,"Ġá¢Īá¡ªá¢ŀá¢ļá¡³":1232,"áłłáł³":1233,"Ġá¡¥á¡Ńá¢Ķá¡³":1234,"Ġá¢ĺá¡ªá¢İá¢Ļ":1235,"á¡¥á¡ªá¢ŀ":1236,"Ġá¢ĺá¡Ńá¡¬á¢Ķ":1237,"á¢ĺá¡ªá¢ŀ":1238,"Ġá¡¸á¡Ńá¡±":1239,"Ġá¡¥á¡Ńá¡Ń":1240,"Ġá¡¥á¡Ńá¡¬á¢Ļ":1241,"Ġá¢Ĭá¡¬á¢ļá¡¬á¢ľá¡ªá¢Ĳ":1242,"Ġá¢Įá¡ªá¢ŀá¢Ĭ":1243,"Ġá¡¥á¡ªá¢İá¡¬á¢Ļá¡Ńá¢ŀ":1244,"á¡ªá¢ĭá¡Ńá¡«":1245,"á¡´á¡Ńá¢ŀá¡«":1246,"Ð¾":1247,"á¢Ļá¡Ńá¡§":1248,"Ġá¢Ķá¡Ńá¢ŀá¡Ńá¡ªá¡ªá¢ļá¡«":1249,"Ġá¢ĺá¡ªá¢Ĭá¡ªá¢Ļá¡³":1250,"Ġá¡¸á¡Ńá¡±á¡±á¡Ńá¢ĳ":1251,"á¡ªá¢ĭá¡Ńá¢Ŀ":1252,"á¡ªá¡±á¡±á¡Ńá¢ĳá¡Ńá¡§":1253,"Ġá¡´á¡Ńá¢ĳá¡³á¡ªá¢ļá¡³":1254,"Ġá¡¥á¡ªá¡ªá¢Ĭá¢Ĭá¡¬á¡¦":1255,"¬áł¤":1256,"Ġá¢ĺá¡ªá¢ŀá¡Ńá¢īá¡¨":1257,"Ġá¡¸á¡ªá¡Ńá¢ĳá¡«":1258,"Ġá¢Ĭá¡¬á¡§":1259,"á¡¥á¢ŀ":1260,"Ġá¡¬á¡ªá¡±á¡±á¡Ńá¡§":1261,"Ġá¡´á¡Ńá¡¬á¢ŀá¡«":1262,"Ġá¡¥á¡±á¡ªá¢ĭá¡Ń":1263,"Ġá¡¯á¡ªá¢Ļá¡§":1264,"Ġá¢ĺá¡ªá¢ĭ":1265,"á¡¬á¢Ľá¡§":1266,"Ġá¡¬á¡ªá¢ĳá¡ªá¡±á¡±á¡³":1267,"Ġá¡¬á¡Ńá¡¬á¡¬á¡¨":1268,"Ġá¢Ĭá¡¬á¡¦":1269,"á¡¬á¢Ķá¡Ńá¡§":1270,"á¡Ńá¡¬á¡¬á¢ĳ":1271,"Ġá¢ļá¡¬á¡±á¡ªá¢Ŀ":1272,"á¡ªá¡±á¡±á¡Ńá¢Ŀ":1273,"Ġá¡´á¡Ńá¢ĳá¡±á¡±á¡ªá¡§":1274,"á¡ªá¢ŀá¡ªá¡«":1275,"Ġá¢ļá¡¬á¢Ļá¡ªá¡ªá¡ªá¡³":1276,"Ġá¢ĺá¡ªá¡§":1277,"á¢Ľá¡¬á¢ĳá¢Ļá¡§":1278,"Ġá¡´á¡Ńá¢Ķá¡³":1279,"Ġá¢ľá¡ªá¢ĩ":1280,"áłĬ":1281,"á¢Ļá¡ªá¢Ľá¡³":1282,"Ġá¡¥á¢ŀá¢ĭ":1283,"áłµ":1284,"á¢ļá¡§":1285,"Ġá¢ĺá¡ªá¢Ļá¡ªá¡§":1286,"Ġá¢ľá¡ªá¡´á¡Ńá¡ªá¡ªá¡³":1287,"Ġá¡¬á¡ªá¡ªá¡¬á¡¨":1288,"á¡ªá¢ŀá¡ªá¢Ĳ":1289,"á¡Ńá¡ªá¡ªá¢ļá¡¬á¡Ńá¡§":1290,"Ġá¢ĺá¡ªá¢İá¢Ľ":1291,"Ġá¡¥á¡Ńá¡¬á¢ĳá¡ªá¢Ļ":1292,"Ġá¢Ķá¡Ńá¢ĳ":1293,"Ġá¡¬á¡Ńá¡ªá¡ªá¢Ķ":1294,"áł¡áł¯":1295,"Ġá¡¥á¡ªá¢Ľá¡³":1296,"á¡ªá¡´á¡Ńá¢Ŀ":1297,"Ġá¡¥á¡¬á¡±":1298,"Ġá¡¥á¡ªá¡ªá¡ªá¡Ńá¡«":1299,"á¡¥á¡Ńá¡¬á¢":1300,"á¢Įá¡Ńá¡ªá¢Ĭá¡±á¡±á¡Ńá¢Ĳ":1301,"á¡¬á¢ĳá¢Ļá¡§":1302,"Ġá¢ľá¡Ńá¢Ķá¡³":1303,"á¢ļá¡¬á¡ªá¡ª":1304,"Ġá¡³á¡¬á¢Ļá¡ªá¡§":1305,"Ġá¢Ķá¡ªá¢ľ":1306,"á¡ªá¢Ľá¡¬á¢Ĳ":1307,"Ġá¡´á¡Ńá¢ļ":1308,"á¡ªá¢ŀá¡ªá¡§":1309,"Ġá¡¥á¡ªá¢ĳá¡«":1310,"Ġá¡¯á¡ªá¡ªá¡¬á¡¨":1311,"Ġá¡´á¡Ńá¢ŀá¡ªá¡ªá¡ªá¡§":1312,"á¡ªá¡ªá¡ªá¢Ļá¡ªá¢Ľá¡³":1313,"Ġá¢Ķá¡Ńá¡¬á¢ŀ":1314,"Ġá¢ļá¡¬á¡ªá¢Ĭ":1315,"Ġá¢ĺá¡Ńá¢ĳá¡Ńá¡±á¡±á¡ªá¡«":1316,"Ġá¡´á¡Ńá¢ĳá¡±á¡±":1317,"Ġá¡¥á¡Ńá¡¬á¢Ĭá¡ªá¢Ŀá¡¨":1318,"Ġá¢Īá¡ªá¢Ĳ":1319,"Ġá¡¸á¡Ńá¢ŀá¡ªá¢Ĳ":1320,"Ġá¢Ķá¡Ńá¢ŀá¡±á¡±á¡ªá¡§":1321,"á¡¬á¢ĩá¡¨":1322,"Ġá¡¯á¡ªá¡¬á¡¬á¢Ļ":1323,"Ġá¢ĺá¡Ńá¡³":1324,"Ġá¡¯á¡ªá¢Ķ":1325,"Ġá¢Īá¡Ńá¢ľ":1326,"Ġá¡¥á¡Ńá¢ŀá¡Ńá¢Ľá¡³":1327,"Ġá¡¥á¡Ńá¢ŀá¡Ńá¢ĳá¢Ļ":1328,"ÑįÐ":1329,"Ġá¡¥á¡¬á¢ŀá¡ªá¢ĭá¡Ń":1330,"á¢ĺá¡ªá¢Ĭ":1331,"Ġá¡¯á¡ªá¢Ĭ":1332,"áłª":1333,"á¡¬á¢ĭá¡Ńá¢ĳá¢ĭá¡Ń":1334,"Ġá¢Įá¡ªá¡±á¡±á¡³":1335,"Ġá¡¥á¡ªá¢ĳá¢Ļá¡ªá¡§":1336,"Ġá¢ĺá¡ªá¢Ĭá¡ªá¡§":1337,"Ġá¡¯á¡¬á¢Ļá¡³":1338,"Ġá¡¯á¡¬á¢Ĭá¡ªá¢Ļ":1339,"á¡ªá¡¬á¡¬á¢ŀ":1340,"Ġá¢Įá¡ªá¡±á¡«":1341,"á¡Ńá¢ĭá¡Ńá¡§":1342,"Ġá¢¥":1343,"Ġá¢Ĭá¡ªá¢ĳá¡ªá¢ĭá¡Ń":1344,"µáł¤":1345,"Ġá¡¥á¡Ńá¡¬á¡¬á¢ĳá¡§":1346,"áł¡áł¬":1347,"Ġá¡³á¡ªá¡¬á¡¬á¡±á¡±":1348,"Ġá¢ĺá¡Ńá¡¬á¢ŀá¡Ńá¢Ĳ":1349,"á¡¬á¢Ķá¡³":1350,"á¡Ńá¡³á¡ªá¡¨":1351,"Ġá¡¥á¡ªá¢ĩá¡¨":1352,"á¡ªá¢Ĭá¢Ĭá¡¬á¢ĵ":1353,"Ġá¡¸á¡ªá¢İá¡ªá¡±á¡±":1354,"Ġá¢Ķá¡¬á¡±á¡±":1355,"Ġá¢ĺá¡ªá¡±á¡±á¡ªá¢ŀ":1356,"Ġá¢ĺá¡Ńá¢İá¡³":1357,"Ġá¡¥á¡Ńá¢Ķá¡Ńá¡§":1358,"á¡ªá¡±á¡±á¡Ńá¢ĳá¡Ńá¡ªá¡ªá¢Ķá¡ªá¡§":1359,"Ġá¢Ķá¡Ńá¡ªá¢Ĭá¡±á¡±":1360,"Ġá¢Īá¡ªá¡¬":1361,"Ġá¢ľá¡ªá¡´á¡Ńá¡ªá¡ªá¢Ķá¡ªá¡§":1362,"á¡ªá¢İá¢Ļ":1363,"á¡ªá¢Ļá¡ªá¢Ĳá¡¨":1364,"Ġá¡¸á¡ªá¢ŀá¡¬á¡±á¡±":1365,"Ġá¡¥á¡ªá¢Ļá¡ªá¢ĳá¡«":1366,"Ġá¢ĺá¡Ńá¡¬á¢ĳá¡Ńá¢Ĭá¡ªá¡¨":1367,"Ġá¢Ĭá¡ªá¢Ķá¡ªá¡¬á¡¨":1368,"á¡¬á¢Ļá¡ªá¡¬á¡¨":1369,"á¢įá¡¨":1370,"Ġá¡¥á¡Ńá¡¬á¢ŀá¢ĭá¡Ńá¢ĳ":1371,"Ġá¢Ļá¡ªá¢Ĭá¡¬á¡¦":1372,"á¡ªá¢Ļá¡Ńá¡§":1373,"Ġá¡¥á¡ªá¢Ļá¡§":1374,"Ġá¡´á¡Ńá¢Ļá¡Ńá¢Ĳ":1375,"Ġá¢Įá¡Ńá¢ŀá¡«":1376,"ï¸":1377,"Ġá¡¥á¡Ńá¢ŀá¡±á¡±":1378,"Ġá¢ĺá¡ªá¡±á¡±á¡ªá¡§":1379,"áł¢áł³":1380,"Ġá¡¬á¡ªá¡±á¡±":1381,"áł¦áł¨":1382,"Ġá¡¥á¡Ńá¡Ńá¡ªá¢ĩá¡¨":1383,"á¢ĭá¡Ńá¡¬á¢İ":1384,"Ġá¢Ĭá¡ªá¢Ľ":1385,"Ġá¡¥á¡Ńá¡ªá¢ļ":1386,"Ġá¡¥á¢Ŀá¡¨":1387,"Ġá¡´á¡Ńá¡¬á¢Ļá¡Ńá¢Ĭá¡ªá¢Ĳ":1388,"Ġá¢Ĭá¡ªá¢ĳá¡ªá¡§":1389,"Ġá¢ĺá¡ªá¢İá¢Ļá¡ªá¢Ĭá¢ĳ":1390,"Ġá¡¥á¡Ńá¡ªá¢Ļ":1391,"Ġá¢ĺá¡ªá¡´á¡Ńá¡§":1392,"Ġá¡´á¡Ńá¡±á¡±":1393,"Ġá¡¥á¡ªá¢Ķá¡ªá¡±á¡±á¡Ńá¢Ļá¡ªá¢Ĳ":1394,"Ġá¡¥á¢Ľá¡ªá¡§":1395,"Ġá¢ĺá¡ªá¢Ĭá¡ªá¢Ĭá¡ªá¡Ńá¡§":1396,"Ġá¡¬á¡Ńá¡¬á¢Ĭ":1397,"Ġá¢ļá¡¬á¡ªá¡ªá¡Ńá¢ĳá¡§":1398,"Ġá¡¥á¢ĭá¡Ńá¢ŀ":1399,"Ġá¢ľá¡ªá¢Ĭ":1400,"á¢Ķá¡¬á¡§":1401,"á¡¸á¡ªá¢ŀ":1402,"Ġá¡´á¡Ńá¢ĳá¢Ľá¡ªá¡«":1403,"Ġá¡¥á¡Ńá¢ŀá¡Ńá¢ĳá¢ļ":1404,"áł¢áł¶":1405,"á¡¬á¢Ĺ":1406,"á¡Ńá¢ĭá¡Ńá¢ĳ":1407,"Ġá¡¥á¡Ńá¡¬á¡ªá¢Ĭá¢Ĭá¡ªá¡¨":1408,"Ġá¡¥á¡ªá¢İá¡«":1409,"Ġá¡¥á¡ª":1410,"Ġá¢Įá¡Ńá¡¬á¡ªá¢Ĭá¢ĭá¡Ń":1411,"á¡ªá¡±á¡±á¡Ńá¢ĳá¡§":1412,"á¡¬á¢ļá¡«":1413,"á¡Ńá¡ªá¡ªá¢Ļá¡³":1414,"á¡ªá¡³á¡ªá¢Ŀ":1415,"á¡Ńá¡¬á¡ªá¡¬á¡¨":1416,"Ġá¡¥á¡Ńá¡Ńá¡±á¡±":1417,"á¡ªá¢ĳá¢Ļá¡ªá¡«":1418,"Ġá¢ļá¡¬á¡±á¡³":1419,"áłłáł®":1420,"Ġá¡¥á¡Ńá¢Ļá¡ªá¡±á¡±á¡ªá¡§":1421,"Ġá¡³á¡ªá¢ľá¡ªá¢Ŀ":1422,"Ġá¢ĺá¡ªá¢Ĭá¡¬á¡§":1423,"Ġá¢Ĭá¡ªá¡³á¡ªá¢Ĳ":1424,"á¢Ľá¡¬á¢ľá¡ªá¡§":1425,"Ġá¡¥á¡Ńá¡¬á¢ĭá¡Ńá¢ĳ":1426,"á¡Ńá¢Ļá¡Ńá¢Ŀ":1427,"á¡ªá¢ļá¡¬á¡ªá¡ª":1428,"Ġá¢ĺá¡Ńá¢ĳá¡§":1429,"á¡¬á¢ĳá¢Ĭá¡ªá¡¨":1430,"Ġá¡¥á¡Ńá¢Ĭ":1431,"Ġá¡³á¡ªá¢ŀá¡¬á¢İ":1432,"Ġá¡¬á¡¬á¢ŀá¡Ńá¢ĩ":1433,"á¢Ķá¡Ńá¢ŀ":1434,"Ġá¢ĭá¡Ńá¡¬á¢ļá¡Ńá¡§":1435,"Ġá¢Įá¡ªá¢ĳá¢ļ":1436,"áł¥":1437,"Ġá¢Ĭá¡ªá¡³á¡ªá¢ļá¡³":1438,"Ġá¡¥á¡Ńá¢ĳá¡ªá¡±á¡±á¡ªá¡§":1439,"á¢Ļá¡ªá¢Ĭá¡ªá¡§":1440,"Ġá¡¸á¡Ńá¢ĳá¡§":1441,"Ġá¢Ĭá¡ªá¢Ĭ":1442,"Ġá¢ľá¡ªá¢Ļ":1443,"á¡ªá¢ŀá¢Ĭ":1444,"á¡³á¡ªá¢Ŀ":1445,"á¢ĳá¡ªá¢Ľá¡³":1446,"Ġá¢ļá¡¬á¢Ĭ":1447,"Ġá¡¥á¡Ńá¢ŀá¢Ļá¡³":1448,"áł¤áł°":1449,"á¡ªá¢ĳá¡ªá¢ĭá¡Ń":1450,"Ġá¡¥á¡¬á¢ĳá¡ªá¢ĭá¡Ńá¡³":1451,"á¡Ńá¡±á¡±á¡Ńá¢ĳá¢Ľá¡³":1452,"á¡ªá¡ªá¢Ļá¡³":1453,"á¡¥á¡ªá¢İ":1454,"Ġá¡¯á¡ª":1455,"á¢ĳá¡ªá¡§":1456,"Ġá¡¥á¡ªá¡³á¡ªá¡ªá¡³":1457,"á¡Ńá¡³á¡ªá¢Ĳ":1458,"Ġá¢ľá¡ªá¢ŀá¡³":1459,"Ġá¡¯á¡Ńá¢ľ":1460,"Ġá¢ĺá¡ªá¢ĭá¡Ńá¡³":1461,"Ġá¡¬á¡Ńá¡¬á¡²":1462,"Ġá¡¥á¡Ńá¡¬á¢Ĭá¡¬á¡§":1463,"Ġá¢ĭá¡Ńá¡¬á¢Ĳ":1464,"Ġá¢ĺá¡Ńá¡¬á¢ŀá¡³á¡ªá¡§":1465,"Ġá¢ĺá¡Ńá¡¬á¡²":1466,"Ġá¡¥á¡Ńá¢ĳá¡ªá¢İá¢Ľá¡¬á¢ĳ":1467,"Ġá¢Ķá¡ªá¢Ĭ":1468,"á¢Ķá¡«":1469,"Ġá¢ĺá¡Ńá¡±á¡±á¡Ńá¢ŀ":1470,"Ġá¢Įá¡ªá¡ªá¢Ļ":1471,"áł¢áł·":1472,"áł¡áł¢":1473,"á¡¬á¡¬á¡§":1474,"Ġá¢Īá¡ªá¢ŀá¡±á¡±":1475,"á¡ªá¢ļá¡Ńá¡Ńá¡§":1476,"Ġá¢Ķá¡ªá¢ļ":1477,"Ġá¢ļá¡¬á¡ªá¢Ĭá¢Ĭá¡¬á¢ĵ":1478,"Ġá¡³á¡ªá¡¬á¡¬á¡±á¡±á¡ªá¡Ńá¡§":1479,"Ġá¡¸á¡ªá¡ªá¢Ļ":1480,"Ġá¡¥á¡³á¡ªá¡Ńá¡ªá¢ļá¡¬á¡§":1481,"á¡ªá¢ĳá¡ªá¡ªá¡ªá¢Ķá¡ªá¡§":1482,"Ġá¢Ĭá¡ªá¢ĳá¡ªá¢Ľá¡³":1483,"á¡¬á¡Ń":1484,"Ġá¢Ķá¡ªá¢ľá¡«":1485,"á¡ªá¢Ĭá¢ļ":1486,"Ġá¡¯á¡¬á¢Ļ":1487,"áł¦áłŃ":1488,"Ġá¢ĺá¡Ńá¢Ŀá¡¨":1489,"Ġá¢Īá¡ªá¡¬á¡¬á¡ªá¡ª":1490,"á¡¥á¡Ńá¡¬á¢Ĭá¡ªá¡«":1491,"Ġá¢ĭá¡Ńá¡¬á¢ŀá¢ļá¡³":1492,"Ġá¡´á¡Ńá¢ĳá¡³á¡ªá¡¨":1493,"á¡ªá¡ªá¡ªá¢Ļá¡ªá¡ªá¡ªá¡³":1494,"á¡¬á¢Ĭá¡ªá¡§":1495,"á¡ªá¡ªá¡ªá¢ŀ":1496,"Ġá¡¯á¡ªá¡¬á¡¬á¢Ŀ":1497,"á¡¬á¡±á¡±á¡Ńá¢ĳá¢Ľá¡³":1498,"Ġá¡¸á¡Ńá¡±á¡±á¡Ńá¢ŀ":1499,"Ġá¢Ĺá¡ªá¡±á¡±":1500,"Ġá¢ĺá¡ªá¡ªá¢Ĭ":1501,"á¡ªá¡ªá¢Ķ":1502,"Ġá¢Ķá¡¬á¢ĭ":1503,"Ġá¢Ĭá¡¬á¢Ĭá¡ªá¡Ńá¡§":1504,"á¡ªá¢ĭá¡Ńá¢ĳá¡Ńá¢Ĭá¢Ķá¡ªá¡§":1505,"áłĭ":1506,"á¡ªá¢Ĭá¡ªá¢Ľá¡³":1507,"Ġá¢Ķá¡Ńá¢ŀá¡Ńá¢ĳá¢ļ":1508,"Ġá¡¬á¡Ńá¡±á¡±á¡Ńá¢ĵ":1509,"á¡¶":1510,"Ġá¡´á¡Ńá¢ĳá¢Ļá¡ªá¢ĩ":1511,"Ġá¢Ĭá¡¬á¡±á¡«":1512,"Ġá¢ĭá¡Ńá¡¬á¢ŀá¢Ļá¡ªá¢Ĳá¡¨":1513,"Ġá¢Ĭá¡ªá¢Ļá¡ªá¢Ĳá¡¨":1514,"áł¶":1515,"Ġá¡´á¡Ńá¢ĳá¡³á¡ªá¢Ķ":1516,"á¡Ńá¡¬á¢Ļ":1517,"Ġá¢Łá¡ªá¡ªá¡¬á¡¨":1518,"Ġá¢Ĭá¡ªá¡Ńá¢Ĭá¡ªá¡§":1519,"Ġá¡´á¡Ńá¡¬á¢Ķá¡ªá¢ĭá¡Ńá¡«":1520,"Ġá¢Ĭá¡ªá¡¬":1521,"Ġá¡¥á¡ªá¢İá¡ªá¢ŀ":1522,"Ġá¡³á¡ªá¢ĳá¢ļ":1523,"Ġá¢ĺá¡ªá¡±á¡±á¡Ńá¢ĳ":1524,"Ġá¡¯á¡ªá¡¬á¡¬á¢Ļá¡§":1525,"Ġá¢ĭá¡Ńá¡¬á¢Ĭá¡ªá¢ŀ":1526,"Ġá¢Ķá¡¬á¡ªá¢Ľá¡¬á¢ĳ":1527,"Ġá¢Įá¡¬á¡ªá¢Ĭ":1528,"Ġá¢Ķá¡Ńá¢ŀá¡Ńá¡ªá¡ªá¢ļá¡¬á¡Ńá¡§":1529,"Ġá¡¬á¡Ńá¢ŀá¡¬á¢ĩ":1530,"Ġá¡¥á¡Ńá¢ŀá¡Ńá¡±á¡±á¡³":1531,"Ġá¡¥á¡ªá¢ĳá¡ªá¡ª":1532,"Ġá¡¥á¡Ńá¡¬á¢ĳá¡¬á¢Ĭá¡ªá¢Ŀ":1533,"Ġá¡¥á¡Ńá¡¬á¢Ľá¡ªá¢ĭá¡Ń":1534,"Ġá¡¯á¡ªá¡±á¡±á¡ªá¢Ļ":1535,"Ġá¡¥á¡Ńá¢ŀá¢ļ":1536,"á¡¬á¡±á¡±á¡Ńá¡§":1537,"Ġá¡¯á¡¬á¢ĳ":1538,"Ġá¢ľá¡ªá¢ŀá¡Ńá¡ªá¢Ĭá¢Ĭ":1539,"á¢ļá¡¬á¢ŀ":1540,"Ġá¡¸á¡Ńá¢ŀá¢ļá¡¬á¡§":1541,"Ġá¡¸á¡ªá¢ĳá¡ªá¡±á¡±á¡Ńá¡§":1542,"á¡´á¡Ń":1543,"Ġá¢Įá¡ªá¡±":1544,"Ġá¢ĺá¡ªá¢ŀá¡Ńá¡«":1545,"Ġá¢Ļá¡Ńá¡±á¡«":1546,"áł¤áł³":1547,"Ġá¡¸á¡Ńá¢Ķá¡¬á¡±á¡±á¡³":1548,"Ġá¡¥á¡¬á¢ŀá¡ªá¢Ľá¡³":1549,"á¡ªá¡±á¡±á¡ªá¡ªá¡ªá¢Ķá¡ªá¡§":1550,"á¡Ńá¡±á¡±á¡Ńá¡§":1551,"á¡¬á¡ªá¢ļá¡³":1552,"Ġá¢Īá¡Ńá¡³":1553,"Ġá¢Įá¡Ńá¢ŀ":1554,"Ġá¢Īá¡ªá¡ªá¡ªá¢ļá¡§":1555,"Ġá¡¥á¡Ńá¢ĳá¡ªá¢į":1556,"Ġá¡¥á¡ªá¢Ĭ":1557,"á¡Ńá¢Ļá¡Ńá¡§":1558,"Ġá¡¥á¡Ńá¢ŀá¢Ĭ":1559,"Ġá¡¥á¡Ńá¢ŀá¡Ńá¡«":1560,"Ð¸":1561,"Ġá¡¯á¡Ńá¡±á¡±á¡Ńá¡Ńá¡§":1562,"Ġá¡¬á¡¬á¢Ĺ":1563,"Ġá¢Ķá¡¬á¡±":1564,"á¡¬á¢ľá¡ªá¡Ńá¡§":1565,"Ġá¢ļá¡¬á¢įá¡¨":1566,"á¡ªá¢ļá¡¬á¢Ĭ":1567,"á¡Ńá¢Ĭá¡¬á¡¦":1568,"ĠáłĤáłĤ":1569,"Ġá¢Ķá¡Ńá¡¬á¡±á¡«":1570,"á¡±á¡±á¡ªá¢Ĳ":1571,"Ġá¢Ķá¡Ńá¡±á¡¬á¡§":1572,"Ġá¢Ĭá¡ªá¢ĳá¡³á¡ªá¢ŀ":1573,"Ġá¢Īá¡ªá¢Ļá¡ªá¡°á¡¨":1574,"á¡ªá¡ªá¡ªá¢Ļá¡ªá¡ªá¡ªá¢Ķá¡ªá¡§":1575,"Ġá¢Īá¡Ńá¢Ł":1576,"Ġá¢ĭá¡Ńá¡¬á¢ľ":1577,"á¡ªá¡¬á¡«":1578,"á¡¬á¢ĳá¡ªá¡ªá¡ªá¡³":1579,"Ġá¡¥á¡Ńá¡¬á¢Ľá¡ªá¢Ĳ":1580,"Ġá¢Ķá¡¬á¢ĳá¡±á¡±":1581,"Ġá¡¬á¡¬á¢ĳ":1582,"Ġá¢ĺá¡ªá¢ĳá¡ªá¡«":1583,"á¡ªá¢Ļá¡Ńá¢Ĳ":1584,"Ñĥ":1585,"Ġáł¶áł¢":1586,"Ġáłĥ\"":1587,"Ġá¡¸á¡ªá¢Ľ":1588,"á¢Ļá¡ªá¢Ĳ":1589,"á¡Ńá¢ĳá¡ªá¢Ľá¡³":1590,"á¢ĭá¡Ńá¡§":1591,"á¡¬á¢ŀá¢Ļá¡¬á¡ªá¢ļá¡³":1592,"Ġá¢ĺá¡ªá¢Ļá¡§":1593,"Ġá¡¸á¡ªá¢ŀá¡¬á¢ĳá¢ļ":1594,"á¡¬á¢ĭá¡Ńá¢ĳá¢Ľá¡³":1595,"á¡ªá¢ŀá¢Ļá¡ªá¢Ĭá¡ªá¡§":1596,"á¢ĺá¡Ńá¡¬á¢ŀ":1597,"á¡ªá¡ªá¢Ļá¡§":1598,"Ġá¡¯á¡ªá¡¬á¢İ":1599,"20":1600,"Ġá¡¸á¡Ńá¡¬á¡¬á¡°á¡¨":1601,"á¡ªá¡¬á¡¬á¢Ļ":1602,"Ġá¡¥á¡Ńá¡¬á¡±á¡Ńá¢Ļá¡Ńá¢Ŀ":1603,"á¡Ńá¡Ń":1604,"Ò¯":1605,"á¢Ļá¡ªá¡±á¡±á¡ªá¡§":1606,"á¢ĺá¡¦":1607,"á¡ªá¢İá¡§":1608,"Ġá¢Īá¡ªá¢ļ":1609,"á¡¬á¢ļá¡§":1610,"áłłáł°":1611,"Ġá¢ĭá¡Ńá¡¬á¡¬á¢ļ":1612,"Ġá¢Ķá¡Ńá¡¬á¢ĳá¢Ľá¡¬á¡«á¡¨":1613,"á¡¬á¢Ķá¢Ĭ":1614,"á¡¥á¡Ńá¡§":1615,"á¡ªá¡±á¡±á¡ªá¢Ļá¡³":1616,"Ġá¡¬á¡Ńá¡¬á¢ŀ":1617,"Ġá¢Īá¡ªá¢ŀá¡ªá¡ªá¡³":1618,"Ġá¢ĭá¡Ńá¡¬á¢Ĭá¡ªá¡¨":1619,"Ð³":1620,"Ġá¡¸á¡Ńá¢Ļá¡ªá¢ĳá¢Ļ":1621,"Ġá¡³á¡ªá¡¬á¡¬á¢ļ":1622,"Ġá¢ľá¡ªá¡´á¡Ńá¢Ľá¡³":1623,"Ġá¡¬á¡Ńá¡¬á¡³á¢Ĭá¡ªá¡§":1624,"Ġá¢Ķá¡¬á¢Ŀá¡¨":1625,"Ġá¢Įá¡ªá¢ŀá¢Ĭá¡ªá¢Ľá¡¬á¢Ĳ":1626,"Ġá¢ĭá¡Ńá¡¬á¢Ļá¡ªá¢Ĭá¡ªá¡¨":1627,"á¡Ńá¡ªá¢Ļ":1628,"Ġá¡¬á¡¬á¢ŀá¡±á¡±á¡ªá¢Ĳ":1629,"Ġá¢Ĭá¡¬á¢Ĭá¢Ķá¡ªá¡§":1630,"á¡¬á¡³á¡ªá¢Ĳ":1631,"Ġá¡¥á¡ªá¢İá¡§":1632,"á¡ªá¢ŀá¡¬á¡§":1633,"Ġá¡¥á¡Ńá¢ŀá¢ļá¡¬á¡§":1634,"Ġá¢ľá¡Ńá¢Ķá¡Ńá¢Ļá¡ªá¡«":1635,"á¡¬á¢ľá¡ªá¢Ļá¡³":1636,"áł²":1637,"Ġá¢ĭá¡Ńá¡¬á¢Ķá¡ªá¢Ĳ":1638,"Ġá¡¥á¢ĭá¡Ńá¢Ķ":1639,"Ġá¢ĭá¡Ńá¡¬á¡§":1640,"Ð»":1641,"Ġá¢Ķá¡Ńá¢İá¡³":1642,"Ġá¡¥á¡ªá¢İá¡¬á¢Ļá¡ªá¡§":1643,"Ġá¡³á¡ªá¡¬á¡¬á¡±á¡±á¡ªá¢ĳá¡«":1644,"á¡ªá¢ĳá¡ªá¡ªá¡¬á¡¨":1645,"Ġá¡¥á¢Ĳ":1646,"á¡¬á¡±á¡±á¡Ńá¢ĳá¡ªá¡ªá¡³":1647,"Ġá¢Ĭá¡ªá¢ĳá¡³á¡ªá¢ŀá¡«":1648,"á¡Ńá¢İá¡Ńá¢ļá¡¬á¡§":1649,"Ġá¡¥á¢İá¡Ńá¡±":1650,"Ġá¡³á¡¬á¢Ļ":1651,"Ġá¡´á¡Ńá¡³":1652,"á¢Ĺ":1653,"Ġá¡¥á¢Ļá¡¦":1654,"Ġá¡¬á¡ªá¢Ķá¡ªá¡ªá¡ªá¡³":1655,"á¡ªá¡±á¡ªá¢Ŀ":1656,"á¡ªá¡ªá¡ªá¢Ľá¡³":1657,"Ġá¡¥á¡Ńá¡¬á¡³á¡ªá¢ŀá¢Ļá¡ªá¢Ĭá¡ªá¡§":1658,"Ġá¢ľá¡¬á¢ŀá¢Ļá¡¬á¡ªá¢ļá¡³":1659,"á¢ĭá¡Ńá¡¬á¢İá¡Ńá¡§":1660,"Ġá¢Ĭá¡ªá¢ļ":1661,"Ġá¡¥á¡¬á¡ªá¢Ĭá¢Ĭá¡¬á¢Ľá¡³":1662,"á¢ĳá¡¬á¡¬á¡¨":1663,"áłłáł¯áł":1664,"µáł¦":1665,"á¡ªá¡´á¡Ńá¢ŀá¡¬á¢ĳ":1666,"Ġá¡¥á¡ªá¡´á¡Ńá¢ŀ":1667,"Ġá¢Ĭá¡ªá¢ŀá¡³á¡ªá¡¨":1668,"á¡¬á¡Ńá¡ªá¢Ĭ":1669,"Ġá¢Ĭá¡¬á¢Ľ":1670,"Ġá¡¸á¡Ńá¢Ľ":1671,"Ġá¡¥á¡Ńá¡¬á¢Ĭá¢ĭá¡Ń":1672,"Ġá¢ĺá¡ªá¢İá¡ªá¢ļ":1673,"Ġá¢ļá¡ªá¢ļá¡ªá¡¬á¡¨":1674,"Ġá¢ĺá¡Ńá¡¬á¢ĭá¡Ńá¢ŀá¡¬á¡¬á¡¨":1675,"Ġá¢Ĺá¡ªá¡ªá¢Ĭá¡±":1676,"á¡³á¡¬á¡¦":1677,"Ġá¢Ĭá¡ªá¢ŀá¡ªá¢Ĳ":1678,"Ð´":1679,"Ġá¢ĺá¡ªá¢ŀá¢Ĭá¡ªá¡¨":1680,"á¡ªá¢İá¡ªá¡Ńá¡§":1681,"Ġá¢Įá¡Ńá¡¬á¢ŀá¢Ļá¡ªá¢Ĭá¡ªá¡§":1682,"á¢Ľá¡¬á¡§":1683,"Ñħ":1684,"Ġá¡¬á¡Ńá¢Ĭá¡¬á¢ľ":1685,"Ġá¢ĺá¡ªá¡±á¡±á¡Ńá¡§":1686,"Ġá¡¥á¡Ńá¡¬á¡¬á¢ĳá¡ªá¢ĵ":1687,"Ġá¡¥á¡Ńá¡¬á¢ľ":1688,"Ġáłªáłłáł¶":1689,"á¡¥á¡±":1690,"áłłáłª":1691,"Ġá¡¥á¡Ńá¡¬á¡¬á¢ĳá¡ªá¡Ń":1692,"Ġá¡¥á¢Ļá¡ªá¢Ĭá¡ªá¢Ŀ":1693,"Ġá¢Įá¡ªá¡±á¡±":1694,"Ġá¡¥á¡ªá¡´á¡Ńá¡±á¡±á¡ªá¡Ńá¡§":1695,"á¢Ĭá¡ªá¢Ĭá¡ªá¡§":1696,"Ġá¡¥á¡Ńá¡ªá¢Ĭá¡±á¡±":1697,"Ġá¡¥á¡Ńá¡¬á¢Ľá¡ªá¢Ľá¡³":1698,"Ġá¢ĺá¡ªá¢Ĭá¡ªá¢ŀ":1699,"Ġá¡¥á¡Ńá¡¬á¡¬á¢ŀ":1700,"á¡°á¡¨":1701,"Ġá¡¥á¡Ńá¢ŀá¡Ńá¡±á¡±á¡Ńá¢ĳ":1702,"Ġá¢ĺá¡Ńá¢īá¡¨":1703,"Ġá¡¥á¡Ńá¢ŀá¡Ńá¢ĳá¢Ļá¡Ńá¡±á¡±á¡ªá¡§":1704,"á¡¬á¢Ĭá¡¬á¡§":1705,"á¡Ńá¡¬á¢ļ":1706,"á¡Ńá¢ĳá¡±á¡±":1707,"Ġá¢Ĭá¡ªá¢Ĭá¢ļá¡«":1708,"Ġá¡·":1709,"á¡Ńá¢ĳá¡ªá¡§":1710,"Ġá¡´á¡Ńá¢Ļá¡Ńá¢Ľá¡³":1711,"Ġá¡¥á¢Ĳá¡¨":1712,"Ġá¢Ķá¡Ńá¡¬á¢įá¡¨":1713,"Ġá¡¥á¡Ńá¡¬á¢Ľá¡Ńá¢İá¡Ńá¢ļá¡¬á¡§":1714,"Ġá¡¬á¡ªá¢ľ":1715,"á¡ªá¡¬á¡¬á¢ļ":1716,"Ġá¢ĭá¡Ńá¡¬á¢ļá¡³":1717,"á¡¬á¢Ķá¡ªá¡ª":1718,"Ġá¡¸á¡ªá¢ŀá¡¬á¡±á¡±á¡Ńá¢ļ":1719,"á¡ªá¡±á¡±á¡ªá¢Ļá¡Ńá¢Ŀ":1720,"Ġá¢ĺá¡ªá¢Ĭá¡ªá¢Ĭá¢Ķ":1721,"á¡Ńá¢Ĭá¢ļá¡«":1722,"Ġá¡³á¡¬á¢Ķ":1723,"á¢ĭá¡Ńá¡¬":1724,"Ġá¡¥á¡ªá¢ĳá¡³á¡ªá¡§":1725,"Ġá¡¥á¡¬á¢ŀá¡ªá¡±á¡±á¡³":1726,"áł¢áł¬":1727,"á¡Ńá¡±á¡±á¡ªá¢Ļá¡³":1728,"ï¼":1729,"Ġá¡¥á¡ªá¡±":1730,"á¡ªá¢ĭá¡Ńá¢ĳá¡Ńá¡§":1731,"á¡³á¡¨":1732,"Ġá¡¯á¡ªá¢İá¡Ńá¢Ŀ":1733,"Ġá¢ľá¡ªá¡±á¡±á¡ªá¢Ĭá¡¬á¢Ľá¡³":1734,"Ġá¡´á¡Ńá¢ĳá¡±á¡±á¡ªá¢Ľá¡³":1735,"Ġá¡¥á¡Ńá¢ľá¡Ńá¡§":1736,"á¡Ńá¢Ĭá¡ªá¢ĳ":1737,"á¡ªá¡±á¡±á¡Ńá¢ŀ":1738,"Ġá¡¸á¡ªá¢İá¡¬á¢īá¡¨":1739,"Ġá¡¥á¡Ńá¡¬á¢Ĭá¡ªá¢ŀ":1740,"Ġá¢Ĺá¡ªá¡±á¡±á¡ªá¢ŀá¢Ļ":1741,"Ġá¡¬á¡Ńá¢Ĭá¡¬á¢ľá¡ªá¡§":1742,"á¡ªá¢Ľá¡¬á¢Ĭ":1743,"á¡¬á¢¤":1744,"Ġá¡¥á¡¬á¢ŀá¡ªá¢Ĭá¡ªá¡Ńá¡§":1745,"á¡ªá¢ĳá¡§":1746,"Ġá¢Īá¡ªá¢ŀá¡Ńá¡ªá¡ªá¢Ķá¡ªá¡§":1747,"Ġá¡¸á¡ªá¢ŀá¡¬á¢ļ":1748,"Ġá¡³á¡ªá¡¬á¡¬á¡³á¡ªá¢Ĳ":1749,"Ġá¢ĺá¡ªá¡³á¢Ķ":1750,"Ġá¡¸á¡ªá¡§":1751,"á¡Ńá¡¬á¢Ķ":1752,"á¡ªá¡Ńá¢Ĭá¡ªá¡§":1753,"Ġá¡´á¡Ńá¡¬":1754,"Ġá¢ĺá¡Ńá¢Ĭá¡¬á¢ŀ":1755,"Ġá¡¯á¡ªá¢ĳ":1756,"Ġá¢¡":1757,"Ġá¢Ķá¡ªá¢Ļ":1758,"Ġá¢Įá¡ªá¢Ķá¡¬á¡§":1759,"Ġá¡¬á¡ªá¢Ĭá¡¬á¢ŀ":1760,"Ġá¡¸á¡Ńá¡±á¡±á¡Ńá¢ļá¡ªá¡±á¡±á¡ªá¡§":1761,"Ġá¡¸á¡Ńá¡³á¡¬á¢ŀ":1762,"Ġá¡³á¡ªá¢ľá¡ªá¡§":1763,"Ġá¢ļá¡Ńá¡¬á¢Ĭ":1764,"á¡ªá¡ªá¡ªá¡ªá¡«":1765,"áł¤áł®":1766,"Ġá¢ĭá¡Ńá¡¬á¡ªá¢Ļá¡³":1767,"á¢Ĭá¡ªá¢ĭá¡Ń":1768,"á¡ªá¢Ļá¡Ńá¡«":1769,"Ġá¢Ĭá¡¬á¢ŀá¡«":1770,"Ġá¡´á¡Ńá¢ĳá¢ļá¡¬á¡ªá¡ª":1771,"Ġá¢Ĭá¡ªá¢Ļá¡³":1772,"á¡ªá¡¬á¡¬á¡§":1773,"Ġá¢Ĭá¡ªá¡²":1774,"á¡ªá¢Ĭá¢Ļá¡ªá¢Ľá¡³":1775,"Ġá¡¥á¢ŀá¢Ĭá¡¬á¢ĳ":1776,"Ġá¢Ķá¡ªá¢İ":1777,"Ġá¢ĺá¡Ńá¡ªá¡ªá¢ĳ":1778,"á¡ªá¡ªá¢Ĭá¡±á¡±á¡Ńá¡«":1779,"Ġá¡¥á¡Ńá¡¬á¡ªá¢Ļá¡Ńá¢Ķá¡Ńá¡§":1780,"Ġá¢ļá¡Ńá¡ªá¡ª":1781,"Ġá¡¯á¡ªá¡±á¡±á¡ªá¢Ļá¡Ńá¢į":1782,"Ġá¢ĺá¡Ńá¡¬á¢Ĭ":1783,"Ġá¡¥á¡Ńá¢ŀá¡ªá¢ĳá¡¬á¢ĩ":1784,"Ġá¡¥á¡ªá¢Ķá¡¬á¢ĩ":1785,"Ġá¡¥á¡Ńá¢ŀá¢Ļá¡Ńá¡§":1786,"Ġá¡¬á¡¬á¢Ĭ":1787,"á¡¬á¡¬á¡Ń":1788,"Ġá¡³á¡ªá¢ľá¡ªá¢ŀá¢ĳ":1789,"Ġá¡´á¡Ńá¡¬á¢ĳá¡«":1790,"Ġá¡¥á¡ªá¡´á¡Ńá¡ªá¡ªá¢Ķá¡ªá¡§":1791,"á¡ªá¢ŀá¡ªá¡ªá¡ªá¢Ķá¡ªá¡§":1792,"Ġáł³áł¤":1793,"Ġá¢Īá¡Ńá¢ŀá¡³":1794,"©áłŃ":1795,"Ġá¢ľá¡ªá¡±á¡±á¡Ńá¡§":1796,"Ġá¢Ķá¡ªá¡±á¡±á¡Ńá¢Ľá¡³":1797,"Ġáł¬áł¦áł":1798,"Ġá¢ľá¡ªá¢ŀá¡¬á¢Ľá¡³":1799,"á¡ªá¡Ńá¡ªá¡ªá¡ª":1800,"á¡ªá¢Ĭá¢Ļá¡ªá¢Ĳ":1801,"á¡ªá¢§":1802,"á¢Ļá¡ªá¡«":1803,"áł¢áł¯áł":1804,"á¡Ńá¢ĳá¢Ļá¡ªá¡«":1805,"Ġá¡¥á¡Ńá¡¬á¢Ĭá¢ĭá¡Ńá¢Ĭá¢Ķá¡ªá¡§":1806,"á¡¥á¡Ńá¡¬á¡±":1807,"á¡Ńá¢ļá¡«":1808,"Ġá¢ĭá¡Ńá¡¬á¢ŀá¢Ļ":1809,"Ġá¢Īá¡Ńá¢ŀá¡³á¡ªá¡¨":1810,"Ġá¡¥á¡ªá¡ªá¡ªá¡ªá¢İá¡ªá¡Ńá¡§":1811,"Ġá¡´á¡Ńá¡¬á¢ĭá¡Ńá¡«":1812,"á¡ªá¡ªá¢Ľ":1813,"Ġá¡¥á¡Ńá¡¬á¡±á¡ªá¢Ĭá¡ªá¢Ŀ":1814,"Ġá¢Įá¡ªá¢Ļá¡ªá¢Ĭ":1815,"á¢Ŀ":1816,"Ġá¡¯á¡Ńá¡¬á¢ĳ":1817,"Ġá¢Ķá¡Ńá¡±á¡¬á¢ŀ":1818,"Ġá¡´á¡Ńá¢ŀá¡Ńá¡±á¡±á¡³":1819,"Ġá¡¯á¡ªá¢ŀá¡ªá¡§":1820,"á¡ªá¡·":1821,"Ġá¡¥á¢ļá¡¬á¢Ĭá¡ªá¡¨":1822,"á¢Ĭá¡ªá¢ŀ":1823,"á¡ªá¢ļá¡¬á¢ĳá¡ªá¡§":1824,"á¢ĭá¡Ńá¡«":1825,"Ġá¡¥á¡Ńá¢Ļá¡Ńá¢ŀ":1826,"Ġá¢Ķá¡ªá¢ĭá¡Ńá¢Ĳ":1827,"Ġá¢Įá¡Ńá¢ŀá¡¬á¡§":1828,"Ġá¡¥á¡ªá¡ªá¢Ĭá¡ªá¡ªá¡ªá¢ŀ":1829,"Ġá¡¯á¡¬á¢Ļá¡Ńá¡§":1830,"Ġá¡¥á¡Ńá¡¬á¢ŀá¢ĭá¡Ńá¢ĳá¢Ľá¡¬á¢ĳ":1831,"Ġá¡¸á¡ªá¢Ļá¡ªá¡±á¡±":1832,"Ġá¢ĺá¡Ńá¡ªá¡¬á¡¨":1833,"Ġá¢ĺá¡ªá¢ĭá¡Ńá¢Ķ":1834,"á¡¬á¡±á¡ªá¡§":1835,"á¡ªá¢İá¡ªá¢Ĳ":1836,"Ġá¡´á¡Ńá¢Ļá¡Ńá¢ĳá¢īá¡¨":1837,"Ġá¢ĺá¡ªá¡¬á¡¬á¡§":1838,"Ġá¡¯á¡Ńá¢İ":1839,"Ġá¢Ķá¡ªá¢ĭá¡Ńá¢ĳ":1840,"Ġá¡¥á¡ªá¢Ľá¡¬á¢ĳá¢ĳá¡ªá¢īá¡¨":1841,"Ġá¢Įá¡ªá¢Ļá¡ªá¢ĳá¢Ĭá¡ªá¡¨":1842,"áł°áłłáł¨":1843,"Ġá¢ļá¡¬á¢Ļá¡ªá¡´á¡Ńá¢ŀá¡«":1844,"Ġá¡¥á¡Ńá¢ŀá¡Ńá¡ªá¡ªá¡³":1845,"á¢ĵ":1846,"Ġá¢ľá¡ªá¢ŀá¡¬á¡«á¡¨":1847,"Ġá¡¯á¡ªá¢ĭ":1848,"á¢Łá¡ªá¡¬á¡¨":1849,"á¡¬á¡±á¡±á¡Ńá¢Ŀ":1850,"Ġá¢ļá¡ªá¡ªá¢Ĭá¢Ĭ":1851,"Ġá¡¬á¡ªá¢ĩá¡¨":1852,"Ġá¡¥á¢ŀá¢Ļá¡ªá¢į":1853,"Ġá¢ľá¡ªá¢ŀá¡¬á¢ĳá¢ļ":1854,"Ġá¢ļá¡Ńá¡ªá¡ªá¢ĳ":1855,"Ġá¡¥á¢ŀá¡ªá¢ĭá¡Ńá¢Ĳ":1856,"Ġá¡¸á¡Ńá¢ľá¡ªá¡±á¡±á¡Ńá¢ĳá¡§":1857,"Ġá¡¸á¡ªá¡ªá¢Ĭá¡±á¡±":1858,"Ġá¡¥á¡Ńá¡Ńá¢Ĳ":1859,"Ġá¡¥á¡´á¡Ńá¢Ĭá¡ªá¡§":1860,"á¡Ńá¡ªá¢Ļá¡³":1861,"á¡Ńá¢Ľá¡ªá¡«":1862,"á¡Ńá¢İá¢Ľá¡¬á¢ĳ":1863,"Ġá¡¥á¢Ķá¡ªá¢ŀ":1864,"á¡ªá¡ªá¡Ńá¡§":1865,"Ġá¡¬á¡¬á¢ŀá¡Ńá¢Ĭá¡ªá¡¨":1866,"Ġá¡¯á¡¬á¡±á¡±á¡Ńá¢Ŀ":1867,"á¢Łá¢ĳ":1868,"á¡Ńá¡Ńá¢Ĳ":1869,"Ġá¢Įá¡Ńá¡¬á¢Ŀ":1870,"Ġá¢Ĭá¡ªá¢ĳá¡ªá¢Ĭá¢Ķá¡ªá¡§":1871,"Ġá¡¥á¡Ńá¡¬á¡ªá¢Ĭá¢Ĭá¡ªá¢ŀá¡ªá¢Ĭá¢Ķá¡ªá¡§":1872,"á¡ªá¢Ĭá¢Ļá¡ªá¢Ĭá¢Ķá¡ªá¡§":1873,"Ġá¢Īá¡ªá¡ªá¡ªá¢ļ":1874,"Ġá¢ĭá¡Ńá¡¬á¢ŀá¢ĭá¡Ń":1875,"Ġáł¨áł¢":1876,"áłłáł¬áł¤":1877,"Ġá¡¬á¡ªá¡³á¢Ķ":1878,"Ġá¡¥á¢ŀá¢Ļá¡§":1879,"Ġá¢Ķá¡¬á¡ªá¢Ĭá¢Ĭ":1880,"Ġá¡¸á¡Ńá¡³á¢ļ":1881,"á¡ªá¢ŀá¡ªá¢ĭá¡Ń":1882,"á¡ªá¡ªá¡ªá¢Ķá¡ªá¡±á¡±á¡ªá¢Ŀ":1883,"Ġá¢Ĺá¡ªá¢Ķá¡¬á¡§":1884,"Ġá¡¥á¡Ńá¢ĳá¡ªá¡±á¡±":1885,"Ġá¡³á¡ªá¡¬á¡¬á¢ŀá¡«":1886,"Ġá¡¥á¢İá¡ªá¢Ĭá¢Ļá¡ªá¡«":1887,"á¢ĺá¡ªá¢ĳ":1888,"Ġá¡¯á¡ªá¡±á¡±á¡Ńá¢Ŀ":1889,"Ġá¡¸á¡Ńá¢ĳá¡´á¡Ńá¢īá¡¨":1890,"Ġá¡¥á¡Ńá¡¬á¢ĳá¡³":1891,"Ġá¢ĺá¡ªá¡±á¡±á¡Ńá¢Ļ":1892,"Ġá¡¥á¡ªá¡±á¡±á¡Ńá¢ĳá¢īá¡¨":1893,"á¡ªá¡±á¡±á¡ªá¢Ĳ":1894,"Ġá¡¯á¡ªá¡¬á¡¬á¢Ľá¡§":1895,"Ġá¡¥á¡ªá¡³á¢ļá¡¬á¢ŀ":1896,"Ġá¢Ĭá¡ªá¡±":1897,"Ġá¢Įá¡Ńá¡¬":1898,"á¡ªá¡ªá¡ªá¡ª":1899,"áł®":1900,"á¢ļá¡ªá¡«":1901,"Ġá¡¸á¡Ńá¢Ł":1902,"Ġá¢ĺá¡Ńá¢Ķá¡ªá¡ªá¡ªá¡«":1903,"Ġá¡´á¡Ńá¢ĳá¡Ńá¡±á¡±á¡ªá¡Ńá¡§":1904,"Ġá¡¥á¡Ńá¡¬á¢ŀá¢ĳ":1905,"Ġá¡¥á¡Ńá¡ªá¡ªá¢Ļ":1906,"Ġá¢ĺá¡Ńá¡¬á¢ŀá¡«":1907,"Ġá¡¥á¡Ńá¡«":1908,"á¡ªá¢Ĭá¢Ķá¡ªá¢Ĭá¡ªá¢Ŀ":1909,"Ġá¢Īá¡ªá¢ŀá¡Ńá¡«":1910,"Ġá¡¯á¡ªá¢ŀá¡§":1911,"Ġá¡¥á¡´á¡Ńá¢Ĭá¡ªá¡¨":1912,"Ġá¡¯á¡ªá¢ŀá¡¬á¡§":1913,"Ġá¡´á¡Ńá¡¬á¢ĭá¡Ńá¢Ļá¡§":1914,"Ġá¡¥á¡Ńá¢ĳá¡ªá¡ªá¡³":1915,"Ġá¡¸á¡Ńá¢ŀá¡¬á¢ľá¡ªá¡§":1916,"á¡Ńá¡ªá¡ªá¢Ķá¡ªá¡±á¡±á¡ªá¢Ŀ":1917,"á¡¬á¢Ł":1918,"Ġá¢Īá¡Ńá¢Łá¡ªá¡«":1919,"Ġá¢Īá¡Ńá¢Ļ":1920,"Ġá¢Ļá¢Łá¡¦":1921,"Ġá¢ĺá¡Ńá¢ŀá¡ªá¢Ķ":1922,"Ġá¢ĺá¡ªá¡±á¡±á¡³":1923,"ãĢĪ":1924,"Ġá¢Ļá¡Ńá¡±á¡±á¡ªá¢Ŀ":1925,"Ġá¢ĺá¡ªá¢Ļá¡Ńá¡«":1926,"Ġá¡³á¡ªá¡ªá¡ª":1927,"Ġá¢ļá¡Ń":1928,"á¡Ńá¢Ķá¡«":1929,"á¡Ńá¢ŀá¢Ĭ":1930,"Ġá¡¸á¡ªá¢ŀá¡ªá¢Ľá¡³":1931,"ÑĤ":1932,"á¡ªá¡³á¢ļ":1933,"á¡Ńá¡ªá¡ªá¢Ļá¡ªá¡ªá¡ªá¢Ķá¡ªá¡§":1934,"á¡´á¡Ńá¢Ķá¡³":1935,"Ġá¢Īá¡ªá¢ŀá¡±á¡±á¡ªá¢Ľá¡³":1936,"ĠâĢ":1937,"á¢Ļá¡ªá¢Ŀ":1938,"á¡ªá¡ªá¡ªá¢Ļá¡ªá¡°á¡¨":1939,"á¡Ńá¢Ľá¡«":1940,"á¡¸á¡Ńá¢ŀ":1941,"á¡Ńá¢ĳá¢Ĭ":1942,"á¡¬á¢ľá¡ªá¢ĳá¢Ļ":1943,"Ġá¢Ĭá¡ªá¢İá¢Ľá¡¬á¡«á¡¨":1944,"á¡¥á¡±á¡§":1945,"Ġá¢ĺá¡Ńá¡ªá¢Ĭá¡±á¡±":1946,"á¡ªá¢ŀá¡ªá¢Ĭá¢Ķá¡ªá¡§":1947,"Ġá¡¥á¡Ńá¡¬á¢Ĭá¡ªá¢Ŀ":1948,"Ġá¢ıá¡ªá¢İá¡§":1949,"Ġá¡¸á¡Ńá¡±á¡±á¡Ńá¢ļá¡ªá¢īá¡¨":1950,"Ġá¢Ĭá¡ªá¢ĳá¡ªá¡³á¡ªá¢Ĳ":1951,"Ġá¢ĺá¡Ńá¡³á¢ļ":1952,"Ġá¡¸á¡ªá¢İá¡¬á¢ľá¡ªá¢ŀ":1953,"Ġá¢Ķá¡¬á¡¬á¡Ń":1954,"á¡Ńá¢ŀá¡ªá¢Ľá¡³":1955,"Ġá¡³á¡ªá¢ŀá¡Ńá¢ĩ":1956,"á¡ªá¢ŀá¡¬á¢Ĳ":1957,"Ġá¢Įá¡Ńá¢Ļá¡³":1958,"Ġá¡³á¡ªá¢ĳá¢ļá¡¬á¢Ĭá¡ªá¢Ŀ":1959,"Ġá¡¬á¡¬á¡Ń":1960,"Ġá¡¥á¡Ńá¢ŀá¡Ńá¡ªá¡ªá¢Ķá¡ªá¡§":1961,"Ġáł¤áł·":1962,"Ġá¢Įá¡ªá¢ŀá¢Ļ":1963,"Ġá¡³á¡ªá¡±á¡±á¡ªá¢Ļá¡Ńá¢Ŀ":1964,"Ġá¡¥á¡Ńá¢Ļá¡ªá¢Ķá¡³":1965,"Ġá¢ĺá¡ªá¢ĵ":1966,"Ġá¡¥á¡Ńá¡´á¡Ńá¢īá¡¨":1967,"Ġá¡¥á¡Ńá¡ªá¡ªá¡ªá¡±á¡±":1968,"Ġá¢ĺá¡ªá¢ŀá¡¬á¢ĭá¡Ńá¡§":1969,"Ġá¡¥á¡Ńá¡¬á¡°á¡¨":1970,"Ġá¡¥á¢İá¡±":1971,"Ġá¡´á¡Ńá¡¬á¢ĳá¡Ńá¡¬á¡¨":1972,"Ġá¢Įá¡ªá¢ĳá¢Ľ":1973,"á¡¥á¡Ńá¡¬á¢ŀ":1974,"á¡ªá¢İá¢Ľ":1975,"á¡ªá¢ľá¡ªá¢Ŀ":1976,"Ġá¢Įá¡ªá¢Ļá¡ªá¡°á¡¨":1977,"á¡Ńá¢İá¡ªá¢Ĳ":1978,"Ġáł¢áł¶":1979,"Ġá¡³á¡ªá¢ĳá¡±á¡±":1980,"á¡ªá¢ŀá¡ªá¡ªá¡ªá¡³":1981,"Ġá¡¥á¡ªá¡±á¡±á¡Ńá¢ĳá¢Ľ":1982,"Ġá¡¥á¡Ńá¡¬á¢Ĭá¡ªá¢ŀá¡ªá¢ļá¡¬á¢ĳ":1983,"á¡ªá¡¬á¡¬á¢ĳá¡ªá¡§":1984,"Ġá¢ľá¡ªá¢İ":1985,"á¢ĳá¡ªá¢ĭá¡Ń":1986,"Ġá¡¥á¡ªá¢ŀá¡¬á¢Ĭá¡¬á¡¦":1987,"Ġá¢ĭá¡Ńá¡¬á¢Ļá¡ªá¢ĳá¢Ĭá¡ªá¢Ĭá¡ªá¡§":1988,"áł¦áł¯":1989,"Ġá¢ĺá¡Ńá¡¬á¢ŀá¡Ńá¢Ĭá¢Ķá¡ªá¡§":1990,"Ġá¡¸á¡Ńá¢ŀá¡¬á¡«á¡¨":1991,"Ġá¡¯á¡Ńá¡¬á¢ĭá¡Ńá¢Ĭá¡ªá¡¨":1992,"Ġá¡¥á¡¬á¢Ľ":1993,"Ġá¢¥á¡Ńá¢İ":1994,"Ġá¡³á¡¬á¢ļá¡¬á¢Ĭá¢Ķá¡ªá¡§":1995,"Ġáł¤áł¯":1996,"Ġá¡¥á¡ªá¢İá¢Ľá¡¬á¢ĳá¢Ļá¡§":1997,"Ġá¡¥á¡ªá¡ªá¢Ĭá¢ĩá¡¨":1998,"á¡Ńá¢ļá¡¬á¡ªá¡ª":1999,"Ġá¡¯á¡Ńá¡ªá¡ªá¡ªá¡«":2000,"Ġá¡¥á¡Ńá¡¬á¡¬á¢ĳá¡ªá¡±á¡±":2001,"Ġá¢Įá¢Ł":2002,"á¡ªá¢Ĭá¢Ľ":2003,"Ġáł¦áłŃ":2004,"Ġáł¦áł¨":2005,"á¡¬á¢ľá¡ªá¡ªá¡¬á¡¨":2006,"á¡ªá¡¬á¡¬á¡ªá¡ªá¡ªá¡§":2007,"Ġá¢Įá¡Ńá¡¬á¡ªá¢Ĭá¢Ĭá¡ªá¡¨":2008,"Ġá¡¥á¡ªá¢Ķá¡¬á¡ª":2009,"Ġá¡¥á¡¬á¢Ļá¡ªá¢Ĭá¡ªá¢Ĳ":2010,"Ġá¡¥á¢ŀá¡Ńá¢Ĭá¡ªá¡¨":2011,"Ġá¢ļá¡ªá¡«":2012,"á¢Ĭá¡ªá¢ĳ":2013,"Ġá¡¸á¡ªá¡´á¡Ńá¢Ŀ":2014,"á¡¯á¡«":2015,"á¡ªá¡·á¡Ńá¡§":2016,"Ġá¡¯á¡ªá¢ĳá¡¬á¢ľá¡ªá¡Ńá¡§":2017,"Ġá¡¸á¡Ńá¢ľá¡ªá¢Ļá¡Ńá¡±á¡±á¡ªá¢Ŀ":2018,"á¡´á¡Ńá¢Ļ":2019,"Ġá¡¯á¡ªá¢İá¡ªá¡¬á¡«":2020,"Ġá¢Įá¡ªá¢Ļá¡ªá¢Ĭá¡ªá¡¨":2021,"Ġá¡³á¡ªá¢Ĭ":2022,"Ġá¡¬á¡Ńá¡§":2023,"Ġá¢Įá¡ªá¢ĳ":2024,"Ġá¢ĺá¡ªá¢Ĭá¡ªá¢Ļ":2025,"Ġá¡´á¡Ńá¢ĳá¢Ļá¡ªá¢Ĳá¡¨":2026,"Ġá¢Įá¡ªá¢ŀá¡±á¡±":2027,"Ġá¢ĺá¡ªá¡Ńá¢Ĭá¡ªá¡§":2028,"Ġá¢Ķá¡ªá¡§":2029,"Ġá¡¸á¡ªá¢İá¢Ļ":2030,"Ġá¡¥á¡Ńá¡¬á¢İ":2031,"Ġá¡¯á¡Ńá¡¬á¢ĭá¡Ńá¢Ŀ":2032,"Ġá¢Įá¡¬á¡ªá¢Ĭá¡±á¡±á¡ªá¡§":2033,"Ġá¡¥á¡Ńá¢ĳá¡Ńá¡ªá¡ªá¢Ķá¡ªá¡§":2034,"á¡ªá¡³á¡ªá¡«":2035,"á¢ĭá¡Ńá¡¬á¢Ĭ":2036,"Ġá¢Ķá¡¬á¡±á¡±á¡Ńá¡Ńá¡§":2037,"Ġá¡³á¡ªá¢ŀá¡¬á¢ĳá¢Ļ":2038,"Ġá¢ĺá¡ªá¡¬á¡¬á¢ĳá¢ĭá¡Ń":2039,"ĠÐ±":2040,"Ġá¢ľá¡ªá¡ªá¢Ĭ":2041,"Ġá¡¬á¡Ńá¡¬á¡«":2042,"á¡¯á¡¬á¢Ĭá¡ªá¡¨":2043,"á¡Ńá¡Ńá¡ªá¢Ĭ":2044,"Ġá¢Ķá¡ªá¡±á¡±á¡Ńá¢ŀá¡«":2045,"Ġá¡´á¡Ńá¡¬á¢İ":2046,"á¡¬á¡¬á¢ŀ":2047,"Ġá¡¥á¡Ńá¢Ķ":2048,"Ġá¡¥á¡Ńá¡¬á¢ļ":2049,"Ġá¡¯á¡ªá¡¬á¢İá¡ªá¡§":2050,"Ġá¡¥á¢¨":2051,"á¡¬á¢¤á¡ªá¡¨":2052,"á¡Ńá¢ĳá¡ªá¢Ĳ":2053,"Ġá¢ļá¡¬á¢İá¡ªá¢Ĭá¡ªá¡¨":2054,"á¡Ńá¡±á¡±á¡Ńá¢Ŀ":2055,"19":2056,"Ġá¡¸á¡Ńá¢ļ":2057,"Ġá¢Ĭá¡ªá¢Ļá¡Ńá¡«":2058,"Ġá¡³á¡ªá¢ľá¡ªá¢Ķ":2059,"Ġá¡¸á¡Ńá¡±á¡±á¡Ńá¢ĳá¡§":2060,"áłłáł¬":2061,"á¡Ńá¡ªá¡ªá¢Ļá¡ªá¢Ľá¡³":2062,"Ġá¡³á¡ªá¡¬á¡¬á¢Ļá¡ªá¢Ĳá¡¨":2063,"Ġá¡¯á¡¬á¢Ĭá¡ªá¡ªá¢Ļá¡§":2064,"Ġá¡¥á¡ªá¡ªá¢Ĭá¢Ĭ":2065,"Ġá¢ľá¡ªá¢ŀá¡¬á¡ªá¡ªá¡³":2066,"á¡¬á¡´":2067,"á¡¥á¡¬á¢ŀ":2068,"Ġá¢Ķá¡ªá¡±á¡ªá¡±á¡±á¡ªá¡§":2069,"á¡¥á¢ļá¡§":2070,"á¡Ńá¢Ļá¡Ńá¡±á¡±á¡ªá¢Ŀ":2071,"Ġá¡¥á¢ŀá¢Ļá¡ªá¡±á¡«":2072,"Ġá¡¬á¡¬á¢ĳá¡Ńá¡±á¡±":2073,"Ġá¡¬á¡ªá¡³á¡ªá¢Ĳ":2074,"Ġá¡¬á¡¬á¢ŀá¡Ńá¢Ĭá¡ªá¡§":2075,"Ġá¢Ķá¡Ńá¢ŀá¡´á¡Ńá¢ĳ":2076,"Ġá¢Ĭá¡ªá¢İá¡ªá¢ĭá¡Ń":2077,"á¡Ńá¢ļá¡ªá¢Ĳ":2078,"Ġá¡´á¡Ńá¢Ļá¡Ńá¡ªá¡ªá¡³":2079,"á¢Łá¢Ŀ":2080,"Ġá¡¥á¡¬á¡±á¡¬á¢ľ":2081,"Ġá¡¬á¡ªá¢ĳá¡±á¡±":2082,"Ġá¢ĺá¡Ńá¡¬á¢ŀá¡¬á¢į":2083,"Ġá¡¸á¡Ńá¡±á¡±á¡Ńá¢ŀá¡Ńá¡ªá¢Ļá¡³":2084,"Ġá¢ĺá¡ªá¡ªá¢Ļá¡§":2085,"Ġá¡¬á¡¬á¡±á¡±á¡ªá¡§":2086,"Ġá¢ĭá¡Ńá¡¬á¢Ĭá¢Ľá¡¬á¢ĳá¢Ļá¡§":2087,"á¡ªá¢Ĭá¢Ļá¡ªá¢ĭá¡Ń":2088,"á¡ªá¡Ńá¡ªá¢Ļá¡§":2089,"á¡¥á¡Ńá¡¬á¢Ľ":2090,"Ġá¢ĺá¡Ńá¢ŀá¢Ķ":2091,"Ġá¡¥á¡Ńá¢ŀá¡³":2092,"Ġá¡³á¡¬á¢ļá¡¬á¢Ľá¡³":2093,"á¡Ńá¢ŀá¡ªá¡§":2094,"Ġá¢ļá¡Ńá¡¬á¢Ĭá¡ªá¡§":2095,"Ġï¸":2096,"Ġá¡¬á¡ªá¢ĳá¡ªá¡±á¡±":2097,"Ġá¡¥á¡Ńá¡±á¡±":2098,"á¢¤":2099,"áł¦áł¯áł":2100,"á¢ĭá¡Ńá¡¬á¢ŀ":2101,"á¡Ńá¢Ĭá¡ªá¢Ĳ":2102,"Ġá¡¸á¡ªá¢Ľá¡ªá¡±á¡±á¡³":2103,"Ġá¡¬á¡ªá¢ĭ":2104,"Ġá¢Įá¡ªá¡ªá¢Ĭ":2105,"á¡¸á¡Ńá¢ľ":2106,"Ġá¡¥á¡Ńá¡¬á¡¬á¢Ŀá¡¨":2107,"Ġá¢Īá¡ªá¢Ļá¡ªá¡±á¡±á¡ªá¢Ļá¡³":2108,"Ġá¡¥á¡Ńá¡¬á¢Ĭá¢ļá¡³":2109,"áł¯áł":2110,"Ġá¢ļá¡¬á¢ŀá¡ªá¡«":2111,"Ġá¡¥á¡ªá¢İá¡¬á¢Ķá¡ªá¡ª":2112,"Ġá¡¸á¡Ńá¡³á¢ļá¡ªá¢Ķá¡³":2113,"Ġá¡¸á¡Ńá¡¬á¡¬á¢Ķá¡«":2114,"Ġá¡³á¡ªá¢ŀá¡¬á¢Ľá¡³":2115,"á¡Ńá¢Łá¡ªá¡§":2116,"Ġá¢ļá¡¬á¢ŀá¢İ":2117,"Ġá¡¥á¢ŀá¢Ļá¡ªá¡§":2118,"Ġá¡¥á¡Ńá¢ŀá¡Ńá¢ĵ":2119,"áł¡áł¯áł":2120,"Ġá¢Įá¡Ńá¢Ļá¡Ńá¡§":2121,"Ġá¡¥á¡Ńá¡¬á¢ŀá¢ĳá¡Ńá¢Ĭá¡ªá¡¨":2122,"Ġá¢ĺá¡Ńá¢Ļá¡Ńá¢ŀá¡ªá¡ªá¡ªá¡«":2123,"á¡ªá¡±á¡±á¡Ńá¢Ĳ":2124,"á¢Łá¡§":2125,"Ġá¡´á¡Ńá¢ĳá¡³á¡ªá¢Ķá¡Ńá¢ŀá¡ªá¢Ĳ":2126,"áł¡áł®":2127,"á¡¬á¢İá¡Ńá¢ŀ":2128,"á¡¬á¢ĳá¡ªá¡ªá¡ªá¢Ķá¡ªá¡§":2129,"Ġá¢ľá¡ªá¡·á¡Ńá¡§":2130,"Ġá¢Ķá¡¬á¡ªá¢Ľá¡¬á¢ĳá¡ªá¢ĭá¡Ń":2131,"á¢ļá¡ªá¢ĩ":2132,"Ġá¡¯á¡ªá¡³á¢Ļ":2133,"Ġá¢ľá¡ªá¢ŀá¡Ńá¡ªá¢Ĭá¢Ĭá¡ªá¡«":2134,"Ġá¡¥á¢ĭá¡Ńá¢ŀá¢Ĭá¡ªá¡¨":2135,"Ġá¡¸á¡ªá¡±á¡±á¡Ńá¢ŀ":2136,"Ġá¡³á¡ªá¢ĳá¡ªá¡Ńá¡ªá¢Ĭ":2137,"Ġá¢Įá¡ªá¢ĳá¢ļá¡¬á¡§":2138,"á¡Ńá¢Ĭá¡ªá¡«":2139,"á¡ªá¢Ĭá¡ªá¢ĭá¡Ń":2140,"Ġá¡³á¡ªá¡±á¡±á¡ªá¢ŀá¡¬á¡§":2141,"áł¡áł¬áł¦":2142,"Ġá¢ĺá¡Ńá¡±á¡±á¡Ńá¢ŀá¡¬á¡§":2143,"Ġá¡¥á¢Ĭá¡ªá¢ļá¡«":2144,"Ġá¡¸á¡Ńá¢ŀá¡³á¡¨":2145,"Ġá¢ļá¡ªá¢ĳ":2146,"Ġá¡¬á¡¬á¢ļá¡«":2147,"Ġá¡¥á¡ªá¢Ĭá¢Ĭ":2148,"Ġá¢Ķá¡¬á¢ŀá¡Ńá¡«":2149,"Ġá¢Ķá¡¬á¢ĳá¡¬á¢Ļá¡ªá¡¬á¡¨":2150,"Ġá¡¯á¡Ńá¢ľá¡ªá¡§":2151,"Ġá¡¥á¡Ńá¡¬á¡±á¡³":2152,"Ġá¡¥á¡ªá¡¬á¡¨":2153,"Ġá¢Ķá¡ªá¢ĭá¡Ńá¢Ļ":2154,"Ġá¡¥á¡³á¡ªá¢Ķá¡³":2155,"Ñģ":2156,"Ġá¢ĭá¡Ńá¡¬á¢Ļá¡ªá¢ĳá¢İ":2157,"Ġá¢ĺá¡ªá¢ŀá¢Ĭá¡ªá¡§":2158,"á¡ªá¢ŀá¢Ļá¡ªá¡«":2159,"Ġá¢Īá¡ªá¢ĳ":2160,"Ġá¢Ķá¡Ńá¢ŀá¡ªá¡ªá¡³":2161,"á¡ªá¢ŀá¢Ķ":2162,"Ġá¢ľá¡ªá¡´á¡Ńá¢īá¡¨":2163,"Ġá¡¥á¡Ńá¡¬á¢Ĭá¡ªá¢Ļá¡§":2164,"á¡¸á¡ªá¢İ":2165,"á¡¬á¢ľá¡Ńá¡³":2166,"Ġá¡¥á¡Ńá¡¬á¢ŀá¢Ĭá¡ªá¡§":2167,"Ġá¡¯á¡¬á¢Ĭá¡ªá¢Ļá¡Ńá¢Ĭá¡ªá¢Ŀ":2168,"Ġá¢ĭá¡Ńá¡¬á¡ªá¢Ļá¡Ńá¡Ńá¡ªá¢Ĭ":2169,"âĳ":2170,"á¡ªá¢Ĭá¡ªá¢Ĭá¢Ķá¡ªá¡§":2171,"Ġá¢Ķá¡Ńá¢İá¡Ńá¡§":2172,"á¡Ńá¡±á¡±á¡Ńá¢ĳá¡ªá¡ªá¡³":2173,"Ġá¡¥á¡ªá¡ªá¢Ĭá¡ªá¡ªá¡ªá¡§":2174,"Ġá¡¥á¢į":2175,"Ġá¡¥á¢İá¡Ńá¢Ķ":2176,"Ġá¡¯á¡¬á¡±á¡±á¡Ńá¢ļá¡§":2177,"á¡ªá¢ŀá¢ĳá¡¬á¡¬á¡¨":2178,"Ġá¡¬á¡¬á¢Ľ":2179,"Ġá¡¸á¡Ńá¢Ľá¡¬á¢į":2180,"Ġá¢ĺá¡ªá¢ŀá¢Ĭ":2181,"Ġá¢Ļá¡Ńá¡¬á¡ªá¡¬á¡¨":2182,"Ġá¡¬á¡ªá¡«":2183,"Ġá¢ľá¡ªá¡±á¡±á¡ªá¢Ĭá¡¬á¡±á¡±á¡ªá¡Ńá¡§":2184,"Ġá¢Ķá¡ªá¡Ńá¡ªá¢Ĭá¡¬á¢ĳá¢Ĭá¡ªá¡¨":2185,"áł¤áł¬":2186,"Ġá¢ĺá¡Ńá¡¬á¡³á¢Ķá¡¬á¡§":2187,"Ġá¡¥á¢Ĭá¡ªá¡±á¡ªá¢Ŀ":2188,"á¡Ńá¡ªá¡ªá¢Ļá¡ªá¡ªá¡ªá¡³":2189,"Ġá¡´á¡Ńá¢ľá¡ªá¡§":2190,"Ġá¡´á¡Ńá¡ª":2191,"ãĢī":2192,"Ġá¡¥á¡Ńá¢ĳá¡±á¡±":2193,"Ġá¡¥á¡´á¡Ńá¢Ĳ":2194,"Ġá¢ļá¡¬á¢ĳá¡ªá¡±á¡±á¡³":2195,"á¡ªá¢Ľá¡¬á¡§":2196,"Ġá¢Ķá¡Ńá¡¬á¢ŀá¡Ńá¡¬á¡¨":2197,"Ġá¡¥á¡Ńá¢ĩ":2198,"á¡¥á¡ªá¢ĳ":2199,"áłłáłŃáłłáł¨":2200,"Ġá¡¥á¢ļá¡Ńá¢ĵ":2201,"á¡¬á¡±á¡Ń":2202,"á¢Łá¢ŀá¡¬á¢¤á¡ªá¡¨":2203,"Ġá¡¥á¡ªá¢İá¡ªá¡§":2204,"Ġá¢§":2205,"á¡¬á¢Ļá¡ªá¢Ĳ":2206,"Ġá¢Ĭá¡ªá¢ŀá¡ªá¢Ĭá¢ĳá¡ªá¢ĭá¡Ń":2207,"Ġá¢ĭá¡Ńá¡¬á¢Ļá¡Ńá¢ĳ":2208,"Ġá¢ļá¡Ńá¡¬á¢":2209,"Ġá¡¯á¡ªá¢įá¡¨":2210,"á¡ªá¢Ĭá¢ļá¡¬á¡Ńá¡§":2211,"Ġá¢ĭá¡Ń":2212,"Ð°ÑĢ":2213,"Ġá¡¯á¡¬á¢ŀ":2214,"á¡Ńá¢ĺ":2215,"Ġá¡¯á¡¬á¢ĳá¡´á¡Ńá¢Ķá¡³":2216,"Ġá¢ļá¡Ńá¢Ĭ":2217,"á¡Ńá¢İá¢Ķ":2218,"Ġá¡¥á¡Ńá¢Ļá¡Ńá¢ŀá¡¬á¢Ļ":2219,"Ġá¡¥á¡ªá¢İá¡Ńá¢Ŀ":2220,"Ġá¢Ķá¡ªá¡±á¡±á¡Ńá¡ªá¡ªá¡³":2221,"á¡ªá¢Ĭá¡ªá¢Ļá¡Ńá¡«":2222,"Ġá¢Ķá¡ªá¡Ń":2223,"Ġá¢Ķá¡¬á¢ĳá¢Ļá¡ªá¡±á¡±á¡ªá¡§":2224,"Ġá¢ĭá¡Ńá¡¬á¢ĳá¡¬á¢ľ":2225,"Ġá¡´á¡Ńá¢ĳá¡Ńá¢Ĳá¡¨":2226,"Ġá¢ļá¡Ńá¡ª":2227,"Ġá¢Ĭá¡ªá¡³á¡ªá¡¨":2228,"á¡Ńá¡¬á¡¬á¡³":2229,"Ġá¡¥á¡ªá¢Ľá¡ªá¡«":2230,"Ġá¢ĺá¡Ńá¡¬á¡¬á¢Ĳ":2231,"Ġá¡³á¡ªá¢ľá¡ªá¢ĳ":2232,"á¡¬á¢ľá¡ªá¡ªá¡ªá¡³":2233,"á¡ªá¡ªá¢ļá¡«":2234,"Ġá¡¸á¡ªá¢ŀá¡ªá¡ªá¡ªá¡³":2235,"á¡ªá¢Ľá¡¬á¡ªá¡¬á¡¨":2236,"á¡ªá¡¬á¡¬á¢ĳá¡ªá¢Ľá¡³":2237,"Ġá¢Įá¡¬á¢ĩá¡¨":2238,"áł¢áł®":2239,"Ġá¢ĺá¡Ńá¡Ńá¢ŀ":2240,"Ġá¡³á¡ªá¡¬á¡¬á¢ĩá¡¨":2241,"á¡ªá¡ªá¢Ĭá¢Ľ":2242,"Ġá¡´á¡Ńá¢ŀá¡Ńá¡±á¡±á¡ªá¡§":2243,"Ġá¢Ķá¡ªá¢ĳá¢Ĭá¡¬á¡¦":2244,"Ġá¡¸á¡ªá¢Ļá¡ªá¡±á¡±á¡³":2245,"á¡ªá¢Ł":2246,"Ġá¡³á¡¬á¢ĳá¡¬á¡¬á¡¨":2247,"á¡ªá¡ªá¢ļ":2248,"á¡¬á¡±á¡±á¡Ńá¢ĳá¡Ńá¡ªá¡ªá¢Ķá¡ªá¡§":2249,"Ġá¡¥á¡Ńá¡ªá¢ļá¡ªá¢ĳá¡¬á¢ĩ":2250,"á¡¬á¢ĳá¡±á¡±á¡ªá¡§":2251,"Ġá¢ĺá¡ªá¢Ĭá¡ªá¢ĭá¡Ń":2252,"Ġá¢ļá¡Ńá¡ªá¡ªá¡Ńá¢į":2253,"Ġá¡¥á¢İá¡±á¡ªá¢ĳá¢Ĭá¡ªá¡¨":2254,"Ġáłªáł£":2255,"á¡¬á¢ŀá¡ªá¢Ĳ":2256,"Ġá¡¸á¡ªá¢İá¡ªá¡±á¡±á¡ªá¢ĳá¡ªá¡ªá¡ªá¡³":2257,"Ġá¢Ķá¡¬á¢Ĭ":2258,"Ġá¡¸á¡Ńá¡±á¡«":2259,"Ġá¡¬á¡¬á¡ªá¢Ĭá¢Ĭ":2260,"Ġá¢ĺá¡Ńá¡¬á¡³á¡ªá¡Ńá¡§":2261,"á¡¬á¡±á¡±á¡Ńá¢ĳá¡Ńá¡§":2262,"Ġá¢Ĺá¡ªá¡ªá¢Ĭá¡±á¡ªá¢Ĳ":2263,"á¡ªá¢İá¢Ļá¡ªá¡§":2264,"Ġá¢Īá¡Ńá¢İ":2265,"á¡ªá¢ĺá¡¦":2266,"á¡ªá¡ªá¡ªá¡ªá¡ªá¡³":2267,"Ġáłªáłłáł·":2268,"Ġá¡¥á¡Ńá¡ªá¡ªá¢Ķ":2269,"á¡ªá¢ĳá¡ªá¢Ĭá¢Ķá¡ªá¡§":2270,"Ġá¢ĺá¡ªá¢Ľá¡¬á¢Ĭ":2271,"Ġá¡¥á¡ªá¢ľá¡ªá¢ĳ":2272,"á¢ĺá¡ªá¡±á¡±":2273,"Ġá¡´á¡Ńá¡¬á¢ŀá¡¬á¢ĳá¢Ļ":2274,"Ġá¢ĺá¡Ńá¢ŀá¡ªá¢Ļá¡ªá¡«":2275,"Ð°Ð¹":2276,"á¢ı":2277,"Ġá¢Įá¡Ńá¡¬á¢ŀá¢ĭ":2278,"Ġá¢Īá¡Ńá¢ĳ":2279,"Ġá¢ľá¡Ńá¢Ķá¡Ńá¡§":2280,"Ġá¢ĺá¡Ńá¢Ļá¡Ńá¡±á¡±á¡ªá¢Ļá¡³":2281,"Ġá¢ĺá¡ªá¡±á¡¬á¢ĳá¢ļ":2282,"Ġá¢ĺá¡ªá¢ŀá¡¬á¢ĭá¡Ńá¢ĳ":2283,"á¡Ńá¢ĩá¡¨":2284,"Ġá¡¥á¡ªá¢ĳá¡ªá¢īá¡¨":2285,"áł¦áł¬":2286,"Ġá¡¬á¡Ńá¢ĳ":2287,"Ġá¢ĺá¡Ńá¡ªá¡ª":2288,"Ġá¢ĺá¡ªá¢Ĭá¡ªá¢ŀá¡ªá¢Ĭá¡¬á¡¦":2289,"Ġá¡¸á¡Ńá¢ŀá¡¬á¡§":2290,"Ġá¡´á¡Ńá¡¬á¢ŀá¡¬á¡§":2291,"á¡¬á¢ľá¡ªá¢ĳá¢ļá¡«":2292,"Ġá¡¸á¡ªá¡±":2293,"á¡¥á¢İ":2294,"Ġá¡¥á¡¬á¢İ":2295,"á¡¬á¢ŀá¡ªá¢Ľá¡³":2296,"á¢ļá¡¬á¢Ĭ":2297,"á¡Ńá¢ĭá¡Ńá¡«":2298,"Ġá¢ľá¡ªá¡´á¡Ńá¢Ļá¡ªá¢ĩ":2299,"á¡Ńá¢Ļá¡ªá¡¬á¡¨":2300,"á¢ĺá¡ªá¢ŀá¡§":2301,"á¢Ĭá¡ªá¡Ńá¡§":2302,"Ġá¢Ķá¡Ńá¡¦":2303,"Ġá¢Įá¡ªá¢ĳá¢ļá¡¬á¡Ńá¡§":2304,"Ġá¢Įá¡Ńá¡¬á¢Ķ":2305,"á¡Ńá¡ªá¢Ĭá¢Ĭá¡ªá¡¨":2306,"Ġá¡¥á¡ªá¢ĳá¡Ńá¢ĵ":2307,"á¡ªá¢ĳá¢Ļá¡Ńá¡§":2308,"Ġá¡¥á¡ªá¢Ļá¡ªá¢ĳ":2309,"Ġá¡³á¡¬á¢Ľá¡§":2310,"Ġá¢ĺá¡ªá¢İá¡¬á¢Ŀ":2311,"Ġá¡¯á¡Ńá¡±á¡±á¡Ńá¡±á¡±á¡ªá¡§":2312,"Ġá¢¤á¡¬á¡±á¡Ń":2313,"Ġá¡¥á¡²":2314,"á¡Ńá¢ĭá¡Ńá¡Ńá¡§":2315,"á¢Ĭá¡¬á¢Ľá¡³":2316,"Ġá¢ļá¡¬á¡ªá¢Ĭá¢īá¡¨":2317,"Ġá¢Ķá¡Ńá¢ŀá¡±á¡±á¡ªá¢Ĳ":2318,"Ġá¢ļá¡¬á¡ªá¡¬á¡¨":2319,"Ġá¢Ķá¡¬á¡ªá¡ª":2320,"Ġá¢ĭá¡Ńá¡¬á¡¬á¢Ļá¡ªá¡§":2321,"Ġá¡¬á¡§":2322,"á¡ªá¡±á¡±á¡ªá¡°á¡¨":2323,"Ġá¢ľá¡ªá¡±á¡±á¡ªá¢Ĭá¡¬á¡ªá¡ªá¡³":2324,"Ġá¢ĭá¡Ńá¡¬á¢ŀá¢Ĭ":2325,"Ġá¡¥á¡Ńá¡¬á¡¬á¢ĳá¡ªá¢ļá¡¬á¢ĳ":2326,"Ġá¡¥á¡¬á¢ĳá¡ªá¢ŀ":2327,"á¡Ńá¡¬á¢Ľ":2328,"á¡ªá¢ĭá¡Ńá¢ĳá¡³á¡ªá¡¨":2329,"á¡ªá¢ĳá¢Ļá¡ªá¡§":2330,"á¡Ńá¢ŀá¢ļá¡³":2331,"á¡Ńá¢Ĺ":2332,"Ġá¢ĺá¡ªá¡ªá¢Ĭá¢Ķ":2333,"Ġá¡¥á¡¬á¢Ķ":2334,"Ġá¡¥á¡Ńá¡¬á¢ľá¡ªá¢ĵ":2335,"Ġá¡¯á¡ªá¡¬á¡¬á¢ŀá¡ªá¢ĩ":2336,"Ġá¢ľá¡ªá¡´á¡Ńá¢ļá¡§":2337,"Ġá¢ĺá¡ªá¢ŀá¡ªá¡±á¡±":2338,"Ġ1":2339,"Ġá¡¥á¡¬á¡³":2340,"Ġá¢Ĭá¡ªá¢Ĭá¡ªá¡§":2341,"Ġá¡³á¡ªá¢Ļá¡³":2342,"á¡Ńá¢ļá¡¬á¢ĳ":2343,"Ġá¢Įá¡Ńá¡¬á¡ªá¢Ĭá¢ĭá¡Ńá¡§":2344,"Ġá¡³á¡ªá¡¬á¡¬á¢ĳ":2345,"á¡ªá¡ªá¡ªá¢Ļá¡ªá¡§":2346,"Ġá¡´á¡Ńá¢ĳá¡±á¡±á¡ªá¡ªá¡ªá¡³":2347,"á¢ļá¡¬":2348,"á¢ĺá¡ªá¡«":2349,"Ġá¡¸á¡ªá¡±á¡±á¡Ńá¢ļá¡¬á¡§":2350,"á¢Ļá¡ªá¡ªá¡ªá¡³":2351,"Ġá¢ĭá¡Ńá¡¬á¢ŀá¡³":2352,"á¡ªá¡³á¢ļá¡«":2353,"Ġá¡¥á¡¬á¢ĳá¡±á¡±":2354,"Ġá¡¯á¡Ńá¡¬á¢ĭá¡Ńá¢ļá¡ªá¢Ĳ":2355,"Ġá¡¬á¡Ńá¡¬á¡³á¢Ķ":2356,"Ġá¢Ĭá¡ªá¡±á¡ªá¡Ńá¡ªá¢Ļá¡§":2357,"á¡¥á¡Ńá¢Ļ":2358,"á¢Ķá¡¬á¢ĳ":2359,"á¡Ńá¡¬á¢Ĭá¡ªá¡¨":2360,"Ġá¡¥á¡ªá¢ļá¡«":2361,"á¡ªá¡ªá¡ªá¢Ļá¡ªá¢Ļá¡ªá¢ĩ":2362,"á¡Ńá¢ļá¡Ńá¡Ńá¡§":2363,"Ġá¡³á¡¬á¢ļá¡¬á¢Ĭ":2364,"Ġá¡¸á¡ªá¡±á¡±á¡ªá¢ĵ":2365,"Ġá¡³á¡¬á¢ļá¡¬á¢ĭá¡Ń":2366,"Ġá¢Ĭá¡ªá¢Ľá¡ªá¡«":2367,"Ġá¡¸á¡Ńá¡¬á¡¬á¢Ļá¡³":2368,"á¢ľá¡ªá¡´":2369,"Ġá¡¥á¡Ńá¡¬á¢Ľá¡ªá¡³á¡ªá¢Ĳ":2370,"Ġá¢ļá¡¬á¡±á¡³á¡¨":2371,"Ġá¡¥á¡¬á¡ªá¢Ĭá¢Ĭá¡¬á¢Ĭá¡ªá¡Ńá¡§":2372,"á¡ªá¡¬á¡¬á¢Ľá¡³":2373,"á¡ªá¢ĺá¢Łá¢ŀ":2374,"Ġá¢ĺá¡Ńá¢ĳá¡Ńá¡±á¡±á¡ªá¡§":2375,"Ġá¢ļá¡ªá¢ļá¡ªá¢ŀá¢ĳá¡¬á¡¬á¡¨":2376,"Ġá¡³á¡ªá¡¬á¡¬á¢ĳá¢Ļ":2377,"Ġá¡´á¡Ńá¢ŀá¡³":2378,"Ġá¢Įá¡ª":2379,"Ġá¡¸á¡Ńá¡±á¡Ńá¢ĩ":2380,"á¢Łá¡«":2381,"Ġá¢ĭá¡Ńá¡¬á¡³á¡ªá¢ĭá¡Ńá¡§":2382,"á¡ªá¡ªá¡ªá¡Ńá¡§":2383,"Ġá¢ĺá¡ªá¡ªá¢Ĭá¢Ĭ":2384,"á¡Ńá¡ªá¡ªá¢Ķá¡«":2385,"Ġáł£":2386,"Ġá¢ĺá¡ªá¢Ļá¡¦":2387,"Ġá¡¸á¡ªá¡¬á¡¬á¢ŀá¡ªá¢Ļá¡ªá¡«":2388,"á¡Ńá¢ĭá¡Ńá¡³":2389,"Ġáł²áłłáł¢":2390,"Ġá¡¥á¡Ńá¢ļá¡¬á¢Ľá¡³":2391,"á¡ªá¢Ĺ":2392,"Ġá¡¥á¡ªá¢ŀá¡¬á¡±á¡±á¡Ńá¡§":2393,"á¡ªá¡±á¡±á¡Ńá¢ĳá¢īá¡¨":2394,"Ġá¡¥á¡¬á¢ĳá¡ªá¡Ńá¡ªá¢Ĭ":2395,"Ġá¢Ķá¡Ńá¡¬á¢ĳá¢Ľá¡¬á¢ľá¡ªá¡§":2396,"á¡¬á¢ĺ":2397,"Ġá¡¥á¢Ĭá¡¬á¡¦":2398,"á¡¬á¡«":2399,"Ð°Ð½":2400,"Ġá¢¥á¡Ńá¢İá¡¶":2401,"Ġá¢Ķá¡ªá¡±á¡ªá¢Ĳ":2402,"Ġá¡¯á¡Ńá¢ĭá¡Ńá¡Ńá¡§":2403,"Ġá¡¥á¡ªá¢İá¢Łá¢ŀá¡¬á¢¤á¡ªá¡¨":2404,"Ġá¡¯á¡¬á¢Ķ":2405,"á¡ªá¢ĳá¡ªá¢ĳá¢Ļá¡§":2406,"ĠÑħ":2407,"Ġá¡¥á¡ªá¡´á¡Ńá¢ŀá¡±á¡±á¡³":2408,"Ġá¢ĺá¡ªá¢Ļá¡ªá¢Ĭá¡ªá¢Ŀ":2409,"á¡Ńá¡³á¡¨":2410,"Ġá¢ľá¡ªá¡ªá¢Ĭá¢Ľá¡³":2411,"Ġá¢Ķá¡ªá¡ªá¡¬á¡¨":2412,"Ġá¢Ķá¡ªá¢ĳá¢Ĭá¡¬á¡§":2413,"Ġá¢Īá¡ªá¡³":2414,"Ġá¡¬á¡¬á¡ªá¢Ĭá¢Ĭá¡¬á¡±á¡«":2415,"Ġ20":2416,"á¡Ńá¡¬á¡ªá¢Ĭá¡±":2417,"Ġá¡´á¡Ńá¢Ļá¡ªá¢ĵ":2418,"Ġá¢Ĭá¡ªá¢ŀá¢Ĭá¡¬á¡§":2419,"Ġá¡¸á¡ªá¢Ļá¡Ńá¡§":2420,"á¡ªá¢ŀá¢Ļá¡³":2421,"Ġáł¦áłŃáł¡áł¢":2422,"Ġá¡¬á¡ªá¢ŀá¢ĳ":2423,"á¡ªá¢ĳá¡ªá¢ĩ":2424,"Ġá¡¥á¡ªá¢İá¡¬á¢Ļá¡Ńá¢ŀá¡ªá¢Ľá¡³":2425,"Ġá¡¥á¡ªá¢ĳá¡¬á¡³á¡ªá¡¨":2426,"Ġá¡¬á¡¬á¡±á¡±á¡ªá¡ªá¡ªá¡ªá¡§":2427,"Ġá¢Ĭá¡¬á¡±":2428,"Ġá¡¥á¡¬á¢ŀá¡ªá¢Ĭá¡ªá¢Ļá¡Ńá¡«":2429,"á¢Īá¡ªá¢ŀ":2430,"Ġá¢Īá¡Ńá¡±":2431,"Ġá¡¬á¡ªá¢Ļ":2432,"Ġá¡¬á¡Ńá¢Ĭá¡¬á¢ľá¡ªá¢ĳá¢ļá¡«":2433,"Ġá¡³á¡ªá¢Ļá¡Ńá¢ĳ":2434,"Ġá¢ĭá¡Ńá¡¬á¡ªá¢Ĭá¢Ĭ":2435,"Ġá¡¥á¢ŀá¢Ĭá¡¬á¢į":2436,"Ġá¡¬á¡¬á¢ŀá¡±á¡±á¡Ńá¡±á¡±á¡ªá¡§":2437,"á¡Ńá¢İá¡ªá¢Ŀ":2438,"á¢ĺá¡Ńá¢İ":2439,"Ġá¢Īá¡Ńá¢ŀá¡³á¡ªá¢Ļá¡Ńá¡±á¡±á¡ªá¢Ŀ":2440,"Ġá¡¬á¡ªá¢İ":2441,"á¡Ńá¡±á¡±á¡Ńá¢ĳá¡Ńá¡ªá¡ªá¢Ķá¡ªá¡§":2442,"Ġá¡¬á¡ªá¢ĭá¡Ńá¢Ļ":2443,"á¢Ĭá¡¬á¢ŀ":2444,"Ġá¢ļá¡¬á¢Ļá¡ªá¡ªá¡ªá¢Ķá¡ªá¡§":2445,"Ġá¢ĺá¡ªá¢Ķá¡Ńá¢ŀ":2446,"Ġá¢Ķá¡Ń":2447,"Ġá¡¸á¡Ńá¡³á¡¬á¢Ķ":2448,"Ġá¢Ķá¡ªá¢ŀá¢ĭ":2449,"Ġá¢Ķá¡ªá¢Ļá¡Ńá¡²":2450,"á¡¬á¢ĭá¡Ńá¡«":2451,"Ġá¡¯á¡ªá¡¬á¡¬á¢ĳ":2452,"Ġá¢Ķá¡ªá¡Ńá¡ªá¢ĭá¡Ńá¢Ĳ":2453,"Ġá¡´á¡Ńá¡±á¡±á¡Ńá¢ŀ":2454,"Ġá¢Įá¡ªá¢Ļá¡ªá¢Ľá¡³":2455,"Ġá¡¥á¢Ĭá¡¬á¡§":2456,"Ġá¢ĺá¡ªá¢ĳá¡³á¡¬á¢Ľá¡³":2457,"Ġá¢ĭá¡Ńá¡¬á¢ŀá¡¬á¡«á¡¨":2458,"Ġá¡¥á¢ĭá¡Ńá¢Ļá¡§":2459,"Ġá¢Ĭá¡ªá¢ĳá¡ªá¢ĳá¢ļ":2460,"Ġá¡¥á¡Ńá¡¬á¢Ľá¡ªá¢Ĭá¢Ķá¡ªá¡§":2461,"Ġá¢ĺá¡ªá¢ĳá¡ªá¡³á¡ªá¡«":2462,"á¡ªá¡ªá¢Ĭá¢īá¡¨":2463,"á¡¬á¡ªá¡ªá¢Ļá¡ªá¡«":2464,"áłłáłµáł¤":2465,"Ġá¢ļá¡¬á¢Ķá¡³":2466,"Ġá¡¥á¡Ńá¡¬á¡±á¡Ńá¢Ŀ":2467,"Ġá¡¬á¡Ńá¢Ĭá¡¬á¢ļ":2468,"á¡¬á¡²":2469,"á¡ªá¡¬á¡¬á¢ļá¡Ńá¡Ńá¡§":2470,"Ġá¡¥á¢ĭá¡Ńá¢Ļá¡ªá¡§":2471,"Ġá¢Ĺá¡ªá¡±á¡±á¡ªá¢ŀá¢Ļá¡ªá¢ĳá¢īá¡¨":2472,"á¢ĺá¡Ńá¢ŀ":2473,"Ġá¢Ķá¡¬á¢ĳá¡±á¡±á¡ªá¢ĳá¢Ļá¡§":2474,"Ġá¡¥á¡ªá¢İá¡¬á¢Ļá¡³":2475,"Ġá¡¥á¡Ńá¢ĳá¡ªá¢ŀá¡¬á¢Ĳ":2476,"Ġá¢Ķá¡ªá¡¬á¡¬á¡Ńá¡§":2477,"Ġá¡¥á¡Ńá¡¬á¡¬á¢ĳá¡ªá¢Ļá¡Ńá¢Ĳ":2478,"Ġá¢Ĭá¡ªá¢Ľá¡¬á¡«á¡¨":2479,"Ġá¡¥á¡ªá¡±á¡±á¡Ńá¢ĳá¡ªá¡§":2480,"Ġá¢ĺá¡ªá¢Ĭá¡ªá¡³á¡ªá¢Ĳ":2481,"Ġá¢ĺá¡Ńá¢ĳá¡±á¡±":2482,"Ġá¢Ĭá¡ªá¢Ķá¡¬á¢ĭá¡Ńá¡§":2483,"Ġá¢ĺá¡Ńá¡¬á¢ĭá¡Ńá¢ŀá¡ªá¡ªá¡¬á¡¨":2484,"áł¡áł°":2485,"Ġá¡¬á¡Ńá¡¬á¢ļ":2486,"Ġá¢ĭá¡Ńá¡¬á¢ŀá¡Ńá¡ªá¢Ĭá¢Ĭá¡ªá¡¨":2487,"ä¸":2488,"Ġá¢Ķá¡ªá¡³":2489,"Ġá¡¬á¡Ńá¡¬á¡³á¢ĳ":2490,"Ġá¢ĺá¡ªá¢İá¢Ļá¡ªá¢Ĭá¢ĳá¡ªá¢Ĳ":2491,"á¡¥á¡Ń":2492,"Ġá¡¯á¡Ńá¡¬á¢ĭá¡Ńá¡Ńá¡§":2493,"Ġá¢Ķá¡¬á¢ĳá¢Ľ":2494,"Ġá¢Ķá¡Ńá¢ŀá¡Ńá¢ĳá¢īá¡¨":2495,"Ġá¡¸á¡ªá¢ĳá¢Ļ":2496,"á¡ªá¢ĭá¡Ńá¢Ĳá¡¨":2497,"á¡ªá¢Ļá¡ªá¢Ľá¡³":2498,"Ġá¢ĺá¡ªá¢İá¡Ńá¢Ŀ":2499,"á¡ªá¡ªá¡ªá¢ļá¡§":2500,"Ġá¢ĺá¡ªá¡±á¡±á¡Ńá¢Ķ":2501,"á¢ļá¡¬á¡Ńá¡§":2502,"á¢Ļá¡ªá¢ĭá¡Ń":2503,"á¡ªá¢ĳá¢ļá¡¬á¡Ńá¡§":2504,"Ġá¡¥á¢ŀá¢Ļá¡ªá¢İá¢Ļá¡ªá¡§":2505,"Ġá¢Įá¡ªá¡ªá¢Ļá¡³":2506,"Ġá¡¥á¡ªá¢Ľá¡¬á¢ĳá¢ĳá¡ªá¢Ľá¡³":2507,"Ġá¡¥á¡ªá¡±á¡±á¡Ńá¢Ŀ":2508,"Ġá¡¸á¡ªá¢ŀá¡¬á¡±á¡±á¡Ńá¢ļá¡ªá¢ĳá¢īá¡¨":2509,"á¡¬á¢Ķá¢ĺ":2510,"Ġá¢Ķá¡ªá¢ŀá¢Ĭ":2511,"Ġá¡¥á¢İá¢ļá¡«":2512,"Ġá¡´á¡Ńá¡¬á¢Ľ":2513,"Ġá¡¥á¡¬á¢Ļá¡ªá¢ĭá¡Ń":2514,"Ġá¡¬á¡Ńá¡³á¡ªá¢ĳá¡ªá¡ªá¡¬á¡¨":2515,"Ġá¡¥á¡¬á¢Ļá¡ªá¢Ĭá¡ªá¡§":2516,"Ġá¢ĺá¡ªá¡±á¡±á¡ªá¢Ľá¡³":2517,"Ġá¡¥á¡ªá¢ŀá¡³á¡¬á¡§":2518,"Ġá¢Ĭá¡ªá¡³á¢ĳá¡ªá¢Ĳ":2519,"áł°áł¡áł¨":2520,"Ġá¡¯á¡Ńá¢ŀ":2521,"Ġá¢Įá¡ªá¢Ļá¡ªá¢ŀ":2522,"Ġá¡¯á¡Ńá¡¬":2523,"Ġá¢Īá¡Ńá¢ľá¡³":2524,"á¡ªá¢ŀá¡«":2525,"á¡¬á¢ĭá¡Ńá¢ĳá¡Ńá¡§":2526,"Ġá¡¥á¡ªá¢ŀá¡±á¡±":2527,"á¡ªá¢ĳá¡±á¡±":2528,"Ġá¢Įá¡Ńá¡¬á¢ŀá¡Ńá¢Ĭ":2529,"Ġá¢ĺá¡ªá¢Ĭá¡¬á¢ĳá¢īá¡¨":2530,"Ġá¡³á¡ªá¡¬á¡¬á¢ŀ":2531,"Ġá¢Ĭá¡ªá¢İá¢Ľá¡¬á¢ľá¡ªá¡§":2532,"á¢Łá¢ĳá¢Ł":2533,"Ġá¢ĺá¡Ńá¡¬á¢ĳá¡Ńá¡³":2534,"Ġá¢Ĭá¡ªá¢ŀá¡ªá¢Ĭá¢Ľ":2535,"á¢Ķá¡ªá¡Ńá¡ªá¢Ĭ":2536,"Ġá¢ĺá¡ªá¢ĳá¢Ĭá¡ªá¢ĭá¡Ńá¢Ŀ":2537,"Ġáłªáłłáł¢":2538,"Ġá¢ĺá¡Ńá¢Ķá¡§":2539,"Ġá¡¥á¡Ńá¡¬á¢Ľá¡ªá¢ĳá¢Ļá¡§":2540,"á¢Ĭá¡¬á¢ĳ":2541,"Ġá¡´á¡Ńá¢Ļá¡ªá¢Ļá¡³":2542,"á¡ªá¡ªá¡ªá¡ªá¡ªá¢Ķá¡ªá¡§":2543,"âĢĶ":2544,"Ġá¡¥á¡Ńá¡¬á¢ŀá¢ĭá¡Ńá¢ĳá¢Ľá¡«":2545,"áł¢áł´":2546,"á¡¬á¡¬á¡ªá¡§":2547,"á¢ļá¡¬á¢ĳá¡ªá¡ªá¡¬á¡¨":2548,"á¡Ńá¡Ńá¢Ŀ":2549,"á¡ªá¢ĳá¡ªá¡°á¡¨":2550,"Ġá¡¬á¡ªá¢ľá¡ªá¢īá¡¨":2551,"á¡ªá¢ŀá¡ªá¡ªá¡ªá¡§":2552,"Ġá¡¥á¢Ĭá¡¬á¢ĳá¡ªá¡§":2553,"Ġá¢Ķá¡Ńá¢Ļá¡Ńá¢ĳá¡±á¡±á¡ªá¡§":2554,"Ġá¡¥á¡ªá¡³á¡ªá¢īá¡¨":2555,"Ġá¡¬á¡¬á¢Ĺá¡¬á¡«á¡¨":2556,"Ġá¢ļá¡¬á¢Ļá¡ªá¢Ĳ":2557,"Ġá¢ĺá¡ªá¢ľ":2558,"á¡¬á¢ľá¡ªá¢ĳá¡ªá¡ªá¡¬á¡¨":2559,"á¡¬á¢Ľá¡«":2560,"á¡¸á¡Ńá¢ľá¡ªá¢Ŀ":2561,"á¡Ńá¢ŀá¢Ľá¡«":2562,"á¢Įá¡¬á¡±á¡³":2563,"á¢Ļá¡ªá¢Ĭá¢Ķá¡ªá¡§":2564,"á¡¬á¢ĭá¡Ńá¢Ŀ":2565,"Ġá¡¸á¡ªá¡¬á¡¬á¢ĳ":2566,"Ġá¡¸á¡ªá¡³":2567,"á¡¥á¢Ļ":2568,"Ġá¢Įá¡ªá¡ªá¢Ľá¡³":2569,"Ġá¢ĭá¡Ńá¡¬á¢ĭ":2570,"Ġá¡¬á¡ªá¡ªá¢Ĭá¢Ķ":2571,"á¡¸á¡Ńá¡³":2572,"á¢Łá¡³":2573,"Ġá¡¥á¢İá¡ªá¢Ĭá¡ªá¡¨":2574,"Ġá¡¥á¡ªá¢ĳá¢Ļá¡ªá¢Ŀ":2575,"Ġá¡³á¡ªá¡¬á¡¬á¡±á¡±á¡Ńá¢ĳá¡Ńá¢ĳá¢Ļá¡§":2576,"á¢Łá¡±":2577,"Ġá¢Ķá¡Ńá¡¬á¢ĳá¢Ļá¡§":2578,"Ġá¢Ķá¡¬á¢İ":2579,"á¡Ńá¢ĭá¡Ńá¢Ŀ":2580,"á¡Ńá¢ĳá¢Ĭá¡ªá¡¨":2581,"Ġá¢ĺá¡Ńá¡¬á¢ŀá¢Ķ":2582,"áł¡áłµáł¦":2583,"á¢Īá¡Ńá¢ŀ":2584,"Ġá¢ĺá¡ªá¡¬á¡¬á¢ļ":2585,"Ġáłłáł·":2586,"Ġá¢Įá¡Ńá¢Ľá¡«":2587,"á¡¥á¡Ńá¡¬á¡ªá¢Ļ":2588,"Ġá¢Ķá¡ªá¢ĭá¡Ńá¢Ļá¡ªá¢Ŀ":2589,"Ġá¢ļá¡ªá¡³":2590,"á¢ĺá¢Ŀ":2591,"Ġá¡³á¡ªá¢ŀá¡ªá¡ªá¡ªá¡³":2592,"Ð°Ð¼":2593,"Ġá¡³á¡ªá¢Ĭá¡ªá¢Ľá¡¬á¡ªá¡¬á¡¨":2594,"áł¡áł¶":2595,"á¡ªá¢¤":2596,"Ġá¡¥á¡Ńá¢ĳá¡ªá¡ªá¢Ĭá¢Ĭá¡¬á¡¦":2597,"Ġá¡¥á¡Ńá¡ªá¢Ĭá¢Ķá¡¬á¡ªá¡ªá¡³":2598,"á¡ªá¡ªá¡Ńá¢ĳ":2599,"Ġá¢Ķá¡ªá¡ªá¢Ļ":2600,"Ġá¢Ķá¡¬á¡ªá¢Ľá¡«":2601,"á¢ĭá¡Ńá¢ĳá¡ªá¡ªá¡¬á¡¨":2602,"Ġá¡¬á¡Ńá¢ŀá¡¬á¢ĳá¢īá¡¨":2603,"Ġá¡¸á¡Ńá¢ŀá¢Ļá¡Ńá¡§":2604,"á¡ªá¡Ńá¡ªá¢ļá¡³":2605,"Ġá¡¬á¡Ńá¡¬á¢Ĭá¡ªá¢ĳá¡ªá¡§":2606,"Ġá¢ļá¡¬á¢ĳá¡Ńá¢Ĭ":2607,"Ġá¢Ĭá¡ªá¢ĳá¡ªá¢Ļá¡ªá¡¬á¡¨":2608,"Ġá¡³á¡ªá¡«":2609,"á¢Łá¢į":2610,"Ġá¢ĭá¡Ńá¡¬á¢Ľ":2611,"Ġá¡¥á¡Ńá¡´á¡Ńá¢ĩ":2612,"Ġá¢ļá¡¬á¢Ļá¡ªá¢Ļá¡ªá¢ĩ":2613,"á¡¬á¢ľá¡ªá¢Ļá¡§":2614,"á¡Ńá¡±á¡³":2615,"á¡¬á¡Ńá¡¬":2616,"--":2617,"Ġá¡¬á¡¬á¢İ":2618,"Ġá¡¥á¡ªá¡±á¡±á¡Ńá¢Ļ":2619,"Ġá¡¥á¢Ķá¡ªá¢ŀá¢ĭ":2620,"Ġá¡´á¡Ńá¡ªá¡ªá¢Ļá¡§":2621,"á¡Ńá¡±á¡±á¡Ńá¢ŀ":2622,"Ġá¢ĺá¡Ńá¢Ķá¡ªá¡ªá¡Ńá¡§":2623,"á¡ªá¢Ļá¡Ńá¢Ĭá¡ªá¢Ŀ":2624,"Ġá¢Ķá¡ªá¡±á¡±á¡Ńá¡ªá¡ªá¢Ķá¡ªá¡§":2625,"Ġá¢ĺá¡ªá¢Ĭá¡ªá¢Ļá¡Ńá¢ĵ":2626,"á¡ªá¢Ĭá¡ªá¢Ĳ":2627,"Ġá¢Īá¡ªá¢ŀá¡±á¡±á¡ªá¡ªá¡ªá¡³":2628,"Ġá¡¸á¡ªá¢ľá¡§":2629,"Ġá¡³á¡¬á¢ļá¡¬á¢ĳá¢Ĭá¡ªá¡¨":2630,"Ġá¢ĺá¡ªá¡³á¢ļ":2631,"Ġá¢ĭá¡Ńá¡¬á¡¬á¢ļá¡ªá¡Ńá¡ªá¢Ĭ":2632,"Ġá¡¬á¡Ńá¡¬á¡³á¢Ķá¡¬á¢ľá¡ªá¢ŀ":2633,"Ġá¡¥á¡¬á¡¬á¢İá¡Ńá¢ŀ":2634,"á¡Ńá¡±á¡±á¡ªá¢ŀ":2635,"ĠÑģ":2636,"Ġá¢ĭá¡Ńá¡¬á¢ŀá¡Ńá¢Ĭá¢Ķá¡ªá¡§":2637,"Ġá¢Ķá¡ªá¢ŀá¡ªá¡§":2638,"Ġá¢ĺá¡ªá¢ŀá¡ªá¡ªá¡ªá¡§":2639,"Ġá¢ĺá¡Ńá¢Ĭá¡¬á¢ľá¡ªá¢ĳá¢Ļ":2640,"á¡³á¡ªá¢ľ":2641,"Ġá¢ĭá¡Ńá¡¬á¢Ļá¡ªá¢ĳá¢İá¡Ńá¢ŀá¡«":2642,"á¢Ķá¡ªá¡±":2643,"Ġá¢Ĺá¡ªá¢Ļá¡Ńá¡§":2644,"Ġá¡¥á¡Ńá¡¬á¢Ļá¡§":2645,"á¡ªá¢ĺá¢Łá¢ŀá¡¬á¢ľá¡ªá¢Ĳ":2646,"Ġá¡¥á¡Ńá¡¬á¢Ľá¡ªá¢Ĭá¢Ļá¡ªá¢Ĳ":2647,"Ġá¡¬á¡¬á¢ŀá¡Ńá¢į":2648,"á¢Łá¢ĳá¢Łá¡¬á¢ĵ":2649,"Ġá¡¸á¡Ńá¢ļá¡Ńá¢ŀ":2650,"Ġá¢ĺá¡ªá¢İá¢Ļá¡ªá¡¬á¡¨":2651,"á¢ľá¡ªá¢ŀ":2652,"á¡¥á¡Ńá¡¬á¡¬á¢ĳ":2653,"Ġá¡¯á¡ªá¢Ķá¡Ńá¢Ļá¡ªá¡§":2654,"Ġá¡¯á¡ªá¢Ļ":2655,"Ġá¢ľá¡¬á¢Ķá¡Ńá¡§":2656,"á¡±á¡±á¡Ńá¡«":2657,"Ġá¡³á¡ªá¡¬á¡¬á¡±á¡±á¡Ńá¢ĳá¢Ľá¡³":2658,"á¡ªá¢Ľá¡§":2659,"Ġá¢ļá¡Ńá¡¬á¢į":2660,"á¢Ķá¡¬á¢ŀ":2661,"á¡¥á¡¬":2662,"á¡ªá¡´á¡Ń":2663,"Ġá¡¯á¡ªá¢Ĭá¡ªá¢Ĭ":2664,"Ġá¢ľá¡ªá¡´á¡Ńá¡°á¡¨":2665,"Ġá¡´á¡Ńá¢Ļá¡ªá¢īá¡¨":2666,"Ġá¡¯á¡ªá¡¬á¡¬á¢ŀá¡ªá¡±á¡±á¡Ńá¢ĳ":2667,"Ġá¡³á¡¬á¢Ļá¡ªá¢Ĭá¡ªá¡«":2668,"Ġáł¡áł·":2669,"á¡³á¡ªá¡¬á¡¬á¡°á¡¨":2670,"ĠãĢīãĢī":2671,"Ġá¢ĺá¡ªá¢ĭá¡Ń":2672,"Ġá¢ĺá¡ªá¡±á¡±á¡ªá¡±á¡±":2673,"Ġá¡¥á¡Ńá¡¬á¡ªá¢Ļá¡Ńá¢Ķá¡³":2674,"Ġá¢ĭá¡Ńá¡¬á¢Ĭá¢Ľá¡¬á¢į":2675,"Ġá¢Ļá¡Ńá¢Ŀ":2676,"Ġá¡¥á¡ªá¢Ľá¡«":2677,"á¡Ńá¡¬á¡¬á¢ļ":2678,"á¡ªá¡±á¡±á¡Ńá¡Ńá¡§":2679,"Ġá¡¬á¡ªá¡±á¡±á¡³":2680,"á¡ªá¡ªá¡ªá¡³á¡ªá¡¨":2681,"Ġá¢ĺá¡Ńá¢İá¡Ńá¢ĩ":2682,"Ġá¢ĺá¡ªá¢İá¡ªá¡«":2683,"áł¡áłª":2684,"Ġá¡¥á¡Ńá¢ŀá¢ļá¡¬á¢į":2685,"Ġá¢Įá¡ªá¢ŀá¡±á¡±á¡ªá¢Ķá¡«":2686,"Ġá¢Īá¡Ńá¡Ńá¢ĳá¢Ļ":2687,"Ġá¡¥á¡¬á¢ŀá¢Ĭá¡ªá¡Ńá¡§":2688,"Ġá¢Ĭá¡¬á¢İ":2689,"Ġá¡³á¡¬á¢ļá¡¬á¡ªá¡ªá¡ªá¡§":2690,"Ġá¡´á¡Ńá¢Ļá¡ªá¢Ļá¡ªá¡«":2691,"Ġá¢ļá¡¬á¡ªá¢Ĭá¡±á¡±":2692,"Ġá¡¬á¡ªá¡ªá¢Ĭá¢Ķá¡¬á¢Ĳ":2693,"á¡Ńá¢İá¡ªá¡§":2694,"Ġá¡¬á¡¬á¢ľ":2695,"áł¦áł°":2696,"Ġá¡¥á¡ªá¢Ľá¡§":2697,"Ġá¢Īá¡Ńá¡³á¡¨":2698,"Ġá¢Īá¡ªá¢ŀá¡±á¡±á¡ªá¡ªá¡ªá¢Ķá¡ªá¡§":2699,"Ð¹":2700,"Ġá¡¯á¡ªá¢Ķá¡Ńá¢Ļá¡ªá¡«":2701,"á¡ªá¡±á¡±á¡ªá¢ĳá¢Ļá¡§":2702,"Ġá¢Ķá¡Ńá¢ŀá¡±á¡±á¡ªá¢ĳá¢Ļá¡§":2703,"á¡¥á¡Ńá¢ĳá¡Ńá¢ĵ":2704,"á¡¯á¡ªá¡¬":2705,"Ġáłªáł¤áł¯":2706,"Ġá¡³á¡ªá¢ľá¡ªá¢ĳá¡¬á¢ĩ":2707,"Ġá¡¥á¡¬á¢ŀá¡ªá¢Ĳá¡¨":2708,"Ġá¡¬á¢Ł":2709,"Ġá¢Įá¡ªá¢ľ":2710,"áł¤áł¢":2711,"áłĦ":2712,"Ġá¢Įá¡ªá¢ĺá¢Łá¢ŀá¡¬á¢ľá¡ªá¢Ĳ":2713,"áł¦áł³":2714,"Ġá¡¥á¡Ńá¡¬á¢Ľá¡ªá¢ĭá¡Ńá¢ĳ":2715,"Ġá¢ĺá¡Ńá¡³á¢ļá¡¬á¢ľá¡ªá¡§":2716,"Ġá¢ĭá¡Ńá¡¬á¢Ĭá¢Ľá¡¬á¢Ĳ":2717,"Ġá¡³á¡ªá¡±á¡±á¡Ńá¢ĳ":2718,"á¡Ńá¡±á¡±á¡Ńá¢Ĳ":2719,"Ġá¡¸á¡ªá¢ŀá¡ªá¡±á¡±á¡ªá¡Ńá¡§":2720,"á¡¥á¡Ńá¡¬á¢ĳ":2721,"Ġá¡¥á¡¬á¢Ļá¡ªá¢Ľá¡³":2722,"Ġá¢ļá¡Ńá¢ĳá¡§":2723,"Ġá¡¬á¡ªá¢ŀá¢Ĭ":2724,"Ġá¡³á¡ªá¡¬á¡¬á¡±á¡±á¡Ńá¢ĳá¡ªá¡ªá¡³":2725,"á¡Ńá¡ªá¢Ĭá¡±":2726,"Ġá¡³á¡ªá¡ªá¡ªá¡ªá¢ŀ":2727,"Ġá¢Ĭá¡¬á¢Ļá¡ªá¡¬á¡¨":2728,"Ġá¢Ķá¡ªá¡±á¡ªá¡±á¡±":2729,"Ġá¢Įá¡ªá¢Ļá¡ªá¢Ļá¡ªá¡¬á¡¨":2730,"á¢Ķá¡ªá¢Ĭá¡ªá¢Ŀ":2731,"Ġá¢ĭá¡Ńá¡¬á¢ŀá¡Ńá¡§":2732,"á¡¥á¡ªá¢Ķ":2733,"Ġá¢Įá¡ªá¡±á¡±á¡ªá¡Ńá¡§":2734,"Ñĭ":2735,"á¡Ńá¡¬á¡¬á¡³á¡ªá¢Ŀ":2736,"á¡Ńá¡¬á¢ĺ":2737,"Ġá¢ĺá¡Ńá¡¬á¢ĳá¡Ńá¢Ĭá¡ªá¢ĳ":2738,"Ġá¡´á¡Ńá¢ĳá¡±á¡±á¡ªá¡ªá¡ªá¢Ķá¡ªá¡§":2739,"Ġá¢ľá¡Ńá¢Ķá¡Ńá¡±á¡±á¡ªá¢Ŀ":2740,"á¡ªá¡±á¡±á¡Ńá¢ĳá¡Ńá¡°á¡¨":2741,"Ġá¢ĺá¢Łá¢ĳá¢Łá¡¬á¢ĵ":2742,"á¡Ńá¡ªá¡ªá¡ªá¡ª":2743,"Ġá¡¥á¢İá¡Ńá¡±á¡ªá¢Ĭá¡¬á¡¦":2744,"Ġá¢Ĭá¡ªá¢ļá¡ªá¢ĭá¡Ńá¡³":2745,"Ġá¢ľá¡ªá¢Ļá¡ªá¡±á¡±á¡³":2746,"Ġá¡¥á¡ªá¢İá¢Ļ":2747,"á¡³á¡ªá¢īá¡¨":2748,"Ġá¡¸á¡Ńá¢Ļá¡ªá¢Ĳ":2749,"Ġá¢ĺá¡ªá¢Ĭá¡ªá¢Ĭá¢Ķá¡¬á¢ĳ":2750,"Ġá¡¸á¡ªá¢ŀá¡¬á¡±á¡±á¡³":2751,"´áłł":2752,"Ġá¡¥á¡¬á¢ĳá¡ªá¢ŀá¢Ĭ":2753,"Ġá¢ļá¡¬á¢ĳá¡Ńá¢Ĭá¡ªá¡¨":2754,"Ġá¢ĭá¡Ńá¡¬á¢Ĭá¡ªá¢ŀá¡Ńá¢ĭá¡Ńá¡«":2755,"Ġá¢ĭá¡Ńá¡¬á¢ŀá¡¬á¢ľá¡ªá¡§":2756,"á¡ªá¢ĳá¢Ļá¡Ńá¢Ľá¡³":2757,"Ġá¢Ĭá¡ªá¢Ľá¡¬á¢ľá¡ªá¢Ļá¡§":2758,"Ġá¢Ĭá¡¬á¢Ľá¡ªá¡±á¡±á¡ªá¢Ŀ":2759,"Ġá¡´á¡Ńá¢ĳá¡³á¡ªá¢Ķá¡Ńá¢ŀ":2760,"Ġá¡¸á¡ªá¡³á¢Ķ":2761,"á¡ªá¢ĳá¡ªá¢Ļá¡ªá¢ĩ":2762,"Ġá¢ĺá¡Ńá¡±á¡±á¡Ńá¢ĳ":2763,"Ġá¡¥á¡Ńá¡¬á¢Ľá¡ªá¢Ĭá¡ªá¡Ńá¡§":2764,"á¢Įá¡ªá¢Ļ":2765,"áł¢áł°":2766,"á¢Ĭá¡ªá¢Ŀ":2767,"á¡¬á¢Ľá¡¬á¢ŀ":2768,"Ġá¡¥á¡Ńá¡¬á¢ŀá¡±":2769,"Ġá¢ĺá¡ªá¢İá¢Ľá¡¬á¡§":2770,"á¡ªá¡ªá¡ªá¢ĩ":2771,"á¡ªá¡ªá¢Ĭá¢Ļ":2772,"Ġá¡¥á¡Ńá¢ĳá¡ªá¢İá¢Ľá¡¬á¢ĳá¡ªá¢ĳá¢Ļá¡³":2773,"á¡ªá¡ªá¡ªá¢Ļá¡§":2774,"Ġá¡¥á¡Ńá¢ŀá¢įá¡¨":2775,"Ġá¡¥á¡ªá¢İá¡¬á¢Ļá¡Ńá¢ŀá¡ªá¡ªá¡ªá¡³":2776,"Ġá¢ĺá¡Ńá¡±á¡±á¡ªá¡§":2777,"Ġá¡¥á¡ªá¢ļ":2778,"á¢¨":2779,"Ġá¡¯á¡ªá¡¬á¡¬á¢Ļá¡ªá¢ĳ":2780,"Ġá¡¯á¡ªá¢Ļá¡ªá¢Ļá¡³":2781,"á¡ªá¡±á¡±á¡Ńá¢ĳá¢Ļá¡ªá¢ĩ":2782,"Ġá¢Įá¡Ńá¡¬á¡ªá¢Ĭá¢Ĭ":2783,"á¡ªá¢İá¡Ńá¢Ŀ":2784,"Ġá¡´á¡Ńá¢ĳá¢Ľ":2785,"Ġá¡¥á¡ªá¢Ķá¡ªá¢Ŀ":2786,"Ġá¢Ķá¡Ńá¢Ļá¡Ńá¢Ŀ":2787,"Ġá¢Ĭá¡ªá¢ŀá¡ªá¢Ĭá¢ĳá¡ªá¢Ľá¡³":2788,"Ġá¡¬á¡¬á¡±á¡±á¡ªá¢Ľá¡³":2789,"Ġá¢ļá¡¬á¢Ļá¡ªá¡°á¡¨":2790,"Ġá¢Īá¡ªá¢ļá¡ªá¡±á¡±á¡ªá¡§":2791,"Ġá¢ľá¡ªá¡±á¡±á¡ªá¢ŀ":2792,"Ġá¢Ķá¡Ńá¢ŀá¡´á¡Ńá¢ĳá¢Ľá¡¬á¢ĳ":2793,"á¡ªá¢Ķá¡¬á¡¬á¡¨":2794,"Ġá¡³á¡ªá¢ŀá¡¬á¢İá¢Ļ":2795,"á¡¬á¡ªá¡ªá¢Ļá¡³":2796,"Ġá¡¥á¢ĳá¢Ļ":2797,"á¡Ńá¡ªá¢Ĭá¡ªá¡ªá¡³":2798,"á¡¥á¡¬á¢ĳ":2799,"á¡ªá¡Ńá¡ªá¡ªá¡ªá¡³":2800,"Ġá¡¥á¡ªá¢Ļá¡Ńá¡±á¡±á¡³":2801,"Ġá¡¸á¡ªá¢ŀá¡¬á¡±á¡±á¡Ńá¢ĳ":2802,"Ġá¢ıá¡ªá¡³á¢Ļ":2803,"Ġá¢Ķá¡¬á¢ŀá¡±á¡±":2804,"ĠãĢĪãĢĪ":2805,"Ġá¢Įá¡Ńá¡¬á¢ŀá¡ªá¡§":2806,"á¡¥á¡ªá¢İá¡¬á¢Ļ":2807,"á¢ĳá¡ªá¢Ĭá¡ªá¡¨":2808,"Ġáł¬áłłáł·":2809,"Ġá¡¥á¡ªá¡³á¡¬á¢ľ":2810,"Ġá¡¥á¢Ĭá¡¬á¢ĳá¡ªá¢Ĭá¢Ķá¡ªá¡§":2811,"Ġá¡¥á¢Ľá¡ªá¢İá¢Ķ":2812,"Ġá¡¬á¡Ńá¡¬á¢Ĭá¡ªá¢Ŀ":2813,"Ġáłłáł®":2814,"Ġá¡¥á¡Ńá¡¬á¢Ļá¡ªá¢Ķá¡«":2815,"Ġá¡³á¡ªá¢Ļá¡ªá¢ŀ":2816,"Ġá¡¥á¢ŀá¢Ļá¡ªá¡±":2817,"áłłáł©":2818,"Ġáłªáł¤áł¯áł":2819,"Ġá¡³á¡ªá¡ªá¡ªá¢Ļ":2820,"Ġá¢ļá¡ªá¡³á¡ªá¢Ŀ":2821,"Ġá¡¥á¡Ńá¡¬á¢Ľá¡ªá¢Ļá¡ªá¡¬á¡¨":2822,"áł¤áł¶":2823,"Ġá¡¥á¡Ńá¢ŀá¢ļá¡¬á¢ĳá¡ªá¡ªá¡¬á¡¨":2824,"Ġá¢Ķá¡Ńá¡³":2825,"á¡¥á¡Ńá¡¬á¡³á¡ªá¢Ŀ":2826,"Ġá¢ľá¡ªá¢ŀá¡Ńá¡ªá¢Ĭá¢Ĭá¡ªá¡¬á¡¬á¢ĳ":2827,"á¢ĳá¡ªá¢Ĭá¢Ķá¡ªá¡§":2828,"Ġá¢ĭá¡Ńá¡¬á¢ĳá¡¬á¢ľá¡ªá¢Ľá¡³":2829,"Ġá¢ĺá¡ªá¡±á¡±á¡Ńá¢ŀ":2830,"Ġá¢Ĭá¡ªá¢į":2831,"Ġá¡¥á¡ªá¡±á¡±á¡ªá¢Ŀ":2832,"Ġá¡¬á¡¬á¡³":2833,"Ġá¢ĺá¡ªá¢Ĭá¡ªá¢Ľá¡³":2834,"á¢ĺá¡Ńá¢Ļ":2835,"Ġá¡¥á¡ªá¢ĳá¡ªá¡ªá¡Ńá¢į":2836,"Ġá¡¥á¡ªá¢ľá¡Ńá¢Ĳ":2837,"Ġá¡¥á¢Ķá¡ªá¢ĭá¡Ńá¢Ĳá¡¨":2838,"Ġá¢ļá¡ªá¢Ķá¡³":2839,"á¡ªá¢İá¢Ķá¡ªá¢Ŀ":2840,"Ġá¡¥á¡Ńá¢ŀá¢Ļ":2841,"Ġá¢ĺá¡Ńá¡¬á¢ŀá¢Ĭá¡ªá¡§":2842,"á¢ľá¡ªá¡±á¡±":2843,"Ð°Ð»":2844,"ÑįÐ»":2845,"Ġáł¤áł¯áł¤áł°":2846,"á¡Ńá¡¬á¢ĭá¡Ńá¢ŀ":2847,"Ġá¡¥á¡Ńá¡¬á¡²":2848,"Ġá¡¥á¡ªá¢ľá¡ªá¡§":2849,"Ġá¡¸á¡Ńá¡³á¡¬á¢Ķá¡ªá¡ªá¡ªá¢Ĳ":2850,"Ġá¡´á¡Ńá¢ĳá¡Ńá¢İá¢Ľá¡«":2851,"Ġá¡¥á¡ªá¢Ļá¡ªá¢ĳá¡¬á¡ªá¡ªá¡ªá¡§":2852,"Ġá¡¯á¡ªá¢ĭá¡Ńá¢Ļá¡ªá¢Ĳ":2853,"Ġá¢Ķá¡¬á¡ªá¢Ľ":2854,"Ġá¡¯á¡ªá¡³á¢Ļá¡ªá¢ŀ":2855,"Ġá¢ıá¡Ńá¡³":2856,"Ġáłªáłłáł¨":2857,"Ġá¢Ĭá¡¬á¢ŀ":2858,"á¡¬á¢ĳá¡¬á¡¬á¡¨":2859,"á¡¬á¢ĭá¡Ńá¢ĳá¡Ńá¢Ĭá¢Ķá¡ªá¡§":2860,"á¡ªá¡ªá¡ªá¢ĳ":2861,"Ġá¢ĺá¡Ńá¢ľ":2862,"Ġá¡¥á¡ªá¢ŀá¡¬á¢ĳ":2863,"Ġá¢Ķá¡Ńá¢ŀá¡Ńá¢ĳá¢ļá¡ªá¡ªá¡ªá¡³":2864,"Ġá¢Ķá¡¬á¢ĳá¡«":2865,"Ġá¢Ķá¡¬á¢ľá¡ªá¡§":2866,"Ġá¡¸á¡ªá¢ŀá¡¬á¢ĳá¢ļá¡ªá¡§":2867,"Ġá¡¬á¡Ńá¡¬á¢ŀá¡¬á¢ļ":2868,"Ġá¡³á¡ªá¢ŀá¡¬á¢İá¢Ļá¡§":2869,"Ġá¡¸á¡Ńá¡³á¡¬á¢ľ":2870,"á¢Ķá¡Ńá¢ŀá¡±á¡±":2871,"Ġá¢ĺá¡ªá¢ŀá¢Ĭá¡ªá¢Ļá¡§":2872,"á¡Ńá¢Ļá¡ªá¢Ĳá¡¨":2873,"Ġá¢ĺá¡ªá¡¬á¡¬á¢ĳá¡´á¡Ńá¢ŀ":2874,"Ġá¡¥á¡Ńá¢ŀá¡Ńá¢Ķá¡ªá¡ªá¡ªá¢Ĳ":2875,"Ġá¢Įá¡ªá¢Ļá¡ªá¢Ĭá¢Ķá¡ªá¡§":2876,"Ġá¡¯á¡Ńá¡¬á¢ĳá¡Ńá¢Ĭá¡ªá¡¨":2877,"Ġá¢ĺá¡Ńá¢Ķá¡¬á¢ľá¡ªá¢Ĳ":2878,"Ġá¢ĺá¡ªá¢Ĭá¢Ķá¡«":2879,"Ġá¡¬á¡ªá¡¬á¡¬á¢ĳ":2880,"Ġá¡³á¡ªá¢ĳá¢Ĭ":2881,"Ġá¡¸á¡Ńá¡Ńá¢ĵ":2882,"Ġá¢ĺá¡Ńá¢ĳá¡«":2883,"áł¡áł·áł¡áłŃ":2884,"Ġá¡¸á¡Ńá¢ĳá¡´á¡Ńá¡ªá¡ªá¢Ļ":2885,"Ġá¡¸á¡ªá¢İá¡¬á¡«á¡¨":2886,"Ġá¢Īá¡ªá¢ŀá¡ªá¢ĩ":2887,"á¢Ķá¡ªá¢ŀ":2888,"Ġá¡´á¡Ńá¢Ļá¡Ńá¢Ļá¡ªá¢ĩ":2889,"á¡³á¡¬á¢ļ":2890,"Ġá¢ĺá¡ªá¢ĭá¡Ńá¢ĳ":2891,"Ġá¢ĺá¡ªá¡¬á¡¬á¡´":2892,"ÑįÑĢ":2893,"Ġá¡´á¡Ńá¢ĳá¡ªá¢ĩ":2894,"Ġá¡¸á¡Ńá¡±á¡±á¡Ńá¢Ķá¡Ńá¡§":2895,"Ġá¡¬á¡¬á¢Ľá¡¬á¡¬á¡¨":2896,"Ġá¢ľá¡ªá¢Ķá¡³":2897,"Ġá¡¥á¡ªá¡¬á¡¬á¢ĳ":2898,"á¡³á¡ªá¡¬á¡¬á¡ªá¡ªá¢Ķá¡ªá¡§":2899,"Ġá¢ĺá¡Ńá¡¬á¢ŀá¡³á¡ªá¡¨":2900,"Ġá¢Ķá¡Ńá¢ŀá¢ļá¡³":2901,"Ġá¡¥á¡Ńá¡¬á¢Ĭá¡ªá¢ŀá¡ªá¢ļá¡¬á¢ĳá¡ªá¢ĳá¢Ļá¡§":2902,"á¡ªá¡ªá¡ªá¢Ļá¡ªá¢īá¡¨":2903,"Ġá¢Ĺá¡Ń":2904,"á¡Ńá¡±á¡±á¡Ńá¢ĳá¡Ńá¡§":2905,"Ġá¢Ķá¡ªá¢ļá¡ªá¡§":2906,"Ġá¢¥á¡Ńá¢İá¡¶á¡ªá¡±á¡«":2907,"Ġá¢Ĭá¡ªá¢Ļá¡Ńá¡¬á¡¬á¡³á¡ªá¢Ŀ":2908,"Ġá¡¸á¡Ńá¢ŀá¡¬á¢ľ":2909,"Ġá¡¥á¡Ńá¡¬á¢Ľá¡Ńá¢ĭá¡Ńá¢Ŀ":2910,"Ġá¢ĺá¡ªá¢ĳá¢Ĭá¡ªá¢ŀ":2911,"Ġá¡¥á¡ªá¢ŀá¡ªá¡«":2912,"Ġá¢ĺá¡ªá¢Ļá¡ªá¢Ľá¡³":2913,"Ġá¢Ķá¡ªá¢ĭá¡Ńá¢ĳá¡ªá¢Ŀ":2914,"Ġá¢ĺá¡Ńá¡±":2915,"Ġá¡¸á¡ªá¢ŀá¡ªá¡ªá¡ªá¢Ķá¡ªá¡§":2916,"Ġá¡¸á¡ªá¢ŀá¡ªá¡ªá¢Ĭá¡±á¡±á¡Ńá¡«":2917,"á¡Ńá¢ĳá¢Ĭá¡¬á¢Ļá¡ªá¡§":2918,"Ġá¡¬á¡¬á¡±á¡±á¡ªá¡ªá¡ªá¡³":2919,"Ġá¡¥á¡ªá¡±á¡±á¡Ńá¡³":2920,"á¢Ĭá¡ªá¡Ńá¢Ĭ":2921,"Ġá¡¯á¡Ńá¢Ļ":2922,"Ġá¢Ĭá¡¬á¢ļá¡¬á¢ľá¡ªá¢ĳ":2923,"Ġá¢Īá¡ªá¢Ķ":2924,"á¡Ńá¡¬á¡¬á¢Ļ":2925,"Ġá¡¥á¡ªá¢Ĭá¢Ĭá¡ªá¢Ŀ":2926,"Ġá¡¯á¡Ńá¡±á¡±á¡Ńá¢īá¡¨":2927,"Ġá¡¥á¢ŀá¢Ĭá¡¬á¢ĳá¡ªá¢Ĭá¢ļá¡«":2928,"Ġá¢ĺá¡ªá¢ĳá¡³á¡¬á¡ªá¡ªá¡³":2929,"Ġá¢Ķá¡Ńá¢ŀá¢Ļ":2930,"Ġá¢ľá¡ªá¢İá¡Ńá¡§":2931,"á¡¬á¡Ńá¡ªá¡ªá¡ª":2932,"á¡¬á¡Ńá¢Ĭ":2933,"Ġá¢ĺá¡Ńá¡ªá¡ªá¢Ļá¡ªá¡±á¡±á¡ªá¢Ĳ":2934,"á¡Ńá¢ĳá¢Ľ":2935,"Ġá¢ĺá¡ªá¡Ń":2936,"Ġá¢ĺá¡Ńá¢Ļá¡Ńá¢į":2937,"Ġá¢Įá¡ªá¢ŀá¢Ĭá¡ªá¡§":2938,"Ġá¡¥á¡Ńá¡¬á¢Ĭá¡ªá¡§":2939,"Ġá¢Ĭá¡ªá¢Ĭá¡ªá¢Ŀá¡¨":2940,"Ġá¢ľá¡ªá¢ŀá¡¬á¢ľá¡ªá¡§":2941,"Ġá¢ĺá¡Ńá¢ĩ":2942,"Ġá¢ľá¡ªá¡´á¡Ńá¡ªá¡ªá¢Ļ":2943,"Ġá¡¸á¡Ńá¡±á¡¬á¡§":2944,"Ġá¢Ķá¡ªá¡Ńá¡ªá¢Ĭá¡¬á¢ĭá¡Ńá¡«":2945,"Ġá¢ĭá¡Ńá¡¬á¢ĳá¡Ńá¡¬á¡¨":2946,"Ġá¡³á¡ªá¡¬á¡¬á¢Ķ":2947,"Ġá¢ľá¡Ńá¢Łá¡ªá¡§":2948,"á¡Ńá¡±á¡±á¡Ńá¢ĳá¡ªá¡ªá¡¬á¡¨":2949,"Ġá¡¥á¡¬á¡¬á¢İá¡Ńá¢ŀá¢ĭá¡Ń":2950,"Łá¢Łá¡¦":2951,"á¡¬á¡ªá¢Ļ":2952,"Ġá¢ļá¡¬á¡±á¡ªá¡ªá¡ªá¢Ķ":2953,"Ġá¡´á¡Ńá¡¬á¢Ļá¡Ńá¡§":2954,"Ġá¢Ĭá¡ªá¡³á¢ļ":2955,"á¡¯á¡Ńá¢Ļá¡Ńá¢ĩ":2956,"Ġá¡¥á¢ŀá¡ªá¢Ĭá¢Ļá¡ªá¡«":2957,"Ġá¡¥á¡¬á¢ŀá¢Ĭá¡ªá¡§":2958,"á¡Ńá¢İá¢Ļá¡§":2959,"á¢Ĭá¡ªá¡Ńá¢Ĭá¡ªá¡Ńá¡§":2960,"á¢ľá¡Ńá¢į":2961,"Ġá¢ĺá¡ªá¢Ĭá¡¬á¢Ľá¡³":2962,"Ġá¡¯á¡Ńá¢ľá¡ªá¡Ńá¡§":2963,"á¢ļá¡¬á¢į":2964,"Ġá¡¥á¡Ńá¡ªá¢Ĭá¢Ķá¡¬á¢Ľá¡³":2965,"á¢ĭá¡Ńá¡¬á¢Ļ":2966,"Ġá¢ļá¡¬á¡³":2967,"Ġá¢ļá¡ªá¡ªá¢Ĭá¢Ĭá¡ªá¢Ŀ":2968,"Ġá¡¬á¡ªá¡ªá¢Ĭá¢Ĭ":2969,"Ġá¢ĭá¡Ńá¡¦":2970,"Ġá¢ľá¡ªá¢ŀá¡¬á¡ªá¡ªá¢Ķá¡ªá¡§":2971,"Ġá¢Īá¡ªá¢ļá¡ªá¢īá¡¨":2972,"Ġá¡¥á¡ªá¢Ĭá¢Ĭá¡ªá¡¨":2973,"Ġá¢Ķá¡Ńá¡¬á¢Ķ":2974,"Ġá¢Īá¡ªá¢ŀá¡Ńá¡±á¡±á¡ªá¡Ńá¡§":2975,"Ġá¢Ĭá¡ªá¢ĳá¡ªá¢Ĭá¡ªá¡Ńá¡§":2976,"á¡Ńá¡¬á¡¬á¢ĳá¡ªá¡ªá¡¬á¡¨":2977,"Ġá¢Īá¡ªá¢ŀá¢Ļá¡ªá¢ĩ":2978,"Ġá¡¬á¡¬á¢Ĺá¡¬á¢ľá¡ªá¢ĳ":2979,"Ġá¢ĭá¡Ńá¡¬á¢ļá¡¬á¢Ŀ":2980,"Ġá¢ĺá¡Ńá¡ªá¢Ĭá¡±á¡±á¡ªá¢ĳá¡ªá¢ĩ":2981,"Ġá¢ĭá¡Ńá¡¬á¢ĳá¡¬á¢ľá¡ªá¡§":2982,"Ġá¡¥á¢ĳá¢Ļá¡ªá¡²":2983,"á¡Ńá¡¬á¢Ľá¡«":2984,"Ġá¡´á¡Ńá¡¬á¢ĳá¢ĭ":2985,"Ġá¡¬á¡ªá¢Ķá¡ªá¢Ĳ":2986,"á¢ĺá¡Ńá¢ĳ":2987,"Ġáł¬áłłáł®":2988,"Ġá¡¬á¡ªá¡±á¡±á¡Ńá¢Ŀá¡¨":2989,"á¡Ńá¢ŀá¢īá¡¨":2990,"á¡¥á¡Ńá¢ļ":2991,"Ġá¢ĺá¡ªá¢ĳá¡³á¡¬á¡ªá¡ªá¢Ķá¡ªá¡§":2992,"Ġá¡¥á¡¬á¢Ļá¡ªá¡³":2993,"á¡¬á¢İá¡ªá¢Ĳ":2994,"Ġá¡¥á¢Ł":2995,"á¢Ļá¡ªá¢Ĭá¡ªá¡¨":2996,"Ġá¡¥á¡ªá¡Ńá¡ªá¡ªá¡ª":2997,"á¡¬á¡Ńá¡ªá¢Ĭá¡ªá¢Ĳ":2998,"Ġáł¬áł¦áł®":2999,"Ġá¢ĺá¡Ńá¡¬á¢ŀá¡Ńá¢ĳá¢Ĭá¡¬á¢Ļá¡ªá¡§":3000,"Ġá¡¥á¡ªá¢ľá¡ªá¢ĳá¡±á¡±á¡³":3001,"Ġá¢ĺá¡Ńá¡¬á¢ĭá¡Ńá¢į":3002,"Ġá¡¯á¡ªá¢ŀá¡ªá¢Ļá¡³":3003,"Ġá¡¬á¡ªá¢Ĭá¡¬á¢ŀá¡Ńá¢Ĳ":3004,"á¡ªá¡ªá¢Ļá¡ªá¡«":3005,"Ġá¢Ķá¡Ńá¡ªá¡ªá¢Ļ":3006,"Ġá¢ĺá¡ªá¡¬á¡¬á¢Ķá¡Ńá¡§":3007,"Ġá¡³á¡ªá¢Ŀá¡¨":3008,"á¡ªá¢ļá¡ªá¡¬á¡¨":3009,"á¡Ńá¡ªá¢Ĭá¡±á¡±á¡Ńá¢Ŀ":3010,"á¡ªá¢Ĭá¢Ļá¡ªá¡¬á¡¬á¢ļá¡Ńá¡Ńá¡§":3011,"Ġá¢ĺá¡Ńá¡ª":3012,"Ġá¢ĺá¡ªá¢Ĭá¡ªá¢Ĭá¢Ķá¡«":3013,"Ġá¡´á¡Ńá¢ĳá¡Ńá¢ĳá¢Ļá¡ªá¡«":3014,"á¡ªá¢ļá¡¬á¡ªá¡ªá¡ªá¡ªá¡ªá¢Ķá¡ªá¡§":3015,"Ġá¡¥á¢ŀá¡¬á¢Ľá¡³":3016,"Ġá¢ĺá¡Ńá¡Ńá¡±á¡±á¡ªá¢ŀ":3017,"Ġá¡¸á¡Ńá¡±á¡±á¡Ńá¢ĳá¡ªá¡§":3018,"Ġáł¬áł¤áł·":3019,"Ġá¢Įá¡ªá¢Ļá¡ªá¢Ĭá¡ªá¢ĳá¡ªá¢Ĳ":3020,"Ġá¡¥á¡Ńá¡¬á¢Ķá¡³":3021,"Ġá¢ıá¡«":3022,"á¡Ńá¡±á¡±á¡ªá¢ŀá¡ªá¡«":3023,"Ġá¡´á¡Ńá¡¬á¢ŀá¢ĭ":3024,"Ġá¢ĭá¡Ńá¡¬á¢Ĭá¡ªá¢Ĭ":3025,"á¡¥á¡ªá¡³":3026,"Ġá¡¥á¡Ńá¢ŀá¡¬á¢Ļ":3027,"Ġá¡¬á¡ªá¢ĭá¡Ńá¢Ļá¡³":3028,"Ġá¡¯á¡Ńá¡¬á¢Ĭ":3029,"Ġá¢Ķá¡¬á¢Ķá¢ĺ":3030,"Ġá¢ĺá¡ªá¡±á¡±á¡ªá¡³":3031,"Ġá¢ļá¡¬á¢ĳá¡ªá¡±á¡±á¡Ńá¡§":3032,"áł¡áłŃáł¡":3033,"á¡ªá¡ªá¢Ĭá¢Ļá¡³":3034,"á¡¬á¢ĭá¡Ńá¡³":3035,"á¡¬á¡±á¡±á¡Ńá¡Ńá¡§":3036,"á¡¬á¡ªá¢ŀ":3037,"Ġá¢Įá¡ªá¢ĳá¢Ľá¡¬á¡ªá¡ªá¡³":3038,"Ġá¡¥á¢ĳá¡³":3039,"Ġá¡¯á¡ªá¡¬á¡¬á¢ŀá¡ªá¢İá¢Ļ":3040,"Ġá¢Įá¡Ńá¡ªá¡ª":3041,"Ġá¢ĺá¡ªá¢ŀá¡ªá¢ĭá¡Ń":3042,"Ġá¡¥á¢Ĭá¡¬á¢ĳá¡ªá¢Ľá¡³":3043,"Ġá¡¥á¡Ńá¡¬á¢Ĭá¡ªá¢ĵ":3044,"á¢ĭá¡Ńá¢ŀ":3045,"áł§":3046,"Ġá¢ľá¡ªá¡±á¡±á¡ªá¢Ĭá¡¬á¡ªá¡ªá¢Ķá¡ªá¡§":3047,"Ġá¢Ķá¡ªá¢ĭá¡Ńá¢ĳá¢ļá¡«":3048,"Ġá¡³á¡ªá¡¬á¡¬á¡±á¡±á¡Ńá¢ĳá¡Ńá¡ªá¡ªá¢Ķá¡ªá¡§":3049,"Ġá¡¬á¡ªá¢ĳá¡ªá¡±á¡±á¡Ńá¢ļá¡Ńá¡Ńá¡§":3050,"Ġá¡³á¡ª":3051,"Ġá¡¸á¡Ńá¡±á¡±á¡Ńá¢ĳá¡ªá¡«":3052,"Ġá¢ĭá¡Ńá¡¬á¡«":3053,"Ġá¡³á¡ªá¡±á¡±á¡Ńá¢ŀ":3054,"Ġá¢ļá¡Ńá¢ĩ":3055,"Ġá¡³á¡ªá¢ŀá¢Ĭá¡ªá¡¨":3056,"Ġá¡¥á¡ªá¢Ľá¡¬á¢ĳá¢ĳá¡ªá¡±á¡±á¡ªá¡§":3057,"á¢ĺá¡ªá¢İ":3058,"Ġá¡¥á¡Ńá¡¬á¡¬á¢ĳá¡ªá¢Ļ":3059,"Ġá¡¬á¡ªá¢ŀá¢ĳá¡¬á¢ĩ":3060,"Ġá¢Įá¡ªá¢ľá¡¬á¢ĩ":3061,"á¡Ńá¢¤":3062,"Ġá¢ļá¡ªá¡±á¡±á¡ªá¡°á¡¨":3063,"Ġá¡¸á¡ªá¢ŀá¡¬á¢ļá¡ªá¢īá¡¨":3064,"á¡¥á¡Ńá¢ĳá¡ªá¡§":3065,"µáł¢áł¯":3066,"á¡¥á¡Ńá¢ľ":3067,"á¢Ķá¡ªá¡Ńá¡ªá¢Ĭá¡¬á¢Ĳ":3068,"Ð±":3069,"á¡ªá¡ªá¢Ļá¡ªá¡§":3070,"á¢Ĭá¡ªá¢Ļá¡ªá¡¬á¡¨":3071,"á¡¬á¢Ĭá¢Ļá¡ªá¡§":3072,"Ġá¡¥á¡ªá¢İá¡¬á¢Ķá¡ªá¡ªá¡Ńá¢Ĳ":3073,"áł£áłŃ":3074,"á¡ªá¢ĳá¢Ľá¡ªá¡§":3075,"á¡¬á¢ĳá¡ªá¢Ĳ":3076,"Ġá¡¥á¡¬á¢ĳá¡§":3077,"Ġá¢Ĭá¡ªá¡³á¢ĳ":3078,"Ġá¡´á¡Ńá¡±á¡±á¡Ńá¢ŀá¡Ńá¢Ĳ":3079,"Ġá¢ļá¡ªá¡ªá¡ª":3080,"Ġá¡¸á¡ªá¢ŀá¡ªá¢İá¢Ķ":3081,"Ġá¢Įá¡Ńá¡¬á¢ĭ":3082,"Ġá¡¥á¡Ńá¢ŀá¢ļá¡¬á¡±á¡±á¡Ńá¢ĳ":3083,"Ġáłłáł´áłł":3084,"Ġá¢Įá¡Ńá¡¬á¢ļ":3085,"³áłł":3086,"âĴ":3087,"Ġá¡³á¡ªá¡¬á¡¬á¡±á¡±á¡Ńá¢ĳá¡Ńá¢ĳá¢īá¡¨":3088,"\",\"":3089,"Ġá¡¥á¡Ńá¢Ļá¡Ńá¢ŀá¡¬á¢Ļá¡Ńá¢ĳá¢īá¡¨":3090,"á¡¥á¡ªá¢ľ":3091,"Ġá¡¥á¡Ńá¢Ļá¡Ńá¡§":3092,"Ġá¢Ĭá¡¬á¢ĳá¡«":3093,"Ġá¢Ĭá¡ªá¡«":3094,"á¡¬á¢ŀá¡ªá¢ĩ":3095,"Ġá¡¸á¡ªá¡±á¡«":3096,"Ġá¢ĺá¡Ńá¡±á¡±á¡ªá¢ļ":3097,"Ġá¡¬á¡Ńá¡¬á¡¬á¢ĳ":3098,"Ġá¡¸á¡ªá¢Ļá¡ªá¡§":3099,"Ġá¢ĺá¡Ńá¡±á¡±á¡Ńá¢ŀá¡¬á¢ĩ":3100,"á¢Ĭá¡ªá¢Ĳ":3101,"á¡Ńá¢ĳá¡¬á¢ĩ":3102,"Ġá¡¥á¡ªá¡±á¡±á¡Ńá¢Ļá¡ªá¢į":3103,"Ġá¡¥á¡¬á¢ŀá¡ªá¡³á¡ªá¡¨":3104,"áł£áł·":3105,"Ġá¡³á¡ªá¡±á¡±á¡Ńá¢Ľá¡³":3106,"Ġá¢Ķá¡ªá¢ĳá¡ªá¢īá¡¨":3107,"Ġá¡´á¡Ńá¢Ļá¡Ńá¡ªá¡ªá¢Ķá¡ªá¡§":3108,"Ġá¡¯á¡Ńá¢ļ":3109,"Ġá¢ĭá¡Ńá¡¬á¢ŀá¡³á¡ªá¢ĭá¡Ńá¢ĳá¡³á¡ªá¡¨":3110,"á¢Łá¢Ķ":3111,"Ġá¡¥á¡ªá¢ĳá¢Ļá¡§":3112,"á¡´á¡Ńá¡¬á¢ĭ":3113,"Ġá¢ĭá¡Ńá¡¬á¢Ĭá¢Ķá¡¬á¡§":3114,"Ġá¡¥á¡Ńá¡ªá¢Ĭá¡±á¡±á¡Ńá¡§":3115,"á¡Ńá¢ĳá¡ªá¡«":3116,"Ġá¢Ķá¡¬á¢įá¡¨":3117,"Ġáł¨áł¢áłŃ":3118,"á¡±á¡±á¡ªá¡ªá¡ªá¢Ķá¡ªá¡§":3119,"Ġá¡¥á¡ªá¡ªá¢Ĭá¡ªá¡ªá¡ªá¢ŀá¡Ńá¢Ĳ":3120,"áł¦áł®":3121,"Ġá¡¥á¡ªá¢Ľá¡¬á¡ª":3122,"á¡ªá¡ªá¡ªá¡Ńá¢Ļá¡§":3123,"Ġá¢ĺá¡Ńá¡±á¡±á¡Ńá¡¬á¡¬á¢ĳá¡ªá¡ªá¡¬á¡¨":3124,"Ġá¢ĺá¡ªá¡ªá¢Ĭá¢ļ":3125,"Ġá¢ĺá¡Ńá¡¬á¢ŀá¡³á¡ªá¢Ļá¡Ńá¢Ĭá¡ªá¢Ŀ":3126,"áłłáłµ":3127,"Ġá¢ľá¡ªá¢ŀá¡¬á¢Ļá¡ªá¢ĩ":3128,"Ġá¡´á¡Ńá¡¬á¢İá¡´á¡Ńá¢ŀ":3129,"Ġá¡¬á¡Ńá¡¬á¡¬á¢ĳá¡ªá¢ĵ":3130,"Ġá¢Ķá¡Ńá¢ŀá¢Ļá¡ªá¢Ĳ":3131,"Ġá¡¥á¢ŀá¢Ĭá¡¬á¢İ":3132,"Ġá¡¥á¢Ļá¡ªá¢Ĭá¡ªá¡Ńá¡§":3133,"á¡¬á¡ªá¡ªá¢Ļá¡ªá¢Ľá¡³":3134,"á¡´á¡Ńá¢Ķ":3135,"Ġá¢ĭá¡Ńá¡¬á¡±":3136,"Ġá¡³á¡ªá¢ŀá¡«":3137,"á¡ªá¡³á¡ªá¢ļá¡³":3138,"Ġá¢ĭá¡Ńá¡¬á¢İá¡Ńá¢Ľá¡¬á¢ĭá¡Ńá¢ĳá¢ĭá¡Ń":3139,"Ġá¡¸á¡ªá¡±á¡±á¡Ńá¢Ļ":3140,"Ġá¡¸á¡ªá¢ŀá¡«":3141,"á¡·":3142,"á¢Ļá¡Ńá¢ĳ":3143,"á¡Ńá¡¶":3144,"Ġá¡¬á¡Ńá¢Ĭá¡¬á¡ªá¡ªá¡³":3145,"á¡ªá¡±á¡ªá¢į":3146,"á¡Ńá¡ªá¡ªá¢Ļá¡ªá¡§":3147,"á¢Ķá¡Ńá¢ŀá¡±á¡±á¡ªá¡±á¡±á¡Ńá¢ĳá¡«":3148,"áł¡áł´":3149,"Ġá¡¥á¡ªá¢İá¡Ńá¡±á¡±á¡Ńá¢ĳá¡ªá¡ªá¡¬á¡¨":3150,"á¡¬á¡±á¡±á¡³":3151,"á¡¬á¢ĳá¡§":3152,"áł´áł¢":3153,"Ġá¡¥á¢Ļá¡Ńá¢Ĭá¡ªá¡¨":3154,"Ġá¡¥á¡Ńá¢ŀá¡¬á¢Ļá¡³":3155,"á¡´á¡Ńá¢Ĳ":3156,"á¡¬á¡ªá¢Ķ":3157,"Ġá¢Ķá¡Ńá¡¬á¡±á¡ªá¢Ķá¡³":3158,"Ġá¢ĺá¡ªá¢Ĭá¡¬á¡±á¡±á¡ªá¡Ńá¡§":3159,"Ó©":3160,"Ġá¡¥á¢İá¢Ĭ":3161,"Ġá¢Ĭá¡¬á¢ļá¡¬á¢ľ":3162,"Ġá¡¬á¡¬á¡Ńá¡ªá¢ĭ":3163,"á¡¥á¢Ľá¡«":3164,"Ġá¡¥á¡Ńá¢ŀá¡Ńá¡±á¡±á¡ªá¡Ńá¡§":3165,"Ġá¢Īá¡Ńá¡³á¡¬á¡¦":3166,"Ġá¢ĺá¡Ńá¡¬á¢ļ":3167,"Ġá¡¥á¡Ńá¢ļá¡¬á¡ªá¡ªá¡³":3168,"Ġá¢ĺá¡ªá¡±á¡¬á¡ªá¡ªá¡³":3169,"á¢ĳá¡«":3170,"Ġá¢ĺá¡ªá¡³á¡ªá¢Ĳ":3171,"Ġá¡¸á¡ªá¢Ļá¡§":3172,"á¢Ķá¡ªá¡±á¡±":3173,"Ġá¡¥á¡Ńá¢ŀá¡Ńá¢ĩ":3174,"Ġá¢ĺá¡Ńá¡¬á¢ŀá¡Ńá¢ĭá¡Ńá¢ĳ":3175,"Ġá¡¥á¡Ńá¡±á¡Ńá¢Ĳ":3176,"á¡¥á¡ªá¢ŀá¡³":3177,"Ġá¢ĺá¡Ńá¢ŀá¡ªá¢Ļ":3178,"á¡ªá¢Ķá¡Ńá¢Ļá¡ªá¡«":3179,"Ġá¡³á¡ªá¢ŀá¡¬á¢İá¢Ľá¡¬á¡«á¡¨":3180,"Ġá¢Įá¡Ńá¡¬á¢ŀá¡Ńá¢Ĭá¡ªá¢Ļá¡Ńá¢Ĳ":3181,"Ġá¢Ķá¡ªá¡±á¡ªá¢Ľá¡³":3182,"á¡ªá¡Ńá¡ªá¢ļá¡¬á¢ĳ":3183,"Ġá¡¥á¡¬á¢ŀá¡ªá¢Ļá¡ªá¡¬á¡¨":3184,"Ġá¡¥á¡§":3185,"á¡ªá¢İá¢ĳá¡¬á¡¬á¡¨":3186,"á¡ªá¢İá¢Ķá¡¬á¢ĩ":3187,"á¡´á¡Ńá¢ĳá¡³":3188,"áł¤áłª":3189,"ĠÐ³":3190,"á¡¥á¡³":3191,"Ġá¢ĺá¡ªá¡´á¡Ń":3192,"á¡¥á¡Ńá¡ªá¡ª":3193,"Ġá¢Ķá¡¬á¢ĭá¡Ńá¢İá¢Ľá¡¬á¢ĳ":3194,"Ġá¡¥á¡ªá¢Ľá¡¬á¢ĳá¢Ļá¡ªá¡§":3195,"Ġá¡¥á¡ªá¡«á¡¨":3196,"Ġá¡¥á¢ĳá¢Ķ":3197,"Ġá¢ļá¡¬á¢Ķá¡Ńá¡§":3198,"á¢Ľá¡ªá¡¬":3199,"Ġá¡¬á¡¬á¡ªá¡¬á¡¨":3200,"Ġá¢ľá¡ªá¢ŀá¡Ńá¡ªá¢Ĭá¢Ĭá¡ªá¡¬á¡¬á¢ĳá¡ªá¢Ĭá¢ļá¡«":3201,"Ġá¡¥á¡¬á¢ļ":3202,"Ġá¡³á¡ªá¢ŀá¡ªá¡±á¡±":3203,"Ġá¢Ķá¡ªá¡±á¡±á¡Ńá¢ĳ":3204,"Ġá¢ĺá¡ªá¢ŀá¡ªá¡ª":3205,"á¡ªá¡ªá¢Ĭá¢Ķá¡«":3206,"á¡ªá¡±á¡±á¡Ńá¢ĳá¡Ńá¡±á¡±á¡ªá¡Ńá¡§":3207,"Ġá¡¯á¡ªá¢ĭá¡Ńá¢Ļ":3208,"Ġá¡³á¡ªá¢ĳá¢Ĭá¡ªá¡¨":3209,"Ġá¡¥á¡Ńá¡¬á¢Ĭá¢Ļá¡ªá¡¬á¡¨":3210,"á¡Ńá¢¡":3211,"Ġá¡¸á¡ªá¢ŀá¡ªá¡±á¡±":3212,"á¡¥á¡¬á¢Ļ":3213,"á¡¬á¡ªá¡ªá¢Ľ":3214,"Ġá¡¥á¢Ķá¡ªá¢ŀá¢ĭá¡Ńá¢ļ":3215,"Ġá¢Ķá¡¬á¢Ķá¢ĺá¢Łá¢į":3216,"á¡Ńá¢ŀá¡ªá¡ªá¡ªá¡«":3217,"Ġá¢Īá¡Ńá¡Ńá¢ĳ":3218,"Ġá¡¯á¡ªá¢İá¡ªá¢Ĭá¢Ļ":3219,"Ġá¢ĺá¡ªá¡ªá¡¬á¡¨":3220,"Ġá¡¬á¡ªá¢Ĭá¡ªá¢ĳá¡«":3221,"ĠÑĤ":3222,"á¡Ńá¢Ľá¡¬á¡§":3223,"Ġá¡¬á¡Ńá¡±á¡±á¡Ńá¢ĩ":3224,"á¡Ńá¢ĳá¡ªá¢ĭá¡Ń":3225,"00":3226,"Ġá¡¥á¡Ńá¡¬á¡¬á¢ĳá¡ªá¡Ńá¡ªá¡´á¡Ńá¢ŀá¡¬á¢ĳ":3227,"Ġá¡¥á¢Ķá¡§":3228,"Ġá¡¥á¡ªá¢ĳá¢Ļá¡ªá¡ªá¡ªá¢Ķá¡ªá¡§":3229,"Ġá¢Ķá¡¬á¡³á¡ªá¡±á¡±á¡³":3230,"á¡ªá¡ªá¡³á¡ªá¡±á¡±á¡ªá¢Ļá¡Ńá¢Ŀ":3231,"Ġá¡¥á¡Ńá¢ŀá¡±á¡±á¡Ńá¢İá¡ªá¢Ĳ":3232,"Ġá¢ĺá¡Ńá¢Ļá¡Ńá¢ŀá¡ªá¢Ĭá¡¬á¡¦":3233,"ÑįÐ½":3234,"Ġá¡¥á¡Ńá¡ªá¡ªá¡ªá¢İá¢Ķá¡ªá¢Ŀ":3235,"á¢Ĭá¡ªá¢Ķ":3236,"Ġá¡¥á¡Ńá¢ŀá¡Ńá¢Ķá¡¬á¢Ľá¡³":3237,"Ġá¡¥á¡Ńá¡´á¡Ńá¡±á¡±á¡ªá¡§":3238,"á¡ªá¢Ķá¡ªá¡«":3239,"Ġá¢Ķá¡Ńá¡¬á¢Ŀ":3240,"Ġá¡¥á¡ªá¢İá¢Ľ":3241,"Ġá¡¯á¡ªá¡ªá¢Ļ":3242,"á¡Ńá¢ŀá¢Ĭá¡ªá¡¨":3243,"Ġá¢Ĭá¡ªá¢ŀá¡ªá¢Ĭá¢Ķ":3244,"áł¦áłª":3245,"Ġá¡¸á¡Ńá¢ŀá¢İ":3246,"Ġá¢ĺá¡Ńá¡Ńá¢ŀá¡ªá¢Ĭá¡¬á¡¦":3247,"Ġá¢ĭá¡Ńá¡¬á¢ŀá¡Ńá¢Ĭá¡ªá¡Ńá¡§":3248,"á¢ľá¡ªá¢Ĭá¡ªá¡¨":3249,"Ġá¢ĭá¡Ńá¡¬á¡ªá¢Ľ":3250,"Ġá¢ļá¡ªá¢Ĭá¡¬á¢ĳá¡±á¡±á¡ªá¡§":3251,"Ġá¡¥á¡¬á¡Ńá¡«":3252,"á¡ªá¢ĳá¢Ľá¡¬á¡§":3253,"Ġá¢ĺá¡Ńá¡¬á¢İá¡§":3254,"Ġá¢Ĭá¡ªá¢ŀá¡ªá¢į":3255,"Ġá¢Ķá¡¬á¢Ļá¡§":3256,"á¡Ńá¢Ļá¡ªá¢Ľá¡³":3257,"Ġá¡¸á¡Ńá¡±á¡±á¡Ńá¢Ŀ":3258,"á¡ªá¡ªá¢Ĭá¡±á¡±á¡Ńá¡³á¡¨":3259,"Ġá¡¬á¡¬á¢Ĺá¡¬á¢ľá¡ªá¢ĳá¡ªá¡³á¡ªá¢Ĳ":3260,"Ġá¡´á¡Ńá¡¬á¢Ļá¡Ńá¢Ĭá¡ªá¡§":3261,"á¡±á¡±á¡Ńá¡§":3262,"á¢İá¡ªá¡§":3263,"ÑĪ":3264,"Ġá¡¸á¡ªá¢ŀá¡ªá¡ªá¡ªá¢Ļá¡ªá¡ªá¡ªá¡³":3265,"Ġá¡¥á¡Ńá¡¬á¢ĳá¡ªá¢Ļá¡ªá¢Ĭá¢Ķá¡ªá¡§":3266,"Ġá¡³á¡ªá¡¬á¡¬á¡ªá¢Ĭ":3267,"Ġá¢Ĭá¡ªá¢ŀá¡ªá¢Ĭá¢ļ":3268,"Ġá¢ļá¡¬á¡ªá¡ªá¡Ńá¢ĳ":3269,"á¢Łá¢¤":3270,"Ġá¢ĺá¡ªá¡³á¢Ļ":3271,"á¡ªá¢ĳá¡ªá¡±á¡±á¡ªá¡Ńá¡§":3272,"Ġá¡¥á¡Ńá¡¬á¢ŀá¢Ļá¡ªá¡¬á¡¨":3273,"á¡ªá¢Ĭá¡¬á¡§":3274,"á¡ªá¢ŀá¢ĳá¡ªá¢Ľá¡³":3275,"Ġá¡¥á¢ŀá¢ĭá¡Ńá¢Ľá¡³":3276,"Ġá¡¥á¡Ńá¡¬á¡¬á¢ĳá¡ªá¡±á¡±á¡ªá¢Ľá¡³":3277,"Ġá¢ĺá¡ªá¡³á¢Ļá¡ªá¢Ŀ":3278,"á¡ªá¡¬á¡¬á¢ĳá¡ªá¢ĭá¡Ń":3279,"Ġá¢Ķá¡¬á¡¬á¡Ńá¡ªá¡´á¡Ńá¢ŀá¡¬á¢ĳ":3280,"Ġá¡¥á¢įá¡¨":3281,"Ġá¢ľá¡ªá¢Ĳá¡¨":3282,"Ġá¢ĺá¡Ńá¢ĳá¡ªá¢Ļá¡§":3283,"á¡¬á¢Ļá¡Ńá¢Ŀ":3284,"Ġá¡³á¡ªá¡¬á¡¬á¡ªá¢Ĭá¡±á¡±á¡³":3285,"Ġá¡¸á¡ªá¢ŀá¡ªá¢ļá¡§":3286,"Ġâĳ":3287,"á¡ªá¢Ļá¡ªá¢Ĭá¡¬á¡¦":3288,"á¢Ķá¡ªá¡¬á¡¬á¡ªá¡ªá¡ªá¡§":3289,"Ġá¢ĺá¡Ńá¢Ļá¡³":3290,"Ġá¡´á¡Ńá¡¬á¢İá¡´":3291,"Ġá¡¥á¡ªá¢ĳá¡ªá¢ĩ":3292,"Ġá¡¥á¡Ńá¡³":3293,"Ġá¡¥á¡Ńá¡¬á¢ļá¡Ńá¢Ĭá¡ªá¡§":3294,"á¡Ńá¢ŀá¡Ńá¡§":3295,"Ġá¡¥á¡Ńá¡ªá¢ļá¡§":3296,"Ġá¡¥á¢Ķá¡ªá¢ĭá¡Ń":3297,"Ġá¢ĺá¡Ńá¡ªá¡ªá¢Ļá¡ªá¡±":3298,"Ġá¡¯á¡ªá¡¬á¡¬á¢ŀá¡ªá¡ªá¡ªá¢ļá¡«":3299,"Ġá¡¥á¡ªá¢ĳá¢Ļá¡ªá¢Ľá¡³":3300,"Ġá¢ĺá¡ªá¡±á¡±á¡Ńá¢ļá¡¬á¡§":3301,"Ġá¢Ĺá¡Ńá¡¬á¢Ľá¡«":3302,"á¡Ńá¡ªá¢Ĭá¢īá¡¨":3303,"Ġá¡¥á¡¬á¢ŀá¡ªá¡°á¡¨":3304,"á¡ªá¡±á¡±á¡ªá¢ŀá¡ªá¡«":3305,"á¢Īá¡ªá¢Ľá¡ªá¢Ŀ":3306,"á¡ªá¢ŀá¡ªá¢Ļá¡³":3307,"á¡ªá¢Ķá¡¬á¢ŀ":3308,"Ġá¢ĭá¡Ńá¡¬á¢ŀá¢Ĭá¡ªá¢Ľá¡³":3309,"Ġá¢ĺá¡ªá¡³á¡ªá¢ŀ":3310,"Ġá¢Ķá¡ªá¢ĳá¢Ľá¡³":3311,"á¡Ńá¢ŀá¢ĳá¡ªá¢Ľá¡³":3312,"Ġá¡¥á¡³á¢Ļ":3313,"Ġá¡¥á¡¬á¢ŀá¡Ńá¢Ĭá¡ªá¢Ĳ":3314,"Ġáł²áł¡áłŃ":3315,"á¡¸á¡ªá¡¬":3316,"Ġá¡³á¡ªá¢ĳá¡±á¡±á¡ªá¢Ķá¡Ńá¡§":3317,"Ġá¡¥á¡Ńá¡ªá¢ļá¡ªá¡±á¡±á¡ªá¡«":3318,"Ġá¢Įá¡¬á¡±":3319,"á¡¬á¡ªá¡ªá¢ļá¡«":3320,"Ġá¡¸á¡ªá¢İá¡´á¡Ń":3321,"Ġá¢Ķá¡Ńá¢Ļá¡Ńá¢ĳá¡Ńá¢Ĳ":3322,"á¡¬á¢§":3323,"á¡´á¡Ńá¡¬á¢Ļ":3324,"Ġá¢ĺá¡ªá¡³á¢Ĭ":3325,"Ġá¡¸á¡ªá¢İá¡ªá¢Ŀ":3326,"á¡¥á¡ªá¢ĳá¢Ļ":3327,"Ġá¢ĺá¡Ńá¡ªá¡ªá¢Ķ":3328,"Ġá¡¯á¡ªá¡¬á¡¬á¢Ĭá¡ªá¢İá¢ĳá¡¬á¡¬á¡¨":3329,"Ġï¸½":3330,"Ġá¡¥á¡Ńá¡¬á¡¬á¢ŀá¡ªá¢Ļ":3331,"Ġá¡¬á¡Ńá¢Ĳ":3332,"Ġá¡¥á¡ªá¢ĳá¡³":3333,"á¡ªá¡±á¡±á¡Ńá¢ĳá¢Ļá¡§":3334,"Ġá¢Ĭá¡ªá¢Ĳá¡¨":3335,"Ġá¢Įá¡ªá¡±á¡Ńá¢ĵ":3336,"Ġá¢Ķá¡¬á¢ŀá¡ªá¢Ĭá¡ªá¡§":3337,"Ġá¢ļá¡¬á¡±á¡±á¡Ńá¢ĳ":3338,"á¡ªá¢ĭá¡Ńá¢ŀ":3339,"Ġáł¥":3340,"Ġá¢Ĭá¡ªá¢ĳá¢Ļ":3341,"Ġá¡¥á¡Ńá¢Ļá¡Ńá¢į":3342,"Ġá¢Ķá¡ªá¡Ńá¡ªá¢Ĭá¡¬á¢ļá¡§":3343,"á¡Ńá¡ªá¡ªá¡ªá¡ªá¢Ĳ":3344,"Ġá¢Ķá¡«":3345,"Ġá¡¥á¡ªá¢ĳá¡³á¡ªá¡¨":3346,"Ġá¢ĺá¡ªá¢ŀá¡¬á¢ľ":3347,"á¢Įá¡ªá¡§":3348,"Ġá¢ĭá¡Ńá¡¬á¢ļá¡Ńá¢ŀá¢Ĭ":3349,"Ġá¢Ķá¡Ńá¡±á¡Ńá¢Ķá¡ªá¡ªá¡³":3350,"Ġá¡¸á¡Ńá¢ŀá¡¬á¢į":3351,"á¡ªá¡±á¡Ńá¢ĵ":3352,"Ġá¡¥á¡ªá¡±á¡±á¡Ńá¢Ķ":3353,"Ġá¡·á¡Ńá¡³":3354,"Ġá¡´á¡Ńá¡¬á¡¬á¢Ľ":3355,"á¡ªá¢İá¢Ľá¡¬á¢Ļá¡ªá¡«":3356,"Ġá¢ıá¡ªá¢įá¡¨":3357,"á¢§":3358,"Ġá¡¶á¢ŀ":3359,"Ġá¢ĺá¡Ńá¢Ķá¡³":3360,"á¡ªá¢ĳá¢Ĭá¡ªá¡§":3361,"Ġá¡¸á¡Ńá¢ŀá¡Ńá¡±á¡±á¡³":3362,"Ġá¢ŀá¡ªá¢Ķ":3363,"á¢ĺá¡Ńá¡¬":3364,"á¡Ńá¢ĳá¡ªá¡ªá¡ªá¡³":3365,"Ġá¡¥á¡Ńá¢ŀá¡Ńá¢ĳá¢īá¡¨":3366,"á¡Ńá¡¬á¡ªá¢Ĭá¢Ĭá¡ªá¡¨":3367,"á¡¬á¢ļá¡¬á¡ªá¡ª":3368,"á¡ªá¢ĳá¢Ľá¡³":3369,"á¢ĺá¡ªá¡¬":3370,"á¡¥á¢ĳ":3371,"á¡¬á¢İá¡ªá¢Ŀ":3372,"á¢Łá¢İ":3373,"Ġá¡¥á¡¬á¢ŀá¡ªá¢Ľá¡ªá¡«":3374,"á¢Ĭá¡ªá¢Ĭá¢Ķá¡ªá¡§":3375,"Ġá¡¸á¡Ńá¡³á¡¬á¢ĳ":3376,"Ġá¡¥á¢Ĭá¡¬á¢ĳá¡ªá¢Ĭá¡ªá¡Ńá¡§":3377,"á¡¬á¡ªá¢Ĭá¡±á¡±á¡ªá¡§":3378,"Ġá¢ĺá¡ªá¢ĳá¡ªá¢ŀ":3379,"ĠãĢĶ":3380,"Ġá¢ľá¡Ńá¢Ķá¡Ńá¢ĳá¡ªá¢Ĳ":3381,"á¡Ńá¢İá¢Ľ":3382,"á¡ªá¡³á¡ªá¢Ķá¡³":3383,"Ġá¡¥á¡ªá¡³á¡¬á¢ľá¡ªá¢ĵ":3384,"á¡Ńá¡±á¡±á¡ªá¢ļá¡«":3385,"Ġá¢ŀá¡ªá¢Ļ":3386,"Ġá¡¥á¢ŀá¢Ĭá¡¬á¢Ľá¡³":3387,"Ġá¡´á¡Ńá¡¬á¢Ļá¡Ńá¢ĭá¡Ńá¡§":3388,"Ġá¡¥á¡Ńá¢ĳá¡ªá¢İá¢Ľá¡¬á¢ĳá¡ªá¢Ĳ":3389,"á¡ªá¢ĳá¡¬á¡¬á¡¨":3390,"Ġ201":3391,"Ġá¡³á¡ªá¢ŀá¡¬á¡±á¡±":3392,"Ġá¢ĭá¡Ńá¡¬á¢ļá¡¬á¢ŀá¢Ļ":3393,"Ġá¡¥á¢Ĭá¡ªá¢Ķá¡¬á¡¬á¡¨":3394,"Ġá¢Ķá¡ªá¢ŀá¡§":3395,"Ġá¢Ĺá¡Ńá¡±á¡±":3396,"Ġá¢Ķá¡Ńá¢ŀá¡Ńá¡ªá¡ªá¢Ķá¡ªá¡§":3397,"Ġá¢ĺá¡Ńá¢ĳá¡ªá¡±á¡±á¡ªá¡§":3398,"Ġáł°áł¤áł·":3399,"Ġá¡¸á¡ªá¢İá¡¬á¢ľá¡ªá¢ŀá¡Ńá¢ĳá¢Ļá¡§":3400,"Ġá¡¬á¡¬á¢įá¡¨":3401,"á¡ªá¢ļá¡ªá¡§":3402,"á¡ªá¢Ĭá¢Ļá¡ªá¡§":3403,"Ġá¡¥á¢ŀá¢Ĭá¡¬á¢ļ":3404,"Ġá¡¥á¡Ńá¢ŀá¡¬á¢ľ":3405,"á¢ĺá¡Ńá¢Ķ":3406,"Ġá¡¥á¡Ńá¡¬á¡¬á¢ĳá¡ªá¡±á¡±á¡ªá¡ªá¡ªá¡³":3407,"äº":3408,"Ġá¡´á¡Ńá¢Ļá¡Ńá¡³á¡ªá¢Ĳ":3409,"Ġá¢ĺá¡ªá¢Ĭá¡¬á¡¦":3410,"á¡¥á¡ªá¢İá¡¬á¢Ļá¡Ńá¢ŀá¡ªá¢Ĳ":3411,"Ġá¡¥á¡Ńá¡Ńá¡±á¡±á¡Ńá¡ªá¡ªá¡³":3412,"á¡¬á¢ĳá¡¬á¢ĩ":3413,"á¡ªá¢ŀá¡ªá¡°á¡¨":3414,"Ġá¢Ķá¡Ńá¢ŀá¡ªá¢ĩ":3415,"Ġá¢Ķá¡ªá¢ĳá¡´á¡Ńá¢ŀá¡«":3416,"Ġá¡´á¡Ńá¢ĳá¡³á¡ªá¢Ķá¡Ńá¡§":3417,"á¡¥á¡Ńá¡¬á¡ªá¢Ļá¡Ńá¢Ķ":3418,"á¡³á¡ªá¡±á¡±":3419,"Ġá¡³á¡ªá¢ŀá¡¬á¡ªá¡ªá¡³":3420,"Ġá¢Ķá¡ªá¡±á¡±á¡Ńá¢ŀá¡¬á¡§":3421,"Ġá¡¬á¡ªá¢Ĭá¡¬á¢Ļá¡ªá¢Ĳ":3422,"á¡³á¡ªá¡¬á¡¬á¢īá¡¨":3423,"ĠáłĬ":3424,"á¡¬á¢ŀá¡±á¡±á¡ªá¢Ĳ":3425,"Ġá¢Īá¡ªá¡ªá¡ªá¡ªá¡«":3426,"á¡ªá¡ªá¡ªá¡ªá¡ªá¢Ļá¡§":3427,"Ġá¢Ķá¡Ńá¡¬á¡³":3428,"Ġá¡¯á¡ªá¢ľ":3429,"Ġá¢ĭá¡Ńá¡¬á¢ĳá¡Ńá¢Ķá¡³":3430,"á¡Ńá¡¬á¡¬á¢ĳá¡§":3431,"Ġá¡¬á¡ªá¢ĭá¡Ńá¢Ļá¡Ńá¡§":3432,"áłłáłŃáł°áłłáł¨":3433,"Ġá¡¸á¡ªá¢ŀá¡ªá¢īá¡¨":3434,"Ġá¡¬á¡Ńá¡¬á¢Ļ":3435,"Ġá¢ĭá¡Ńá¡¬á¡ªá¢Ļá¡ªá¡«":3436,"á¢ĳá¡ªá¡ªá¡ªá¡³":3437,"Ġá¡¥á¡Ńá¡¬á¢Ĭá¡ªá¡¬":3438,"Ġá¢Įá¡¬á¡ªá¢Ĭá¢īá¡¨":3439,"Ġá¡¥á¡Ńá¢ŀá¡Ńá¡±á¡±á¡Ńá¢ĳá¢Ľá¡³":3440,"Ġá¢Įá¡ªá¡ªá¡ª":3441,"Ġá¡¥á¡¬á¢Ļá¡ªá¡³á¢Ĭ":3442,"á¡¥á¢ŀá¢Ĭ":3443,"Ġá¢ĺá¡ªá¡³á¡ªá¡ª":3444,"Ġá¡¸á¡ªá¢ŀá¡´":3445,"Ġá¢Ķá¡Ńá¡±á¡Ńá¢Ķá¢ļá¡³":3446,"Ġá¢ļá¡Ńá¢İ":3447,"Ġá¡¥á¡Ńá¢Ļá¡Ńá¡ªá¡ªá¡ªá¡§":3448,"á¡¬á¢İá¡Ńá¢ŀá¡«":3449,"á¡¸á¡ªá¢ĳ":3450,"á¡Ńá¡ªá¡ªá¡ªá¡ªá¡ªá¡ªá¡³":3451,"Ġá¡´á¡Ńá¢Ķá¢ļá¡³":3452,"Ġá¡¸á¡ªá¢ĵ":3453,"Ġá¢ĺá¡Ńá¢ŀá¢Ķá¡«":3454,"Ġá¡¥á¢ŀá¢Ĭá¡¬á¡§":3455,"á¡¥á¡ªá¢ŀá¡ªá¡Ńá¡§":3456,"Ġá¡³á¡ªá¢ĳá¡±á¡±á¡ªá¢Ķá¡³":3457,"á¡¥á¡ªá¢Ļ":3458,"Ġá¢ľá¡ªá¡³":3459,"Ġá¡´á¡Ńá¢Ķá¡Ńá¢īá¡¨":3460,"ÑĭÐ½":3461,"á¡Ńá¢ŀá¢Ļ":3462,"á¡¬á¢Ĭá¢ĳ":3463,"Ġá¢ĺá¡Ńá¡ªá¡ªá¢Ļá¡ªá¡ªá¡ªá¢Ķá¡ªá¡§":3464,"á¡¸á¡Ńá¢ĳ":3465,"á¡±á¡ªá¢Ľá¡³":3466,"Ġá¢ĭá¡Ńá¡¬á¢Ĭá¡ªá¡ªá¡ªá¡Ńá¢Ļá¡§":3467,"Ġá¢Ķá¡Ńá¡±á¡¬á¢ŀá¡ªá¡ª":3468,"Ġá¢Ķá¡ªá¡¬á¡¬á¢Ļá¡Ńá¢Ŀ":3469,"Ġá¢ĺá¡Ńá¡ªá¡ªá¢ĳá¡ªá¢ĳá¢Ļá¡§":3470,"á¡Ńá¢ŀá¢ĳá¡¬á¡¬á¡¨":3471,"Ġá¢Īá¡ªá¡ªá¡ªá¢ļá¡ªá¡ªá¡ªá¡ªá¡§":3472,"á¡ªá¡Ńá¡ªá¡ªá¡ªá¡ªá¢Ĳ":3473,"á¡¥á¡ªá¡´á¡Ń":3474,"ï¸¾":3475,"Ġá¡´á¡Ńá¢ĳá¢Ļ":3476,"Ġá¡¥á¡Ńá¡¬á¡±á¡ªá¡ªá¢ļá¡«":3477,"Ġá¢Ķá¡ªá¡±á¡±á¡Ńá¢ŀ":3478,"Ġá¢ĺá¡ªá¡¬á¡¬á¢Ľá¡«":3479,"Ð¾Ð»":3480,"Ġá¡¥á¡Ńá¢ŀá¡Ńá¢ĳá¢ļá¡ªá¡ªá¡ªá¢Ķá¡ªá¡§":3481,"á¢ĺá¡ªá¢ĭá¡Ńá¡§":3482,"Ġáł¡áł´":3483,"á¡Ńá¢ŀá¡±á¡±á¡³":3484,"á¢ĺá¡Ńá¡±á¡±":3485,"á¡Ńá¡¬á¡¬á¡§":3486,"Ġá¡¸á¡ªá¢ĳá¢ĩá¡¨":3487,"á¡ªá¢ŀá¢İ":3488,"Ġá¢ĺá¡ªá¢Ĭá¡ªá¢ĭá¡Ńá¢Ŀ":3489,"Ġá¡³á¡ªá¢ĳá¡ªá¡¬á¡¨":3490,"Ġá¢Ĭá¡ªá¢İá¡ªá¢Ŀ":3491,"Ġá¡¥á¡Ńá¡ªá¡ªá¢Ļá¡³":3492,"á¡ªá¡ªá¢Ĭá¢Ĭá¡¬á¡±":3493,"Ġ2":3494,"Ġá¢Įá¡Ńá¢ŀá¢Ļ":3495,"Ġá¡¸á¡ªá¢Ķá¢Ĭá¡¬á¢ŀ":3496,"á¡´á¡Ńá¡¬á¢ŀ":3497,"á¡Ńá¢Ĭá¡ªá¢Ļá¡Ńá¢Ŀ":3498,"Ġá¢Ĭá¡ªá¢ļá¡¬á¡±á¡ªá¡§":3499,"Ġá¢Ĭá¡ªá¢ŀá¢Ĭ":3500,"Ġá¢Įá¡ªá¡±á¡±á¡Ńá¡ªá¡ªá¡ªá¡«":3501,"á¡ªá¡ªá¡ªá¢ļá¡¬á¡Ńá¡§":3502,"Ġá¢Īá¡ªá¡ªá¡ªá¢ļá¡ªá¡±á¡±á¡ªá¢Ŀ":3503,"Ġá¢Ķá¡ªá¢Ļá¡Ńá¡§":3504,"Ġá¡¥á¢İá¢Ľ":3505,"á¡Ńá¢ŀá¡ªá¡ªá¡ªá¢Ķá¡ªá¡§":3506,"Ġá¢Ķá¡Ńá¢ŀá¡±á¡±á¡ªá¡ªá¡ªá¡³":3507,"á¡¬á¡ªá¡ªá¢Ķ":3508,"á¡ªá¡ªá¢Ĭá¡±á¡±á¡Ńá¡«á¡¨":3509,"Ġá¢ıá¡ªá¡³á¢Ļá¡ªá¡«":3510,"Ġá¡³á¡¬á¢Ķá¡¬á¢ŀ":3511,"á¡ĵ":3512,"Ġá¢ŀá¡ªá¢Ļá¡¬á¡Ń":3513,"á¢Įá¡Ńá¡ªá¢Ĭá¡±á¡±á¡Ńá¢ĳá¢ļá¡Ńá¡Ńá¡§":3514,"Ġáłªáłłáł¶áł¢áłŃ":3515,"á¡¬á¡ªá¢Ĭá¢Ĭ":3516,"Ġá¢ļá¡¬á¡±á¡ªá¢ŀá¢Ļá¡ªá¡«":3517,"Ġá¢ĺá¡Ńá¡¬á¢ŀá¢ĭá¡Ń":3518,"á¡ªá¡ªá¢Ĭá¡ªá¡ªá¡ªá¡«":3519,"Ġá¢Ĭá¡¬á¢Ľá¡ªá¡±á¡±":3520,"Ġá¡Ĳ":3521,"Ġá¡¸á¡Ńá¢ŀá¢ļá¡§":3522,"Ġá¡¬á¡Ńá¡¬á¡³á¢ĳá¡ªá¢Ĳ":3523,"Ġá¡¥á¡Ńá¡±á¡Ńá¢īá¡¨":3524,"Ġá¡¥á¡Ńá¢Ĭá¡¬á¢ĳ":3525,"Ġá¢ĺá¡ªá¢ŀá¡¬á¡«á¡¨":3526,"Ġá¢Īá¡Ńá¡±á¡¬á¢ĩ":3527,"Ġá¢Ĺá¡ªá¡§":3528,"Ġá¡³á¡ªá¡¬á¡¬á¢Ķá¡¬á¡ªá¡¬á¡¨":3529,"Ġá¢Ĺá¡ªá¡³":3530,"á¡Ńá¢ļá¡¬á¡Ńá¡§":3531,"Ġá¡¥á¡Ńá¢ŀá¡Ńá¢ĳá¢ļá¡ªá¢Ľá¡³":3532,"Ġá¢Īá¡Ńá¢ļá¡¬á¡§":3533,"á¡ªá¢ļá¡¬á¢ĳá¡ªá¢Ľá¡³":3534,"Ġá¡¸á¡Ńá¡Ńá¢Ŀ":3535,"áł¤áł´":3536,"Ġá¢ļá¡Ńá¡´":3537,"á¡¥á¡Ńá¢Ļá¡³":3538,"Ġá¢ĺá¡Ńá¡¬á¢ŀá¡Ńá¢Ĭ":3539,"á¡ªá¡³á¢Ķá¡«":3540,"Ġá¢Ķá¡Ńá¢ĳá¡Ńá¡ªá¢Ĭá¡±á¡±":3541,"Ġá¢ĺá¡ªá¢İá¡ªá¢Ĭá¡¬á¡¦":3542,"Ġáł¤áł³":3543,"Ġá¢ĺá¡ªá¢ŀá¡¬á¢Ĭá¡¬á¡¦":3544,"Ġá¢Ĭá¡ªá¢ĳá¡ªá¡°á¡¨":3545,"Ġá¢Ĺá¡Ńá¡Ńá¢Ĭ":3546,"á¡¥á¢Ĭá¡ªá¡¨":3547,"Ġá¡¸á¡ªá¡¬á¡¬á¢ŀá¡ªá¢ĳá¡ªá¢Ľá¡³":3548,"Ġá¡¬á¡ªá¡ªá¢Ĭá¢Ĭá¡¬á¡¦":3549,"á¡ªá¡³á¡ªá¢ľá¡ªá¢Ŀ":3550,"á¡ªá¢ĳá¡ªá¡«":3551,"Ġá¡¸á¡Ńá¢Łá¡§":3552,"\"\"":3553,"Ġá¢ĺá¡Ńá¡¬á¢ĳá¢Ĭ":3554,"á¡ªá¢ĳá¢Ľá¡ªá¢Ľá¡³":3555,"Ġá¡¥á¡Ńá¢ĳá¢Ļ":3556,"áłłáłŃáł¤áł¯":3557,"Ġá¡¬á¡Ńá¡ªá¡ªá¢Ķá¡Ńá¢Ľá¡³":3558,"Ġá¢ĺá¡Ńá¢ŀá¢Ķá¡¬á¢ĳá¢īá¡¨":3559,"á¡¥á¡ªá¡±á¡±":3560,"áłłáł³áł¤":3561,"Ġá¢Įá¡ªá¢ĳá¢Ļ":3562,"áłłáłŃáł¤":3563,"á¡ªá¢ĳá¡ªá¡ªá¡ªá¢ļá¡«":3564,"á¡ªá¢ĳá¢ļá¡ªá¢īá¡¨":3565,"Ġá¢ĺá¡ªá¢Ķá¡«":3566,"Ġá¡¥á¡Ńá¡¬á¢Ľá¡ªá¢ĭá¡Ńá¢ĳá¢ĭá¡Ń":3567,"Ġá¢¤á¡ªá¢Ļ":3568,"á¡Ńá¢Łá¡§":3569,"Ġá¢Ĭá¡ªá¡¬á¡¬á¡Ńá¡§":3570,"Ġá¡¥á¡Ńá¡¬á¡¬á¢İ":3571,"Ġå":3572,"Ġá¡¸á¡ªá¢ļ":3573,"Ġá¡¬á¡¬á¢Ĭá¡ªá¢ĳ":3574,"Ġá¡¸á¡Ńá¢Ŀá¡¨":3575,"áłłáł´":3576,"á¡ªá¢ĭá¡Ńá¢ĳá¡Ńá¡°á¡¨":3577,"Ġá¡¥á¡ªá¢ĳá¢Ļá¡ªá¢ŀá¢Ļá¡³":3578,"Ġá¡´á¡Ńá¡¬á¢Ļá¡Ńá¢İá¢Ľá¡«":3579,"Ġá¡´á¡Ńá¢Ĭ":3580,"á¢Ķá¡¬á¡°á¡¨":3581,"Ġá¡¥á¡Ńá¢ľá¡ªá¡ªá¢Ĭá¢īá¡¨":3582,"Ġá¢Ķá¡Ńá¢Ļá¡Ńá¡§":3583,"á¡Ńá¡´á¡Ńá¢ŀá¡«":3584,"Ġá¢ĺá¡Ńá¡¬á¢ŀá¡¬á¢İ":3585,"Ġá¢Ĭá¡ªá¢Ĭá¡ªá¡¨":3586,"Ġá¡¯á¡¬á¢ŀá¡Ńá¡±á¡±á¡³":3587,"Ġá¡¯á¡Ń":3588,"Ġá¡¥á¡Ńá¢ĳá¢Ľ":3589,"Ġá¡´á¡Ńá¢Ľ":3590,"Ġá¡¥á¡ªá¢§":3591,"Ġá¢Ĭá¡¬á¡±á¡ªá¡§":3592,"á¡³á¡ªá¡¬á¡¬á¡ªá¡ªá¡³":3593,"Ġá¡¥á¡ªá¢Ľá¡¬á¢ĳá¢ĳá¡ªá¡ªá¡ªá¡³":3594,"Ġá¡³á¡ªá¡¬á¡¬á¢ļá¡ªá¡±á¡±á¡ªá¡ªá¡ªá¡³":3595,"á¡Ńá¢ĳá¡ªá¢Ĭá¢Ķá¡ªá¡§":3596,"á¢ļá¡Ńá¡Ńá¡§":3597,"á¡¬á¢Ļá¡ªá¢Ĳá¡¨":3598,"á¡¬á¡ªá¡ªá¢ļá¡¬á¡Ńá¡§":3599,"Ġá¡¥á¡ªá¢İá¡ªá¢ŀá¡ªá¡ªá¡ªá¡§":3600,"Ġá¢Ķá¡ªá¢ŀá¢ĭá¡Ńá¢Ĭ":3601,"Ġáł¦áł·":3602,"Ġá¡¥á¡Ńá¢ŀá¡Ńá¡±á¡±á¡Ńá¢ĳá¡ªá¡ªá¡³":3603,"Ġá¢Ķá¡Ńá¡±á¡Ńá¢Ķá¡Ńá¡ªá¡ªá¢Ķá¡ªá¡§":3604,"Ġá¢Īá¡ªá¢Ļá¡ªá¡ªá¡ªá¢Ķá¡«":3605,"Ġá¡¯á¡Ńá¡¬á¡¬á¢Ŀ":3606,"Ġá¢ĺá¡Ńá¡ªá¡ªá¢Ļá¡Ńá¢ĳ":3607,"__":3608,"á¢Ķá¡ªá¡ªá¡¬á¡¨":3609,"Ġáł²áł¦áł·":3610,"Ġá¡¥á¡ªá¢ľá¡ªá¢īá¡¨":3611,"Ġá¢ľá¡ªá¡´á¡Ńá¡±á¡±á¡Ńá¢ĳ":3612,"á¢ĺá¡Ńá¢İá¢Ļ":3613,"Ġá¡¥á¡Ńá¡¬á¡³á¡ªá¢ŀá¢Ķ":3614,"Ġá¢Ĭá¡ªá¡³á¢Ļ":3615,"Ġá¢Ķá¡Ńá¢ĳá¡§":3616,"Ġá¡¸á¡ªá¢Ķá¡ªá¢Ŀ":3617,"Ġá¡¸á¡Ńá¢ĳá¡´á¡Ńá¡ªá¡ªá¢Ļá¡ªá¢Ĳ":3618,"Ġá¢ĺá¡Ńá¡±á¡«":3619,"Ġá¢Ĭá¡ªá¢Ķá¡¬á¡¬á¡¨":3620,"á¡¬á¡ªá¢ĳ":3621,"á¢Ķá¡Ńá¡±":3622,"Ġá¡¥á¡ªá¢Ķá¡ªá¡±á¡±á¡Ńá¢ĳá¢Ļá¡§":3623,"Ġá¡¸á¡Ńá¡ªá¢Ļ":3624,"Ġá¡¥á¡Ńá¡¬á¡¬á¢ĳá¡ªá¡Ńá¡ªá¡´á¡Ńá¢ŀá¡«":3625,"Ġá¡¥á¢İá¡ªá¢Ĭá¢Ļá¡ªá¡¬á¡¬á¢ļá¡Ńá¡Ńá¡§":3626,"Ġá¡´á¡Ńá¢ļá¡ªá¢Ľá¡³":3627,"á¡ªá¡ªá¡ªá¡Ńá¡«":3628,"áł¡áłŃáł¡áł¨":3629,"Ġá¢ļá¡Ńá¢ĳ":3630,"Ġá¢ļá¡ªá¡ªá¡ªá¡ªá¢Ŀ":3631,"Ġá¡¥á¡Ńá¡¬á¢Ľá¡ªá¢Ķ":3632,"áł¡áł·áłŃ":3633,"Ġá¢ĺá¡ªá¢ŀá¡¬á¢ĭá¡Ńá¢ĳá¡ªá¢Ĭá¢ļá¡«":3634,"Ġá¢ĺá¡ªá¢ŀá¡Ńá¢Ľá¡³":3635,"Ġá¢Ķá¡Ńá¢Ļá¡Ńá¢ĳá¡ªá¡ªá¡³":3636,"Ġá¢Įá¡ªá¡ªá¡ªá¢Ļ":3637,"Ġá¡³á¡ªá¡¬á¡¬á¡ªá¡ªá¢Ķ":3638,"Ġá¡´á¡Ńá¢Ļá¡Ńá¡±á¡±á¡ªá¡Ńá¡§":3639,"á¡³á¡ªá¡¬á¡¬á¢Ļá¡ªá¢ĩ":3640,"Ġá¡³á¡ªá¡¬á¡¬á¢ļá¡ªá¡±á¡±á¡ªá¢ĳá¢Ļá¡§":3641,"á¡Ńá¢Ĭá¡ªá¢ļá¡¬á¡§":3642,"Ġá¡¥á¡Ńá¡¬á¡³á¡ªá¢ŀá¢Ķá¡ªá¡Ńá¡§":3643,"Ġá¢ĺá¡Ńá¢ŀá¡±á¡±á¡ªá¡§":3644,"á¢İá¡ªá¢ĩ":3645,"á¢ĺá¡ªá¢Ĭá¡ªá¢Ŀá¡¨":3646,"á¡ªá¢Ķá¡¬á¢ĳ":3647,"Ġá¡¥á¡Ńá¡¬á¢ŀá¢Ĭ":3648,"âĢ¦":3649,"Ġá¢Ķá¡ªá¡¬á¡¬á¢Ľá¡¬á¢ŀ":3650,"Ġá¢Ķá¡¬á¢ĳá¡Ńá¡±á¡±á¡Ńá¡§":3651,"Ġá¡¥á¡ªá¢ŀá¡³á¡ªá¡¨":3652,"á¡¬á¢£":3653,"Ð¼":3654,"Ġá¢Ĭá¡ªá¡¬á¡¬á¢İá¡Ńá¢ŀá¡«":3655,"ĠÒ¯":3656,"á¢ĺá¡ªá¡³":3657,"Ġá¢Ķá¡ªá¢ŀá¡ªá¡±á¡±á¡Ńá¢Ĳ":3658,"Ġá¡¥á¡ªá¢İá¡ªá¢ŀá¡ªá¢ĩ":3659,"á¡Ńá¢ŀá¡³":3660,"Ġá¢ĭá¡Ńá¡¬á¢Ĭá¡ªá¢ŀá¡Ńá¢ĭá¡Ńá¡§":3661,"Ġá¢ļá¡¬á¢Ĭá¡¬á¡¦":3662,"Ġá¡¥á¡ªá¢ĳá¢Ļá¡ªá¢īá¡¨":3663,"Ġáł±":3664,"Ġá¡¸á¡Ńá¡ªá¢Ĭá¡±á¡±á¡Ńá¢Ŀ":3665,"á¡¸á¡ªá¡¬á¡¬á¢Ŀá¡¨":3666,"ĠâĢ»":3667,"Ġá¡¥á¡Ńá¢Ļá¡ªá¢Ĳ":3668,"©áł¬":3669,"Ġáł¢áł¶áłłáł¨":3670,"Ġá¡¥á¡Ńá¡¬á¢ĳá¢Ľá¡ªá¡¬":3671,"Ġá¡¬á¡¬á¢Ķá¡³":3672,"ï¼Į":3673,"á¢ĭá¡Ńá¡³":3674,"Ġá¡¥á¡¬á¢ĳá¡ªá¡ªá¢Ĭá¡±á¡±á¡Ńá¡«á¡¨":3675,"Ġáł¦áłµ":3676,"Ġá¡¬á¡¬á¡ªá¡ªá¢Ķ":3677,"Ġá¡¬á¡Ńá¢ĳá¡±á¡±":3678,"á¢ļá¡¬á¢İ":3679,"Ġá¢ĺá¡Ńá¡¬á¢ŀá¡Ńá¢ĭá¡Ńá¡³":3680,"áł¡áł³áł¡áłŃ":3681,"Ġá¢Ķá¡ªá¡±á¡±á¡Ńá¡±á¡±á¡ªá¡Ńá¡§":3682,"Ġá¡¥á¡ªá¢İá¡ªá¢ŀá¡ªá¢ĳá¢Ļá¡§":3683,"Ġá¢ĺá¡Ńá¡¬á¢Ļ":3684,"áłłáłŃáł¤áł¯áł":3685,"Ġá¢Ĭá¡ªá¢ŀá¡ªá¢Ĭá¢ļá¡ªá¢Ĭá¡ªá¡¨":3686,"Ġá¢ľá¡ªá¡´á¡Ńá¡±á¡±á¡ªá¡Ńá¡§":3687,"Ġá¡¥á¡ªá¢İá¡¬á¡§":3688,"Ġá¢Įá¡Ńá¡¬á¢ļá¡§":3689,"Ġá¢Ĭá¡ªá¡¨":3690,"Ġá¢ļá¡Ńá¡¬":3691,"Ġá¡¥á¢ŀá¢Ĭá¡ªá¡³á¢Ķá¡«":3692,"Ġáł´áł¢áł¨":3693,"Ġá¡´á¡Ńá¢ļá¡ªá¡ªá¡ªá¡³":3694,"Ġá¡¥á¡Ńá¢ľá¡ªá¡ªá¢Ĭá¡±á¡±":3695,"Ġá¡¬á¡ªá¢Ķá¡ªá¢Ľá¡³":3696,"Ġá¡¥á¢ľ":3697,"Ġá¡¥á¡Ńá¡¬á¡±á¡Ńá¢Ķ":3698,"Ġá¢Ķá¡ªá¡±á¡ªá¡ªá¡ªá¢Ļ":3699,"ĠãĢķ":3700,"Ġá¢ľá¡ªá¡´á¡Ńá¢Ĳá¡¨":3701,"Ġá¡¥á¡ªá¢ŀá¡ªá¡Ńá¡ªá¢ļá¡¬á¢ĳ":3702,"á¡¥á¡Ńá¡¬á¡ªá¢Ļá¡Ńá¢Ķá¡Ńá¢Ļá¡ªá¡§":3703,"á¡Ńá¡ªá¡ªá¢Ķá¡ªá¡Ńá¡§":3704,"á¡Ńá¢Ĭá¢Ķá¡ªá¢Ĭá¡ªá¢Ŀ":3705,"Ġá¢ĺá¡ªá¢ĳá¢Ļá¡§":3706,"Ġá¢ıá¡Ń":3707,"Ġá¢Ĭá¡ªá¢ĳá¡ªá¢ĳá¢Ĭá¡ªá¡¨":3708,"Ð°Ð³":3709,"Ġá¡³á¡ªá¢Ķ":3710,"Ġá¡¥á¡ªá¢ŀá¡ªá¢ĳá¢Ľ":3711,"Ġá¡¥á¢ŀá¡ªá¢ĵ":3712,"á¡Ńá¡¬á¢ŀá¡Ńá¡ªá¡¬á¡¨":3713,"Ġá¡¬á¡¬á¢ĳá¡Ńá¡±á¡±á¡Ńá¢Ļ":3714,"á¡¬á¡ªá¢ļ":3715,"á¡Ńá¡ªá¡ªá¡ªá¡Ńá¡§":3716,"Ġá¡¸á¡Ńá¢ĳá¡´á¡Ńá¡±á¡±á¡ªá¡§":3717,"Ġá¡³á¡ªá¡¬á¡¬á¡ªá¡ªá¢Ķá¡ªá¡±á¡±á¡ªá¢Ŀ":3718,"á¡ªá¢Ĭá¡ªá¢ŀá¡ªá¡«":3719,"á¡ªá¢ļá¡¬á¢Ĭá¡ªá¢Ĭá¢Ķá¡ªá¡§":3720,"10":3721,"Ġá¢ļá¡¬á¡±á¡±á¡Ńá¢ĳá¡±á¡±á¡ªá¡§":3722,"Ġá¡³á¡ªá¢ŀá¡¬á¢ĳá¢Ļá¡Ńá¡±á¡±á¡ªá¡§":3723,"Ġá¡¥á¡Ńá¢Ŀá¡¨":3724,"Ġá¢ĺá¡ªá¢Ļá¡ªá¡ªá¡ªá¡³":3725,"Ġá¢ĺá¡ªá¡Ńá¡ªá¢ĭ":3726,"Ġá¡³á¡ªá¢ŀá¡¬á¡±á¡±á¡ªá¢Ļá¡§":3727,"Ġá¡¬á¡Ńá¢Ľ":3728,"Ġá¡¥á¡Ńá¡¬á¢ĳá¡Ńá¢Ĭá¡ªá¡«":3729,"Ġá¡¬á¡Ń":3730,"Ġá¡¯á¡ªá¡¬á¡¬á¢ŀá¡ªá¢İá¢Ļá¡ªá¡ªá¡ªá¡³":3731,"Ġá¢Ķá¡Ńá¢ŀá¡Ńá¢ĳá¢ļá¡ªá¢Ľá¡³":3732,"Ġá¡¥á¡Ńá¡¬á¢ŀá¡³":3733,"Ġá¡¸á¡ªá¢Ļá¡ªá¢ĩ":3734,"Ġá¢Įá¡ªá¢Ĭ":3735,"Ġá¢ĭá¡Ńá¡¬á¢ŀá¡³á¡ªá¢Ĳ":3736,"Ġá¢ĺá¡Ńá¡¬á¢ŀá¢Ķá¡³":3737,"Ġá¡¥á¡ªá¢ŀá¢Ķ":3738,"Ġá¡¥á¡ªá¡³á¡ªá¢ļ":3739,"Ġá¢ļá¡ªá¢Ĭá¡ªá¢ŀá¢ĳ":3740,"Ġá¡¯á¡¬á¢ļ":3741,"Ġá¢Ķá¡Ńá¡±á¡Ńá¢Ķá¡Ńá¡±á¡±á¡ªá¡Ńá¡§":3742,"á¡ªá¡±á¡ªá¡±á¡±á¡Ńá¢Ŀ":3743,"á¡ªá¡´á¡Ńá¡Ńá¡§":3744,"á¡¬á¡¬á¡ªá¢Ŀ":3745,"Ġá¡¸á¡ªá¢ŀá¡ªá¡ªá¡ªá¢Ļá¡ªá¡°á¡¨":3746,"Ġá¢Ķá¡ªá¡³á¡ªá¡¨":3747,"Ġá¢ĺá¡ªá¡±á¡±á¡Ńá¢ĳá¡ªá¢Ľá¡³":3748,"Ġá¢ĺá¡ªá¢İá¡ªá¢Ĭá¡ªá¡¨":3749,"Ġá¢ĺá¡ªá¢ĭá¡Ńá¢ĵ":3750,"á¡¯á¡¬á¢Ĭá¡ªá¡§":3751,"Ġá¡¥á¡Ńá¢ŀá¡¬á¢Ļá¡ªá¡³á¡ªá¢Ŀ":3752,"Ġá¢Ļá¡Ńá¢Ĭá¡ªá¢Ŀ":3753,"Ġá¢ĺá¡Ńá¡±á¡±á¡Ńá¡«":3754,"Ġá¡¥á¡ªá¡ªá¢Ĭá¢Ĭá¢ĳá¡«":3755,"Ġá¡¥á¡ªá¡«":3756,"Ġá¢ļá¡ªá¡ªá¡ªá¢Ļá¡ªá¢īá¡¨":3757,"á¡Ńá¡³á¢ļ":3758,"Ġá¡´á¡Ńá¢ĳá¢ļá¡¬á¡ªá¡ªá¡ªá¡ªá¡ªá¢Ķá¡ªá¡§":3759,"Ġá¡¥á¡Ńá¡¬á¢Ĭá¢ĭá¡Ńá¡°á¡¨":3760,"Ġá¢ĺá¡Ńá¢İá¢Ļá¡ªá¡±á¡±á¡Ńá¢Ŀ":3761,"Ġá¢ļá¡¬á¡¬á¡¨":3762,"á¡Ńá¡±á¡±á¡ªá¢Ķá¡³":3763,"Ġá¡¥á¢Ķá¡ªá¢ŀá¢ĭá¡Ń":3764,"á¡¥á¢ŀá¢Ļ":3765,"á¡¥á¡Ńá¡¬á¢Ķ":3766,"Ġá¡¥á¡Ńá¡¬á¢Ĭá¡¬á¡Ńá¡§":3767,"á¢ĺá¡ªá¢Ĳá¡¨":3768,"á¡ªá¡±á¡±á¡ªá¢ŀ":3769,"Ġá¢ĺá¡Ńá¢Ļá¡Ńá¢ŀá¡ªá¡ª":3770,"Ġá¢Ķá¡¬á¢Ļá¡Ńá¢Ĭá¡ªá¡§":3771,"Ġá¡¥á¡ªá¢Ļá¡Ńá¡±á¡±á¡Ńá¡§":3772,"á¢Ķá¡ªá¢ĳ":3773,"Ġá¢ļá¡ªá¡±á¡±á¡ªá¢Ľá¡§":3774,"Ġá¡¸á¡ªá¡´":3775,"á¡¬á¢Ķá¡Ńá¢ĳá¢Ļ":3776,"Ġá¡¸á¡ªá¢ŀá¡¬á¢Ľá¡³":3777,"Ġá¡¥á¡Ńá¢ļá¡¬á¡±á¡±á¡ªá¡Ńá¡§":3778,"Ġá¡¸á¡Ńá¡¬á¡¬á¢ļ":3779,"Ġá¢ļá¡¬á¡Ń":3780,"Ġá¡¥á¢ĭá¡Ńá¢ĳá¡§":3781,"Ġá¡´á¡Ńá¡¬á¢ĭá¡Ńá¢ĳá¡«":3782,"á¡Ńá¢ĳá¡ªá¢ĩ":3783,"á¢ĭá¡Ńá¡¬á¢ĳ":3784,"á¡Ńá¢ļá¡ªá¡§":3785,"Ġá¡¸á¡Ńá¡³á¡¬á¢ŀá¡ªá¢ĳá¢Ļá¡§":3786,"á¡¯á¡ªá¢ŀ":3787,"Ġá¡¸á¡ªá¡¬á¡¬á¢ŀá¡ªá¢ĳá¡ªá¡ªá¡ªá¡³":3788,"Ġá¢Ķá¡¬á¢Ļá¡Ńá¢ŀá¡±á¡±á¡³":3789,"á¡ªá¢ŀá¢Ĭá¡ªá¡§":3790,"Ġá¡³á¡ªá¡ªá¡ªá¢Ķ":3791,"Ġá¡¥á¡Ńá¡¬á¡¬á¢ĳá¡ªá¡Ńá¡ªá¡´á¡Ńá¢ŀá¡¬á¢ĳá¡ªá¢Ĳ":3792,"Ġá¡·á¡Ń":3793,"Ġá¡¥á¡ªá¡³á¢Ļá¡ªá¢ĩ":3794,"Ġá¡¯á¡ªá¢Ķá¡«":3795,"Ġáłłáł¬":3796,"Ġá¢ľá¡¬á¢Ķ":3797,"Ġá¢Ķá¡ªá¢Ĭá¡ªá¢Ĭ":3798,"áł¤áł©áłŃ":3799,"Ġá¢ļá¡¬á¡Ńá¡ªá¢ĭá¡Ńá¢Ŀ":3800,"Ġá¡¬á¡ªá¢ĳá¡±á¡±á¡ªá¢İá¢Ľá¡¬á¢ĳ":3801,"Ġá¢Ķá¡Ńá¢ŀá¡´á¡Ńá¢ĳá¢Ľá¡«":3802,"Ġá¢ĺá¡Ńá¢Ļá¡ªá¡±á¡±á¡³":3803,"á¡ªá¢İá¢Ļá¡ªá¡Ńá¡§":3804,"Ġá¡¥á¡Ńá¢ŀá¡Ńá¢Ķá¡¬á¡§":3805,"Ġá¢Ĭá¡ªá¢Ŀá¡¨":3806,"Ġá¡¯á¡¬á¢ĳá¢ĩá¡¨":3807,"á¡Ńá¡ªá¢Ĭá¡±á¡¬á¡±á¡±á¡Ńá¡Ńá¡§":3808,"á¢Ļá¡ªá¢ĭá¡Ńá¡³":3809,"Ġá¢ľá¡Ńá¢İ":3810,"á¡¬á¢ľá¡§":3811,"Ġá¢Įá¡ªá¢Ļá¡§":3812,"á¡¬á¢ļá¡¬á¡§":3813,"Ġá¡´á¡Ńá¡¬á¢Ļá¡Ńá¢Ĭá¡ªá¢ĭá¡Ń":3814,"Ġáł¡áł¨":3815,"Ġáł¶áłłáłª":3816,"Ġá¢ĺá¡Ńá¡³á¢ļá¡«":3817,"Ġá¢ĺá¡Ńá¡¬á¡³á¢ĳ":3818,"Ġá¡¥á¢Ĭá¡ªá¢ĳ":3819,"á¡¬á¢Ķá¢ĳá¡ªá¢Ĳ":3820,"çļ":3821,"Ġá¡¯á¡ªá¡¬á¡¬á¢ļ":3822,"Ġá¢ĺá¡ªá¢ŀá¡¬á¢ľá¡ªá¢ĳá¡ªá¡ªá¡¬á¡¨":3823,"Ġá¡¥á¡Ńá¡Ńá¡±á¡±á¡Ńá¢Ľá¡³":3824,"á¢Ĭá¡ªá¡¬á¡¨":3825,"Ġá¢Ļá¡Ńá¡¬á¡ªá¢Ĭá¡±":3826,"Ġá¡³á¡ªá¡¬á¡¬á¡§":3827,"Ġá¢ĺá¡ªá¡¬á¡¬á¡´á¡Ńá¡ªá¡¬á¡¨":3828,"Ġá¡¯á¡ªá¡±á¡±á¡ªá¢ļá¡³":3829,"á¡ªá¡¬á¡¬á¢ŀá¡ªá¡§":3830,"Ġá¡¬á¡ªá¡ª":3831,"á¡ªá¢İá¡³á¡ªá¡¨":3832,"Ġá¢Ķá¡ª":3833,"Ġá¡¥á¡Ńá¡¬á¢Ľá¡ªá¢İá¢Ľá¡«":3834,"á¡Ńá¡±á¡±á¡Ńá¢ĳá¡«":3835,"Ġáł¬áł¦áł·":3836,"á¡¬á¢ľá¡ªá¡ªá¡ªá¢Ķá¡ªá¡§":3837,"Ġá¡¸á¡Ńá¢Ļá¡ªá¢ĳá¢Ļá¡Ńá¡§":3838,"á¡ªá¢ĭá¡Ńá¢ĳá¢Ļá¡ªá¡¬á¡¨":3839,"Ġá¡¥á¢İá¡Ńá¡±á¡ªá¢Ļá¡³":3840,"ÑįÐ³":3841,"Ġá¡¥á¢ĳá¡³á¡ªá¡¬á¡¨":3842,"á¡¬á¡ªá¡ªá¢Ķá¡ªá¡±á¡±á¡ªá¢Ŀ":3843,"12":3844,"Ġá¢ļá¡¬á¢Ĭá¢ĳá¡ªá¢Ĳ":3845,"Ġá¢ĭá¡Ńá¡¬á¢ŀá¢Ĭá¡ªá¡§":3846,"Ġá¢ļá¡¬á¢İá¡ªá¡¬á¡«":3847,"á¡³á¡ªá¡ªá¡ªá¢Ķá¡«":3848,"ĠáłĪ":3849,"á¢Łá¢Ĳ":3850,"Ġáł¡áł´áł¡":3851,"Ġá¢ĺá¡ªá¡¬á¡¬á¢ĳá¡´á¡Ńá¢ŀá¡«":3852,"á¢ĺá¡ªá¢Ĭá¢ŀá¡«":3853,"Ġî":3854,"Ð°Ð°":3855,"Ġá¡¥á¡Ńá¡¬á¢ŀá¢ĭá¡Ńá¢ĳá¢Ľá¡¬á¢ĳá¡ªá¡§":3856,"Ġá¡¬á¡Ńá¡¬á¡ªá¡¬á¡¨":3857,"Ġá¢ĭá¡Ńá¡¬á¡¬á¢ļá¡ªá¡Ńá¡§":3858,"áłłáł²":3859,"á¡¬á¡ªá¡ªá¢Ļá¡ªá¡ªá¡ªá¢Ķá¡ªá¡§":3860,"Ġá¡¸á¡ªá¢ļá¡¬á¡§":3861,"á¡Ńá¢ĳá¢Ļá¡³":3862,"Ġá¡¥á¡¬á¡±á¡¬á¢ľá¡ªá¢Ļá¡³":3863,"Ġá¡¸á¡Ńá¢ŀá¢Ķ":3864,"Ġá¢Īá¡ªá¡³á¡¬á¡«á¡¨":3865,"Ġá¡¥á¡ªá¢İá¢Ķ":3866,"á¢ĺá¡Ń":3867,"Ġá¢ĺá¡ªá¢İá¡ªá¢īá¡¨":3868,"á¡ªá¢Ĭá¢Ļá¡³":3869,"Ġá¢ĭá¡Ńá¡¬á¢Ĭá¢Ľá¡¬á¢ĭá¡Ńá¢ĳá¢ĭá¡Ń":3870,"Ġá¡¥á¢ŀá¢ĭá¡Ńá¡§":3871,"Ġá¢ĺá¡Ńá¡³á¢ļá¡¬á¡«á¡¨":3872,"Ġá¡¥á¡ªá¢Ķá¡ªá¡±á¡±á¡Ńá¡ªá¡ªá¡³":3873,"á¡ªá¢Ķá¡Ńá¢Ļá¡³":3874,"Ġá¢ĺá¡ªá¢İá¢Ľá¡¬á¢Ľá¡³":3875,"á¢ĺá¡Ńá¡¬á¢ŀá¡³":3876,"á¡ªá¡±á¡±á¡ªá¢Ļá¡ªá¡§":3877,"Ġá¢ĭá¡Ńá¡¬á¢ļá¡Ńá¢Ļá¡ªá¡«":3878,"Ġá¡¸á¡Ńá¡¬á¡¬á¢ļá¡¬á¢ĵ":3879,"á¡¥á¢Ļá¡Ńá¢Ŀ":3880,"Ġá¡³á¡ªá¢ŀá¡¬á¢ĳá¢īá¡¨":3881,"á¡¥á¡Ńá¡¬á¡ªá¢Ĭá¢Ĭ":3882,"Ġá¡³á¡ªá¢ŀá¡ªá¡ªá¡ªá¢Ķá¡ªá¡§":3883,"Ġá¡¥á¡Ńá¢ŀá¡Ńá¢ĳá¢ļá¡ªá¡ªá¡ªá¡³":3884,"á¡ªá¡±á¡±á¡Ńá¢ĳá¡Ńá¢ĳá¢Ļá¡§":3885,"Ġá¢ļá¡Ńá¡ªá¡ªá¢ļ":3886,"Ð¾Ð½":3887,"Ġá¢Įá¢Łá¢ĺá¢Ŀ":3888,"Ġáłªáł£áł¯áł":3889,"Ġá¢ĺá¡ªá¡ªá¢Ĭá¢Ļá¡§":3890,"á¢Ķá¡ªá¢Ŀá¡¨":3891,"á¡¥á¡Ńá¡¬á¡«á¡¨":3892,"Ġá¡¥á¡Ńá¡¬á¢ŀá¡Ńá¢Ĭá¡ªá¡§":3893,"Ġá¢ĺá¡ªá¡´á¡Ńá¢Ļá¡Ńá¡±á¡±á¡ªá¢Ŀ":3894,"Ġá¡³á¡ªá¢ĳá¡ªá¡Ńá¡ªá¢Ĭá¡ªá¢Ĳ":3895,"á¡ªá¢Ĭá¡±":3896,"Ġá¡¸á¡ªá¡³á¢Ķá¡Ńá¢ŀ":3897,"Ġá¡¥á¡Ńá¢ŀá¡Ńá¡ªá¡ªá¢Ķ":3898,"Ġá¡¯á¡Ńá¡¬á¢ĳá¡Ńá¢Ĭ":3899,"Ġá¡³á¡ªá¢Ļá¡ªá¢ĩ":3900,"áł¢áłµ":3901,"Ġá¢ĺá¡ªá¡³á¢ļá¡ªá¡ªá¡¬á¡¨":3902,"áł¤áł®áł³":3903,"Ġá¢ĺá¡ªá¡±á¡±á¡ªá¢ŀá¡ªá¡°á¡¨":3904,"Ġáł¶áł¤áł®":3905,"Ġá¡¥á¡ªá¡±á¡±á¡ªá¢Ľ":3906,"Ġá¢Įá¡ªá¢ĳá¡ªá¡±á¡±á¡ªá¡«":3907,"Ġá¡¥á¡Ńá¢İá¡ªá¢ŀá¡ªá¢Ļá¡³":3908,"á¡ªá¢ŀá¡ªá¡±á¡±á¡Ńá¢ĳá¡ªá¡ªá¡³":3909,"Ġá¡¬á¡Ńá¡±á¡±á¡ªá¢ļ":3910,"Ġá¡¬á¡Ńá¢Ĭá¡¬á¢ľá¡ªá¡ªá¡ªá¢ļá¡«":3911,"á¡Ĵ":3912,"á¡Ńá¢ŀá¢Ľá¡¬á¡§":3913,"Ġá¡¥á¢ĳá¡¬á¢Ĭá¡ªá¡¨":3914,"ĠáłŃáłłáł·":3915,"á¢ļá¡ªá¡¬á¡¨":3916,"Ġá¡¥á¡ªá¢Ļá¡Ńá¡±á¡±":3917,"á¡ªá¢ĳá¡ªá¡³á¡ªá¡¨":3918,"á¡¬á¢ŀá¡¬á¢Ĳ":3919,"Ġá¡¥á¡ªá¢§á¡¬á¡«á¡¨":3920,"á¡ªá¢ŀá¢Ľ":3921,"á¡ªá¡ªá¢Ĭá¢Ľá¡Ńá¡§":3922,"á¡ªá¢ĳá¡±á¡±á¡ªá¡§":3923,"á¡Ńá¢Ļá¡ªá¢Ĭá¡ªá¢Ŀ":3924,"²áłł":3925,"Ġá¢Įá¡ªá¡ªá¡ªá¡ªá¡´á¡Ńá¡Ńá¡§":3926,"Ġáł¯":3927,"á¢ĺá¡Ńá¢İá¢Ļá¡ªá¢Ļá¡³":3928,"á¡¸á¡ªá¢İá¡Ńá¢ĩ":3929,"Ġáłªáł¦áł¬":3930,"Ġá¢ļá¡ªá¢ĳá¡¬á¡ªá¡¬á¡¨":3931,"áł©áłŃ":3932,"á¡¥á¡Ńá¡±":3933,"á¡ªá¢Ļá¡ªá¡ªá¡ªá¡³":3934,"Ġá¢Įá¡Ńá¡¬á¢ļá¡¬á¢Ŀ":3935,"á¡Ńá¢ļá¡¬á¢ĳá¡ªá¡§":3936,"Ġá¢Ķá¡Ńá¢Ŀ":3937,"á¡¥á¡Ńá¡¬á¡´á¡Ńá¢Ŀ":3938,"á¡ªá¡ªá¡ªá¢Ļá¡ªá¢Ĳ":3939,"Ġá¡¥á¡ªá¢ŀá¡¬á¢Ĭá¡¬á¡§":3940,"á¢Ķá¡Ńá¢ľ":3941,"á¡³á¡ªá¡«":3942,"Ġá¢Ķá¡Ńá¡±á¡¬á¢ŀá¡ªá¡ªá¡ªá¢Ĳ":3943,"Ġá¢ĺá¡ªá¢ĳá¢Ļ":3944,"áł¢áł¬áł¤":3945,"áł¡áłŃáł°áł¡áł¨":3946,"á¡ªá¢ĳá¡Ńá¡§":3947,"ÑĮ":3948,"Ġá¡¬á¡Ńá¡¬á¢ļá¡Ńá¢Ĭá¡ªá¡¨":3949,"á¢Ķá¡¬á¢ĩ":3950,"Ġá¢Ķá¡¬á¡ªá¢Ľá¡¬á¢ĳá¡ªá¢Ĭá¡ªá¡§":3951,"á¢ĺá¡ªá¢ĳá¡ªá¢Ĭá¡ªá¡«":3952,"á¢ļá¡¬á¢Ļ":3953,"Ġá¢ĺá¡Ńá¡¬á¢ŀá¡Ńá¢Ľá¡³":3954,"Ġá¡¥á¢Ķá¡ªá¡³á¡ªá¢Ĳ":3955,"Ġá¢Ķá¡ªá¢ŀá¡ªá¢Ĳ":3956,"Ġá¡¥á¡Ńá¢ŀá¢Ĭá¡¬á¢Ĳ":3957,"Ġáł°áł¢áł¨":3958,"á¡¯á¡¬á¢Ĭ":3959,"Ġá¡³á¡¬á¢Ŀ":3960,"Ġá¡¥á¡Ńá¡ªá¡ªá¢Ķá¡ªá¢īá¡¨":3961,"Ġá¡³á¡ªá¢ŀá¢ĵ":3962,"Ġá¢ıá¡ªá¡²":3963,"Ġá¢Ķá¡ªá¢ľá¡¬á¡ªá¡ªá¡ªá¡§":3964,"Ġá¡¥á¡Ńá¡¬á¢Ľá¡ªá¢ĭá¡Ńá¢ĳá¢Ľá¡³":3965,"Ġá¢Ķá¡ªá¡±á¡±á¡Ńá¢Ļá¡ªá¢Ĳ":3966,"Ġá¢ĺá¡ªá¢İá¡ªá¢ļá¡ªá¢Ĳ":3967,"á¡Ńá¢ŀá¢Ķ":3968,"Ġá¡¥á¡Ńá¢ŀá¡Ńá¢Ķá¡¬á¡ªá¡ªá¡³":3969,"á¡ªá¡ªá¢Ĭá¢ĭá¡Ńá¡«":3970,"Ġá¢Ķá¡Ńá¢ĳá¡¬á¢ĳá¢ļ":3971,"á¡±á¡«":3972,"á¢ľá¡ªá¡±á¡±á¡ªá¢Ĭ":3973,"Ġá¡¥á¢ĳá¢ĭ":3974,"á¢ĭá¡Ńá¡¬á¡³":3975,"á¢ĺá¡Ńá¡¬á¢ĳ":3976,"Ġá¢ĺá¡Ńá¡ªá¡ªá¢Ļá¡ªá¡±á¡±":3977,"á¡¥á¡ªá¢ŀá¡³á¡ªá¡§":3978,"Ġá¡´á¡Ńá¢ĳá¡³á¡ªá¢Ĳ":3979,"Ġá¡¥á¢Ĭá¡¬á¢ĳá¡ªá¢ĭá¡Ń":3980,"Ġá¢Įá¡ªá¡¬":3981,"Ġá¢Īá¡ªá¢ŀá¡±á¡±á¡ªá¡§":3982,"çļĦ":3983,"Ġá¢ļá¡ªá¡¬á¡¬á¢ĳ":3984,"Ġá¡¬á¡Ńá¢Ĭá¡¬á¢ľá¡ªá¢ĳá¢ļá¡¬á¡Ńá¡§":3985,"Ġá¡¥á¡Ńá¢ľá¡Ńá¢Ļá¡ªá¡§":3986,"Ġá¡¥á¡Ńá¡ªá¢Ļá¡Ńá¡³":3987,"á¡¬á¢ĭá¡Ńá¢Ĳ":3988,"Ġá¢ĺá¡ªá¡±á¡±á¡ªá¡±á¡±á¡Ńá¢ĳá¢Ľá¡³":3989,"áł¦áł¯áł¬":3990,"á¡ªá¢ĳá¢ļá¡«":3991,"Ġá¡´á¡Ńá¡¬á¢Ķá¡§":3992,"Ġá¡¸á¡Ńá¡Ńá¢ŀ":3993,"Ġá¢ĺá¡Ńá¢ĳá¡Ńá¢īá¡¨":3994,"Ġá¡¸á¡ªá¡±á¡±á¡Ńá¢Ļá¡ªá¢Ķá¡³":3995,"Ġá¡¥á¡Ńá¢ŀá¡Ńá¡±á¡±á¡Ńá¢Ĳ":3996,"Ġá¡¥á¢ŀá¢Ļá¡ªá¢İá¢Ļá¡ªá¡Ńá¡§":3997,"Ġá¡¬á¡ªá¡³á¢Ķá¡ªá¡¬á¡¨":3998,"á¡¬á¡¬á¡ªá¢ĭá¡Ń":3999,"á¡¥á¡Ńá¡¬á¢Ĭá¡ªá¡¨":4000,"ÑįÐ´":4001,"á¡³á¡¬á¢Ļá¡§":4002,"Ġá¡¯á¡ªá¡³á¢ļá¡«":4003,"á¡ªá¢ĭá¡Ńá¢ĳá¡ªá¢Ŀ":4004,"Ġ),":4005,"á¡Ńá¡¶á¡ªá¡¨":4006,"Ġá¡³á¡ªá¡¬á¡¬á¡±á¡±á¡Ńá¢ĳá¢īá¡¨":4007,"á¡Ńá¢ĳá¢Ļá¡Ńá¡±á¡±á¡ªá¡§":4008,"Ġá¡¬á¡ªá¢ĳá¡ªá¡±á¡±á¡Ńá¢ĵ":4009,"Ġá¢Ķá¡ªá¡¬á¡¬á¢Ļá¡ªá¡«":4010,"Ġá¡¥á¡Ńá¡¬á¢ŀá¡¬á¢Ķá¡Ńá¢ĳá¢Ļ":4011,"Ġá¢Įá¡ªá¢Ļá¡ªá¢Ĭá¡ªá¢Ľá¡«":4012,"á¢Łá¢ĺá¢Ŀ":4013,"Ġá¢Īá¡ªá¡ªá¡¬á¡¨":4014,"Ġá¢ĺá¡ªá¢İá¡ªá¢ļá¡ªá¢Ĭá¡ªá¡§":4015,"Ġá¡¯á¡¬á¢Ĭá¡ªá¢Ļá¡Ńá¢Ĳ":4016,"á¡Ńá¢Ļá¡ªá¡ªá¡ªá¡³":4017,"á¢Įá¡Ńá¡¬á¢ŀ":4018,"Ġá¢Īá¡ªá¢ŀá¡Ńá¡§":4019,"Ġá¢Įá¡ªá¡±á¡ªá¡¬":4020,"Ġá¢ıá¡ªá¡³":4021,"Ġá¡¥á¡ªá¢Ĭá¡±":4022,"Ġá¢Ķá¡¬á¡³á¡ªá¡±á¡±á¡Ńá¡Ńá¡§":4023,"Ġá¡¥á¢ĳá¡¬á¢Ĭá¡ªá¡§":4024,"Ġá¢ļá¡¬á¢ŀá¢İá¡ªá¡¬":4025,"Ġá¡¥á¡ªá¡³á¢ļá¡¬á¢ŀá¡ªá¢Ľá¡³":4026,"Ġá¡¥á¡³á¡ªá¢Ķá¡Ńá¡§":4027,"Ġá¡¥á¡Ńá¡´á¡Ńá¡ªá¡ªá¢Ļá¡³":4028,"Ġá¡¥á¡ªá¡±á¡±á¡Ńá¢ĳá¡ªá¢ĵ":4029,"Ġá¡¬á¡Ńá¡ªá¡ªá¢Ķá¡Ńá¡±á¡±":4030,"Ġá¡¸á¡ªá¢ŀá¡¬á¢ĳá¢ļá¡ªá¢īá¡¨":4031,"á¡ªá¢ĭá¡Ńá¢ĳá¢Ĭá¡ªá¡¨":4032,"Ġá¡´á¡Ńá¢ŀá¡Ńá¡±á¡±":4033,"Ġá¢ĭá¡Ńá¡¬á¡ªá¡¬á¡¨":4034,"Ġá¢ĺá¡Ńá¢ŀá¡ªá¢ĳá¡ªá¢Ĳ":4035,"Ġá¢ĺá¡Ńá¡¬á¢ĳá¡Ńá¢Ĭ":4036,"Ġá¡¥á¡Ńá¡¬á¢ĭá¡Ńá¢ĳá¡ªá¢Ĳ":4037,"á¡¬á¢ĳá¢Ļá¡³":4038,"Ġá¡¯á¡Ńá¡¬á¢İ":4039,"Ġá¢ľá¡Ńá¢İá¢Ķá¡ªá¡§":4040,"Ġá¢Ĭá¡¬á¡°á¡¨":4041,"Ġá¡¥á¢Ĭá¡ªá¢Ĳ":4042,"Ġá¡¥á¡Ńá¢ļá¡¬á¡ªá¡ªá¢Ķá¡ªá¡§":4043,"á¡´á¡Ńá¡³":4044,"Ġá¢ľá¡ªá¡´á¡Ńá¢ļá¡¬á¡ªá¡ª":4045,"Ġá¢Įá¡ªá¢ĳá¢Ľá¡¬á¢Ĳ":4046,"á¡Ńá¡ªá¢Ļá¡Ńá¢ĩ":4047,"Ġá¡´á¡Ńá¢ĳá¡ªá¡«":4048,"Ġá¢¤á¡¬á¢ĳ":4049,"Ġá¢ľá¡ªá¢Ĭá¡ªá¢Ļá¡§":4050,"á¡³á¡ªá¢Ļ":4051,"Ġ/":4052,"á¢Ķá¡ªá¡¬á¡¬á¡§":4053,"Ġá¡¸á¡ªá¢ŀá¡±á¡±":4054,"Ġá¡¸á¡ªá¡ªá¢Ĭ":4055,"Ġá¡¸á¡Ńá¢ŀá¡¬á¡ª":4056,"Ġáł¡áł¬":4057,"Ġá¢ĺá¡ªá¡±á¡ªá¡¬á¡¨":4058,"Ġáł¬áł¡áł·áł¡áłŃ":4059,"Ġá¢Ķá¡ªá¡ªá¢Ĭ":4060,"á¡ªá¡ªá¢İ":4061,"Ġá¢ĺá¡ªá¡Ńá¡ªá¡ªá¡ªá¡ªá¢Ĳ":4062,"á¡ªá¢ĳá¡ªá¢Ļá¡ªá¡¬á¡¨":4063,"á¡ªá¡±á¡±á¡ªá¢ŀá¢Ļ":4064,"Ġá¡¸á¡Ńá¡´á¡Ńá¢Ŀ":4065,"á¡Ńá¢Ķá¡¬á¢Ļá¡ªá¡«":4066,"Ġá¢ĺá¡ªá¢Ķá¡Ńá¢ĳ":4067,"Ġá¡¬á¡Ńá¢ŀá¡¬á¡ªá¡ªá¢Ľ":4068,"á¡ªá¢Ĭá¢ļá¡§":4069,"á¡ªá¡±á¡±á¡Ńá¢ŀá¡«":4070,"Ġá¢ļá¡ªá¢Ķá¡Ńá¡§":4071,"Ġá¡³á¡ªá¡±á¡±á¡Ńá¢Ļá¡ªá¢Ĳ":4072,"åı":4073,"á¡´á¡Ńá¢ĳá¡Ńá¡ªá¡ªá¢Ķá¡ªá¡§":4074,"Ġá¡¯á¡ªá¡¬á¡¬á¢Ķá¢ĳá¡ªá¢Ĳ":4075,"Ġá¢Įá¡ªá¢ŀá¢Ĭá¡ªá¡Ńá¡§":4076,"Ġá¡¬á¡ªá¢ĭá¡Ń":4077,"Ġá¢ļá¡Ńá¡Ńá¢ŀ":4078,"Ġá¢ĺá¡ªá¡³á¡ªá¢īá¡¨":4079,"Ġá¡¥á¡ªá¡±á¡±á¡Ńá¢Ľ":4080,"Ġá¡¥á¡Ńá¢ĳá¡ªá¡±á¡±á¡ªá¡ªá¡ªá¡ªá¡ªá¢Ļá¡§":4081,"Ġá¡³á¡ªá¢ĳá¡§":4082,"á¡Ńá¢İá¢Ľá¡¬á¢Ļá¡ªá¡«":4083,"Ġá¡³á¡ªá¢ļ":4084,"Ġá¢Ĭá¡ªá¢ŀá¡ªá¢ĳá¢Ļ":4085,"Ġá¡¬á¡ªá¡ªá¢Ĭá¢Ľá¡Ńá¡§":4086,"Ġá¢ĺá¡ªá¡±á¡ªá¢Ŀ":4087,"Ġá¡¬á¡¬á¢ŀá¡Ńá¢İ":4088,"á¢Ķá¡Ńá¡¬":4089,"Ġá¢ĺá¡ªá¡Ńá¢ĳá¡ªá¡«":4090,"Ġá¢ĺá¡Ńá¢Ķá¢ļá¡³":4091,"Ġá¡¬á¡Ńá¡ªá¡ªá¢Ķá¡Ńá¡ªá¡ªá¡³":4092,"Ġ3":4093,"á¡Ńá¢ŀá¡ªá¢ĩ":4094,"á¡ªá¢İá¡ªá¡±á¡±á¡ªá¡«":4095,"Ġá¡¥á¡¬á¢Ļá¡ªá¢Ĭá¡ªá¢ĳá¢Ļá¡³":4096,"Ġá¡³á¡ªá¢ŀá¡¬á¡ªá¡ªá¢Ķá¡ªá¡§":4097,"á¢Ķá¡¬á¢Ĳ":4098,"Ġá¡¸á¡ªá¢ŀá¡¬á¢ľá¡ªá¢Ļá¡³":4099,"á¡ªá¢ŀá¡±á¡±á¡Ńá¡«":4100,"á¡ªá¢Ĭá¢Ļá¡ªá¢ĭá¡Ńá¡§":4101,"á¡ªá¡±á¡±á¡ªá¡¬á¡¬á¢ĳá¡ªá¡§":4102,"á¢ĭá¡Ńá¡¬á¢Ķ":4103,"á¡Ńá¡¬á¡¬á¢ĳá¡ªá¢Ĳ":4104,"á¡¥á¡ªá¡¬":4105,"Ġá¡´á¡Ńá¢ŀá¡Ńá¢ĳ":4106,"á¡¬á¢Ķá¢Ĭá¡ªá¢Ŀ":4107,"Ġá¡´á¡Ńá¡¬á¢Ľá¡¬á¡¬á¡¨":4108,"á¡´á¡Ńá¡¬á¢Ĭ":4109,"Ġá¡¬á¡¬á¢İá¡¬á¢ĵ":4110,"á¡ªá¡±á¡±á¡Ńá¢ĳá¡³á¡ªá¡¨":4111,"Ġá¢Ķá¡ªá¡±á¡±á¡Ńá¢Ļá¡ªá¢ĩ":4112,"á¢£":4113,"Ġá¡´á¡Ńá¡¬á¢ĭá¡Ńá¡¬á¡¬á¢ĳá¡§":4114,"á¢ĳá¡ªá¡ªá¡ªá¢Ķá¡ªá¡§":4115,"Ġá¡¯á¡¬á¢Ĭá¡ªá¢ļá¡§":4116,"ÑįÐ¹":4117,"Ġá¢ľá¡ªá¢İá¡ªá¢ŀ":4118,"Ġá¢Ĭá¡ªá¢İá¢Ľ":4119,"Ġáł¢áł¶áłłáł·":4120,"Ġá¢Īá¡Ńá¡Ńá¢ĳá¢Ļá¡ªá¡±á¡±á¡³":4121,"Ġá¢ĺá¡ªá¡³á¡ªá¡ªá¡Ńá¢Ŀ":4122,"ĠáłªáłłáłŃ":4123,"á¡ªá¡±á¡±á¡ªá¢į":4124,"ĠÐ¼":4125,"Ġá¡³á¡ªá¡¬á¡¬á¢ĳá¢ĭá¡Ńá¡«":4126,"Ġá¡¬á¡¬á¢ĳá¡Ńá¡±á¡±á¡Ńá¡Ń":4127,"Ġáłªáł¡áł·":4128,"Ġáł³áł¦":4129,"Ġá¢ĺá¡Ńá¡±á¡±á¡Ńá¢Ķá¡³":4130,"Ġá¡¥á¡Ńá¡¬á¡³á¡ªá¢ŀá¢İ":4131,"Ġá¡³á¡ªá¡±á¡±á¡ªá¢ļá¡Ńá¡Ńá¡§":4132,"áł¢áł¶áłłáł¨":4133,"á¡³á¡ªá¡±á¡±á¡ªá¢Ļá¡Ńá¢Ŀ":4134,"á¡Ńá¢Ļá¡ªá¡Ńá¡§":4135,"Ġá¡³á¡ªá¢ĩ":4136,"Ġáł¡áł³":4137,"Ġá¢ļá¡Ńá¡ªá¡ªá¢ĳá¡ªá¡±á¡±á¡ªá¡§":4138,"Ġá¢Ķá¡Ńá¡¬á¢İ":4139,"Ġá¡¥á¡Ńá¡¬á¢ŀá¢ĭ":4140,"Ġá¡¬á¡ªá¡ªá¡ªá¡´á¡Ńá¢Ŀ":4141,"á¢ĺá¡Ńá¢ĵ":4142,"á¡¥á¡ªá¡ªá¢Ĭ":4143,"Ġá¡´á¡Ńá¡¬á¢ĭá¡Ńá¢Ļá¡ªá¢Ĭá¡ªá¢Ŀ":4144,"Ġá¡¬á¡Ńá¡¬á¡³á¢ĳá¡ªá¢ĳá¢Ļá¡³":4145,"Ġá¢ĺá¡ªá¢İá¡Ńá¢Ľá¡¬á¡§":4146,"á¡Ńá¡¬á¡¬á¢Ľá¡³":4147,"Ġáł²áł¤":4148,"Ġá¡¥á¡Ńá¡¬á¢ŀá¡Ńá¢Ĭá¡ªá¡¨":4149,"áł£áł¨":4150,"á¡ªá¢ĳá¡ªá¢İá¢Ľá¡«":4151,"Ġá¢ļá¡Ńá¡ªá¡ªá¢ļá¡§":4152,"á¡¸á¡ªá¡±á¡±":4153,"Ġá¡¸á¡Ńá¢Ĭ":4154,"Ġá¡¥á¡ªá¢ĳá¢Ļá¡ªá¡ªá¡ªá¡³":4155,"á¡´á¡Ńá¢ŀá¡ªá¡ªá¡ªá¡§":4156,"Ġá¡³á¡ªá¡ªá¢Ĭá¢Ĭá¡¬á¡¦":4157,"Ġá¢Ķá¡¬á¢Ļá¡³":4158,"á¡Ńá¡¬á¢ĺá¡¦":4159,"Ġá¢Ĭá¡ªá¢Ļá¡Ńá¢ŀ":4160,"Ġá¡¸á¡ªá¢ŀá¡ªá¢ĳá¢Ļá¡§":4161,"á¡Ńá¢ĭá¡Ńá¢ĳá¢Ľá¡³":4162,"Ġá¢Ķá¡¬á¢Ĭá¡¬á¢Ŀ":4163,"á¡¬á¡ªá¡ªá¡ªá¡³á¡ªá¡¨":4164,"ĠáłłáłŃ":4165,"Ġá¡¥á¡Ńá¢Ļá¡ªá¢Ķá¡Ńá¡§":4166,"Ġá¢ĺá¡ªá¢İá¡ª":4167,"á¡¬á¢ŀá¢īá¡¨":4168,"Ġá¡¥á¡Ńá¡ªá¢Ĭá¢Ķá¡¬á¢ĳá¢īá¡¨":4169,"Ġá¡³á¡ªá¢ŀá¢Ļ":4170,"Ġá¡¯á¡ªá¡ªá¢Ļá¡¬á¡§":4171,"á¡ªá¡³á¡ªá¡±á¡±á¡ªá¢Ļá¡Ńá¢Ŀ":4172,"Ġáł²áł¤áłŃ":4173,"á¢ĺá¡³":4174,"ĠÑĥ":4175,"ÑĥÑĢ":4176,"Ġá¡¥á¡Ńá¡¬á¡³á¡ªá¢ŀá¢İá¡¬á¢ļá¡§":4177,"Ġá¡´á¡Ńá¡¬á¢İá¡´á¡Ńá¢Ĭá¡ªá¡¨":4178,"Ġá¡¥á¡Ńá¢İá¢Ļ":4179,"Ġá¡¥á¡³á¡ªá¡Ńá¡ªá¢ļ":4180,"á¡¬á¢ĭá¡Ńá¡Ńá¡§":4181,"Ġá¡¥á¡Ńá¡¬á¢Ĭá¡ªá¢Ļ":4182,"á¡¥á¡ªá¢Ľá¡¬á¢Ĳ":4183,"Ġá¢ĺá¡ªá¢Ķá¡ªá¡ªá¡ªá¢Ĳ":4184,"á¡¥á¢ĭ":4185,"Ġá¡¥á¡Ńá¡±á¡ªá¡ªá¡ªá¢Ķá¡ªá¡§":4186,"ĠâĢĶ":4187,"á¢ĺá¡Ńá¡¬á¢İ":4188,"Ġá¢ĺá¡Ńá¡±á¡±á¡Ńá¢Ĳ":4189,"á¢¥":4190,"Ġá¡´á¡Ńá¡¬á¢Ļá¡Ńá¢Ĭá¡ªá¢Ĭá¢Ķá¡ªá¡§":4191,"Ġá¢ļá¡¬á¡³á¡ªá¢īá¡¨":4192,"Ġá¡¸á¡Ńá¢İ":4193,"á¡¬á¢İá¡ªá¡§":4194,"Ġá¢Ķá¡¬á¢ŀá¡ªá¢Ĭá¡ªá¡¨":4195,"Ġá¡¯á¡ªá¡³":4196,"Ġá¡¥á¡Ńá¢Ļá¡Ńá¢īá¡¨":4197,"á¡ªá¢ĭá¡Ńá¢Ĭá¡ªá¡§":4198,"Ġá¡³á¡ªá¢ĩá¡¨":4199,"Ġá¡¥á¡ªá¢ŀá¡ªá¢Ķá¡³":4200,"á¡¸á¡ªá¡¬á¡¬á¢ŀ":4201,"á¡ªá¡Ńá¡ªá¡ªá¡ªá¡ªá¢Ľá¡³":4202,"Ġá¡¥á¡Ńá¡¬á¢ļá¡Ńá¢Ĭá¡ªá¢Ļá¡Ńá¢Ŀ":4203,"á¡Ńá¢ŀá¢Ĭá¡ªá¡«":4204,"á¡ªá¢ŀá¡ªá¡±á¡±á¡Ńá¢ĳá¢Ľá¡³":4205,"Ġá¡¸á¡ªá¡³á¡¬á¡¦":4206,"Ġá¡³á¡ªá¡ªá¡ªá¡ªá¡§":4207,"Ġá¢Ķá¡ªá¡±á¡ªá¡ªá¡ªá¢Ķá¡ªá¡§":4208,"Ġá¢Ķá¡ªá¡ªá¡ª":4209,"Ġá¢ĺá¡Ńá¢Ķá¡Ńá¡§":4210,"Ġá¡¥á¢ĭá¡Ńá¢Ŀ":4211,"Ġá¢Ĭá¡ªá¢Ľá¡¬á¢Ĭá¡ªá¡¨":4212,"Ġá¡¥á¡ªá¢ŀá¢Ķá¢ĳá¡ªá¡§":4213,"Ġáł¨áłłáł®":4214,"Ġá¡³á¢ĳ":4215,"Ġá¡¥á¡ªá¢İá¢Ļá¡§":4216,"Ġá¡¯á¡¬á¢Ĭá¡ªá¢Ļá¡Ńá¢Ĭá¢Ķá¡ªá¡§":4217,"Ġá¢ĭá¡Ńá¡¬á¡ªá¢Ĭá¢Ĭá¡ªá¡§":4218,"á¡ªá¡ªá¡ªá¢Ķá¡ªá¡Ńá¡§":4219,"Ġáł¬áł¦áł®áł¦áł¨":4220,"Ġá¢Įá¡Ń":4221,"á¡ªá¡ªá¡ªá¡³á¡ªá¢Ĳ":4222,"á¡Ńá¢İá¡ªá¡ªá¡ªá¢ļá¡§":4223,"Ġá¡¥á¡Ńá¢ŀá¢Ļá¡Ńá¢ĵ":4224,"á¡´á¡Ńá¢ĵ":4225,"á¡¥á¡Ńá¢ŀá¡Ńá¡§":4226,"Ġá¡´á¡Ńá¢ĳá¡Ńá¡ªá¡¬á¡¨":4227,"áł¤áłŃáł°áłłáł¨":4228,"Ġá¡¶á¡¬á¡ªá¡¬á¡¨":4229,"Ġá¡¥á¡¬á¢ĳá¡ªá¢ŀá¡ªá¢Ĳ":4230,"á¡ªá¢Ķá¡Ńá¢Ļá¡ªá¡§":4231,"Ġá¡¥á¡Ńá¡´á¡Ńá¢Ŀ":4232,"Ġá¡¸á¡ªá¡Ńá¡ªá¡ªá¡ª":4233,"áł¤áł¯áłŃ":4234,"Ġá¡´á¡Ńá¢Ļá¡Ńá¢ĳá¢Ĭ":4235,"áł¡áłµ":4236,"Ġáł¦áł¢áł¯":4237,"Ġá¢Įá¡Ńá¢Ļ":4238,"á¡ªá¢ĳá¢ļá¡¬á¡§":4239,"Ġá¢ĺá¡Ńá¡ªá¡ªá¡ªá¡¬á¡¬á¢ĳ":4240,"á¡¬á¢ľá¡ªá¢ŀá¡«":4241,"á¡¥á¡Ńá¡¬á¡±á¡ªá¡§":4242,"Ġá¢ĺá¡ªá¢ŀá¡¬á¢ľá¡ªá¡§":4243,"á¡ªá¢ĭá¡Ńá¡¬á¡¬á¢ļ":4244,"Ġá¡¥á¡Ńá¢ŀá¡¬á¡Ńá¡§":4245,"Ġáł¡áł®":4246,"á¡Ńá¢ŀá¡ªá¡ªá¡ªá¡³":4247,"á¡ªá¡¬á¡¬á¢Ķ":4248,"Ġá¢ĺá¡ªá¡³á¡¬á¢Ķá¢Ĭá¡ªá¢Ŀ":4249,"á¢ĭá¡Ńá¡¬á¢İá¡Ńá¢ĵ":4250,"á¡ªá¢ŀá¢ĳá¡ªá¡§":4251,"Ġá¢ļá¡ªá¢Ĭá¡ªá¢Ľá¡«":4252,"Ġá¢ĺá¡Ńá¡Ńá¢Ŀ":4253,"á¡ªá¡±á¡±á¡ªá¢ļá¡«":4254,"Ġá¡¯á¡¬á¢İ":4255,"Ġáł¬áł¥":4256,"Ġá¢ĭá¡Ńá¡¬á¢Ķá¡ªá¢Ľá¡³":4257,"Ġá¢ĺá¡Ńá¡ªá¡ªá¢Ļá¡ªá¡±á¡±á¡ªá¡ªá¡ªá¢Ķá¡ªá¡§":4258,"Ġá¡¸á¡ªá¡³á¢ļ":4259,"á¢Ķá¡¬á¢ĭ":4260,"á¢ĭá¡Ńá¡¬á¢ļ":4261,"á¡¯á¡ªá¢İ":4262,"á¡¥á¢Ĭ":4263,"Ġá¢ĺá¡Ńá¡¬á¢Ŀ":4264,"Ġá¡³á¡ªá¢ľá¡ªá¢ŀá¢ĳá¡ªá¢Ľá¡³":4265,"á¡Ńá¡¬á¢ŀá¡Ńá¡¶á¡ªá¡¨":4266,"á¢ļá¡ªá¡±á¡±á¡ªá¡§":4267,"á¡¬á¢ĳá¡ªá¢īá¡¨":4268,"Ġá¢Ķá¡¬á¢ĳá¡Ńá¢Ĭá¢ļá¡«":4269,"Ġá¡¥á¡Ńá¢ľá¡ªá¢ĳá¢Ļ":4270,"Ġá¡¥á¡Ńá¢ĳá¡§":4271,"Ġá¡¬á¡Ńá¢Ĭá¡¬á¡°á¡¨":4272,"Ġá¢Ĺá¡ªá¢Ļá¡³":4273,"á¡Ńá¡ªá¢Ĭá¡ªá¡ªá¡Ńá¡§":4274,"Ġá¡¥á¡ªá¡´á¡Ńá¡±á¡±á¡ªá¡«":4275,"Ġá¡¬á¡Ńá¢Ļ":4276,"Ġá¢Ķá¡Ńá¢ļ":4277,"á¡¬á¢ľá¡ªá¢ĳá¡ªá¡ªá¡ªá¡³":4278,"á¡¬á¡±á¡ªá¢į":4279,"Ġá¡¥á¡¬á¡¬á¡ªá¢ĭá¡Ń":4280,"á¢Īá¡ªá¢Ļ":4281,"Ġáł¦áłª":4282,"Ġá¡³á¡¬á¢Ķá¡¬á¡³":4283,"Ġ),\"":4284,"á¡¬á¡¬á¡±á¡±":4285,"á¡¥á¡Ńá¡¬á¢ĭ":4286,"Ġá¢Ĭá¡ªá¢Ļá¡ªá¢Ķá¡³":4287,"Ġá¢ĺá¡ªá¡ªá¢Ĭá¡±á¡±":4288,"Ġá¢Īá¡ªá¡ªá¢Ĭá¡±á¡±":4289,"Ġá¢Įá¡¬á¡ªá¡¬á¡¨":4290,"Ġá¢ĺá¡ªá¡±á¡¬á¢Ľá¡³":4291,"Ġá¢ĺá¡Ńá¡ªá¢Ĭ":4292,"Ġá¢ĭá¡Ńá¡¬á¢ľá¡Ńá¢Ľá¡³":4293,"Ġá¢Ĭá¡¬á¢Ķá¢Ĭ":4294,"áł¢áłª":4295,"á¢Ķá¡Ńá¢Ŀ":4296,"Ġá¢Īá¡Ńá¢Ļá¡Ńá¢Ĳ":4297,"Ġá¡¥á¢Ľá¡ªá¡ªá¢Ĭá¡±":4298,"Ġá¢Įá¡Ńá¡ªá¢Ĭ":4299,"Ġá¢Ļá¢Łá¡ªá¡¬á¡¨":4300,"Ġá¢ĭá¡Ńá¡¬á¢ŀá¢Ĭá¡ªá¢ĭá¡Ń":4301,"Ġá¢ĺá¡ªá¢Ĭá¡ªá¢Ĭ":4302,"Ġáłªáłł":4303,"á¡ªá¢Ļá¡ªá¢Ĳ":4304,"Ġá¢ľá¡ªá¢ŀá¡Ńá¡±á¡«":4305,"Ġá¡¯á¡ªá¢ŀá¡ªá¡¬á¡¬á¢Ļ":4306,"Ġáł°áłłáł¶":4307,"----":4308,"á¡¥á¢Ľ":4309,"Ġá¡¸á¡ªá¢İá¡ªá¡±á¡±á¡ªá¢ĳá¡ªá¢Ľá¡³":4310,"Ġá¡¥á¡¬á¢Ľá¡ªá¡±á¡±á¡Ńá¢Ŀ":4311,"Ġá¡¯á¡¬á¢Ķá¢Ĭ":4312,"Ġá¡¸á¡Ńá¢ŀá¡Ńá¢Ķ":4313,"Ġá¡¸á¡ªá¡ªá¢Ĭá¡±á¡±á¡ªá¡«":4314,"Ġá¢Ĭá¡ªá¢ŀá¡ªá¢Ĭá¢Ķá¡ªá¢Ĳ":4315,"á¡¬á¡±á¡ªá¢Ŀ":4316,"Ġá¡¥á¡¬á¢ĳá¡ªá¢ŀá¢Ĭá¡ªá¡¬á¡¬á¢ĳ":4317,"Ġá¡¥á¡ªá¡³á¢Ļ":4318,"Ġá¢ĺá¡ªá¢ĳá¡ªá¡§":4319,"Ġá¡¸á¡ªá¡±á¡±á¡ªá¢ĳá¢īá¡¨":4320,"Ġá¡¥á¢ĭá¡Ńá¢ŀá¡¬á¢Ļá¡§":4321,"á¡ªá¢Ļá¡ªá¡Ńá¡§":4322,"Ġáłłáłª":4323,"Ġá¢ĺá¡ªá¡ªá¢Ĭá¢Ķá¡Ńá¢ĩ":4324,"á¡Ńá¡¬á¡ªá¢Ĭá¡±á¡³":4325,"á¢Ķá¡¬":4326,"áłłáł¯áłŃ":4327,"á¡¥á¢":4328,"Ġá¡¥á¡¬á¢Ļá¡ªá¡³á¢Ĭá¡¬á¢Ļá¡ªá¡«":4329,"Ġá¢ĺá¡Ńá¡±á¡±á¡Ńá¡±á¡³":4330,"Ġá¢¡á¢ŀ":4331,"á¢Ĭá¡¬á¢Ļ":4332,"Ġá¡¸á¡ªá¢ŀá¡¬á¡±á¡±á¡Ńá¢ĳá¢Ļá¡§":4333,"Ð¸Ð³":4334,"Ġá¡¬á¡ªá¢ŀá¡Ńá¢Ļá¡ªá¢Ĳ":4335,"Ġá¡¥á¢ŀá¢Ĭá¡¬á¢ĳá¡ªá¢ĭá¡Ń":4336,"á¡¬á¡Ńá¡ªá¡ªá¡ªá¡³":4337,"á¡ªá¢İá¢Ķá¡Ńá¢Ĭ":4338,"Ġá¢ĺá¡Ńá¡ªá¡ªá¢ĳá¡ªá¡±á¡±á¡ªá¢į":4339,"Ġá¡¥á¢ŀá¡ªá¢İ":4340,"á¡¯á¡ªá¡¬á¡¬á¢ŀ":4341,"Ġá¡¥á¡Ńá¡¬á¢Ķá¡Ńá¢Ĭá¢Ķá¡ªá¡§":4342,"Ġá¡¥á¡Ńá¡ªá¢Ĭá¡±á¡¬á¡±á¡±á¡Ńá¡Ńá¡§":4343,"Ġáł¡áłŃ":4344,"á¢Ĭá¡ªá¢İ":4345,"á¡ªá¡ªá¢Ļá¡ªá¡±á¡±á¡ªá¡§":4346,"åħ":4347,"Ġá¡¸á¡ªá¢ŀá¡ªá¡ªá¡ªá¢Ļá¡ªá¢Ľá¡³":4348,"Ġá¡¥á¡ªá¢ŀá¢ļ":4349,"Ġá¡¸á¡ªá¡±á¡±á¡Ńá¢ŀá¢İá¡ªá¢ĩ":4350,"Ġá¢Ĭá¡ªá¡¬á¡¬á¢Ķ":4351,"Ġá¢ĭá¡Ńá¡¬á¡ªá¢Ĭ":4352,"á¡¸á¡ªá¢Ļ":4353,"á¢Łá¢ĺá¡¦":4354,"á¡Ńá¡ªá¡ªá¢Ļá¡ªá¡«":4355,"Ġá¢ŀá¡ªá¢Ķá¡¬á¢ľá¡ªá¡§":4356,"Ġá¡¯á¡ªá¡³á¢ļ":4357,"Ġá¢ĺá¡Ńá¢Ļá¡Ńá¡±á¡³":4358,"á¡ªá¢ĳá¢ļá¡ªá¢Ľá¡³":4359,"Ġá¢ĭá¡Ńá¡¬á¢ŀá¡¬á¢ľá¡ªá¢ĳá¡ªá¡ªá¡¬á¡¨":4360,"ĠÐ¥":4361,"Ġá¢Ķá¡¬á¡ªá¡ªá¡ªá¢į":4362,"Ġá¡¥á¢ŀá¢Ĭá¡¬á¡¦":4363,"Ġá¡¥á¢ĳá¡ªá¢Ķá¡Ńá¡§":4364,"áłĬáłĬ":4365,"Ġá¡¥á¢İá¢ļá¡¬á¢ĳ":4366,"Ġá¢Įá¡ªá¡ªá¢Ĭá¡ªá¡ªá¡ªá¡§":4367,"Ġá¡¥á¡Ńá¡¬á¢ĭá¡Ńá¢ĭá¡Ń":4368,"Ġá¢Įá¡Ńá¢ŀá¡ªá¢Ĳ":4369,"Ġá¢ĺá¡Ńá¢Ŀ":4370,"Ġá¡¥á¡¬á¢ĳá¡±á¡±á¡ªá¢īá¡¨":4371,"Ġá¢ıá¡ªá¡«":4372,"Ġá¡³á¡ªá¡¬á¡¬á¡±á¡±á¡Ńá¢ĳá¡Ńá¡ªá¡ªá¢Ļá¡ªá¡ªá¡ªá¢Ķá¡ªá¡§":4373,"Ġá¢Ķá¡¬á¢ĭá¡Ńá¢ĭá¡Ń":4374,"Ġá¢Ĭá¡ªá¢ĳá¡ªá¡³á¡ªá¡¨":4375,"á¡ªá¢ļá¡ªá¡«":4376,"Ġá¢ĺá¡ªá¡ªá¢Ĭá¡±":4377,"Ġá¡¸á¡Ńá¢ŀá¢Ļ":4378,"Ġá¡¸á¡Ńá¢ĳá¡ªá¡±á¡±":4379,"á¢Ķá¡¬á¡³":4380,"Ġá¢ĭá¡Ńá¡¬á¢ŀá¡Ńá¢ĳá¢ļ":4381,"Ġá¡¥á¡Ńá¡¬á¢ĭá¡Ńá¢Ĭá¢Ķá¡ªá¡§":4382,"á¢ĺá¡§":4383,"á¢ŀá¡ªá¢į":4384,"Ġá¡¬á¡¬á¢ŀá¢Ĭ":4385,"á¢Ķá¡Ńá¢ľá¡Ńá¢Ĳ":4386,"Ġá¢ľá¡ªá¢ĳ":4387,"Ġá¢ļá¡Ńá¡ªá¢Ĭá¡ªá¡ªá¡³":4388,"Ġá¢ļá¡ªá¢Ķá¡«":4389,"Ġá¡¬á¡Ńá¢ĳá¡§":4390,"Ġá¡¸á¡ªá¡ªá¢Ļá¡Ńá¢Ľá¡³":4391,"á¡Ńá¡ªá¢Ķá¡«":4392,"Ġá¡¸á¡Ńá¢ĩ":4393,"á¡´á¡Ńá¢ĳá¡ªá¡ªá¡³":4394,"Ġá¢Ķá¡ªá¡±á¡ªá¡ªá¡ªá¡³":4395,"Ġáłµáłłáł°":4396,"Ġá¡¸á¡ªá¢ľá¡ªá¢Ľá¡³":4397,"á¡¬á¢ľá¡ªá¢Ŀ":4398,"á¡ªá¡ªá¢Ļá¡ªá¢Ĭá¡ªá¡§":4399,"áł£áł¯":4400,"á¡ªá¡ªá¡ªá¢Ļá¡ªá¢ĩ":4401,"Ġá¢ĺá¡ªá¢ľá¡ªá¡±á¡±á¡ªá¢Ŀ":4402,"Ġá¢Ķá¡¬á¢ŀá¡Ńá¢ĭá¡Ńá¡§":4403,"Ġá¡¥á¡ªá¡±á¡³":4404,"Ġá¢Ĭá¡ªá¡³á¢ļá¡¬á¢ľá¡ªá¡§":4405,"Ġá¢Įá¡¬á¡ªá¡ªá¡ªá¡§":4406,"á¡¬á¡ªá¡ªá¡Ńá¡²":4407,"Ġá¢ĺá¡ªá¢ŀá¡¬á¢ľá¡ªá¢ļá¡¬á¡§":4408,"Ġá¢Ĺá¡ªá¡³á¡¬á¡¦":4409,"á¢Łá¢Ĭ":4410,"Ġá¡¯á¡ªá¢Ĭá¡ªá¢Ĭá¡ªá¢ĳá¢Ļá¡§":4411,"Ġá¡³á¡ªá¡±á¡±á¡Ńá¡ªá¡ªá¡³":4412,"á¡ªá¢Ĭá¢Ļá¡ªá¢Ļá¡ªá¡¬á¡¨":4413,"Ġá¡¥á¢Ĭá¡¬á¢ĳá¡ªá¡³á¡ªá¡¨":4414,"Ġá¢Ķá¡Ńá¡¬á¡§":4415,"Ġá¡¬á¡ªá¡²":4416,"á¡Ńá¡±á¡±á¡ªá¡°á¡¨":4417,"á¢Ĭá¡¬á¢ĵ":4418,"Ġá¡¸á¡Ńá¡±á¡±á¡Ńá¢ŀá¡Ńá¡ªá¢Ļ":4419,"á¡ªá¢Ĭá¡ªá¢Ļá¡³":4420,"á¡¥á¡Ńá¡¬á¢Ļ":4421,"á¢Ļá¡ªá¡°á¡¨":4422,"á¡¬á¢ĳá¡ªá¡ªá¡¬á¡¨":4423,"Ġá¡¥á¡¬á¢Ļá¡§":4424,"Ġá¢ĺá¡ªá¢ŀá¡¬á¢Ĭá¡¬á¡§":4425,"Ġá¢ĺá¡ªá¡³á¡ªá¢Ľá¡³":4426,"Ġá¢ĺá¡Ńá¡ªá¡ªá¢Ķá¡¬á¡§":4427,"Ġá¢ļá¡ªá¢İ":4428,"Ġá¢ĭá¡Ńá¡¬á¢Ĭá¡ªá¢Ĭá¡ªá¢ļ":4429,"Ġá¡³á¢ĳá¡ªá¢įá¡¨":4430,"Ġá¡¥á¡ªá¢ľá¡ªá¢ĵ":4431,"Ġá¢Īá¡ªá¡ªá¢Ĭ":4432,"á¢Ľá¡¬á¢Ĭá¡¬á¡§":4433,"á¡¬á¢ŀá¢Ļá¡ªá¡«":4434,"á¡Ńá¢ŀá¢ĳá¡¬á¢ĩ":4435,"Ġá¢ĺá¡ªá¢İá¢Ľá¡¬á¢ĳ":4436,"Ġá¡¥á¢Ļá¡Ńá¡«":4437,"Ġá¢ĺá¡Ńá¡¬á¡ªá¢Ĭá¢Ĭ":4438,"Ġá¢Ķá¡ªá¡±á¡ªá¡ªá¡ªá¢Ļá¡ªá¡°á¡¨":4439,"Ġá¡¥á¡Ńá¡¬á¡±á¡Ńá¢Ĭá¡¬á¡¦":4440,"Ġá¡¬á¡¬á¢ŀá¡±á¡±á¡Ńá¢Ļá¡Ńá¡±á¡±á¡ªá¢Ŀ":4441,"á¡Ńá¡Ńá¡ªá¡ªá¡ª":4442,"Ġá¡¥á¡Ńá¡ªá¡ªá¢Ļá¡ªá¢ŀá¡±á¡±á¡Ńá¡«":4443,"á¢Ĭá¡¬á¢ļ":4444,"Ġá¡¬á¢Łá¡³":4445,"á¡ªá¡±á¡ªá¢Ĭá¡¬á¡¦":4446,"Ð¸Ð½":4447,"Ġá¢ĺá¡Ńá¢ľá¡ªá¢īá¡¨":4448,"Ġá¢Ķá¡¬á¡¬á¡Ńá¡ªá¡´á¡Ńá¢ŀá¡¬á¢ĳá¡ªá¢ĭá¡Ń":4449,"Ġá¢ĺá¡ªá¡±á¡¬á¢ĳá¢Ļá¡§":4450,"á¡ªá¡ªá¡ªá¢ĳá¡ªá¢Ľá¡³":4451,"æľ":4452,"Ġá¡¥á¡Ńá¡¬á¢ĳá¢Ľá¡ªá¡«":4453,"Ġá¢Ķá¡¬á¢Ļá¡«":4454,"Ġá¢Įá¡ªá¢Ļá¡ªá¢ŀá¡ªá¢İá¢Ľá¡«":4455,"á¡Ńá¢ĳá¢Ĭá¡¬á¡¦":4456,"Ġá¢Ķá¡Ńá¡¬á¢Ĭ":4457,"Ġá¢Ķá¡ªá¡±á¡±á¡Ńá¢īá¡¨":4458,"á¡ªá¢ŀá¡ªá¢ĩ":4459,"á¡¬á¢ĳá¡ªá¢ĳá¢Ļá¡§":4460,"Ġáł°áłłáł¨":4461,"á¡¸á¡Ńá¢Ķá¡¬á¡±á¡±":4462,"Ġá¢ĺá¡Ńá¢Ķá¡ªá¡±á¡±á¡ªá¢Ŀ":4463,"ĠÐ´":4464,"Ġá¢ľá¡ªá¡´á¡Ń":4465,"Ġá¢Īá¡ªá¡ªá¢Ľ":4466,"Ġáł®áł¢áł¨":4467,"11":4468,"á¡Ńá¡¬á¢įá¡¨":4469,"Ġá¡¥á¢ŀá¡¬á¢ľá¡ªá¡§":4470,"á¡ªá¢İá¡Ńá¡«":4471,"Ġá¢ĺá¡Ńá¡¬á¢ĳá¡Ńá¢Ĭá¡ªá¢ĳá¡ªá¢Ĭá¢ļá¡¬á¡Ńá¡§":4472,"á¡¬á¢ľá¡ªá¢Ļá¡ªá¡§":4473,"Ġá¢Īá¡ªá¢ŀá¡Ńá¢Ĳ":4474,"á¢ĺá¡Ńá¢Ŀ":4475,"Ġá¡¥á¡Ńá¡¬á¢ĭá¡Ńá¢ĳá¡ªá¡´á¡Ńá¢ŀá¡«":4476,"Ġá¡¸á¡Ńá¢ŀá¢İá¡Ńá¡«":4477,"Ġá¡¥á¡Ńá¡¬á¢Ľá¡ªá¢ĭá¡Ńá¢ĳá¡Ńá¢Ĭá¢Ķá¡ªá¡§":4478,"Ġá¡´á¡Ńá¢ĳá¢Ļá¡Ńá¡±á¡±á¡ªá¡«":4479,"Ġá¡¥á¡ªá¡±á¡±á¡ªá¢Ľá¡¬á¢į":4480,"á¡Ńá¢ľá¡³":4481,"Ġáł¢áł·":4482,"Ġá¡¥á¡«á¡¨":4483,"Ġá¢ĺá¡Ńá¡¬á¢ĳá¡Ńá¢Ĭá¡ªá¢ĳá¡ªá¢Ĭá¢ļá¡«":4484,"Ġá¡´á¡Ńá¢Ļá¡«":4485,"Ġá¢Įá¡ªá¢Ļá¡ªá¢Ĳ":4486,"Ġáł¦áł¬":4487,"áł¢áł²":4488,"Ġá¢ĺá¡ªá¡±á¡±á¡ªá¡±á¡±á¡Ńá¢ĳá¡Ńá¡§":4489,"á¡ªá¢ŀá¢ĭá¡Ń":4490,"á¡Ńá¡ªá¡ªá¢Ľ":4491,"á¡ªá¢Ĭá¢ĳá¡ªá¢Ĳ":4492,"á¡¬á¡ªá¡ªá¢Ļá¡ªá¡ªá¡ªá¡³":4493,"Ġá¢ĺá¡ªá¢ĳá¢Ĭá¡ªá¢Ŀ":4494,"Ġá¢ļá¡¬á¡±á¡ªá¡ªá¡ªá¢Ķá¡¬á¢ĳ":4495,"á¡ªá¢İá¢Ľá¡¬á¢Ļá¡³":4496,"Ġá¡´á¡Ńá¡¬á¢ĳá¢ĭá¡Ńá¢İ":4497,"Ġá¡¸á¡Ńá¢ŀá¡±á¡±":4498,"Ġá¡¸á¡ªá¢İá¢Ļá¡Ńá¢ŀá¡ªá¡§":4499,"Ġá¢Įá¡¬á¡±á¡Ńá¡¬á¢ĺá¡¦":4500,"Ġá¢ĺá¡ªá¢ĳá¡ªá¡´á¡Ńá¢Ŀ":4501,"Ġá¡¬á¡ªá¡³á¢Ķá¡¬á¢ľá¡ªá¡§":4502,"á¡Ńá¢ĳá¡ªá¡ªá¡¬á¡¨":4503,"Ġá¡¥á¡³á¡ªá¡Ńá¡ªá¢ļá¡¬á¢Ļá¡ªá¡§":4504,"á¡ªá¢ĭá¡Ńá¢ĳá¡Ńá¢Ĳ":4505,"Ġá¡¥á¡ªá¢İá¡³":4506,"Ġá¡¬á¡Ńá¢Ľá¡ªá¡±á¡±á¡ªá¡§":4507,"Ġá¡´á¡Ńá¡¬á¢İá¡´á¡Ńá¢ŀá¢ļá¡ªá¡¬á¡¨":4508,"á¡Ńá¢ĳá¡Ńá¡§":4509,"Ġá¡¯á¡¬á¢Ĭá¡ªá¡Ńá¡ªá¢Ĭ":4510,"Ġá¡¬á¡Ńá¢Ĭá¡¬á¢Ķ":4511,"Ġáł²áłłáł¯":4512,"Ġá¢ĺá¡ªá¡³á¡¬á¡§":4513,"á¡ªá¢İá¡³":4514,"á¡¬á¡Ńá¢ŀ":4515,"Ġá¡¥á¡ªá¢ľá¡ªá¡ªá¢Ļá¡ªá¡±á¡±á¡ªá¡§":4516,"Ġá¢ĺá¡Ńá¡ªá¡ªá¢Ļá¡ªá¡±á¡±á¡ªá¡ªá¡ªá¡³":4517,"Ġá¡¸á¡Ńá¡Ńá¡ªá¢Ļá¡Ńá¢ĩ":4518,"Ġá¢Įá¡Ńá¡¬á¢Ķá¡³":4519,"á¢ĳá¡ªá¡«":4520,"á¢ĺá¢ŀ":4521,"Ġá¢ĺá¡Ńá¢Ĭá¡¬á¢ľá¡ªá¢Ĳ":4522,"á¡¥á¡ªá¢Ľá¡¬á¢ĳ":4523,"Ġá¢Ķá¡Ńá¡ªá¢Ĭá¡±á¡±á¡Ńá¡±á¡±á¡Ńá¢ĳá¡«":4524,"Ġá¢ĺá¡ªá¢Ķá¡³":4525,"Ġá¡¸á¡ªá¢ŀá¡ªá¢İ":4526,"Ġá¢ĺá¡ªá¢ŀá¡ªá¡±á¡±á¡ªá¢Ĭá¡¬á¡¦":4527,"á¡¸á¡ªá¢ŀá¡¬á¡§":4528,"Ġá¡¥á¡Ńá¡¬á¢Ķá¡Ńá¡§":4529,"Ġá¢ĺá¡ªá¡±á¡¬á¢Ĳ":4530,"Ġá¡¬á¡¬á¢Ľá¡¬á¢Ĭ":4531,"Ġá¡¸á¡ªá¢ŀá¡ªá¡ªá¡ªá¢Ļ":4532,"Ġá¡¥á¡ªá¢ŀá¡¬á¡±á¡±":4533,"Ġáłµáł¢áł·":4534,"ï¼ī":4535,"Ġá¢Ķá¡ªá¢ŀá¢Ĭá¡ªá¡¬á¡¬á¢ĳá¡ªá¢ĭá¡Ń":4536,"á¡Ńá¢ļá¡¬á¢Ĭ":4537,"Ġá¡¥á¡ªá¡±á¡±á¡Ńá¢ŀá¡ªá¡ªá¡ªá¡«":4538,"Ġá¡¬á¡ªá¡³á¢Ķá¡ªá¢Ŀ":4539,"Ġá¢ĭá¡Ńá¡¬á¢ŀá¢Ļá¡ªá¢Ľá¡³":4540,"Ġá¡¸á¡ªá¢ŀá¡¬á¢ĳá¢ļá¡ªá¡±á¡±á¡ªá¡§":4541,"áł¢áł¯áłŃ":4542,"Ġáł£áł·":4543,"Ġá¡¥á¡Ńá¡¬á¡ªá¢Ĭá¢Ĭá¡ªá¢ŀá¡ªá¢ĭá¡Ń":4544,"Ġá¡¥á¡¬á¡±á¡ªá¢ĩ":4545,"Ġá¡¸á¡ªá¡«":4546,"ĠÐ½":4547,"Ġá¡¯á¡ªá¢Ĭá¡ªá¢Ĭá¡ªá¢Ľá¡³":4548,"Ġá¢Ķá¡¬á¢ľ":4549,"Ġá¡¯á¡ªá¡¬á¡¬á¢ŀá¡ªá¡±á¡±á¡Ńá¢ĳá¡Ńá¡ªá¡ªá¢ļá¡«":4550,"Ġá¡¬á¡ªá¢ŀá¢Ĭá¡ªá¢ĳ":4551,"Ġá¢ĺá¡ªá¢İá¢Ļá¡ªá¢Ĭá¢ĳá¡ªá¢Ľá¡³":4552,"á¡ªá¢ĭá¡Ńá¢ĳá¡Ńá¢Ĭá¡ªá¡Ńá¡§":4553,"Ġá¡¥á¡Ńá¡¬á¢ŀá¡«":4554,"Ġáłłáł°":4555,"Ġá¡¥á¢Łá¡Ńá¡¬á¢ŀá¡Ńá¡¶á¡ªá¡¨":4556,"á¡ªá¡¬á¡¬á¡Ńá¡§":4557,"Ġá¢Ĭá¢Łá¢ŀ":4558,"á¡¬á¢ĳá¢Ļá¡ªá¡«":4559,"á¡¥á¡ªá¢ĳá¢Ļá¡ªá¡§":4560,"Ġá¢ĺá¡ªá¡±á¡±á¡ªá¢ĳá¢Ļá¡Ńá¡§":4561,"á¡Ńá¡ªá¡ªá¡Ńá¡«":4562,"Ġá¢ĺá¡ªá¡ªá¢Ĭá¢Ĭá¡¬á¢į":4563,"Ġá¡¸á¡ªá¢ļá¡ªá¢Ŀ":4564,"á¡³á¡ªá¢Ķá¡§":4565,"Ġá¡¥á¡¬á¡ªá¢Ľ":4566,"Ġá¡¥á¢Ķá¡«":4567,"Ġá¢ĺá¡Ńá¡¬á¢Ĭá¡ªá¢ŀ":4568,"á¢ĺá¡ªá¡±":4569,"Ġá¡¥á¡ªá¡³á¡¬á¡«á¡¨":4570,"Ġá¡¥á¢ŀá¡ªá¡§":4571,"Ġá¡¥á¢ĳá¢Ľ":4572,"Ġá¢ļá¡ªá¢Ĭá¡ªá¢Ľá¡¬á¡§":4573,"Ġáł®áł¡áł³":4574,"Ġá¢ĺá¡ªá¢ĭá¡Ńá¢ĳá¢Ļá¡ªá¢Ŀ":4575,"Ġá¢Ķá¡¬á¢ľá¡Ńá¡³":4576,"Ð°Ð´":4577,"áłµáł¢":4578,"Ġá¡¬á¡ªá¡³á¢Ļ":4579,"áł¢áłµáł¤":4580,"á¡´á¡Ńá¢īá¡¨":4581,"Ġá¡¥á¡ªá¡±á¡±á¡Ńá¢ŀá¢ĳ":4582,"Ġá¡¥á¡ªá¢Ķá¡¬á¡ªá¡ªá¢ĳá¡ªá¢Ľá¡³":4583,"Ġá¢Īá¡ªá¢Ľ":4584,"á¡ªá¢ĭá¡Ńá¡¬á¡¬á¢ļá¡Ńá¡Ńá¡§":4585,"á¡¥á¢ĭá¡Ńá¡§":4586,"Ġá¡¥á¡Ńá¢İá¡Ńá¢ĩ":4587,"á¡ªá¢ļá¡¬á¡ªá¡ªá¡ªá¡±á¡±á¡ªá¡Ńá¡§":4588,"á¡Ńá¡ªá¡ªá¡Ńá¢Ŀ":4589,"Ġá¢ĺá¡¬á¢ľ":4590,"á¢ĺá¡Ńá¡ªá¡ªá¢Ļ":4591,"á¢ļá¡¬á¢Ŀ":4592,"Ġá¢Ķá¡¬á¢Ĳ":4593,"Ġáł²áł¤áł°":4594,"Ġá¡¥á¡ªá¡ªá¢Ĭá¡ªá¡ªá¡ªá¢Ļ":4595,"Ġá¢Ķá¡ªá¢Ľ":4596,"Ġá¢Ĭá¡¬á¢Ľá¡¬á¡¬á¡¨":4597,"Ġá¢ĺá¡Ńá¢ŀá¡ªá¢Ķá¡ªá¡ªá¡ªá¢Ĳ":4598,"Ġá¡¥á¡ªá¢ľá¡ªá¢ĳá¡ªá¢Ĳ":4599,"Ġá¡¥á¡Ńá¡¬á¢ĭá¡Ńá¢Ĳ":4600,"Ġá¢ĺá¡Ńá¢Ķá¡Ńá¢Ĳ":4601,"ÑĥÑĥ":4602,"Ġá¡¥á¢ŀá¢Ĭá¡ªá¢Ļá¡ªá¡§":4603,"Ġáł²áłłáł·":4604,"Ġá¡¸á¡ªá¡±á¡±á¡Ńá¢ŀá¡ªá¡«":4605,"Ġá¡¬á¡Ńá¢ļá¡¬á¡§":4606,"Ġá¢ľá¡ªá¢Ĭá¡ªá¡³á¡ªá¢Ŀ":4607,"Ġá¢ĭá¡Ńá¡¬á¡ªá¢Ľá¡ªá¢Ĭá¡ªá¡«":4608,"Ġá¡¥á¡Ńá¡¬á¢Ľá¡ªá¢Ķá¢ĭá¡Ńá¢ĳá¡ªá¡ªá¡¬á¡¨":4609,"Ġá¢ĺá¡Ńá¡¬á¢ŀá¡Ńá¢ĭá¡Ń":4610,"Ġá¡¯á¡¬á¢ŀá¡Ńá¡±á¡±á¡Ńá¡§":4611,"Ġá¢Ķá¡Ńá¡¬á¡¬á¡Ńá¡ªá¢Ĭá¡ªá¢Ĳ":4612,"Ġá¡¬á¡¬á¡Ńá¡ªá¢ĭá¡Ńá¢Ĳ":4613,"Ġá¡¬á¡¬á¢Ĭá¡ªá¢ĳá¡ªá¢ĳá¢Ĭá¡ªá¡¨":4614,"Ġá¢ĺá¡ªá¢Ļá¡ªá¡ªá¡ªá¢Ķá¡ªá¡§":4615,"Ġá¡¬á¡ªá¡³":4616,"Ġá¢Ĺá¡«":4617,"á¡¬á¢ĭá¡Ńá¢ĳá¡Ńá¡°á¡¨":4618,"á¢ļá¡¬á¡ªá¢Ĭá¢Ĭá¡¬á¢ĵ":4619,"Ġá¡¥á¡Ńá¡¬á¢Ļá¡ªá¢ĳ":4620,"Ġá¡¯á¡¬á¢ĭá¡Ńá¢Ĳ":4621,"Ġá¢Ĭá¡¬á¡ªá¢Ĭá¡±á¡±á¡ªá¡§":4622,"Ġá¢ļá¡¬á¢Ļá¡ªá¢īá¡¨":4623,"Ġá¡¸á¡Ńá¡ªá¡¬á¡¨":4624,"Ġá¡´á¡Ńá¢Ļá¡Ńá¡ªá¡ªá¢Ļ":4625,"Ġáł¦áł¨áł³":4626,"Ġá¢ľá¡ªá¡ªá¡¬á¡¨":4627,"Ġá¡¬á¡Ńá¡¬á¢ļá¡Ńá¢Ĭá¡ªá¢ļá¡¬á¡§":4628,"Ġá¢Īá¡ªá¢ŀá¡Ńá¢Ĳá¡¨":4629,"Ġá¡´á¡Ńá¢ŀá¡±á¡±":4630,"Ġá¢ľá¡ªá¡±á¡±á¡Ńá¢İá¡ªá¡§":4631,"á¡ªá¡ªá¡ªá¢Ļá¡³":4632,"á¢ļá¡¬á¢ĳá¡ªá¢Ľá¡³":4633,"Ġá¢Ķá¡Ńá¢ĳá¡Ńá¡ªá¢Ĭá¡±á¡±á¡Ńá¢ĵ":4634,"Ġá¢Ĺá¡Ńá¡±á¡±á¡Ńá¢į":4635,"Ġáł¡áł¨áł¡":4636,"ĠÐŃ":4637,"Ġá¡¥á¡ªá¢ŀá¡±á¡±á¡ªá¢Ĳ":4638,"Ġá¡¥á¡Ńá¡¬á¡¬á¢ĳá¡ªá¡±á¡±á¡ªá¢ĳá¢Ļá¡§":4639,"á¡ªá¢Ĺá¡§":4640,"Ġá¡³á¡ªá¡±á¡±á¡ªá¢Ļ":4641,"áł¦áł¢":4642,"Ġá¡¥á¡Ńá¡¬á¡±á¡ªá¢İ":4643,"Ġá¢Įá¡Ńá¡±á¡±á¡ªá¡«":4644,"á¡¬á¢ľá¡ªá¢Ķ":4645,"Ð±Ð°":4646,"Ġá¡¬á¡ªá¢ŀá¢ļá¡¬á¢į":4647,"Ġá¢Įá¡ªá¡³":4648,"ï¼Ī":4649,"Ġá¢ļá¡¬á¢ĳá¡Ńá¢Ĭá¡ªá¢Ļá¡ªá¡«":4650,"áł¬áłłáł¨":4651,"á¡Ńá¡¬á¢ĳá¢ĭ":4652,"á¡¬á¢ĳá¡ªá¢ĭá¡Ń":4653,"Ġá¡¥á¡ªá¡ªá¢Ļá¡§":4654,"Ġáł¬áł¤áłª":4655,"Ġá¢ļá¡¬á¢Ĭá¡¬á¡§":4656,"á¡¯á¡Ńá¡¬á¢ĭ":4657,"Ġá¡¥á¡Ńá¢ŀá¡Ńá¡±á¡±á¡Ńá¢ĳá¡Ńá¡ªá¡ªá¢Ķá¡ªá¡§":4658,"ĠÐ±Ð¾Ð»":4659,"on":4660,"Ġá¢Ĭá¡ªá¢ŀá¡ªá¢ĳá¢Ļá¡³":4661,"á¡·á¡Ńá¢ŀ":4662,"Ġá¡¥á¡Ńá¢ŀá¡Ńá¡ªá¡ªá¢Ķá¡«":4663,"Ġá¢Ĭá¡ªá¢Ļá¡Ńá¢ŀá¢Ĭá¡ªá¡«":4664,"Ġá¢ľá¡ªá¡±á¡±á¡ªá¢Ĭá¡¬á¡ªá¡ªá¡Ńá¡²":4665,"Ġá¡¸á¡ªá¢ŀá¡ªá¡±á¡±á¡Ńá¢ĳá¢Ľá¡³":4666,"Ġá¢ĺá¡ªá¢ĭá¡Ńá¢Ķá¡Ńá¢Ĭá¢Ķá¡ªá¡§":4667,"Ġá¢ĺá¡ªá¡ªá¢Ĭá¢Ķá¡§":4668,"Ġá¢ĺá¡ªá¢į":4669,"Ġá¢Īá¡Ńá¢ĳá¡Ńá¢İá¢Ļá¡§":4670,"Ġá¡¸á¡Ńá¡¬á¡¬á¢Ķ":4671,"á¡Ńá¢Ļá¡ªá¡ªá¡ªá¢Ķá¡ªá¡§":4672,"Ġá¡¥á¡Ńá¢ļá¡ªá¢ŀ":4673,"Ġá¢ĺá¡ªá¡±á¡±á¡ªá¡±á¡±á¡ªá¡Ńá¡§":4674,"Ġáłªáł¤áł¯áł¤áł¨":4675,"Ġá¡¥á¡ªá¡´á¡Ńá¡°á¡¨":4676,"Ġá¡¸á¡Ńá¢Ļá¡Ńá¡ªá¡ªá¢Ļá¡³":4677,"Ġá¡¥á¡ªá¢ľá¡Ńá¢Ľá¡³":4678,"á¡Ńá¢ĭá¡Ńá¢ĳá¢ĭá¡Ń":4679,"Ġáłµáł¢áł¯":4680,"Ġá¢ĺá¡ªá¢İá¢Ľá¡¬á¢ĳá¢Ĭá¡ªá¡¨":4681,"Ġá¡³á¡ªá¡¬á¡¬á¡±á¡±á¡Ńá¢ĳá¡Ńá¢İá¢Ľá¡«":4682,"Ġá¡¥á¡Ńá¡¬á¢Ĭá¢ĭá¡Ńá¡«á¡¨":4683,"Ġá¡¯á¡ªá¡¬á¡¬á¢ŀá¡ªá¡±á¡±á¡Ńá¢ĳá¡Ńá¢Ĳ":4684,"Ġá¡¥á¡ªá¡ªá¡¬á¡¨":4685,"Ġá¢ĭá¡Ńá¡¬á¢ŀá¢Ļá¡ªá¢Ĭá¢Ķá¡ªá¡§":4686,"á¡ªá¢ļá¡¬á¢ĳá¡ªá¢Ĳ":4687,"á¡¬á¢Ĭá¡¬á¡±":4688,"Ġá¢ĺá¡Ńá¡ªá¡ªá¢Ļá¡ªá¡±á¡±á¡ªá¢Ľá¡³":4689,"Ġá¡¥á¡¬á¢İá¡ªá¢īá¡¨":4690,"Ġá¡¥á¡Ńá¡¬á¢Ĭá¢ĭá¡Ńá¢Ĭá¡ªá¡Ńá¡§":4691,"Ġá¡¬á¡¬á¡±á¡±á¡ªá¢Ķá¡³":4692,"Ġá¡¥á¡¬á¡±á¡¬á¢ľá¡ªá¢İá¢Ķá¡Ńá¢Ĭ":4693,"Ġá¡¯á¡ªá¢İá¡ªá¢Ľá¡³":4694,"Ġá¡¥á¢¨á¡Ńá¡¬á¡ªá¢Ĭá¡±á¡³":4695,"Ġá¡¸á¡ªá¢ŀá¡ªá¡ªá¡ªá¢Ļá¡ªá¢Ļá¡ªá¢ĩ":4696,"Ġá¢Ĺá¡Ńá¡³":4697,"áł¬áł¤":4698,"á¡¯á¡Ńá¢į":4699,"Ġá¢ĺá¡ªá¢Ľá¡¬á¢Ĭá¡ªá¢Ĳ":4700,"Ġá¡¬á¡ªá¡¬á¡¬á¢Ļ":4701,"á¢Ĭá¡¬á¡«á¡¨":4702,"áł¥áł·":4703,"á¡ªá¢ļá¡Ńá¡Ńá¢Ĳ":4704,"Ġá¢ĺá¡Ńá¢Ĭá¡¬á¢ľá¡ªá¢ĳá¢Ļá¡Ńá¢Ĳ":4705,"Ġá¢Īá¡ªá¢ŀá¡Ńá¡°á¡¨":4706,"Ġá¡¥á¡Ńá¡ªá¢Ļá¡ªá¢Ľá¡³":4707,"á¢Ĭá¡ªá¢Ķá¡ªá¡§":4708,"Ġá¡¥á¡Ńá¢Ļá¡§":4709,"Ġá¡³á¡ªá¡±á¡±á¡ªá¢Ķ":4710,"á¡Ńá¡¬á¡ªá¢Ĭá¢Ķ":4711,"á¡ªá¢Ĭá¢Ļá¡ªá¡°á¡¨":4712,"á¡¬á¢ŀá¡ªá¡§":4713,"Ġá¡´á¡Ńá¡¬á¢Ļá¡Ńá¢Ĭá¡ªá¢Ĭá¢Ļá¡ªá¢ĭá¡Ńá¡§":4714,"áł¡áł¯áłŃ":4715,"áł°áł¢":4716,"Ġá¡¬á¡¬á¢Ķ":4717,"Ġá¢ĭá¡Ńá¡¬á¢Ŀ":4718,"Ġá¢ĺá¡ªá¡³á¡¬á¢ĳá¡ªá¡ªá¡¬á¡¨":4719,"Ġá¢ļá¡¬á¢ŀá¢İá¡ªá¡¬á¡¬á¢ĳ":4720,"Ġá¡ª":4721,"á¢Ľá¡¬á¢Ĳ":4722,"Ġá¢ļá¡¬á¢İá¡ªá¡¬á¡¨":4723,"Ġá¢ľá¡ªá¡´á¡Ńá¡«á¡¨":4724,"á¡¯á¡ªá¢İá¡Ńá¢Ŀ":4725,"áł£áł¯áł":4726,"Ġá¡¥á¢ŀá¢Ĭá¡¬á¢ĳá¢Ļ":4727,"Ġá¡¬á¡Ńá¢Ĭá¡¬á¢Ķá¢Ļá¡ªá¡«":4728,"áłģ":4729,"Ġáł°áł¡áł³":4730,"Ġá¡¥á¡Ńá¢ŀá¡±á¡±á¡Ńá¡ªá¡ªá¢Ķá¡ªá¡§":4731,"á¢Īá¡Ńá¢ŀá¡³á¡ªá¡¨":4732,"Ġá¢ĭá¡Ńá¡¬á¢Ľá¡Ńá¢ĭá¡Ńá¡³":4733,"Ġá¢ĺá¡ªá¡¬á¡¬á¢ĳá¡Ńá¢İá¢Ľá¡«":4734,"Ġá¡¸á¡Ńá¢ĳá¡´á¡Ńá¡±á¡±":4735,"Ġá¢ĺá¡Ńá¢Ļá¡Ńá¢ŀá¡ªá¡ªá¡ªá¡¬á¡¬á¢ĳ":4736,"á¡ªá¢¦":4737,"á¡¥á¡´":4738,"Ġá¢ĺá¡ªá¡±á¡±á¡Ńá¢ĳá¡ªá¡ªá¡ªá¡³":4739,"Ġá¡´á¡Ńá¡¬á¢Ļá¡Ńá¢Ĭá¡ªá¢Ľá¡³":4740,"Ġá¡¥á¡Ńá¢ĳá¡ªá¡±á¡±á¡ªá¡ªá¡³á¡ªá¡±á¡±á¡ªá¢Ļá¡Ńá¢Ŀ":4741,"á¢İá¡ªá¡«":4742,"Ġáł®áł¤áł©áłŃ":4743,"Ġá¢ĭá¡Ńá¡¬á¢ŀá¡Ńá¢Ĭ":4744,"Ġá¡¬á¡¬á¢ŀá¡ªá¡§":4745,"Ġá¡³á¡¬á¢ļá¡¬á¢Ļá¡ªá¡¬á¡¨":4746,"Ġá¢Ķá¡¬á¡³á¡ªá¢Ŀ":4747,"Ġá¡¸á¡Ńá¢Łá¡ªá¢Ŀ":4748,"á¡¸á¡Ńá¡¬":4749,"Ġá¢ĺá¡Ńá¢İá¢Ļá¡ªá¢Ĭá¡¬á¡¦":4750,"á¢Ķá¡Ńá¡§":4751,"á¡ªá¡ªá¡Ńá¢ĳá¡ªá¡ªá¡¬á¡¨":4752,"Ġá¡¬á¡¬á¢ŀá¡±á¡±á¡Ńá¢īá¡¨":4753,"Ġá¢ĺá¡Ńá¢ŀá¢Ķá¡¬á¢ĳá¢Ļá¡§":4754,"Ġá¡³á¡ªá¡¬á¡¬á¢ĳá¢Ļá¡Ńá¡±á¡±á¡ªá¡§":4755,"Ġá¡¥á¡ªá¢ŀá¡³á¡ªá¡±á¡±á¡ªá¡Ńá¡§":4756,"Ġá¡³á¡ªá¢ŀá¡ªá¢īá¡¨":4757,"á¡³á¡ªá¡«á¡¨":4758,"Ġá¡´á¡Ńá¡¬á¢Ļá¡Ńá¢ļá¡§":4759,"á¡ªá¢Ĭá¢ĳá¡ªá¢Ľá¡³":4760,"á¡ªá¡ªá¡ªá¢ļá¡¬á¡§":4761,"Ġá¡¥á¡Ńá¡¬á¡±á¡Ńá¢ļá¡¬á¡§":4762,"Ġá¢ĺá¡ªá¢ĳá¡³á¡¬á¡±á¡±á¡ªá¡Ńá¡§":4763,"Ġá¢ĭá¡Ńá¡¬á¢Ļá¡ªá¢ĳá¢İá¡Ńá¢ŀ":4764,"á¡Ńá¢ĺá¡¦":4765,"á¢Łá¢Ķá¢Ķá¡Ńá¢Ŀ":4766,"Ġá¢Ķá¡Ńá¡¬á¢ĭ":4767,"Ġá¡¸á¡ªá¢Ļá¡ªá¢į":4768,"Ġá¡¥á¡Ńá¡¬á¡ªá¢Ļá¡Ńá¢ŀá¢ĳá¡¬á¡¬á¡¨":4769,"Ġá¡´á¡Ń":4770,"Ġá¢Ķá¡¬á¡³á¡ªá¡±":4771,"á¡Ńá¢İá¢Ķá¡¬á¢ĩ":4772,"Ġáł´áł¤":4773,"Ġá¢¤á¡¬á¢ŀá¡¬á¢Ĳ":4774,"Ġá¡¬á¡Ńá¡¬á¢ŀá¡¬á¡«á¡¨":4775,"Ġá¢Ķá¡ªá¡±á¡±á¡Ńá¢ŀá¡¬á¢Ķ":4776,"á¢Ĭá¡ªá¢Ļ":4777,"Ġá¢ĺá¡Ńá¡¬á¢ĳá¡Ńá¡³á¢ĳá¡ªá¢Ĭá¡ªá¡¨":4778,"Ġá¡¥á¡Ńá¢İá¢Ļá¡ªá¡±á¡±á¡ªá¡§":4779,"Ġá¡¬á¡ªá¢Ĭá¡¬á¢ŀá¡±á¡±á¡ªá¡§":4780,"Ġá¡¸á¡ªá¡ªá¢Ĭá¢Ĭá¡¬á¡±":4781,"á¡ªá¢Ļá¡ªá¡ªá¡ªá¢Ķá¡ªá¡§":4782,"Ġá¡´á¡Ńá¡¬á¢ŀá¡¬á¢Ļ":4783,"á¡ªá¡ªá¢Ĭá¢Ĭá¡ªá¢ŀ":4784,"á¡¬á¡ªá¢ļá¡¬á¡§":4785,"Ġá¡´á¡Ńá¢ĳá¡Ńá¢ĳá¢ļ":4786,"Ġá¡¥á¡Ńá¢ĳá¡±á¡±á¡Ńá¡ªá¡ªá¡³":4787,"á¢ĺá¡ª":4788,"á¡Ńá¢ĳá¡ªá¡³á¡ªá¢Ĳ":4789,"¢á¡Ńá¡¦":4790,"á¡±á¡ªá¡§":4791,"á¡Ńá¢ĳá¡¬á¡¬á¡¨":4792,"Ġá¢ĺá¡ªá¢ĭá¡Ńá¡´á¡Ńá¢ŀá¡«":4793,"Ġá¢Ķá¡ªá¡«á¡¨":4794,"Ġá¡¥á¡¬á¢ĳá¡ªá¢ĳá¢Ļá¡§":4795,"Ġá¢ĺá¡ªá¢ŀá¡³":4796,"Ġá¡¯á¡¬á¢Ķá¢Ĭá¡ªá¢Ĳ":4797,"Ġá¢Ķá¡ªá¢ŀá¢ĭá¡Ńá¢ĳá¡ªá¡ªá¡¬á¡¨":4798,"Ġá¢ĺá¡Ńá¢ŀá¡Ńá¡ªá¡ªá¢Ķá¡«":4799,"Ġá¡¥á¡ªá¡ªá¡ªá¡Ńá¡¬á¡¬á¢ĳá¡ªá¢Ĳ":4800,"Ġá¡¸á¡Ńá¡±á¡±á¡Ńá¢ŀá¡Ńá¡ªá¢Ļá¡Ńá¢Ĭá¡¬á¡¦":4801,"áłłáłŃáłłáł·":4802,"Ġá¡´á¡Ńá¢ĳá¡³á¡ªá¡³":4803,"Ġá¢Ķá¡Ńá¢ŀá¢Ļá¡ªá¡ªá¡ªá¡Ńá¡§":4804,"Ġá¡¥á¡ªá¢Ĭá¢ĭá¡Ńá¢ŀ":4805,"Ġá¡¥á¡Ńá¡¬á¡±á¡ªá¡ªá¢Ļá¡ªá¢Ĭá¡ªá¡§":4806,"á¡¬á¡ªá¡ªá¢Ļá¡§":4807,"Ġá¡´á¡Ńá¡¬á¢ĳá¢ĭá¡Ńá¢į":4808,"in":4809,"á¡Ńá¢ŀá¢Ľ":4810,"Ð¶":4811,"Ġá¢ļá¡ªá¡¬á¡¨":4812,"Ġá¢ĺá¡Ńá¢Ķá¡ªá¡ª":4813,"á¢ĺá¡ªá¡´":4814,"Ġáł¬áł¦áłŃ":4815,"Ġá¡¸á¡ªá¡±á¡±á¡ªá¡ªá¢Ļá¡³":4816,"Ġáłªáł¡áł¨":4817,"á¢ļá¡¬á¢ĳá¡ªá¢Ĳ":4818,"Ġá¡¬á¡Ńá¢Ķ":4819,"Ġá¢Ķá¢Ł":4820,"å¤":4821,"Ġá¡¥á¢ĳá¢Ķá¡ªá¢ĭá¡Ń":4822,"Ġá¢ĺá¡Ńá¢ĳá¡ªá¡±á¡±":4823,"Ġá¢Įá¡ªá¡ªá¢Ĭá¡±":4824,"Ġá¡³á¡ªá¢ĳá¡ªá¡§":4825,"Ġá¡³á¡ªá¡±á¡±á¡ªá¢Ľá¡«":4826,"Ġá¢ĺá¡Ńá¡¬á¢ļá¡¬á¡§":4827,"áłłáł¯áł³":4828,"Ġá¡¥á¡Ńá¡¬á¡¬á¢ŀá¡ªá¡Ńá¡§":4829,"Ġá¡¬á¡¬á¢ĭá¡Ńá¢Ŀ":4830,"Ġá¢ĺá¡ªá¢Ĭá¡¬á¡«á¡¨":4831,"Ġá¢ļá¡¬á¢ĳá¡ªá¡±á¡±":4832,"Ġá¡¥á¢ŀá¡ªá¢ļá¡Ńá¡Ńá¡§":4833,"á¡¸á¡ªá¢ľ":4834,"á¡ªá¡ªá¡´":4835,"Ġá¢ĺá¡ªá¢Ł":4836,"ĠÐĽ":4837,"á¡¬á¡¬á¢Ĳ":4838,"á¡ªá¢ŀá¡ªá¢Ķá¡«":4839,"Ġá¢ĺá¡ªá¢İá¡³":4840,"Ġá¢ĺá¡ªá¡Ńá¢Ĭ":4841,"Ġá¢Īá¡ªá¢ĳá¢Ļá¡³":4842,"Ġá¡¥á¡ªá¡³á¢ļá¡¬á¢ŀá¡ªá¡ªá¡ªá¢Ķá¡ªá¡§":4843,"á¡ªá¢Ĭá¡ªá¡°á¡¨":4844,"Ġá¡¥á¡Ńá¢ŀá¡Ńá¢Ļá¡ªá¢ĩ":4845,"á¡ªá¢ŀá¢Ĭá¡ªá¡«":4846,"Ġá¡´á¡Ńá¢ĳá¡±á¡±á¡ªá¢Ļá¡ªá¢ĩ":4847,"á¡ªá¡ªá¢Ķá¡¬á¡§":4848,"Ġá¢ıá¡¬á¡³":4849,"Ġá¢ľá¡ªá¡±á¡±á¡ªá¢Ĭá¡¬á¡°á¡¨":4850,"Ġá¢ļá¡¬á¢ĳá¡Ńá¢Ĭá¡ªá¢Ļá¡³":4851,"á¢ļá¡¬á¢ĳá¡ªá¡§":4852,"á¢Ļá¡Ńá¢Ŀ":4853,"á¡Ńá¢ĳá¢Ľá¡³":4854,"á¡Ńá¡ªá¡ªá¢ĳá¡ªá¢Ľá¡³":4855,"Ġá¡¥á¢İá¡ªá¢Ĭá¡ªá¢Ĳ":4856,"Ġá¡¥á¡Ńá¡ªá¢Ļá¡ªá¡ªá¡ªá¡³":4857,"Ġá¢Ķá¡ªá¢ĭ":4858,"Ġá¢Ķá¡ªá¡±á¡±á¡Ńá¡°á¡¨":4859,"Ġá¡³á¡¬á¢Ķá¡¬á¢ŀá¡ªá¢Ĳ":4860,"Ġá¡¸á¡ªá¢ŀá¡ªá¡ªá¡ªá¡ªá¡§":4861,"Ġá¡¥á¡Ńá¡ªá¡ªá¡Ńá¢ŀ":4862,"Ġá¡¥á¡Ńá¡¬á¢ĳá¡ªá¢Ļá¡ªá¢Ĭá¡ªá¢Ĭá¢Ķá¡ªá¡§":4863,"á¢ĭá¡Ńá¡¬á¢":4864,"Ġá¢Ķá¡ªá¢Ľá¡¬á¢Ĭ":4865,"Ġá¡´á¡Ńá¢ŀá¢Ļ":4866,"Ġá¢ĺá¡ªá¡¬á¡¬á¢Ķ":4867,"Ġá¢Ĭá¡¬á¢ĳá¡ªá¢ĳá¢Ľ":4868,"Ġá¡¥á¡¬á¢Ľá¡¬á¢ĳ":4869,"á¡ªá¢Ĭá¡ªá¢ĳá¢Ļá¡§":4870,"áł³áłłáł¯":4871,"á¢Īá¡Ńá¢ŀá¡³á¡ªá¡§":4872,"Ġá¢ĭá¡Ńá¡¬á¡³á¡ªá¢Ĭá¡ªá¡¨":4873,"Ġá¢ĺá¡Ńá¡±á¡±á¡ªá¢Ļá¡³":4874,"á¢ĺá¡ªá¢Ķ":4875,"á¢ıá¡§":4876,"Ġá¢ļá¡¬á¡§":4877,"á¡¬á¢ļá¡ªá¢ĺá¡¦":4878,"ÑįÐ¶":4879,"á¡ªá¡±á¡±á¡Ńá¢ĳá¡Ńá¡ªá¡ªá¢ļá¡«":4880,"Ġá¢ĭá¡Ńá¡¬á¢ŀá¡ªá¡ªá¡¬á¡¨":4881,"Ġá¡¬á¡ªá¢ŀá¢Ĭá¡ªá¢ļ":4882,"Ġá¢Ķá¡ªá¡¬á¡¬á¢ĳ":4883,"á¡´á¡Ńá¢ĳá¢Ľ":4884,"Ġá¡¬á¡ªá¡¬":4885,"á¢Ķá¡Ńá¡¬á¢ĳ":4886,"Ġá¡¥á¡´á¡Ńá¢Ŀ":4887,"Ġáłªáł£áł¯":4888,"Ġá¢Ķá¡¬á¡Ńá¡ªá¢Ĭ":4889,"Ġá¡¥á¢ĳá¡ªá¢Ķá¡³":4890,"Ġá¡¸á¡ªá¡¬á¡¬á¢ŀá¡ªá¢Ļá¡³":4891,"Ġá¢ļá¡ªá¡±á¡±á¡ªá¢Ķá¡³":4892,"Ġá¢Ĺá¡Ńá¢ĩ":4893,"Ġáł¦áł¶":4894,"áł¦áł¯áł¬áł¦":4895,"Ġá¢Ĭá¡ªá¢Ļá¡Ńá¢Ĭá¡ªá¡§":4896,"Ġá¡¸á¡ªá¢ĳá¡ªá¡±á¡±":4897,"á¡Ńá¢§":4898,"Ġá¡¥á¡Ńá¡±á¡ªá¢Ľá¡³":4899,"Ġá¢Ķá¡¬á¢ŀá¡±á¡±á¡ªá¢Ĳ":4900,"Ġá¡¥á¡ªá¡ªá¡ªá¢Ļá¡§":4901,"Ġá¡¸á¡Ńá¢ĳá¡´á¡Ńá¡±á¡±á¡ªá¢Ļá¡³":4902,"Ġá¢Įá¡Ńá¡¬á¡ªá¢ļá¡³":4903,"Ġá¢ĺá¡Ńá¡¬á¢ŀá¡Ńá¢ĳá¢Ĭá¡¬á¡¦":4904,"Ġá¢Ĭá¡ªá¢ĳá¢Ļá¡ªá¢ĵ":4905,"Ġá¡¥á¢ŀá¡¬á¡§":4906,"á¡ªá¡Ńá¡ªá¢Ĭá¡ªá¡¬á¡¨":4907,"Ġá¡¥á¡Ńá¡¬á¢Ķá¢ļá¡³":4908,"Ġá¡¥á¢ŀá¢ĭá¡Ńá¢İá¢Ľá¡¬á¢ĳ":4909,"Ġá¡¸á¡ªá¡ªá¢Ĭá¢Ķá¡«":4910,"á¡Ńá¢ľá¡ªá¢īá¡¨":4911,"á¡Ńá¡ªá¢Ĭá¡±á¡±á¡Ńá¡«":4912,"Ġá¢Ķá¡Ńá¡´á¡Ńá¢ŀ":4913,"á¡ªá¡Ńá¡ªá¡ªá¡ªá¡ªá¡ªá¡ªá¡³":4914,"Ġá¡¥á¡Ńá¢Ļá¡Ńá¢Ĭá¡¬á¡¦":4915,"á¢Łá¢Ĭá¡±":4916,"á¡¸á¡ªá¢Ŀá¡¨":4917,"Ġá¡¥á¡Ńá¡±á¡ªá¡ªá¡ªá¡³":4918,"Ġá¢Ķá¡Ńá¢ŀá¡´á¡Ńá¢ĳá¢Ľá¡¬á¢ĳá¡ªá¡ªá¡ªá¢ļá¡«":4919,"Ġá¢ļá¡ªá¢Ĭá¡ªá¢Ľá¡¬á¢ĳ":4920,"Ġá¢Ķá¡Ńá¡ªá¢Ĭá¡±á¡±á¡Ńá¢Ľá¡³":4921,"Ġá¡¬á¡ªá¢ĳá¡ªá¢Ľá¡³":4922,"Ġá¢ľá¡ªá¡´á¡Ńá¡±á¡±á¡Ńá¢ĳá¢Ľá¡³":4923,"Ð³Ð°":4924,"á¡ªá¡ªá¡ªá¢Ļá¡ªá¡ªá¡ªá¡Ńá¡§":4925,"Ġá¢Ĺá¡ªá¢ĳ":4926,"Ġá¡¥á¡Ńá¡¬á¡¬á¢ĳá¡±á¡±":4927,"á¡¬á¢ľá¡ªá¢ĳá¡ªá¢Ĳ":4928,"Ġá¢ļá¡¬á¢Ĭá¢ĳ":4929,"Ġá¡¸á¡ªá¡¬á¡¬á¢ŀá¡ªá¡ªá¡ªá¡§":4930,"Ġá¢Įá¡ªá¢İá¡§":4931,"Ġáł¡áłª":4932,"Ġá¢ĺá¡ªá¢Ĭá¢Ķ":4933,"Ġá¢ĭá¡Ńá¡¬á¡ªá¢Ļá¡Ńá¡Ńá¡ªá¢Ĭá¡ªá¡§":4934,"Ġá¢ĺá¡Ńá¡Ńá¢ŀá¡ªá¢Ļá¡³":4935,"Ġá¡´á¡Ńá¡¬á¡¬á¢Ŀ":4936,"á¡´á¡Ńá¢ĳá¡Ńá¡°á¡¨":4937,"Ġá¡´á¡Ńá¡¬á¢Ķá¡ªá¢ĭá¡Ńá¡¬á¡¬á¢ļá¡Ńá¡Ńá¡§":4938,"Ġá¡¥á¡Ńá¡¬á¢ŀá¡Ńá¢Ķ":4939,"Ġá¢ĺá¡ªá¡ªá¢Ĭá¢Ļá¡ªá¢ĭá¡Ńá¡³":4940,"Ġá¡¥á¢Ļá¡Ńá¢ŀá¢Ľá¡¬á¡§":4941,"Ġá¡¥á¡Ńá¡ªá¢ļá¡ªá¡±á¡±á¡ªá¡¬á¡¬á¢ĳá¡ªá¡§":4942,"á¡ªá¢ĳá¢Ļá¡Ńá¡ªá¡ªá¢Ķá¡ªá¡§":4943,"Ġá¡¯á¡¬á¢Ĭá¡ªá¢ĳá¡§":4944,"Ġá¢ĭá¡Ńá¡¬á¢ĳá¡Ńá¡§":4945,"Ġá¡¥á¡ªá¢İá¡ªá¢Ŀ":4946,"Ġá¡¥á¡ªá¢ĳá¢ļ":4947,"Ġá¢Īá¡ªá¡¬á¡¬á¡ªá¡ªá¡ªá¢İá¢Ķá¡¬á¢ĩ":4948,"Ġá¡¥á¡Ńá¢ŀá¡¬á¡Ń":4949,"Ġá¢ĺá¡ªá¢İá¡¬á¢ŀ":4950,"á¡¥á¡¬á¡¬á¢İá¡³":4951,"Ġá¢ĺá¡Ńá¡³á¢Ļá¡Ńá¢ĳ":4952,"á¡ªá¢ļá¡¬á¢Ĭá¡ªá¢Ĭá¡ªá¡Ńá¡§":4953,"á¡ªá¡±á¡±á¡Ńá¢ĳá¢Ľá¡ªá¡«":4954,"ĠÐ±Ð°Ð¹":4955,"Ġá¡¥á¡Ńá¢Ĭá¡¬á¢ĳá¡ªá¢Ľá¡³":4956,"ĠÐĽÐ°Ð¼":4957,"16":4958,"Ġá¡¯á¡¬á¢Ĭá¡ªá¢Ļá¡Ńá¢ĳá¢Ļá¡ªá¡«":4959,"Ġá¢ľá¡ªá¡±á¡±á¡ªá¢ŀá¡ªá¡³":4960,"Ġá¡¯á¡¬á¡ªá¡ªá¢Ļ":4961,"Ġá¢ĭá¡Ńá¡¬á¢ļá¡Ńá¢ŀá¢Ĭá¡ªá¡¬á¡¨":4962,"18":4963,"Ġá¡¬á¡Ńá¡¬á¡ªá¢Ĭá¡±":4964,"Ġá¡¸á¡Ńá¡³á¡¬á¢Ķá¡ªá¡ª":4965,"Ġáł²áł¡áł·":4966,"Ġáł¤áł¬":4967,"á¡¥á¡Ńá¢ļá¡¬á¢Ŀ":4968,"á¡¬á¡ªá¢Ĭá¢Ĭá¡¬á¢į":4969,"Ġá¢Ķá¡¬á¢Ľ":4970,"áł¡áłµáł¤":4971,"Ġá¡¯á¡Ńá¡¬á¢ĳá¡Ńá¢Ĭá¡ªá¢ĳ":4972,"Ġá¢ľá¡ªá¢ŀá¡¬á¢ĳá¢ļá¡ªá¡ªá¡ªá¡³":4973,"Ġá¡¥á¢ŀá¢Ĭá¡¬á¢ĳá¡ªá¢Ľá¡³":4974,"Ġá¡³á¡ªá¢ľá¡ªá¢ĳá¡ªá¢ĭá¡Ńá¢ĳá¢ĭá¡Ń":4975,"Ġáł®áł¤áł©áłŃáł¤áł¯":4976,"á¢Ĭá¡ªá¡°á¡¨":4977,"Ġá¢ĺá¡Ńá¡±á¡±á¡Ńá¢īá¡¨":4978,"Ġá¢Īá¡ªá¡³á¡¬á¢ľá¡ªá¢Ļá¡³":4979,"á¡¬á¡Ńá¡¬á¡³":4980,"Ġá¡¥á¡ªá¡¬á¡¬á¢ŀá¡ªá¢ĩ":4981,"Ġá¡¥á¡Ńá¡ªá¢Ļá¡Ńá¢ŀ":4982,"Ð°Ð¼Ð±Ð°":4983,"Ġáł¬áł¦áł´":4984,"á¡¬á¡¬á¢ŀá¡±á¡±":4985,"á¡ªá¡´á¡Ńá¢ŀá¡¬á¢ĳá¡ªá¢Ľá¡³":4986,"Ġá¢ĺá¡ªá¢Ķá¡Ńá¢ŀá¡ªá¢ĳá¢Ļá¡§":4987,"Ġá¡´á¡Ńá¢ŀá¡Ńá¢īá¡¨":4988,"á¡³á¡ªá¢ļá¡³":4989,"ĠâĴ":4990,"áł¢áłŃáł¤áł¯áł":4991,"Ġá¡¥á¡¬á¢Ļá¡ªá¢Ĭá¡ªá¢Ľá¡³":4992,"áłłáł³áłłáłŃ":4993,"Ġá¢Įá¡Ńá¢ŀá¡¬á¡Ńá¡§":4994,"Ġá¢Ĭá¡ªá¢ŀá¡ªá¢Ĭá¢Ľá¡¬á¢ĭá¡Ńá¢ĳá¢ĭá¡Ń":4995,"á¢ĺá¡ªá¡¬á¡¬á¢İá¡³":4996,"Ġá¡¥á¡Ńá¢ŀá¡ªá¡ªá¢Ĭá¡±á¡±á¡Ńá¡³á¡¨":4997,"á¡¸á¡Ńá¢Ļ":4998,"Ġá¢ĺá¡ªá¢Ļá¡ªá¡±á¡ªá¢Ŀ":4999,"á¡Ńá¡¬á¢ŀá¡ªá¡§":5000,"Ġáłłáłµáł¢áł¯":5001,"Ġá¡¥á¡ªá¢Ļá¡ªá¢Ĳá¡¨":5002,"Ġá¢ĭá¡Ńá¡¬á¢Ĭá¢Ľá¡¬á¢Ľá¡³":5003,"Ġá¢ĭá¡Ńá¡¬á¢Ĭá¡ªá¢Ĭá¡ªá¢Ľá¡³":5004,"Ġá¡¥á¢ĭá¡Ńá¢Ķá¡Ńá¢Ĭá¢Ķá¡ªá¡§":5005,"Ġîį":5006,"Ġá¡¥á¡Ńá¡ªá¡ªá¢Ķá¡ªá¡±á¡±á¡ªá¢Ļá¡ªá¡§":5007,"Ġá¢ĺá¡Ńá¡¬á¢ŀá¡³á¡ªá¢ĳá¢Ľá¡¬á¡§":5008,"á¡Ńá¡±á¡ªá¢į":5009,"á¡Ńá¡³á¡ªá¢Ŀ":5010,"Ġá¢Ķá¡Ńá¡¬á¢Ķá¡³":5011,"Ġá¡¸á¡ªá¡¬á¡¬á¢ŀá¡ªá¢ĳ":5012,"Ġá¡´á¡Ńá¢ĳá¢ļá¡¬á¡ªá¡ªá¡ªá¡°á¡¨":5013,"áłĮ":5014,"Ġá¡¬á¡ªá¢ľá¡ªá¡±á¡±á¡ªá¡§":5015,"Ġá¢ĺá¡Ńá¡ªá¡ªá¢ĳá¡ªá¢Ľá¡³":5016,"Ġá¡¥á¡Ńá¢ļá¡¬á¢ŀá¢Ļá¡ªá¡«":5017,"á¡¥á¡¬á¡ªá¢Ĭá¢Ĭ":5018,"å®":5019,"á¢ļá¡ªá¢īá¡¨":5020,"á¢ĺá¡Ńá¡¬á¢İá¡ªá¡§":5021,"Ġáłłáłµ":5022,"Ġá¡¥á¡Ńá¡¬á¡¬á¢ĳá¡ªá¢Ļá¡Ńá¢ĳá¢Ĭá¡ªá¡¨":5023,"áł¤áł³áłłáł¯":5024,"Ġá¡³á¡ªá¡±á¡±á¡Ńá¡ªá¡ªá¢Ķá¡ªá¡§":5025,"Ġáłłáł¯áł":5026,"áł³áłłáłŃ":5027,"Ġá¡³á¡ªá¡ªá¢Ļ":5028,"Ġá¡¥á¡ªá¡ªá¢Ļ":5029,"Ġá¡¯á¡¬á¡ªá¡ªá¢Ļá¡§":5030,"áłµáł¢áł¯":5031,"Ġá¡¸á¡Ńá¢ŀá¡Ńá¡«":5032,"Ġá¢Īá¡ªá¢ŀá¡³á¡ªá¡¨":5033,"á¡¬á¢ĳá¢Ľ":5034,"Ġá¡¥á¡ªá¢ŀá¡ªá¡ªá¢Ķá¡¬á¡§":5035,"Ġá¡¥á¢İá¡Ńá¢Ķá¢ļá¡³":5036,"á¡±á¡ªá¡ªá¡ªá¡³":5037,"an":5038,"á¢ĺá¡Ńá¡ªá¡ªá¡ªá¡«":5039,"Ġá¢ĺá¡ªá¢Ļá¡ªá¡±á¡Ńá¢ĵ":5040,"Ġá¡¸á¡ªá¡°á¡¨":5041,"Ġá¢Īá¡Ńá¢ļ":5042,"Ġá¢ĺá¡Ńá¡´":5043,"á¢Ĭá¡¬á¢Ļá¡ªá¡Ńá¡§":5044,"á¢ļá¡¬á¡±á¡³":5045,"Ġ,":5046,"Ġá¡¬á¡¬á¢ĳá¡Ńá¡±á¡±á¡³":5047,"15":5048,"á¡¥á¡ªá¡´":5049,"Ġá¢ĭá¡Ńá¡¬á¡ªá¢Ļá¡Ńá¡Ńá¡ªá¢Ĭá¡ªá¢Ĳ":5050,"Ġá¡¸á¡ªá¢İá¡¬á¡±á¡±":5051,"Ġá¢Īá¡ªá¡¬á¡¬á¡ªá¡ªá¡ªá¢İá¢Ķ":5052,"Ġá¡¥á¡ªá¢ĳá¢Ļá¡ªá¢ŀá¢Ķ":5053,"á¡Ńá¡¬á¢ĵ":5054,"Ġá¢Įá¡¬á¢Ķ":5055,"Ġá¢ļá¡¬á¡±á¡ªá¢Ĭá¡ªá¡¨":5056,"Ò¯Ð½":5057,"Ġá¡¬á¡Ńá¢Ĭá¡¬á¢ľá¡ªá¡ªá¡ªá¢Ķá¡ªá¡§":5058,"á¢Ķá¡ªá¡Ńá¡§":5059,"Ġá¢ĺá¡Ńá¡ªá¡ªá¡Ńá¡«":5060,"Ġá¡¸á¡ªá¡³á¢Ļ":5061,"Ġá¡¥á¡Ńá¡¬á¡¬á¡Ńá¡ªá¡ªá¡ª":5062,"Ġá¡¥á¡Ńá¢ĳá¡Ńá¡±á¡±á¡ªá¡Ńá¡§":5063,"Ġá¢Ĭá¢Łá¢ŀá¢İá¡ªá¡§":5064,"á¡Ńá¢Ļá¡Ńá¢Ĭá¡ªá¢Ŀ":5065,"Ġá¢ĭá¡Ńá¡¬á¢ŀá¡Ńá¢Ķá¡³":5066,"Ġá¢Ĭá¡ªá¢ŀá¡ªá¢Ĭá¢ĳá¡ªá¢Ļá¡ªá¡¬á¡¨":5067,"Ġá¢Įá¡ªá¡ªá¡ªá¢Ļá¡ªá¡±á¡±á¡ªá¢Ĳ":5068,"Ġá¢ŀá¡Ńá¢İá¡ªá¡§":5069,"Ġá¡¥á¡Ńá¢İá¡Ńá¡ªá¡ªá¢Ķ":5070,"er":5071,"Ġá¡¥á¡Ńá¢Ļá¡Ńá¢ŀá¡¬á¡Ńá¡ªá¡ªá¡ªá¡³":5072,"á¢ĺá¡ªá¡§":5073,"Ġá¢ĺá¡ªá¢ĳá¡³á¡¬á¡§":5074,"á¡¬á¢Ĭá¢Ļ":5075,"Ġá¢ļá¡ªá¡ªá¢Ĭá¢Ĭá¡ªá¢Ĳ":5076,"á¡´á¡Ńá¢ĳá¢Ľá¡³":5077,"Ġá¢Ĭá¡¬á¡±á¡ªá¢ĳá¢Ļá¡§":5078,"Ġ5":5079,"Ġá¡¸á¡Ńá¢Ĺ":5080,"ĠÐ·":5081,"Ġá¡¬á¡¬á¢ĳá¡Ńá¡±á¡±á¡Ńá¢ļá¡«":5082,"Ġáłłáł·áłłáł³":5083,"á¡¥á¡Ńá¢ŀá¡Ńá¢Ķ":5084,"Ġá¡¥á¡Ńá¡¬á¢ŀá¢Ļá¡ªá¢Ĭá¡ªá¡¨":5085,"á¡Ńá¡´á¡Ńá¢ŀ":5086,"Ġá¢ľá¡ªá¡´á¡Ńá¡ªá¡ªá¢Ļá¡ªá¢Ľá¡³":5087,"Ġáłªáł¤áł³":5088,"Ġá¡³á¡ªá¢ŀá¡ªá¡±á¡±á¡Ńá¡ªá¢Ķá¡«":5089,"á¡Ńá¡¬á¢İá¡³":5090,"Ġáł¨áł¢áłŃáł¡":5091,"á¡Ńá¢¡á¢Łá¢Ķá¢Ķá¡Ńá¢Ŀ":5092,"Ġá¡¥á¡Ńá¡ªá¢Ĭá¢Ķá¡¬á¡ªá¡ªá¢Ķá¡ªá¡§":5093,"Ġá¡¥á¡Ńá¡¦":5094,"á¡ªá¡±á¡±á¡ªá¢Ļá¡ªá¢ĩ":5095,"á¢ļá¡ªá¢Ĭ":5096,"Ġá¡¯á¡ªá¡¬á¡¬á¢Ļá¡ªá¢ĳá¡ªá¢Ĳ":5097,"Ġá¢Įá¡ªá¡±á¡ªá¡§":5098,"á¡ªá¢ļá¡¬á¢ĳá¡ªá¢ĳá¢Ļá¡§":5099,"Ġá¢Ķá¡Ńá¢ŀá¡±á¡±á¡Ńá¢ĩ":5100,"Ġá¢ĺá¡Ńá¡¬á¢Ķá¡Ńá¢Ĳ":5101,"Ġá¢ĺá¡Ńá¡¬á¢Ķá¡Ńá¢Ĭ":5102,"Ġáł¤áł·áł¤áł¨":5103,"á¡ªá¢ĳá¢ļá¡ªá¡ªá¡ªá¡³":5104,"á¡³á¡ªá¢ĳ":5105,"Ġá¡¥á¡Ńá¡¬á¢Ľá¡§":5106,"ĠÐ¥Ð°Ð¼Ð±Ð°":5107,"Ġá¡¸á¡§":5108,"á¢ļá¡¬á¢įá¡¨":5109,"á¡³á¡ªá¡¬á¡¬á¢Ľá¡³":5110,"áł¢áł©":5111,"Ġá¡¸á¡ªá¢İá¡¬á¢ľá¡ªá¢ŀá¡ªá¡ªá¡³":5112,"Ġá¢Īá¡ª":5113,"á¡ªá¢ĭá¡Ńá¢ĵ":5114,"Ġá¢ľá¡ªá¢ŀá¡¬á¡±á¡±á¡ªá¡Ńá¡§":5115,"á¡Ńá¡¬á¢Ŀ":5116,"á¢ĺá¡ªá¡¬á¡¬á¢ĳ":5117,"Ġá¡¥á¡Ńá¡¬á¢Ĭá¢ļá¡ªá¡«":5118,"Ġá¢ĺá¢Łá¢Ĭá¡±":5119,"Ġá¡¥á¢ŀá¢ļá¡«":5120,"Ġæ":5121,"Ġá¡¬á¡¬á¡±á¡±á¡ªá¡ªá¡ªá¢Ķá¡ªá¡§":5122,"Ġá¢ĺá¡ªá¡¬á¡¬á¢ĳá¡Ńá¡°á¡¨":5123,"Ġá¡¥á¡Ńá¡ªá¢Ĭá¡±á¡±á¡Ńá¡Ńá¡§":5124,"Ġá¢ľá¡¬á¢Ķá¡³":5125,"Ġá¢ĺá¡¬á¡ªá¢Ĭá¢Ĭá¡¬á¢į":5126,"á¢ĺá¡ªá¢Ļ":5127,"Ġá¡¥á¡¬á¢İá¡ªá¡ªá¡ªá¢Ļá¡§":5128,"Ġá¢Įá¡Ńá¢Ķ":5129,"á¢Ķá¡ªá¡±á¡ªá¢īá¡¨":5130,"Ġá¡¥á¡Ńá¡¬á¡±á¡«":5131,"á¡¯á¡ªá¡±á¡±":5132,"á¡ªá¡ªá¢Ľá¡¬á¡§":5133,"Ġá¢Įá¡ªá¡¬á¡¬á¢İ":5134,"á¡Ńá¢ĳá¡ªá¡ªá¡ªá¢Ķá¡ªá¡§":5135,"á¡Ńá¢Ĭá¡ªá¢ŀ":5136,"á¡Ńá¢İá¢Łá¢ĺá¢Ŀ":5137,"á¡ªá¢Ĭá¢Ļá¡ªá¢Ĭá¡ªá¡§":5138,"Ġá¡¥á¡Ńá¢ŀá¢ļá¡¬á¡±á¡±á¡Ńá¢ĳá¢īá¡¨":5139,"Ġá¢ĺá¡Ńá¢ĳá¡Ńá¡±á¡±":5140,"Ġá¢Ĭá¡ªá¢Ķá¡¬á¢ĭá¡Ńá¡Ńá¡§":5141,"á¡ªá¢ĳá¡ªá¡³á¡ªá¢Ĳ":5142,"Ġá¢Įá¡§":5143,"Ġá¡¥á¡Ńá¢ľá¡ªá¢ŀ":5144,"Ġá¢Ķá¡¬á¢ĳá¡Ńá¢Ĭ":5145,"á¡Ńá¢ļá¡¬á¡ªá¡ªá¡ªá¡ªá¡ªá¢Ķá¡ªá¡§":5146,"Ġá¢Īá¡ªá¢ĳá¡ªá¡±á¡±á¡³":5147,"Ġá¡¥á¡Ńá¢Ļá¡ªá¡ªá¡ªá¢Ķá¡ªá¡§":5148,"Ġá¡¯á¡ªá¡³á¢Ļá¡ªá¢ŀá¡ªá¢ĭá¡Ńá¢ĳá¢Ĭá¡ªá¡¨":5149,"Ġá¡¯á¡ªá¢ŀá¡¬á¢ĳá¡¬á¢ĩ":5150,"á¡ªá¢Ľá¡¬á¢ĳá¢Ļá¡ªá¡§":5151,"Ġá¡¯á¡ªá¡¬á¡¬á¢Ļá¡ªá¢į":5152,"Ġá¡¯á¡Ńá¢İá¡Ńá¡ªá¡ªá¡ªá¡§":5153,"Ġá¡¥á¡Ńá¡Ńá¡±á¡±á¡ªá¢Ĳ":5154,"Ġá¡¸á¡Ńá¢ŀá¡Ńá¢į":5155,"Ġá¡¥á¡Ńá¡¬á¢ĭá¡Ńá¢ĳá¡ªá¢ĭá¡Ń":5156,"á¡¬á¢ľá¡ªá¢Ķá¡³":5157,"Ġá¡¥á¢Ľá¡ªá¢ĳá¡ªá¢Ľá¡³":5158,"Ġá¢Įá¡¬á¢ĳ":5159,"á¡¥á¡Ńá¡ªá¡ªá¡ªá¡±á¡±á¡ªá¡§":5160,"á¡¸á¡Ń":5161,"á¡ªá¢İá¢Ķá¡³":5162,"Ġá¡¸á¡Ńá¡³á¡¬á¢ĳá¡±á¡±á¡ªá¡§":5163,"Ġáł¢áł¶áł¡áł¨":5164,"Ġá¡¸á¡Ńá¢ŀá¡Ńá¡ªá¡ªá¡ªá¡«":5165,"Ġá¢ĺá¡¬á¡²":5166,"á¡ªá¢İá¡ªá¢Ĭá¢ļá¡§":5167,"Ġá¢Ķá¡Ńá¢Ļá¡Ńá¢ĳá¢Ľá¡³":5168,"Ġá¡¥á¡ªá¡ªá¢Ĭá¢Ĭá¡¬á¢ĳ":5169,"Ġá¡´á¡Ńá¢Ĺ":5170,"Ġá¢Īá¡ªá¢Ļá¡ªá¡±á¡ªá¢Ĭá¡¬á¡¦":5171,"á¡Ńá¢ļá¡¬á¢ĳá¡ªá¢Ľá¡³":5172,"Ġá¢Ĭá¡ªá¡³á¢ļá¡¬á¡«á¡¨":5173,"á¡Ńá¡ªá¡ªá¢ļ":5174,"á¡¸á¡ªá¢Ķ":5175,"Ġá¡¯á¡¬á¢ļá¡Ńá¢ĭá¡Ńá¡§":5176,"Ġá¢ľá¡ªá¡´á¡Ńá¡³á¡ªá¢Ĳ":5177,"Ġá¢¤á¡ªá¢Ļá¢Ŀ":5178,"Ġá¡¥á¢ŀá¢Ĭá¡¬á¢ĳá¡ªá¢Ĭá¢Ķá¡ªá¡§":5179,"á¡±á¡±á¡ªá¡°á¡¨":5180,"Ġá¢ĺá¡ªá¢İá¢Ļá¡ªá¢Ĭá¢ĳá¡ªá¢Ĭá¢Ķá¡ªá¡§":5181,"Ġá¡¸á¡Ńá¢ŀá¡«":5182,"Ġá¢ĺá¡Ńá¡±á¡±á¡Ńá¡±á¡±á¡ªá¡§":5183,"Ġá¢Įá¡Ńá¡¬á¢ŀá¡³":5184,"Ġáł´áłłáłŃ":5185,"Ġá¡´á¡Ńá¢ĳá¡±á¡±á¡ªá¡°á¡¨":5186,"Ġá¡¬á¡ªá¢ŀá¡Ńá¢ļ":5187,"Ġá¡¥á¡ªá¢ľá¡Ńá¡ªá¡ªá¡³":5188,"Ġá¡¥á¢İá¡Ńá¡±á¡ªá¢Ķá¡«":5189,"áł¤áł¯áłł":5190,"á¡¬á¡ªá¡ªá¢Ļá¡ªá¡§":5191,"Ġá¢Ķá¡Ńá¡¬á¡±á¡¬á¡Ńá¡§":5192,"á¡Ńá¢ĳá¢Ļá¡Ńá¢Ľá¡³":5193,"Ġá¢ĺá¡ªá¡±á¡Ńá¢ĵ":5194,"Ġá¡¥á¡Ńá¢Ļá¡Ńá¡Ńá¡§":5195,"Ġá¡¥á¡ªá¢Ľá¡¬á¢ŀá¢īá¡¨":5196,"Ġá¢¤á¡ªá¢ŀ":5197,"Ġá¡¬á¡ªá¢ĳá¡ªá¡ª":5198,"á¡¬á¢ĺá¡¦":5199,"Ġá¡´á¡Ńá¢ĳá¡Ńá¢Ŀ":5200,"Ġá¡¥á¡Ńá¡¬á¡ªá¢Ļá¡ªá¢Ĭá¡ªá¡¨":5201,"Ġá¡¸á¡Ńá¢Ļá¡ªá¢ĳá¢Ļá¡Ńá¢Ľá¡³":5202,"Ġá¡¬á¡¬á¢Ŀ":5203,"áł³áł¤":5204,"á¡Ńá¡³á¢ļá¡¬á¢Ļá¡ªá¡«":5205,"Ġá¡¥á¡Ńá¢ŀá¡Ńá¡³á¡ªá¡¨":5206,"13":5207,"Ġá¢ľá¡ªá¢Ļá¡ªá¡§":5208,"Ġá¡¸á¡Ńá¢ĳá¡Ńá¡±á¡±á¡ªá¡°á¡¨":5209,"Ġá¡¸á¡ªá¡±á¡±á¡ªá¢ĳ":5210,"Ġá¡¥á¡Ńá¢ŀá¡Ńá¡°á¡¨":5211,"Ġá¢Īá¡ªá¢ŀá¢Ļ":5212,"Ġá¢Ĭá¡¬á¢Ľá¡ªá¡±á¡±á¡ªá¢ŀá¢ĳ":5213,"Ġá¡¬á¡ªá¢ŀá¡Ńá¡Ńá¡§":5214,"Ġáł¬áł¡áł¯":5215,"Ġá¡¥á¡Ńá¢ľá¡Ń":5216,"Ġáłī":5217,"á¡ªá¢ĭá¡Ńá¡Ńá¡§":5218,"Ġá¡¸á¡Ńá¡§":5219,"Ġáł´áł¢áł³":5220,"Ġá¡¥á¡Ńá¡¬á¢ĭá¡Ńá¢ĳá¡ªá¢ĳá¢Ĭá¡ªá¡¨":5221,"Ġá¡¸á¡Ńá¡ªá¢Ļá¡ªá¢īá¡¨":5222,"Ġá¡¥á¡Ńá¡¬á¡¬á¢ļ":5223,"Ġá¡´á¡Ńá¢ĳá¡Ńá¢Ķá¡«":5224,"Ġá¢ĺá¡ªá¢ŀá¡ªá¡±á¡±á¡ªá¢ĳá¡ªá¡§":5225,"Ġá¡´á¡Ńá¢ĩá¡¨":5226,"Ġá¡¥á¡¬á¡±á¡¬á¢ľá¡ªá¢Ľá¡³":5227,"Ġá¡¥á¡ªá¢ĳá¡ªá¡±á¡±á¡ªá¡§":5228,"á¡Ńá¢ĳá¢ļá¡ªá¢Ľá¡³":5229,"Ġá¡¬á¡Ńá¡¬á¢Ķ":5230,"Ġá¢ĺá¡Ńá¢ĳá¢īá¡¨":5231,"Ġá¡¸á¡Ńá¡³á¡¬á¡§":5232,"á¡¯á¡ªá¡¬á¡¬á¢Ĭ":5233,"ä»":5234,"Ġá¢Įá¡³":5235,"Ġá¢ľá¡ªá¡´á¡Ńá¡±á¡±á¡Ńá¢ĳá¡ªá¡ªá¡³":5236,"Ġá¡´á¡Ńá¢Ļá¡Ńá¢ĩ":5237,"á¡¸á¡Ńá¢Ļá¡§":5238,"á¡ªá¢ĳá¢Ľá¡ªá¢Ĳ":5239,"Ġá¢ĺá¡ªá¡±á¡±á¡Ńá¢Ļá¡ªá¢Ľá¡³":5240,"Ġá¡´á¡Ńá¡¬á¢ŀá¡¬á¢ĳá¢Ļá¡Ńá¢ĭá¡Ńá¡§":5241,"Ġá¢ļá¡ªá¡³á¡ªá¢ŀá¢ĳ":5242,"Ġá¢Ĺá¡ªá¡ªá¡¬á¡¨":5243,"Ġá¢ĺá¡Ńá¢ĳá¡Ńá¢Ļá¡Ńá¡±á¡±á¡ªá¢Ŀ":5244,"á¢Ķá¡¬á¢ĳá¡Ńá¡¬á¡¨":5245,"Ġá¢Ķá¡ªá¡±á¡ªá¡ªá¡ªá¢Ļá¡ªá¢Ľá¡³":5246,"Ġá¡³á¡ªá¢ŀá¡¬á¡³":5247,"Ġá¢Ķá¡¬á¡¬á¡Ńá¡ªá¡´á¡Ńá¢ŀá¡«":5248,"Ġá¢ļá¡ªá¡¬":5249,"Ġá¡¸á¡ªá¢Ļá¡ªá¡±á¡±á¡ªá¢ĳá¡ªá¢Ľá¡³":5250,"Ġá¡¥á¡ªá¢Ķá¡ªá¡±á¡±á¡Ńá¢Ľá¡³":5251,"Ġá¢ĺá¡ªá¢İá¡ªá¢Ĭá¡ªá¡§":5252,"Ġá¢Ķá¡¬á¡±á¡±á¡Ńá¡«":5253,"á¡Ńá¡¬á¢Łá¢Łá¡¦":5254,"Ġá¡¥á¡Ńá¢ŀá¢İ":5255,"á¡¬á¢İá¢Ļ":5256,"Ġá¢ĺá¡ªá¢Ĭá¡ªá¢Ĭá¢Ķá¡¬á¢ĳá¡ªá¢ĭá¡Ńá¢ĳá¢ĭá¡Ń":5257,"Ġá¡¥á¡ªá¢ĳá¢Ļá¡ªá¡«":5258,"Ġá¢Ĭá¡¬á¢ļá¡¬á¢ľá¡ªá¢ĳá¢ĳá¡ªá¢Ĭá¡ªá¡¨":5259,"Ġá¢ĺá¡Ńá¢Ķá¡ªá¢ĳá¡ªá¡ªá¡ªá¡³":5260,"Ġá¡¬á¡¬á¡³á¡ªá¡ª":5261,"áł¤áł®áł³áłłáł³áł¤":5262,"á¡¥á¡ªá¡±á¡±á¡Ńá¢ĳ":5263,"á¢ļá¡ªá¡±á¡±":5264,"Ġá¢Ĺá¡ªá¡ªá¡ªá¡ªá¡«":5265,"Ġá¢Įá¡ªá¡±á¡ªá¡¬á¡¬á¢Ĭá¡¬á¡§":5266,"Ġá¡¸á¡ªá¢İá¡ªá¡±á¡±á¡ªá¢ĳá¡ªá¢ĳá¢Ļá¡§":5267,"á¢Łá¢ŀá¢Ĭá¡¬á¡¦":5268,"Ġá¡¥á¡ªá¢Ļá¡ªá¢Ĳ":5269,"Ġá¡¥á¡Ńá¡¬á¡¬á¢ĳá¡ªá¡±á¡±á¡ªá¡ªá¡ªá¢Ķá¡ªá¡§":5270,"Ġáłłáł¶":5271,"Ġá¡¥á¡ªá¢ĳá¡±á¡±":5272,"Ġá¢ĺá¡Ńá¢Ķá¡Ńá¢į":5273,"Ġá¢Īá¡ªá¡¬á¡¬á¡ªá¡ªá¡ªá¢ĳá¢Ļá¡ªá¡«":5274,"á¢ļá¡¬á¡ªá¡ªá¡ªá¡ªá¡ªá¢Ķá¡ªá¡§":5275,"Ġá¢ļá¡ªá¡±á¡±á¡ªá¢Ķá¡Ńá¡§":5276,"á¡´á¡Ńá¡¬á¢Ķ":5277,"áł´áł¤":5278,"á¡ªá¡¬á¡¬á¢Ļá¡³":5279,"á¡ªá¡ªá¡ªá¢Ľ":5280,"Ġá¡´á¡Ńá¢ĳá¡Ńá¢īá¡¨":5281,"Ġ+":5282,"Ġáłªáł¤áł·":5283,"á¡ªá¢Ľá¡¬á¢ĳá¡ªá¢Ľá¡³":5284,"Ġá¡¯á¡ªá¡±á¡±á¡ªá¢Ļá¡³":5285,"áł³áł¡áłŃ":5286,"Ġá¢Ķá¡Ńá¡¬á¢ŀá¢Ļ":5287,"á¡ªá¡±á¡±á¡Ńá¢ĳá¡³á¡ªá¢Ĳ":5288,"ãĢĤ":5289,"Ġá¢ĭá¡Ńá¡¬á¡³á¡ªá¢Ĭá¡ªá¡§":5290,"ÑįÐ¶Ñį":5291,"Ġá¢ıá¡Ńá¢īá¡¨":5292,"á¡¥á¡¬á¡±":5293,"Ġá¢ĺá¡Ńá¢ŀá¡ªá¢Ļá¡Ńá¡ªá¡ªá¢Ķá¡ªá¡§":5294,"á¡Ńá¢İá¡³":5295,"Ġá¡¥á¡±á¡ªá¡Ńá¡ªá¢Ĭá¡ªá¡¬á¡¨":5296,"Ġá¡¬á¡Ńá¢ŀá¡´á¡Ńá¢ĵ":5297,"á¡¥á¢ļ":5298,"á¡Ńá¡³á¢ļá¡«":5299,"Ġá¢ĭá¡Ńá¡¬á¢Ķá¡ªá¢Ĭá¢Ķá¡ªá¡§":5300,"á¡¸á¡Ńá¡³á¡¬á¡¦":5301,"Ġá¡¯á¡Ńá¡ªá¡ª":5302,"Ġá¡¥á¡ªá¢Ķá¡¬á¡ªá¡ªá¢Ļá¡ªá¡«":5303,"Ġá¢Ĭá¡ªá¡«á¡¨":5304,"Ġá¢Ĺá¡Ńá¡¬á¢ĳ":5305,"Ġá¢Ķá¡Ńá¡ªá¢Ĭá¡±á¡±á¡Ńá¢ĳá¢Ļá¡§":5306,"Ġá¡¥á¡Ńá¡±á¡Ńá¢Ľá¡³":5307,"Ġá¢Īá¡ªá¢Ķá¡¬á¡±á¡±á¡Ńá¡§":5308,"Ġá¢Įá¡ªá¢Ķ":5309,"Ġá¢Ķá¡ªá¡±á¡±á¡ªá¡Ńá¡§":5310,"á¡¬á¡±á¡±á¡Ńá¢ĳá¡Ńá¡°á¡¨":5311,"Ġá¡¥á¡¬á¢Ļá¡ªá¢Ĭá¢Ķá¡ªá¡§":5312,"á¡ªá¢ļá¡¬á¡ªá¡ªá¡ªá¢Ĳá¡¨":5313,"Ġá¢ĺá¡Ńá¡¬á¢Ķá¡¬á¡¬á¡¨":5314,"Ġá¡¬á¡¬á¢ľá¡Ńá¡¬á¡§":5315,"Ġá¢ĭá¡Ńá¡¬á¡¬á¡¨":5316,"Ġá¡³á¡ªá¢ľá¡ªá¢Ķá¡Ńá¢Ĳ":5317,"Ġá¢Ĭá¡ªá¢Ĭá¡ªá¢Ŀ":5318,"á¡Ńá¢İá¡Ńá¡«":5319,"Ġá¢ĺá¡Ńá¢ŀá¡Ńá¡«":5320,"Ġá¡³á¡ªá¢ľá¡ªá¡ªá¡ªá¡ª":5321,"Ġá¡¥á¡Ńá¡¬á¢ĳá¡Ńá¢Ķ":5322,"Ġá¢ĺá¡ªá¡±á¡±á¡ªá¢ŀá¡ªá¡ªá¡ªá¡³":5323,"Ġá¡¯á¡ªá¡¬á¢İá¡ªá¢Ļá¡Ńá¡±á¡±á¡ªá¢Ŀ":5324,"ÑĤÐ¸Ð³":5325,"á¡ªá¢Ĭá¢ĳá¡¬á¢ľá¡Ńá¡³":5326,"Ġá¡¥á¡¬á¢Ļá¡ªá¢Ĭá¡ªá¡¨":5327,"Ġ)\"":5328,"Ġá¢Ķá¡Ńá¢ŀá¡Ńá¢ĳá¢ļá¡ªá¢ĳá¢īá¡¨":5329,"Ġá¡¸á¡ªá¢İá¢Ľá¡¬á¢ĳ":5330,"á¡¯á¡ª":5331,"Ġ4":5332,"Ġá¡¥á¡Ńá¡ªá¡ªá¡Ńá¢Ŀ":5333,"Ġá¡¥á¡ªá¢ŀá¡ªá¢Ĳ":5334,"Ġá¢ĺá¡Ńá¡ªá¡ªá¡ªá¡¬á¡¬á¢ĳá¡ªá¡³á¡ªá¢Ĳ":5335,"áł¢áł¯áł³":5336,"Ġá¡¥á¡´á¡Ńá¢Ĭá¡ªá¡Ńá¡§":5337,"á¡¬á¢İá¡ªá¡Ńá¡§":5338,"á¡¬á¢ľá¡ªá¢ĳá¡ªá¢Ľá¡³":5339,"Ġá¢ĺá¡Ńá¡±á¡±á¡Ńá¢Ķ":5340,"Ġá¡³á¡ªá¡Ń":5341,"Ġá¢Ļá¡Ńá¢¤":5342,"Ġá¢Ķá¡ªá¡¬á¡¬á¢Ķ":5343,"Ġá¡¥á¡Ńá¡¬á¢ŀá¢ĭá¡Ńá¢ĳá¢Ľá¡¬á¢ĳá¡ªá¢Ĳ":5344,"á¡ªá¢Ĭá¡ªá¡¬á¡¬á¢ŀ":5345,"Ġá¢Ĺá¡Ńá¢ŀ":5346,"Ġá¡¥á¢ĭá¡Ńá¡Ń":5347,"Ġá¢ĺá¡ªá¢ŀá¡Ńá¡±á¡±á¡ªá¢Ķá¡³":5348,"en":5349,"á¡ªá¡±á¡ªá¡§":5350,"Ġá¡¥á¡Ńá¢ĳá¢Ļá¡ªá¢ĩ":5351,"Ġá¢ıá¢¨":5352,"á¡Ńá¡¬á¡«":5353,"Ġá¡¬á¡ªá¢ĳá¡³á¡ªá¢ŀ":5354,"Ġá¢Įá¡Ńá¡¬á¢ŀá¡Ńá¡¬á¡¬á¢ļ":5355,"Ġá¡¥á¡Ńá¡¬á¢Ĭá¡³á¡ªá¡¨":5356,"Ġá¡¥á¡¬á¢Ļá¡ªá¢Ļá¡ªá¡¬á¡¨":5357,"Ġá¡¸á¡Ńá¢ŀá¡ªá¢ĳá¢Ļ":5358,"Ġá¢ļá¡¬á¢Ļá¡ªá¡´á¡Ńá¢ŀ":5359,"Ġá¡´á¡Ńá¢Ļá¡§":5360,"Ġá¡¥á¡³á¡ªá¢Ŀ":5361,"á¡·á¡Ńá¢ŀá¢ĺá¡¦":5362,"Ġá¡¥á¡Ńá¡ªá¢Ĭá¢Ķá¡¬á¡ªá¡ªá¢ļá¡«":5363,"Ġá¡¬á¡¬á¢Ľá¡¬á¢Ĭá¢Ĭá¡ªá¡§":5364,"Ġá¡³á¡ªá¡¬á¡¬á¡±á¡±á¡ªá¢ŀá¡ªá¡«":5365,"Ġá¢Īá¡ªá¡«":5366,"Ġá¢Įá¡ªá¡ªá¢Ĭá¢ĩá¡¨":5367,"Ġá¢Ĭá¡¬á¢Ļá¡Ńá¢īá¡¨":5368,"á¡¬á¢ľá¡ªá¢Ļ":5369,"Ġá¡¥á¡ªá¡±á¡±á¡Ńá¡«":5370,"ãĢķ":5371,"Ġá¡¯á¡ªá¢İá¢Ļá¡ªá¢Ŀ":5372,"Ġáł¢áł¯":5373,"Ġá¡¥á¡¬á¢Ļá¡ªá¢Ĭá¡ªá¢ĭá¡Ń":5374,"Ġá¡¥á¡Ńá¡¬á¢Ľá¡ªá¡§":5375,"á¡ªá¢ĭá¡Ńá¢ĳá¢Ľá¡ªá¡«":5376,"Ġá¢Ķá¡ªá¡±á¡±á¡Ńá¢ļá¡§":5377,"ÑĤÐ¸Ð³ÑįÐ»":5378,"Ġá¡¯á¡ªá¢ŀá¡ªá¡¬á¡¬á¢Ļá¡Ńá¢Ĳ":5379,"Ġá¡¥á¡ªá¡±á¡±á¡Ńá¢ĳá¢Ľá¡ªá¡ªá¡ªá¡³":5380,"Ġá¡¥á¢¨á¢Łá¡¦":5381,"Ġá¢Įá¡ªá¡ªá¢Ĭá¢ĳá¡ªá¡«":5382,"Ġá¢ľá¡ªá¡´á¡Ńá¡ªá¡ªá¢Ķá¡ªá¡±á¡±á¡ªá¢Ŀ":5383,"Ġá¡¸á¡Ńá¢ŀá¡ªá¢īá¡¨":5384,"á¡ªá¡ªá¡ªá¢ļ":5385,"á¡¥á¡Ńá¡¬á¢Ŀá¡¨":5386,"á¢Ķá¡§":5387,"ÑħÑį":5388,"á¡ªá¡±á¡±á¡Ńá¢ĳá¡Ńá¢Ĳ":5389,"Ġá¢Įá¡ªá¢ŀá¢Ĭá¡ªá¢Ľá¡¬á¢ĳá¢Ļá¡ªá¡§":5390,"Ġá¢ĺá¡Ńá¡¬á¢Ķá¡¬á¢İá¡ªá¢Ĳ":5391,"Ġá¡¥á¡Ńá¡ªá¢Ĭá¢Ķá¡¬á¡ªá¡ªá¢ļá¡¬á¡Ńá¡§":5392,"á¡Ńá¢ŀá¢Ļá¡ªá¡§":5393,"Ġá¢ĺá¡ªá¡±á¡±á¡ªá¢ĳ":5394,"Ġá¢Ķá¡Ńá¢ľá¡Ńá¢ŀ":5395,"Ġá¢Īá¡ªá¢İá¢Ķá¡¬á¢ĩ":5396,"á¡¥á¡Ńá¡¬á¡ªá¢Ļá¡Ńá¢Ŀ":5397,"Ġá¡¥á¡ªá¢İá¡¬á¢Ļá¡Ńá¢ŀá¡ªá¢Ļá¡ªá¢ĩ":5398,"Ðµ":5399,"Ġá¢Įá¡ªá¢Ļá¡ªá¢ĭá¡Ńá¢ĳá¢ĭá¡Ń":5400,"Ġáł¡áł·áł¬":5401,"áł¤áł²":5402,"áłłáł¯áł³áłł":5403,"á¡¥á¡ªá¡±á¡±á¡Ńá¢ĳá¡§":5404,"Ġá¡¥á¡Ńá¢ĳá¢Ļá¡ªá¡ªá¡ªá¡³":5405,"á¡¸á¡Ńá¡±á¡±":5406,"áłłáłŃáłłáł³":5407,"Ġá¡¥á¡Ńá¡¬á¢Ľá¡ªá¡°á¡¨":5408,"á¡ªá¢¡":5409,"Ġá¡¬á¡¬á¡±á¡±á¡Ńá¢ĳá¢ļ":5410,"Ġá¢ļá¡Ńá¡¬á¢ĳ":5411,"á¢Ķá¡Ńá¢Ļ":5412,"Ġá¢ĺá¡Ńá¡±á¡±á¡ªá¢ĳá¡ªá¢Ĳ":5413,"Ġá¡¥á¡Ńá¡¬á¡±á¡¬á¢Ŀ":5414,"Ġá¢Ĭá¡ªá¢ŀá¡ªá¢ļá¡«":5415,"áł¦áł¯áł¦áłŃ":5416,"Ġá¡¥á¡Ńá¡¬á¢ŀá¡Ńá¢Ĭá¡ªá¢Ĳ":5417,"Ġá¡¯á¡Ńá¡¬á¢ĭá¡Ńá¡´á¡Ńá¢ŀá¡«":5418,"Ġá¡´á¡Ńá¢Ļá¡Ńá¡°á¡¨":5419,"Ġá¢ĭá¡Ńá¡¬á¢ŀá¢Ļá¡ªá¡¬á¡¨":5420,"ĠC":5421,"Ġá¡¥á¡ªá¢ĳá¡ªá¢Ľá¡³":5422,"Ġá¢Ķá¡¬á¢ľá¡ªá¡ªá¡¬á¡¨":5423,"Ġá¡¬á¡ªá¢Ŀ":5424,"Ġá¡¥á¡ªá¡³á¢ļ":5425,"Ġá¢ļá¡¬á¢Ĭá¡¬á¢ŀá¡ªá¢ĩ":5426,"ĠÐ¾":5427,"á¡ªá¡±á¡±á¡Ńá¢ĳá¡¬á¢ĩ":5428,"Ġá¢Ķá¡Ńá¢ŀá¢Ļá¡ªá¢ĳá¢ļ":5429,"Ġá¢¦":5430,"á¡´á¡Ńá¡«":5431,"Ġá¡´á¡Ńá¡¬á¢Ļá¡Ńá¢Ĭá¡ªá¢ĳá¢ļá¡«":5432,"Ġá¢Īá¡Ńá¢İá¡Ńá¢Ļ":5433,"Ġá¡¯á¡Ńá¢ŀá¢įá¡¨":5434,"Ġá¡¥á¡Ńá¡±á¡Ńá¡³á¢ļá¡¬á¢Ļá¡ªá¡«":5435,"Ġá¡¥á¡ªá¡ªá¢Ĭá¡ªá¡ªá¡ªá¢ŀá¡ªá¡ªá¡³":5436,"á¡Ńá¢ŀá¡±":5437,"á¡ªá¢ĭá¡Ńá¢ĳá¡Ńá¢ĳá¢Ļá¡§":5438,"Ġá¢Ķá¡ªá¢Ĭá¡¬á¡±á¡±":5439,"Ġá¡´á¡Ńá¢ĳá¡Ńá¡ªá¡ªá¢Ķá¡ªá¡Ńá¡§":5440,"Ġá¢Įá¡ªá¢ŀá¢Ļá¡ªá¢Ľá¡³":5441,"Ġá¢ĭá¡Ńá¡¬á¢Ĭá¡ªá¢Ĭá¡ªá¢ļá¡ªá¢ĳá¢Ļ":5442,"Ġá¢ĺá¡ªá¢Ĭá¡ªá¢ŀá¡ªá¢į":5443,"Ġá¡¯á¡ªá¢ŀá¡ªá¢ĵ":5444,"Ġáłªáł¦áł·":5445,"ĠÐŃÑĤÐ¸Ð³ÑįÐ»":5446,"á¡ªá¡ªá¢Ĭá¡ªá¡ªá¡ªá¡§":5447,"Ġá¡¬á¡Ńá¢ŀá¡¬á¢ĳá¢Ļá¡§":5448,"Ġá¢ĭá¡Ńá¡¬á¢ĳá¡¬á¢ľá¡ªá¢ĭá¡Ń":5449,"á¡¬á¢ŀá¡ªá¡ªá¡ªá¢Ķá¡ªá¡§":5450,"Ġá¡¬á¡Ńá¡¬á¡ªá¢Ĭá¢Ļá¡ªá¢Ĭá¡ªá¡§":5451,"Ġá¡¥á¡ªá¢ĵ":5452,"Ġá¢ĺá¡Ńá¡¬á¢ŀá¡Ńá¢Ĭá¡ªá¡¨":5453,"Ġáł³áł¡áłŃ":5454,"Ġáłłáł®áł¢áł³":5455,"áł¢áł©áłŃ":5456,"á¡Ńá¡ªá¢Ĭá¡ªá¡ªá¡Ńá¢Ŀ":5457,"á¡¥á¡Ńá¡¬á¡±á¡Ńá¢Ļá¡Ńá¢Ŀ":5458,"Ġá¡¥á¡ªá¢İá¡¬á¢Ķá¡ªá¡ªá¡Ńá¢īá¡¨":5459,"Ġá¡¯á¡ªá¢İá¡ªá¢ŀá¡«":5460,"Ġá¢ĭá¡Ńá¡¬á¡ªá¢Ļá¡ªá¢ĳá¡ªá¡§":5461,"Ġá¡¥á¡ªá¢Ķá¡¬á¡ªá¡ªá¢ĳá¡ªá¡§":5462,"Ġá¢ĺá¡Ńá¡¬á¢ĳá¡Ńá¡²":5463,"á¡Ńá¡±á¡±á¡ªá¢Ľá¡³":5464,"Ġá¡¸á¡ªá¢ŀá¡¬á¢ľ":5465,"Ġá¡¥á¡ªá¡ªá¡ªá¢Ķá¡ªá¡§":5466,"Ġá¢Īá¡Ńá¡¬":5467,"á¡ªá¢Ľá¡ªá¡±á¡±á¡ªá¡«":5468,"Ġá¡¬á¡Ńá¡ªá¡ªá¢Ķá¡Ńá¡ªá¡ªá¢Ķá¡ªá¡§":5469,"á¡Ńá¢ĭá¡Ńá¢ĳá¡§":5470,"á¡´á¡Ńá¡Ńá¡§":5471,"Ġá¢Ĭá¡¬á¡³á¡ªá¡¨":5472,"á¡¥á¡ªá¢Ķá¡ªá¡±á¡±":5473,"á¡ªá¡ªá¢Ļá¡ªá¢Ĳá¡¨":5474,"Ġá¡¥á¡Ńá¡¬á¢Ľá¡ªá¡«á¡¨":5475,"Ġá¢ĺá¡ªá¢ĳá¡³á¡¬á¢Ļá¡ªá¢ĩ":5476,"áł£áł°":5477,"á¢ĭá¡Ńá¡¬á¢Ĭá¡ªá¡¨":5478,"Ġá¢ĺá¡Ńá¢ŀá¡±á¡±":5479,"á¡ªá¢ŀá¡¬á¢ĩ":5480,"Ġá¡¬á¡Ńá¡¬á¢ŀá¡¬á¢ļá¡ªá¢Ĳ":5481,"Ġá¢ĭá¡Ńá¡¬á¡±á¡ªá¢Ķá¡³":5482,"Ġá¢¢á¡Ńá¡¦":5483,"Ġá¡¬á¡Ńá¢ļá¡¬á¡Ńá¡§":5484,"Ġá¡³á¡ªá¢ŀá¡¬á¡±á¡±á¡ªá¡Ńá¡§":5485,"Ġá¢ĭá¡Ńá¡¬á¢Ĭá¢Ķ":5486,"Ġá¢Ķá¡¬á¡ªá¢Ľá¡¬á¢ľá¡ªá¡ªá¡¬á¡¨":5487,"á¢Ĭá¡ªá¢ĳá¡§":5488,"Ġá¢Ķá¡ªá¢Ļá¡Ńá¡³":5489,"á¡´á¡Ńá¢Ķá¡Ńá¡Ńá¡§":5490,"æĸ":5491,"Ġá¡¬á¡Ńá¢Ĭá¡¬á¢ľá¡ªá¢Ľá¡³":5492,"Ġá¡¥á¡Ńá¡´á¡Ńá¡ªá¡ªá¢Ļá¡ªá¡§":5493,"Ġá¢ļá¡ªá¡±á¡±á¡ªá¢Ķá¡«":5494,"á¢ļá¡ªá¢ļá¡ªá¡¬á¡¨":5495,"á¡¥á¡ªá¢ŀá¢īá¡¨":5496,"Ġá¢Ĭá¡ªá¢Ľá¡«":5497,"ĠáłŃáł¡áłµáł¦":5498,"á¡ªá¢Ĭá¢ļá¡¬á¢ĳá¡ªá¡§":5499,"Ġá¡¸á¡ªá¢ŀá¡¬á¡±á¡±á¡Ńá¢ĳá¡ªá¡ªá¡³":5500,"Ġá¢ĺá¡ªá¡³á¡ªá¡±á¡±á¡ªá¡§":5501,"Ġá¡¥á¢ŀá¢ĭá¡Ńá¢ĭá¡Ń":5502,"Ġá¡³á¡ªá¢Ļá¡Ńá¢ĳá¡ªá¡ªá¡ªá¡³":5503,"Ġá¢ĺá¡ªá¡¬á¡¬á¢ĳá¡Ńá¢Ĭá¢Ķá¡ªá¡§":5504,"Ġá¡¯á¡Ńá¡¬á¢Ĭá¡ªá¡¨":5505,"Ġá¡¯á¡¬á¢Ķá¢ĭá¡Ń":5506,"Ġá¢ĺá¡Ńá¡¬á¢ŀá¡Ńá¢Ĭá¢Ļá¡ªá¢Ĳ":5507,"Ġá¢¤á¡¬á¢ĳá¡Ńá¢İá¢Łá¢ĺá¢Ŀ":5508,"Ġá¡¥á¡ªá¢Ķá¡¬á¡ªá¡ªá¢ĳá¡ªá¡ªá¡ªá¡³":5509,"Ġá¡¥á¡¬á¢Ŀá¡¨":5510,"á¢Īá¡ªá¢Ŀ":5511,"á¡Ńá¢Ľá¡¬á¢Ĳ":5512,"á¢Ĺá¡ªá¡§":5513,"á¢ĭá¡Ńá¡¬á¢Ļá¡ªá¢ĳ":5514,"á¡Ńá¡¬á¡ªá¢Ĭá¢Ķá¡¬á¡±á¡±á¡Ńá¢Ŀ":5515,"Ġá¡¥á¡Ńá¡¬á¡ªá¢Ļá¡Ńá¢Ķá¡Ńá¢ĳá¡ªá¡³á¡ªá¢Ĳ":5516,"Ġá¡¥á¡³á¢ĳá¡ªá¢Ĳ":5517,"á¡¸á¡ªá¡±á¡±á¡ªá¡§":5518,"Ġáł¬áł¦áłŃáłµ":5519,"Ġá¢Ķá¡Ńá¡±á¡¬á¢ŀá¡ªá¡ªá¡ªá¢ĳá¢Ļá¡ªá¡«":5520,"á¢Ĭá¡ªá¢Ĭ":5521,"Ġá¡¸á¡ªá¢Ļá¡ªá¡±á¡±á¡ªá¢ĳ":5522,"Ġá¢Īá¡Ńá¢ĳá¡¬á¢Ŀ":5523,"Ġá¡¬á¡¬á¡Ńá¡ªá¢ĭá¡Ńá¢Ľá¡³":5524,"Ġá¢ĺá¡ªá¡±á¡±á¡ªá¡´á¡Ńá¢ŀá¡«":5525,"Ġá¡³á¡ªá¡¬á¡¬á¢Ļá¡Ńá¡±á¡±á¡ªá¡«":5526,"Ġá¡¥á¢ŀá¡¬á¢ĭá¡Ń":5527,"Ġá¡¸á¡Ńá¢ĳá¡´á¡Ńá¡ªá¡ªá¢Ļá¡ªá¡ªá¡ªá¡³":5528,"ĠáłŃáłłáłµ":5529,"Ġá¡¥á¢ŀá¢ĭá¡Ńá¢Ĭá¢Ķá¡ªá¡§":5530,"Ġá¡¸á¡Ńá¢ŀá¡ªá¢İá¢Ļ":5531,"á¡ªá¢ľá¡ªá¢īá¡¨":5532,"áł¤áł¬áł¤":5533,"Ġá¢Ĭá¡¬á¢ĳá¡³á¡ªá¢Ŀ":5534,"Ġá¡¯á¡ªá¡¬á¢İá¡§":5535,"Ġá¡¥á¡ªá¢ŀá¡ªá¢Ķá¡Ńá¡§":5536,"á¡ªá¢İá¡ªá¢ĩ":5537,"Ġá¡¥á¡±á¢Łá¢ŀá¢Ĭá¡¬á¡¦":5538,"á¡ªá¡´á¡Ńá¢ŀá¡¬á¢Ľ":5539,"á¡¯á¡Ńá¡±á¡±":5540,"á¢ľá¡ªá¢İá¡ªá¢Ŀ":5541,"Ġá¡¶á¢ŀá¡Ńá¢¡á¢Łá¢Ķá¢Ķá¡Ńá¢Ŀ":5542,"Ġá¢ļá¡¬á¡Ńá¡ªá¡ªá¡ª":5543,"Ġá¢Ķá¡ªá¢ĳá¡ªá¡ªá¡³":5544,"Ġáł¤áł¯áłłáł¨":5545,"á¡¬á¡ªá¢ŀá¢Ĭá¡ªá¡¨":5546,"áł¦áł²":5547,"Ġá¡¥á¢ĭá¡Ńá¢ĳ":5548,"Ġá¡³á¡ªá¡±á¡±á¡Ńá¢ŀá¡«":5549,"Ġá¡¥á¡ªá¢Ļá¡ªá¢ĩ":5550,"á¡Ńá¢Ĭá¡ªá¢Ľá¡³":5551,"Ġá¡¬á¡ªá¢Ĭá¡¬á¡«á¡¨":5552,"17":5553,"Ġá¡¸á¡ªá¢Ķá¡¬á¢ĳá¡§":5554,"á¡¥á¢ŀá¢Ĭá¡ªá¡¨":5555,"Ġá¡¸á¡ªá¢İá¢Ļá¡Ńá¢ĳá¡¬á¢ĩ":5556,"Ġá¡¥á¡¬á¢ĳá¢ļá¡«":5557,"á¢İá¡ªá¡¬á¡¨":5558,"Ġá¢Įá¡ªá¡ªá¢Ĭá¡±á¡ªá¡«":5559,"á¡¬á¢Ĭá¢Ķá¡ªá¢Ĭá¡ªá¢Ŀ":5560,"Ġá¢ĭá¡Ńá¡¬á¢Ĭá¢Ľá¡¬á¢Ĭá¢Ķá¡ªá¡§":5561,"á¡ªá¡ªá¢ļá¡Ńá¡Ńá¡§":5562,"Ġá¢ĺá¡Ńá¢İá¢Ļá¡ªá¢ļá¡«":5563,"Ġâ":5564,"Ġá¡¥á¢ĭá¡Ńá¢Ķá¢ļá¡³":5565,"á¡¬á¢Ļá¡Ńá¡§":5566,"á¢ľá¡ªá¡±á¡±á¡³":5567,"Ġá¡¥á¢ŀá¡ªá¢Ĭ":5568,"Ġáł¶áłłáłŃ":5569,"Ġá¢Ĭá¡ªá¢Ķá¡¬á¢Ĭá¢Ļá¡ªá¡§":5570,"Ġáł®áłłáł¨":5571,"á¢ĳá¡ªá¢Ļá¡ªá¡¬á¡¨":5572,"ÑħÐ°":5573,"á¡ªá¡ªá¢§":5574,"Ġá¢ĺá¡ªá¢ŀá¢Ļá¡ªá¢Ĭá¡ªá¡¨":5575,"Ġá¡¸á¡Ńá¡³á¡¬á¢ľá¡ªá¢Ľá¡³":5576,"Ġá¡³á¡ªá¢ľá¡ªá¢ŀá¢Ļá¡ªá¡«":5577,"á¡ªá¢Ķá¡¬á¢ľá¡ªá¢Ĳ":5578,"á¢ļá¡¬á¡ªá¡¬á¡¨":5579,"Ġá¢ıá¡³":5580,"Ġá¢ĺá¡Ńá¡ªá¡ªá¢Ļá¡ªá¡±á¡±á¡Ńá¡§":5581,"Ġá¡¯á¡ªá¡±á¡±á¡ªá¢Ķá¡«":5582,"á¡¸á¡ªá¡´á¡Ńá¢Ŀ":5583,"Ġá¢ĭá¡Ńá¡¬á¡¬á¢ļá¡ªá¡Ńá¡ªá¢Ĭá¡ªá¢ĭá¡Ń":5584,"Ġá¡¥á¡Ńá¢Ļá¡Ńá¢ĩ":5585,"âĢ¦âĢ¦":5586,"Ġá¡¥á¡ªá¡±á¡±á¡ªá¢Ķá¡«":5587,"Ġá¢ĺá¡ªá¢Ĭá¡ªá¢Ľá¡«":5588,"Ġá¡¥á¡¬á¢ĳá¡³":5589,"Ġá¡¥á¡ªá¡ªá¡ªá¢Ķ":5590,"Ġá¢ĺá¡ªá¢ŀá¡±á¡±á¡Ńá¡§":5591,"á¡ªá¢Ĭá¢Ļá¡ªá¡³á¡ªá¡¨":5592,"Ġáł¶áł¡áłŃáł¡":5593,"á¢ĺá¡Ńá¢Ĭ":5594,"Ġá¡¥á¡ªá¢Ļá¡ªá¢Ĭá¡¬á¡¦":5595,"Ġá¡¸á¡Ńá¡Ńá¢ŀá¢ĳ":5596,"____":5597,"á¡ªá¡³á¡ªá¢Ļá¡³":5598,"á¡¥á¡Ńá¡ªá¢Ĭá¢Ķ":5599,"Ġá¢ĺá¡ªá¢ŀá¡Ńá¢ĳá¢Ļá¡§":5600,"á¢ĳá¡¬á¢ĩ":5601,"Ġá¡¥á¡Ńá¡¬á¡±á¡¬á¡«á¡¨":5602,"åĲ":5603,"Ġá¡³á¡ªá¢ľá¡ªá¢Ľ":5604,"Ġá¡¥á¡Ńá¢ŀá¡±á¡±á¡Ńá¢Ľá¡³":5605,"Ġá¢Ĭá¡ªá¢ŀá¢Ĭá¡ªá¡«":5606,"Ġá¡¥á¡Ńá¢ŀá¡¬á¡Ńá¡ªá¢ļá¡¬á¢ĳá¡ªá¡§":5607,"Ġáł¨áł¡áł¶":5608,"á¡ªá¢ĳá¢Ļá¡Ńá¡ªá¡ªá¡³":5609,"Ġá¢ĺá¡ªá¡±á¡±á¡Ńá¢Ļá¡ªá¢ĳá¢īá¡¨":5610,"Ġá¡¥á¡Ńá¡¬á¢ŀá¡Ńá¢Ĭ":5611,"åŃ":5612,"Ġá¢ĺá¡ªá¢ĩ":5613,"Ġá¡¬á¡ªá¢Ļá¡ªá¢ĳ":5614,"á¢Ĭá¡ªá¢Ļá¡Ńá¡§":5615,"á¡¥á¢Ŀá¡¨":5616,"Ġá¡¥á¡ªá¢ĳá¡ªá¢Ĺá¡§":5617,"ä¹":5618,"Ġá¢Ķá¡ªá¢Ĭá¡¬á¢ĳá¢īá¡¨":5619,"á¡¸á¡Ńá¢ĳá¡§":5620,"á¡ªá¡±á¡±á¡ªá¡³á¡ªá¡¨":5621,"Ġá¡´á¡Ńá¢ĳá¢ļá¡¬":5622,"Ġá¢Ķá¡Ńá¡ªá¢Ĭá¡±á¡±á¡Ńá¡ªá¡ªá¡³":5623,"áłłáłŃáł¤áł·":5624,"Ġá¡¥á¡¬á¢Ķá¡ªá¢Ĭá¡ªá¡«":5625,"á¡¬á¡Ńá¡±á¡±":5626,"Ġá¢Ķá¡¬á¡Ńá¡ªá¡ªá¡ªá¡§":5627,"Ġá¡¬á¡Ńá¡³á¡ªá¢Ľá¡³":5628,"Ġá¡¸á¡Ńá¡³á¡¬á¢ĳá¡ªá¡«":5629,"Ġá¢ľá¡ªá¡§":5630,"Ġá¢ĺá¡Ńá¡¬á¢ŀá¢Ĭ":5631,"Ġá¢ļá¡ªá¡ªá¡¬á¡¨":5632,"áł¢áłµáł¦":5633,"Ġá¢Įá¡ªá¡¬á¡¬á¢ŀá¡ªá¡§":5634,"Ġá¡¥á¡¬á¢Ľá¡¬á¢Ĳ":5635,"á¡¯á¡ªá¢ŀá¡ªá¡§":5636,"Ġáł°áłłáł·":5637,"Ġá¡¥á¡¬á¢ŀá¡ªá¡³á¡ªá¢Ĳ":5638,"Ġáłªáł¡áł¶":5639,"á¢ĭá¡Ńá¡¬á¡ªá¢Ļ":5640,"Ġá¡¯á¡ªá¢ĭá¡Ńá¢ŀ":5641,"Ġá¡³á¡ªá¡¬á¡¬á¢ŀá¡¬á¡§":5642,"Ġá¢Ķá¡¬á¡±á¡±á¡Ńá¢ŀá¢īá¡¨":5643,"Ġá¡¥á¡Ńá¡ªá¢Ĭá¡±á¡±á¡Ńá¢ļá¡§":5644,"Ġá¢Ĭá¡ªá¡³á¢Ļá¡ªá¢Ľá¡³":5645,"Ġá¢ļá¡ªá¢ļá¡ªá¢Ĭ":5646,"Ġá¢Ĭá¡ªá¢ŀá¡ªá¢Ĭá¢ĳá¡ªá¢Ĭá¢Ķá¡ªá¡§":5647,"Ġá¡¸á¡ªá¡ªá¢Ļá¡Ńá¡ªá¡ªá¡³":5648,"á¡³á¡ªá¢Ĭ":5649,"Ġá¢Īá¡ªá¢ŀá¡³á¡ªá¢Ĳ":5650,"Ġá¢ĺá¡Ńá¢ŀá¡ªá¢Ķá¡Ńá¢İá¢Ľá¡«":5651,"Ġá¡¥á¡ªá¢ĳá¡¬á¡§":5652,"Ġá¡¥á¢İá¡ªá¢Ĭá¡ªá¡§":5653,"Ġá¡¸á¡Ńá¡Ńá¢Ķ":5654,"ĠÑĪ":5655,"Ġá¡¥á¡Ńá¡¬á¡±á¡ªá¢İá¢ĳá¡ªá¢Ĳ":5656,"á¢Ķá¡Ńá¢ŀá¡Ńá¡ªá¡ªá¢ļá¡«":5657,"Ġá¢ľá¡¬á¢Ķá¡Ńá¢Ļá¡Ńá¢Ĭá¡ªá¢Ŀ":5658,"Ġá¢Įá¡Ńá¡¬á¢İá¡³":5659,"á¡¬á¢İá¡Ńá¢Ķá¡Ńá¡§":5660,"Ġá¢ĺá¡ªá¢ĳá¢Ĭá¡ªá¡§":5661,"áł¡áł©":5662,"á¢Łá¢ĵ":5663,"Ġá¡¬á¡ªá¢ĳá¡±á¡±á¡ªá¡±á¡±á¡ªá¡Ńá¡§":5664,"Ġá¡¬á¡ªá¡ªá¢Ĭá¡±":5665,"Ġá¢Įá¡ªá¢Ĭá¡ªá¡¨":5666,"Ġáłªáł¢":5667,"Ġá¢Īá¡Ńá¡Ńá¢ĳá¢Ļá¡ªá¢ĳá¢īá¡¨":5668,"á¡¬á¢Ķá¢ĺá¡¦":5669,"Ġá¡¨":5670,"Ġá¡´á¡Ńá¢Ļá¡Ńá¢ĳ":5671,"Ġá¢ĭá¡Ńá¡¬á¡¬á¢ĳ":5672,"Ġá¡´á¡Ńá¡¬á¢Ĭá¡ªá¢ļá¡Ńá¡Ńá¡§":5673,"Ġá¡´á¡Ńá¢ŀá¢Ľá¡¬á¢Ĭá¡¬á¡§":5674,"Ġá¢ĭá¡Ńá¡¬á¢Ĭá¢Ľá¡¬á¢ĭá¡Ń":5675,"Ġá¡¬á¡Ńá¢ĳá¢Ľ":5676,"á¡³á¡ªá¡¬á¡¬á¡±á¡±á¡Ńá¢ĳ":5677,"Ġá¢ĺá¡Ńá¡ªá¡ªá¢Ļá¡ªá¡±á¡¬á¢Ĳ":5678,"Ġá¢Ķá¡Ńá¡ªá¡ªá¡Ńá¢Ŀ":5679,"Ġáł¬áł¤áł¶":5680,"á¡¬á¡Ńá¡ªá¢ļá¡³":5681,"Ġá¡³á¡ªá¡ªá¡ªá¡ªá¢ŀá¡ªá¡ªá¡ªá¢Ĳ":5682,"Ġá¢ļá¡¬á¡ªá¡ªá¡Ńá¢ĳá¡ªá¢Ļá¡ªá¡«":5683,"á¢ĺá¡ªá¢ĳá¡³":5684,"Ġá¢ľá¡ªá¢Ĭá¡ªá¡ªá¢Ĭá¢Ĭá¡¬á¡¦":5685,"Ġá¡¥á¢ĭá¡Ńá¢Ļ":5686,"Ġá¢ļá¡Ńá¢İá¡³":5687,"á¢Ĭá¡ªá¡³":5688,"Ġá¢ľá¡ªá¢Ĭá¡ªá¢Ĭá¡ªá¡§":5689,"áł£áł¬":5690,"Ġá¢Ĭá¡¬á¡³á¡ªá¢Ĳ":5691,"Ġá¡¥á¡Ńá¡¬á¢Ľá¡ªá¢Ĭá¡ªá¡¨":5692,"ĠáłŃáłłáłµáłłáł·":5693,"Ġá¢ĭá¡Ńá¡¬á¢Ļá¡ªá¢ĳá¢ĭá¡Ń":5694,"á¡Ńá¢ļá¡ªá¡±á¡±á¡ªá¡§":5695,"á¡³á¡ªá¢ŀá¡ªá¡±á¡±á¡Ńá¡§":5696,"Ġá¢ĺá¡ªá¢Ķá¡Ńá¢ĩ":5697,"Ġá¡¬á¡¬á¡±á¡±á¡ªá¢Ĳ":5698,"Ġá¡¬á¡ªá¡±á¡±á¡ªá¡§":5699,"Ġá¢Īá¡ªá¢ŀá¢ļá¡ªá¡«":5700,"Ġá¢Ķá¡ªá¡±á¡±á¡ªá¢Ļ":5701,"á¡¬á¡ªá¢Ĭá¡±á¡±":5702,"á¢ĺá¡Ńá¡¬á¢ĭá¡Ńá¢ŀ":5703,"Ġá¡¯á¡¬á¢Ĭá¡ªá¢Ļá¡ªá¡«":5704,"Ġá¢ľá¡ªá¢ŀá¡¬á¡°á¡¨":5705,"Ġá¡¥á¡¬á¢ĳá¢Ľ":5706,"Ġá¢ľá¡ªá¢Ĭá¡ªá¢Ļá¡ªá¡«":5707,"Ġá¢¥á¡Ńá¢İá¡¶á¡¬":5708,"Ġá¢ľá¡ªá¢Ķá¡Ńá¢Ļá¡ªá¡§":5709,"á¡³á¡¬á¢ļá¡¬á¡¬á¡¨":5710,"Ġá¢Ķá¡¬á¢Ļá¡Ńá¢ĳá¢Ĭá¡ªá¡¨":5711,"Ġá¡¸á¡Ńá¢ŀá¡¬á¢ľá¡ªá¡ªá¡ªá¡³":5712,"á¢Ľá¡¬á¢Ľá¡³":5713,"Ġá¢ľá¡ªá¡´á¡Ńá¢Ľá¡ªá¡«":5714,"á¢Įá¡Ńá¡¬á¡ªá¢Ĭ":5715,"Ġá¢ĺá¡Ńá¢Ķá¡ªá¡ªá¡³":5716,"á¡ªá¡¬á¡¬á¡ªá¡ªá¢Ķá¡ªá¡§":5717,"Ġá¢Īá¡ªá¢Ļá¡ªá¡±á¡±á¡Ńá¢Ŀ":5718,"Ġá¢ĺá¡ªá¢İá¢Ļá¡ªá¢Ĭá¢ĳá¡ªá¢ĭá¡Ń":5719,"Ġáł°áł¤áł·áłŃ":5720,"á¡ªá¢ĭá¡Ńá¢ŀá¡«":5721,"á¡¬á¢Ĭá¢Ļá¡³":5722,"á¡¥á¡Ńá¢ŀá¡ªá¡§":5723,"Ġá¡´á¡Ńá¡¬á¢ĳá¡Ńá¢Ĭá¡ªá¡¨":5724,"á¡ªá¢Ĭá¡ªá¢Ļá¡ªá¡¬á¡¨":5725,"Ġá¢Įá¡ªá¢Ķá¡§":5726,"Ġá¢Īá¡Ńá¡±á¡±":5727,"Ġá¡³á¡ªá¢ŀá¡¬á¡§":5728,"Ġá¢ĺá¡Ńá¢İá¡Ńá¡ªá¡ªá¡ªá¡§":5729,"á¡Ńá¡ªá¢Ĭá¡ªá¡ª":5730,"Ġá¢Īá¡Ńá¢ľá¡Ńá¢Ľá¡³":5731,"á¡ªá¢ĳá¡ªá¢Ľá¡ªá¡«":5732,"ãĢģ":5733,"á¢Ķá¡ªá¢ĩ":5734,"Ġá¡¥á¡ªá¢ŀá¡ªá¡Ńá¡ªá¢ļá¡¬á¢ĳá¡ªá¡ªá¡ªá¢Ķá¡ªá¡§":5735,"ĠáłĦãĢĬ":5736,"Ġá¢ĺá¡ªá¡³á¢Ļá¡ªá¡§":5737,"Ġá¡¯á¡ªá¢ĭá¡Ńá¢Ľá¡³":5738,"Ġá¢Ĭá¡ªá¢ŀá¡ªá¢ĭá¡Ńá¢Ĳ":5739,"á¡¬á¢ļá¡¬á¢Ĭ":5740,"Ġá¡¥á¡Ńá¡¬á¡±á¡ªá¢ĳá¡ªá¢ĳá¢Ļá¡§":5741,"Ġá¢ļá¡¬á¡ªá¢Ĭá¢Ĭ":5742,"Ġá¡¥á¡ªá¢ĳá¢ļá¡¬á¡±á¡±á¡Ńá¢Ŀ":5743,"Ġá¡¬á¡¬á¡Ńá¡ªá¢ĭá¡Ńá¢ĳ":5744,"Ġá¡¬á¡¬á¢ĳá¡Ńá¡±á¡±á¡Ńá¡Ńá¡ªá¡ªá¡ªá¡³":5745,"Ġá¡¯á¡¬á¢Ĭá¡ªá¡´á¡Ńá¢ŀá¡«":5746,"Ġá¡¥á¢ĭá¡Ńá¢ĳá¡ªá¡§":5747,"Ġá¢ĭá¡Ńá¡¬á¢Ļá¡ªá¢ĳá¢Ľá¡³":5748,"Ġá¢Ķá¡Ńá¡¬á¢Ľ":5749,"Ġá¡¬á¡¬á¢ľá¡ªá¡ªá¡¬á¡¨":5750,"Ġá¢ľá¡ªá¢Ķá¡Ńá¡§":5751,"áł¢áł¶áłłáł¯":5752,"á¡ªá¢§á¡ªá¢Ŀ":5753,"á¡Ńá¢ĳá¢ĳ":5754,"á¡ªá¢ŀá¡ªá¡ªá¡ªá¡«":5755,"Ġá¢ĭá¡Ńá¡¬á¡³á¡ªá¢ĭá¡Ńá¡Ńá¡§":5756,"á¡ªá¡¬á¡¬á¢ĳá¡«":5757,"Ġá¡¯á¡ªá¢ĭá¡Ńá¢Ļá¡ªá¢ĳ":5758,"Ġá¢ĭá¡Ńá¡¬á¡ªá¢Ĭá¢Ľá¡³":5759,"Ġá¢Įá¡Ńá¢ĺ":5760,"Ġá¢Ķá¡ªá¡±á¡ªá¡ªá¡ªá¢Ļá¡ªá¢Ļá¡ªá¢ĩ":5761,"Ġá¡¥á¡ªá¡ªá¢Ĭá¡±á¡±":5762,"Ġá¢ļá¡ªá¡°á¡¨":5763,"Ġá¡´á¡Ńá¢ĳá¡³á¡ªá¢Ķá¡³":5764,"Ġá¢Īá¡ªá¢Ļá¡ªá¢Ŀ":5765,"Ð´Ð°":5766,"á¡¯á¡ªá¢Ŀá¡¨":5767,"Ġá¡´á¡Ńá¢ŀá¡¬á¢ľá¡ªá¡Ńá¡§":5768,"Ġáłłáł¬áł¤áł¢":5769,"á¡¬á¡¬á¢ĳ":5770,"á¢Ķá¡Ńá¢ĳ":5771,"á¡Ńá¢Ķá¡¬á¡±á¡±á¡³":5772,"Ġá¢Ĭá¡ªá¢ŀá¡ªá¢Ĭá¢ĳá¡ªá¢Ĭá¡ªá¡§":5773,"Ġáł²áł¤áł¬":5774,"Ġá¡¥á¡Ńá¡¬á¡¬á¢ĳá¡ªá¢ļá¡¬á¢ĳá¡ªá¢Ĭá¡ªá¡¨":5775,"Ġá¡¥á¡¬á¢Ļá¡ªá¡¬á¡¨":5776,"Ġá¡¸á¡Ńá¡³á¡¬á¢Ķá¡ªá¡ªá¡ªá¢ĳá¢Ļá¡³":5777,"á¡Ńá¢Ĭá¢ŀá¡ªá¢į":5778,"Ġáł¬áł¤áłŃ":5779,"Ġá¢Ķá¡Ńá¢Ļá¡Ńá¢ĳá¡Ńá¡§":5780,"Ġá¢ľá¡ªá¢İá¡ªá¢ŀá¢ļá¡³":5781,"á¡¬á¢ľá¡ªá¢ĭá¡Ń":5782,"Ġá¢Łá¡¬á¢ļá¡ªá¢ĺá¡¦":5783,"Ġá¢ļá¡¬á¢ŀá¢İá¡ªá¡¬á¡¬á¢ĳá¢īá¡¨":5784,"á¡ªá¡¬á¡¬á¢ļá¡«":5785,"Ġá¢Įá¡ªá¡±á¡±á¡Ńá¢Ļá¡ªá¡«":5786,"æĹ":5787,"á¡Ńá¢ŀá¡±á¡±á¡ªá¡§":5788,"á¡¬á¢ĳá¡ªá¡°á¡¨":5789,"Ġá¢Ķá¡¬á¡ªá¢Ĭá¢Ĭá¡ªá¡§":5790,"Ġá¡³á¡Ńá¢ĳ":5791,"Ġá¢ĺá¡Ńá¡¬á¡ªá¢Ĭá¢ĳá¡¬á¢ľá¡Ńá¡³":5792,"Ġá¡¥á¡ªá¡´á¡Ńá¡³á¡ªá¡¨":5793,"Ġá¢ľá¡ªá¢Ĭá¡ªá¢Ĳá¡¨":5794,"Ġá¡´á¡Ńá¡¬á¢ŀá¢ĭá¡Ńá¡Ńá¡§":5795,"Ġá¢Ĭá¢Ĭ":5796,"á¡¬á¢ŀá¡ªá¡ªá¡ªá¡³":5797,"Ġá¡¥á¡´á¡Ńá¢Ļ":5798,"Ġá¢Ķá¡ªá¡±á¡ªá¡±á¡±á¡ªá¢ļá¡¬á¢ĳ":5799,"Ġá¡¸á¡Ńá¢ĳá¡ªá¡±á¡±á¡ªá¡«":5800,"á¡¯á¡ªá¡¬á¡¬á¢Ĭá¡ªá¢į":5801,"Ġá¢ĺá¡ªá¡±á¡±á¡ªá¡±á¡±á¡ªá¢Ľá¡³":5802,"á¡ªá¢Ĭá¢ĳá¡ªá¢ĭá¡Ń":5803,"Ġá¡¸á¡Ńá¡±á¡±á¡Ńá¢ŀá¢ļá¡«":5804,"á¡¬á¡±á¡±á¡Ńá¢Ļá¡§":5805,"Ġá¡¥á¢ĳá¢Ľá¡¬á¢Ĭá¡ªá¡¨":5806,"Ġá¢ĺá¡ªá¢ŀá¡ªá¡³á¡ªá¢Ŀ":5807,"Ġá¢ĺá¡ªá¢Ĭá¡¬á¡ªá¡ªá¡³":5808,"Ġáł°áł¢áłŃ":5809,"á¡¥á¡Ńá¡¬á¢ŀá¢ĭá¡Ńá¢ĳ":5810,"Ġá¢ļá¡ªá¡¬á¡¬á¢ĳá¡±á¡±á¡ªá¡§":5811,"Ġá¢ĺá¡Ńá¡ªá¡ªá¢Ļá¡ªá¡ªá¡ªá¡³":5812,"áłłáłł":5813,"Ġáłªáł¢áł´":5814,"á¢Īá¡Ńá¡Ńá¢Ĳ":5815,"Ġá¢ĺá¡ªá¡ªá¢Ĭá¢ļá¡³":5816,"á¡Ńá¢Ĭá¢Ļá¡ªá¡§":5817,"Ġá¢ĺá¡ªá¢ŀá¡¬á¢ĭ":5818,"Ġá¡¥á¡Ńá¡¬á¢ĳá¡ªá¢İá¢Ľá¡«":5819,"Ġá¡¥á¡ªá¢ľá¡Ńá¢ĳ":5820,"á¡¬á¡ªá¡ªá¡Ńá¡«":5821,"á¡ªá¢ŀá¡ªá¡ªá¡¬á¡¨":5822,"Ġá¢ĭá¡Ńá¡¬á¢Ķá¡ªá¢ĳá¡ªá¡ªá¡¬á¡¨":5823,"á¡¬á¢Ĭá¢Ļá¡ªá¢Ĳ":5824,"Ġá¢ĺá¡Ńá¡±á¡±á¡Ńá¢ŀá¡¬á¢Ľá¡³":5825,"Ġá¢ĭá¡Ńá¡¬á¢ŀá¡Ńá¡¬á¡¨":5826,"á¡¥á¡Ńá¢ĳá¡ªá¡±á¡±":5827,"Ġá¢Ķá¡ªá¡ªá¢Ļá¡Ńá¢ŀ":5828,"Ġá¡¸á¡ªá¢Ķá¡¬á¡«á¡¨":5829,"14":5830,"ĠA":5831,"Ġá¡¥á¢ŀá¡¬á¢Ĳ":5832,"á¡Ńá¢ĳá¡ªá¡°á¡¨":5833,"Ġá¢Ĭá¡ªá¡³á¡ªá¢ĳá¡«":5834,"Ġá¡¥á¢ŀá¢Ĭá¡¬á¢ĳá¢Ļá¡§":5835,"á¡ªá¢ŀá¡±á¡±":5836,"á¡ªá¡ªá¡ªá¢ĳá¡ªá¡§":5837,"á¡¬á¢ľá¡ªá¡°á¡¨":5838,"Ġá¢Ķá¡ªá¡ªá¢Ķ":5839,"Ġá¢Ķá¡ªá¡±á¡ªá¡ªá¡ªá¢Ļá¡ªá¡ªá¡ªá¡³":5840,"Ġá¡¥á¡Ńá¢ĳá¢Ľá¡§":5841,"Ġá¡¥á¡ªá¢ĳá¡ªá¡ªá¡ªá¡³":5842,"Ġá¢Įá¡ªá¢Ļá¡ªá¢Ĭá¡ªá¡Ńá¡§":5843,"Ġá¡¥á¡¬á¡¬á¡§":5844,"Ġá¢¡á¢Łá¡ªá¡¬á¡¨":5845,"Ġá¡´á¡Ńá¢Ĭá¡¬á¢ŀá¢Ļ":5846,"Ġá¡¸á¡Ńá¡¬á¡¬á¢ļá¡«":5847,"Ġá¢ĺá¡ªá¢ĭá¡Ńá¢Ķá¢Ĭá¡ªá¢Ĳ":5848,"Ġá¡´á¡Ńá¢ĳá¡Ńá¢ĩ":5849,"Ġá¢ĺá¡Ńá¡Ńá¢ĳá¡«":5850,"Ġá¡¯á¡ªá¡³á¢ļá¡¬á¢ĵ":5851,"Ġá¢ĭá¡Ńá¡¬á¡ªá¢Ļá¡Ńá¢Ļá¡³":5852,"Ġá¡´á¡Ńá¡¬á¢ŀá¡¬á¡Ńá¡ªá¢Ĭ":5853,"Ġáł¶áłłáł·":5854,"Ġá¢Ļá¡Ńá¡¬á¡ªá¢Ĭá¢Ķá¡¬á¡±á¡±á¡Ńá¢Ŀ":5855,"Ġá¡´á¡Ńá¡±á¡±á¡Ńá¢İá¢Ļá¡§":5856,"Ġá¡¸á¡Ńá¢Ķ":5857,"Ġá¢Ķá¡¬á¢ŀá¢ĩá¡¨":5858,"Ġá¢ĺá¡ªá¢ŀá¡Ńá¡ªá¡ªá¡³":5859,"Ġáł¦áłªáł¡áł·":5860,"Ġá¡¥á¡Ńá¢ļá¡ªá¢ŀá¡ªá¢Ĳ":5861,"á¡ªá¢Ĭá¢ĳá¡ªá¡§":5862,"Ġá¢ļá¡¬á¢Ļá¡ªá¡³":5863,"Ġá¢ĺá¡ªá¡±á¡±á¡ªá¢ŀá¡ªá¢Ľá¡³":5864,"Ġá¢ļá¡ªá¢Ļ":5865,"Ġá¡¸á¡ªá¢ŀá¢Ķá¡«":5866,"á¡¸á¡Ńá¢Ķá¡¬á¡±á¡±á¡Ńá¡§":5867,"Ġá¡¸á¡Ńá¢ŀá¡¬á¢ľá¡ªá¢Ľá¡³":5868,"Ġá¢ĺá¡Ńá¡±á¡±á¡Ńá¢ŀá¡³":5869,"á¡¬á¡ªá¢ŀá¡¬á¢į":5870,"Ġá¡¸á¡ªá¡ªá¢Ĭá¡±á¡±á¡ªá¢Ľá¡³":5871,"Ġá¢ĭá¡Ńá¡¬á¢ŀá¢Ĭá¡ªá¢Ĭá¢Ķá¡ªá¡§":5872,"Ġá¢ľá¡ªá¡´á¡Ńá¡±á¡±á¡Ńá¢ĳá¡Ńá¡ªá¡ªá¢Ķá¡ªá¡§":5873,"Ġá¢Ķá¡Ńá¡ªá¢Ĭá¡±á¡±á¡Ńá¡§":5874,"Ġá¡³á¡ªá¢ľá¡ªá¢ĳá¡ªá¢ĭá¡Ńá¢ĳá¢Ľá¡³":5875,"Ġá¢Ķá¡¬á¢ŀá¢īá¡¨":5876,"á¢Įá¡Ńá¡¬á¡§":5877,"áłłáłŃáł¤áł¨":5878,"á¡ªá¢ļá¡¬á¡ªá¡ªá¡ªá¡ªá¡ªá¡³":5879,"Ġá¡³á¡ªá¡¬á¡¬á¡³á¡ªá¢ļá¡³":5880,"Ġáł´áł¢áł¬":5881,"Ġá¡´á¡Ńá¡±á¡±á¡Ńá¡±á¡«":5882,"Ġá¡¬á¡ªá¢ĭá¡Ńá¡ªá¢Ķá¡«":5883,"á¡Ńá¢ĭá¡Ńá¢ĳá¡Ńá¢Ĭá¢Ķá¡ªá¡§":5884,"áł¤áł·áłłáł¯":5885,"Ġáł²áł¦áł®":5886,"á¡ªá¡´á¡Ńá¢ŀá¡¬á¢Ļá¡³":5887,"Ġá¡¥á¡ªá¢ĳá¡ªá¡ªá¡Ńá¢Ľá¡³":5888,"Ġá¢ĭá¡Ńá¡¬á¢Ķá¡ªá¡§":5889,"Ġá¢ľá¡Ń":5890,"á¢ĺá¡Ńá¡¬á¡³":5891,"á¡¥á¡Ńá¢İ":5892,"Ġá¡¥á¡±á¡ªá¢ŀ":5893,"Ġá¢ĭá¡Ńá¡¬á¢Ļá¡Ńá¢ĳá¡Ńá¢Ĭá¢ļá¡«":5894,"á¡ªá¢ŀá¢Ĭá¡ªá¡¬á¡¨":5895,"Ġá¡¬á¡¬á¡³á¡ªá¢Ŀ":5896,"á¢Ľá¡§":5897,"Ġá¡³á¡ªá¢ĳá¢Ĭá¡ªá¢Ļá¡ªá¢Ĳ":5898,"Ġá¡¸á¡³":5899,"á¡¬á¡ªá¡ªá¡ªá¡«":5900,"áł£áł©áłŃ":5901,"Ġá¢Ķá¡Ńá¢ĳá¡Ńá¡ªá¢Ĭá¢īá¡¨":5902,"Ġá¡¥á¢Ķá¡ªá¢ŀá¢ĭá¡Ńá¢ļá¡ªá¢ĭá¡Ń":5903,"Ġá¡¯á¡Ńá¡±á¡±á¡Ńá¢ĳ":5904,"Ġá¡¥á¢Ļá¡ªá¢Ĭ":5905,"Ġá¡¥á¡ªá¢ĳá¢İ":5906,"Ġá¢Ķá¡¬á¡ªá¢Ļ":5907,"Ġá¢Ļá¡Ńá¢¤á¢ĺá¡Ńá¢Ŀ":5908,"Ġá¡¥á¡Ńá¡±á¡ªá¡±á¡±á¡ªá¡§":5909,"Ġá¢ĺá¡ªá¢ĭá¡Ńá¢Ľá¡³":5910,"Ġá¢Ķá¡Ńá¢Ļá¡ªá¢Ĳ":5911,"á¢Ĭá¡¬á¢ľá¡ªá¡§":5912,"Ġá¡¸á¡ªá¢ŀá¡¬á¡±á¡±á¡Ńá¢ĳá¢Ľá¡³":5913,"á¡¥á¡Ńá¢ĳá¡ªá¡±á¡±á¡ªá¡§":5914,"Ġá¢ĭá¡Ńá¡¬á¢ŀá¡Ńá¡°á¡¨":5915,"Ġá¡¥á¡ªá¡ªá¢Ĭá¡ªá¡ªá¡ªá¢ŀá¢ļá¡³":5916,"Ġá¡¥á¡ªá¢Ĭá¡±á¡ªá¢Ĭá¡ªá¡¨":5917,"Ġá¢Ĭá¡ªá¢Ĭá¢Ķá¡ªá¢Ĭá¡ªá¢Ŀ":5918,"Ġá¡¸á¡Ńá¢Ļá¡ªá¡§":5919,"Ġá¢Ķá¡Ńá¡¬á¢ŀá¡ªá¢Ĭá¡ªá¡«":5920,"áł¢áł¯áł´":5921,"Ġáł¦áł¨áł³áł¦áł°":5922,"Ġá¡¥á¡¬á¢Ļá¡ªá¢Ŀ":5923,"á¡ªá¢ĳá¢Ľá¡ªá¡ªá¡ªá¡³":5924,"Ġá¡¥á¡Ńá¡¬á¢ŀá¢Ĭá¡ªá¡Ńá¡ªá¢Ĭ":5925,"Ġá¡¥á¢ĵ":5926,"Ġá¡¥á¡Ńá¢ŀá¡Ńá¢ĳ":5927,"á¡Ńá¢ŀá¢ĳá¡ªá¡§":5928,"Ġá¡¬á¡¬á¢į":5929,"Ġá¢Ĭá¡ªá¢ŀá¡ªá¢Ĭá¢Ľá¡¬á¢ĭá¡Ńá¢ĳá¢Ľá¡³":5930,"Ġá¡¸á¡Ńá¢Ļá¡Ńá¡±á¡±":5931,"Ġá¡´á¡Ńá¡±á¡±á¡Ńá¢Ĳ":5932,"Ġá¡¥á¡ªá¡±á¡±á¡Ńá¢ĳá¢Ľá¡ªá¢Ľá¡³":5933,"Ġá¢Ķá¡ªá¢ŀá¡¬á¢ĭá¡Ńá¡§":5934,"áłłáłªáł¤áł·":5935,"Ġá¡¥á¡¬á¢ĳá¡ªá¡Ńá¡ªá¢Ĭá¡ªá¢Ĳ":5936,"Ġá¡´á¡Ńá¢Ķá¡ªá¡ªá¡ªá¢Ľá¡³":5937,"Ġá¡¸á¡ªá¡±á¡±á¡ªá¢ļ":5938,"á¡ªá¢Ĭá¢Ķá¡ªá¡Ńá¡§":5939,"á¡´á¡Ńá¢Ļá¡Ńá¢Ĳ":5940,"ar":5941,"Ġá¢Įá¡Ńá¡¬á¢ĳ":5942,"Ġá¢Įá¡ªá¢Ļá¡ªá¢ŀá¡ªá¢Ľá¡³":5943,"Ġá¢ĺá¡Ńá¢Ļá¡Ńá¢Ŀ":5944,"Ġá¢Ķá¡¬á¢ĭá¡Ńá¢İá¢Ľá¡«":5945,"á¡ªá¢ĳá¢ļá¡ªá¡§":5946,"á¡ªá¡ªá¡ªá¢Ļá¡ªá¡±á¡±á¡ªá¡Ńá¡§":5947,"Ġá¢Įá¡ªá¡ªá¢Ļá¡Ńá¡ªá¡ªá¡³":5948,"Ġá¢Įá¡Ńá¡ªá¡ªá¡Ńá¢Ŀ":5949,"Ġá¢Ķá¡Ńá¡¬á¡³á¡ªá¢Ĭ":5950,"Ġá¢ĺá¡ªá¡±á¡±á¡ªá¡Ńá¡ªá¡ªá¡ªá¡ªá¢Ĳ":5951,"Ġá¡¥á¡ªá¡Ńá¡ªá¡ªá¡ªá¡Ńá¢Ľá¡³":5952,"Ġá¢ĺá¡Ńá¡±á¡±á¡Ńá¢ĳá¢Ľá¡³":5953,"åĽ":5954,"ĠâĢį":5955,"á¡ªá¡¬á¡¬á¡ªá¡ª":5956,"Ġá¡¥á¡ªá¢Ľá¡¬á¢ĳá¢ļá¡¬á¡§":5957,"á¡ªá¡ªá¢Ĭá¢ļ":5958,"Ġá¢ļá¡¬á¡ªá¢Ļ":5959,"Ġá¡³á¡ªá¡¬á¡¬á¢ļá¡ªá¡±á¡±á¡ªá¡§":5960,"á¡¸á¡ªá¢ĳá¡ªá¡±á¡±á¡Ńá¡§":5961,"á¡¸á¡Ńá¡±":5962,"Ġá¢ĭá¡Ńá¡¬á¢Ķá¡¬á¡«á¡¨":5963,"Ġá¡³á¡¬á¢Ķá¡¬á¢ĳ":5964,"á¡Ńá¡±á¡±á¡Ńá¡ªá¡ªá¡ªá¡§":5965,"Ġá¡¯á¡ªá¢ľá¡ªá¡§":5966,"Ġá¡¥á¡Ńá¡¬á¡ªá¢Ĭá¢Ĭá¡ªá¢ŀá¡ªá¢Ľá¡³":5967,"Ġá¢Ĭá¡¬á¢Ļá¡ªá¢Ĳ":5968,"á¡¥á¡ªá¡¬á¡¬á¢Ĳ":5969,"á¡Ńá¡±á¡±á¡ªá¢Ķá¡ªá¡«":5970,"Ġá¢ĺá¡ªá¢Ĭá¢Ļ":5971,"Ġá¡¬á¡Ńá¡±á¡±á¡ªá¢ļá¡ªá¢Ĳ":5972,"Ġá¢ļá¡¬á¢ĳá¡Ńá¢Ĭá¡ªá¡§":5973,"Ġá¢Ĭá¡ªá¢Ļá¡Ńá¢ĭá¡Ńá¢ĳá¡§":5974,"Ġá¡¥á¡Ńá¡¬á¢ĳá¡ªá¢Ļá¡ªá¢Ĭá¡ªá¢Ľá¡³":5975,"Ġá¢Įá¡Ńá¡¬á¢Ĭ":5976,"á¢ĭá¡Ńá¡¬á¢Ļá¡ªá¢Ĭá¡ªá¡¨":5977,"Ġá¡¥á¡Ńá¡¬á¢Ŀ":5978,"Ġá¡³á¡ªá¡¬á¡¬á¡«á¡¨":5979,"Ġáł°áł¢":5980,"Ġ*":5981,"áł¤áłŃáłłáł¨":5982,"Ġá¢ĺá¡ªá¡±á¡±á¡Ńá¢Ļá¡ªá¡ªá¡ªá¡³":5983,"Ġá¡¯á¡Ńá¢ļá¡¬á¢Ļá¡ªá¡«":5984,"Ġá¡¥á¡ªá¡³á¢ļá¡ªá¡«":5985,"Ġá¢ľá¡ªá¢ŀá¡¬á¢ĳá¢ļá¡ªá¢Ľá¡³":5986,"Ġá¡³á¡ªá¢Ĳ":5987,"çĶ":5988,"Ġá¢ļá¡ªá¡³á¢ļ":5989,"Ð¾ÑĢ":5990,"Ġá¢Īá¡ªá¢ŀá¡±á¡±á¡ªá¡±á¡±á¡ªá¡Ńá¡§":5991,"Ġá¡¥á¡ªá¢ĳá¡³á¡ªá¢Ļá¡ªá¡§":5992,"á¡Ńá¡ªá¢ļ":5993,"Ġ0":5994,"á¡¬á¢ĳá¡ªá¢Ļá¡ªá¢ĩ":5995,"Ġá¢Ķá¡Ńá¡ªá¢Ĭá¡±á¡±á¡Ńá¢Ļá¡ªá¢ĩ":5996,"áł¤áł¯áł´":5997,"Ġá¡³á¡¬á¢Ļá¡ªá¢ĭá¡Ńá¡³":5998,"Ġá¢ĺá¡ªá¡´á¡Ńá¢Ķá¡³":5999,"al":6000,"ĠB":6001,"Ġá¢ļá¡ªá¢Ĭá¡ªá¢Ŀ":6002,"Ġá¡´á¡Ńá¢ĳá¡Ńá¢ĳá¢ļá¡ªá¢īá¡¨":6003,"á¢ļá¡ªá¢ŀ":6004,"Ġá¡¸á¡Ńá¡±á¡±á¡Ńá¢Ķ":6005,"Ġá¢ĭá¡Ńá¡¬á¢ŀá¡Ńá¢Ķá¡Ńá¡§":6006,"Ġá¡¯á¡ªá¡¬á¡¬á¢Ľá¡«":6007,"Ġá¡¯á¡¬á¡±á¡±á¡Ńá¢ļ":6008,"Ġá¢Įá¡Ńá¢ĳá¢Ļ":6009,"á¡¬á¢Ĭá¢ĳá¡ªá¢Ľá¡³":6010,"Ġá¢Ķá¡Ńá¡´á¡Ńá¡Ńá¡§":6011,"á¡Ńá¡¬á¡ªá¢Ļá¡Ńá¢Ŀ":6012,"á¡ªá¡ªá¡ªá¢ĳá¡ªá¢Ĳ":6013,"Ġá¡¥á¡Ńá¡±á¡ªá¢īá¡¨":6014,"Ġá¢ĺá¡¬á¢ľá¡ªá¡§":6015,"á¡Ńá¢ļá¡¬á¢ĳá¡ªá¢Ĳ":6016,"Ġá¡³á¡ªá¢Ļá¡Ńá¢ĳá¡ªá¢īá¡¨":6017,"Ġáł®áł¢áł¨áł¢":6018,"Ġá¡¥á¡¬á¢ŀá¡ªá¢ĳá¢Ļá¡§":6019,"Ġá¢Īá¡Ńá¡Ńá¢ĳá¢ļá¡«":6020,"Ġá¢Īá¡ªá¡¬á¡¬á¢ĳá¡«":6021,"Ġá¡¥á¡Ńá¡¬á¡¬á¢ŀá¡ªá¡ªá¡ªá¡ªá¡§":6022,"á¡¬á¡Ńá¡¬á¡¬á¢Ĳ":6023,"Ġá¡´á¡Ńá¢ĳá¡¬á¢ľá¡ªá¢ĳá¢Ļ":6024,"Ġá¢ľá¡ªá¡³á¡ªá¡±á¡±á¡ªá¡§":6025,"á¡±á¡±á¡ªá¡±á¡±á¡ªá¡Ńá¡§":6026,"á¢Ļá¡ªá¡Ńá¡§":6027,"á¢ĭá¡Ńá¡¬á¢Ĭá¡ªá¢ŀ":6028,"á¡ªá¡ªá¡±":6029,"Ġá¡´á¡Ńá¡±á¡±á¡³":6030,"Ġá¡¬á¡ªá¢ĳá¢Ĭ":6031,"Ġá¡¥á¡ªá¢Ľá¡¬á¢ĳá¢ĳá¡ªá¡ªá¡ªá¢Ķá¡ªá¡§":6032,"á¡Ńá¡¬á¡¬á¡ªá¡ªá¡ªá¡§":6033,"Ġá¡´á¡Ńá¡¬á¢ĳá¢ĭá¡Ńá¢İá¢Ļá¡ªá¢Ĳ":6034,"Ġá¢ĺá¡Ńá¡¬á¡³á¢ĳá¡ªá¢ŀ":6035,"Ġá¢ıá¡¬á¢Ĭá¢Ļá¡ªá¡§":6036,"Ġá¢ĺá¡Ńá¢Ķá¡ªá¡ªá¡ªá¢Ĳ":6037,"Ġá¢ļá¡¬á¢ŀá¢İá¡ªá¡¬á¡¬á¢Ľá¡³":6038,"Ġá¢ĭá¡Ńá¡¬á¡Ńá¢ŀá¡±":6039,"á¡¬á¢ĭá¡Ńá¢ĳá¡³á¡ªá¡¨":6040,"Ġá¡´á¡Ńá¢Ķá¡ªá¡ªá¡³":6041,"Ġá¡¥á¡¬á¡ªá¢Ĭá¢Ĭá¡¬á¢ĭá¡Ń":6042,"Ġá¡¸á¡ªá¢Ķá¡¬á¢ľá¡ªá¡§":6043,"Ġá¢ĺá¡ªá¢ĳá¢Ĭá¡ªá¢ŀá¡ªá¢Ĭá¢Ķá¡ªá¡§":6044,"á¡ªá¢Ķá¡¬á¢ŀá¡ªá¢Ľá¡³":6045,"Ġá¡³á¡¬á¢ļá¡¬á¢Ĭá¡ªá¡Ńá¡§":6046,"á¢Įá¡Ńá¡¬á¡ªá¢Ĭá¢Ĭá¡ªá¡¨":6047,"Ġá¡¥á¡Ńá¡¬á¢ĳá¡ªá¢Ļá¡ªá¢Ľá¡³":6048,"Ġá¢ĭá¡Ńá¡¬á¡´":6049,"Ġá¢ĺá¡Ńá¡ªá¡ªá¢ĳá¡ªá¡ªá¡ªá¡³":6050,"Ġá¡¸á¡ªá¢ŀá¡ªá¢İá¢Ķá¡ªá¢ĳá¢Ļá¡ªá¡«":6051,"Ġá¡¥á¡ªá¢ŀá¡ªá¡Ńá¡ªá¢ļá¡¬á¢ĳá¡ªá¢Ĳ":6052,"Ġá¡¥á¡¬á¢ĳá¡ªá¢ŀá¡ªá¢Ľá¡³":6053,"Ġá¡³á¡ªá¡¬á¡¬á¢ĳá¡±á¡±á¡ªá¡ªá¡ªá¡³":6054,"áł¦áł´":6055,"á¡Ńá¢Ļá¡¦":6056,"á¡¥á¢İá¡Ńá¡°á¡¨":6057,"Ġá¢ĺá¡ªá¢ļ":6058,"áłłáłŃáłłáł¯":6059,"Ġá¡´á¡Ńá¡¬á¢ŀá¡¬á¢İá¡Ńá¢Ķá¡Ńá¡§":6060,"Ġá¡¥á¡Ńá¡¬á¢Ķá¡Ńá¢ŀ":6061,"Ġá¢Łá¢Łá¡«":6062,"á¡Ńá¢ľá¡ªá¡§":6063,"Ġá¢ĭá¡Ńá¡¬á¢Ķá¡ªá¢ĭá¡Ń":6064,"á¡¬á¡±á¡ªá¢Ĭá¡ªá¡§":6065,"Ġá¢Įá¡ªá¢Ļá¡ªá¢Ĭá¢Ļá¡ªá¢Ĳ":6066,"Ġá¡¸á¡Ńá¢Ļá¡ªá¢ĳá¢Ļá¡Ńá¢īá¡¨":6067,"Ġá¡¥á¡´á¡Ńá¢Ļá¡Ńá¡¬á¡¨":6068,"Ġá¢Īá¡ªá¡ªá¡ªá¢ļá¡ªá¡±á¡±á¡ªá¢ŀá¢Ļ":6069,"Ġá¢Īá¡ªá¢ĳá¢Ľ":6070,"Ġá¢ıá¡¬á¡§":6071,"á¡ªá¢Ĭá¢Ķá¡«":6072,"Ġá¢ĺá¡ªá¢īá¡¨":6073,"Ġá¢Ĭá¢ŀ":6074,"á¡Ńá¡¬á¡¬á¢ĳá¡ªá¡§":6075,"Ġá¡¯á¡¬á¡±á¡±á¡Ńá¢Ľá¡³":6076,"Ġá¡¥á¡ªá¡Ńá¢īá¡¨":6077,"Ġá¡¥á¡ªá¡§":6078,"á¡¯á¡ªá¢ŀá¡§":6079,"Ġá¢Ĭá¡ªá¢İá¡ªá¢Ĭá¢ļá¡«":6080,"Ġá¡´á¡Ńá¢ĳá¡Ńá¡Ńá¡§":6081,"Ġá¢ĺá¡Ńá¢ŀá¡Ńá¢İá¢Ľá¡¬á¢ĳ":6082,"Ġá¢ĺá¡Ńá¢Ķá¡ªá¢ĳá¡ªá¢İá¢Ľá¡«":6083,"Ġá¢Ķá¡¬á¢ŀá¡ªá¡ªá¡ªá¢Ļ":6084,"Ġá¡¬á¡Ńá¢ŀá¡¬á¡ªá¡ªá¢Ķá¡ªá¡§":6085,"á¢Ļá¡ªá¢ŀá¢Ľ":6086,"Ġá¢Įá¡Ńá¡Ńá¢Ŀ":6087,"Ġá¡¬á¡¬á¢ŀá¡Ńá¢īá¡¨":6088,"Ġá¡³á¡ªá¡¬á¡¬á¢ŀá¡¬á¢Ķ":6089,"Ġá¡´á¡Ńá¢İ":6090,"Ġá¡¥á¢ĳá¢ļá¡«":6091,"Ġá¡¥á¡Ńá¡¬á¢Ĭá¢ĭá¡Ńá¢Ĭ":6092,"Ġá¢ĺá¡Ńá¡¬á¢Ķá¡Ńá¡²":6093,"á¡³á¡ªá¢Ļá¡³":6094,"á¡ªá¢ŀá¡ªá¡±á¡±á¡ªá¡Ńá¡§":6095,"Ġá¢Įá¡ªá¢Ļá¡ªá¢ŀá¡ªá¢Ĳ":6096,"Ġá¢Ļá¡Ńá¡¬á¡ªá¢Ĭá¡±á¡ªá¢ĳá¢Ļá¡§":6097,"Ġá¡¥á¡Ńá¢ŀá¡ªá¢ĳ":6098,"Ġá¡³á¡ªá¢ĳá¡ªá¡Ńá¡ªá¢Ĭá¡ªá¢Ľá¡³":6099,"Ġá¡¥á¡ªá¡³á¡ªá¡¨":6100,"Ġá¡¬á¡Ńá¢ŀá¡¬á¡ªá¡ªá¢Ļá¡ªá¡«":6101,"Ġá¢ĺá¡ªá¢İá¢Ľá¡¬á¡±á¡±á¡Ńá¢ĳá¡Ńá¡§":6102,"á¡ªá¡±á¡±á¡ªá¡±á¡±á¡ªá¡Ńá¡§":6103,"ĠáłŃáł¤":6104,"Ġá¢ļá¡¬á¡±á¡ªá¡ªá¡ªá¢Ķá¡¬á¢Ļá¡§":6105,"åĪ":6106,"Ġá¢Įá¢Łá¡«":6107,"Ġá¡¥á¡¬á¢ĳá¡ªá¡Ńá¡ªá¢Ĭá¡ªá¢ĭá¡Ń":6108,"á¢į":6109,"áł¦áł¢áł¯":6110,"á¡¬á¢İá¡³á¡ªá¡«":6111,"á¡ªá¡¬á¡¬á¢ĳá¡ªá¡ªá¡ªá¢Ķá¡ªá¡§":6112,"Ġá¡¯á¡Ńá¢ľá¡ªá¢ŀ":6113,"á¡ªá¢Ĭá¢Ļá¡ªá¢Ĭá¡ªá¡Ńá¡§":6114,"Ġá¢ļá¡¬á¢Ļá¡ªá¡´á¡Ńá¢ŀá¡¬á¢Ļá¡ªá¡§":6115,"Ġá¢Ĭá¡ª":6116,"Ġá¢Įá¡ªá¡ªá¢Ĭá¡±á¡±":6117,"áł¡áł¯áł³":6118,"á¡¸á¡ªá¢İá¢Ļá¡³":6119,"Ġá¢Įá¡Ńá¡¬á¢ŀá¡Ńá¡¬á¡¬á¢ļá¡ªá¢Ĭá¡ªá¡§":6120,"Ġá¡¥á¢ĭá¡Ńá¢Ļá¡Ńá¡§":6121,"Ġá¡¥á¡ªá¢Ķá¡Ńá¢ŀá¡³":6122,"Ġá¡´á¡Ńá¡¬á¢ĵ":6123,"Ġá¢Ķá¡Ńá¡´á¡Ńá¢ŀá¢īá¡¨":6124,"á¢Ĭá¡ªá¢Ľ":6125,"Ġá¢ĺá¡Ńá¡¬á¢ŀá¡Ńá¢ĭ":6126,"áłłáł°áł¤":6127,"Ġá¡¸á¡ªá¢ŀá¡¬á¡±á¡±á¡Ńá¢ļá¡ªá¢ĳá¡±á¡±":6128,"Ġá¡¥á¡ªá¢ŀá¡ªá¢ĳá¢Ľá¡¬á¡«á¡¨":6129,"Ġá¢Ķá¡Ńá¡¬á¡ªá¡¬á¡¨":6130,"Ġá¡¸á¡ªá¡¬á¡¬á¢ŀá¢ļá¡ªá¢ĩ":6131,"Ġá¢Ķá¡Ńá¡¬á¢ŀá¢ĳá¡¬á¡¬á¡¨":6132,"á¡ªá¢ŀá¡ªá¢Ļá¡ªá¢Ĳá¡¨":6133,"á¡ªá¡ªá¡ªá¡°á¡¨":6134,"á¢Ĭá¡ªá¢ŀá¡ªá¡¬á¡¨":6135,"âĢ»":6136,"Ġá¡³á¡ªá¢ŀá¡¬á¢Ĳ":6137,"Ġá¢Ķá¡Ńá¡¬á¡ªá¢Ļ":6138,"Ġá¡¸á¡ªá¢ľá¡ªá¡ªá¡ªá¢Ķá¡ªá¡§":6139,"á¡¥á¡Ńá¡¬á¢ŀá¢ĳ":6140,"Ġá¢Īá¡ªá¢ŀá¡Ńá¢īá¡¨":6141,"á¡Ńá¢ĳá¢ļá¡ªá¡ªá¡ªá¡³":6142,"á¡Ńá¢Łá¡ªá¢Ŀ":6143,"Ġá¢ĺá¡Ńá¡¬á¢ĭá¡Ńá¢Ĭá¡ªá¢ŀ":6144,"Ġá¡¸á¡ªá¡ªá¢Ĭá¡±á¡±á¡ªá¡ªá¡ªá¡³":6145,"áłłáł©áłŃ":6146,"Ð´Ñį":6147,"Ġá¢ĺá¡Ńá¢ĳá¢Ľá¡³":6148,"Ġá¢Įá¡Ńá¡ªá¢Ĭá¡ªá¡ªá¡ªá¢ĩ":6149,"á¡ªá¡ªá¢ĭá¡Ńá¡³":6150,"á¢Ķá¡Ńá¡±á¡Ńá¢Ķ":6151,"á¡ªá¡±á¡±á¡ªá¢ĳ":6152,"á¢Ķá¡Ńá¢ŀá¡´á¡Ńá¢ĳ":6153,"Ġá¡¥á¡¬á¡§":6154,"á¡ªá¢ļá¡¬á¡ªá¡ªá¡ªá¢Ļá¡ªá¢ĩ":6155,"á¢Ĭá¡¬á¢ľ":6156,"Ġá¢ĺá¡ªá¡³á¢Ķá¡¬á¢ĳá¢Ļá¡§":6157,"á¡ªá¢ĳá¡ªá¢Ĭá¡ªá¡Ńá¡§":6158,"Ġá¡¥á¡ªá¡´á¡Ńá¢Ĳá¡¨":6159,"Ġá¡¯á¡Ńá¢İá¡³":6160,"Ġá¡¥á¢ŀá¢Ĭá¡¬á¢Ĭá¡ªá¡Ńá¡§":6161,"Ġá¢Įá¡ªá¢ŀá¢Ļá¡ªá¡ªá¡ªá¡³":6162,"á¡Ńá¢ĭá¡Ńá¢ŀ":6163,"á¡¬á¡ªá¡ªá¡ªá¡³á¡ªá¢Ĳ":6164,"á¢ĺá¡ªá¢ŀá¡ªá¢īá¡¨":6165,"Ġá¡¸á¡Ńá¢Ĭá¡¬á¢ŀá¡ªá¢Ĳ":6166,"Ġá¡´á¡Ńá¡Ń":6167,"á¡¬á¢İá¡ªá¡¬á¡¨":6168,"Ġá¢ĭá¡Ńá¡¬á¢ŀá¢Ļá¡ªá¢ĭá¡Ń":6169,"á¡¥á¡Ńá¢Ķá¡Ńá¡§":6170,"Ġá¡¯á¡Ńá¡¬á¢ĭá¡Ńá¡´á¡Ńá¢ŀ":6171,"Ġá¡¯á¡ªá¡¬á¡¬á¢ĳá¡ªá¢Ľá¡³":6172,"Ġá¡¥á¡Ńá¡¬á¢Ľá¡ªá¢Ĭá¢ļá¡¬á¡Ńá¡§":6173,"Ġá¡¥á¡Ńá¢Ļá¡ªá¡ªá¡ªá¡³":6174,"Ġá¢ĺá¡Ńá¡¬á¢Ķá¡¬á¢Ľá¡³":6175,"Ġá¢ĺá¡ªá¢Ĳ":6176,"áłłáł¤":6177,"Ġáł¨áłłáł·":6178,"Ġá¡¸á¡Ńá¢ĳá¡ªá¢Ļ":6179,"Ġá¡¸á¡ªá¢ĳá¡ªá¢İá¢Ľá¡¬á¢ĳ":6180,"á¡Ńá¡±á¡ªá¢Ļá¡³":6181,"á¡ªá¢ĳá¡ªá¢Ĭá¡¬á¡¦":6182,"Ġá¡³á¡ªá¢Ľ":6183,"Ġá¡¥á¡¬á¢ĳá¡±á¡±á¡ªá¢Ĳ":6184,"Ġá¢ĺá¡ªá¡³á¡ªá¡ªá¡ªá¢Ķá¡ªá¡§":6185,"á¡ªá¡¬á¡¬á¡ªá¡ªá¡³":6186,"Ġá¡¸á¡ªá¢ŀá¢Ĭá¡¬á¢ĵ":6187,"Ġá¡¸á¡ªá¡¬á¡¬á¢ŀá¡ªá¢ĳá¡ªá¡§":6188,"Ġá¢ļá¡Ńá¢ļ":6189,"á¢ĳá¡ªá¡°á¡¨":6190,"Ġá¢ĺá¡Ńá¢Ķá¡Ńá¡ªá¡ªá¢Ķá¡ªá¡§":6191,"Ġá¡¥á¡³á¡ªá¡Ńá¡ªá¢ĭá¡Ń":6192,"Ġá¢Ĭá¡ªá¢ŀá¡ªá¢ļá¡¬á¢ĳ":6193,"Ġá¢Ķá¡Ńá¡¬á¢Ĭá¡ªá¡¨":6194,"Ġá¡¥á¡ªá¡³á¢Ļá¡ªá¢Ŀá¡¨":6195,"è¯":6196,"Ġá¡¥á¡¬á¢ŀá¡ªá¡§":6197,"á¢Łá¢ĺ":6198,"Ġá¡¥á¡Ńá¢ŀá¢Ĭá¡¬á¡±á¡±á¡ªá¡Ńá¡§":6199,"Ġá¡³á¡ªá¡±á¡±á¡Ńá¢ŀá¡ªá¡«":6200,"ĠáłŃáł¡áł·":6201,"Ġá¡¯á¡Ńá¡¬á¢Ĭá¢ļ":6202,"Ġá¢ľá¡ªá¡´á¡Ńá¡±á¡±á¡ªá¢ŀá¡ªá¡«":6203,"Ġá¢ĺá¡ªá¢İá¡ªá¢ļá¡ªá¢ĭá¡Ń":6204,"á¡´á¡Ńá¡¬á¢ĭá¡Ń":6205,"á¢ĺá¡ªá¡Ńá¢Ĭá¡ªá¡¨":6206,"Ġ\"\"":6207,"Ġá¡¥á¡Ńá¡¬á¢ĭá¡Ńá¢ĳá¡ªá¢Ĭá¢Ķá¡ªá¡§":6208,"Ġá¡¥á¡Ńá¡±á¡±á¡Ńá¢Ļá¡§":6209,"Ġá¡¸á¡ªá¢ŀá¡ªá¡±á¡±á¡ªá¡§":6210,"á¡¯á¡ªá¢Ķá¡Ńá¡§":6211,"á¢ļá¡¬á¢Ĭá¡¬á¡±":6212,"á¡ªá¡ªá¡ªá¢ĳá¡ªá¡ªá¡ªá¡³":6213,"á¢Ķá¡¬á¢Ľá¡³":6214,"á¡Ńá¢ĭá¡Ńá¢Ĳ":6215,"Ġá¡¥á¡ªá¢Ķá¡ªá¡±á¡±á¡Ńá¡ªá¡ªá¢Ķá¡ªá¡§":6216,"Ġá¢Įá¡¬á¢Ķá¢ĵ":6217,"Ġá¡³á¡ªá¡±á¡±á¡Ńá¢ĳá¡±á¡±á¡ªá¢Ľá¡³":6218,"Ġá¡¯á¡Ńá¡¬á¡¬á¢ŀ":6219,"Ġá¡¥á¡Ńá¡¬á¡Ńá¢Ŀ":6220,"Ġá¡¬á¡¬á¢ŀá¡¬á¢į":6221,"áł´áł¢áł¨":6222,"Ġá¢ĺá¡Ńá¡Ńá¢ĳ":6223,"Ġá¢ĺá¡ªá¡ªá¢Ĭá¢Ĭá¡ªá¢Ĭá¡ªá¡¨":6224,"Ġá¢Ķá¡ªá¢ĭá¡Ńá¢ŀ":6225,"á¡ªá¢ĳá¢Ĭá¡ªá¡¬á¡¨":6226,"Ġá¡¥á¡ªá¢Ļá¡ªá¢Ŀ":6227,"Ġá¡¥á¢ŀá¢Ĭá¡¬á¢ĳá¡ªá¡§":6228,"Ġá¡¸á¡Ńá¡³á¡¬á¢ľá¡ªá¡§":6229,"Ġá¡¥á¡Ńá¢ĳá¡ªá¢İá¢Ľá¡¬á¢ĳá¡ªá¡§":6230,"á¡ªá¡±á¡±á¡ªá¡«á¡¨":6231,"á¡¬á¢İá¡Ńá¢Ŀ":6232,"Ġá¡¸á¡ªá¢ĳá¡§":6233,"á¡ªá¡Ńá¡ªá¡ªá¡ªá¡ªá¡§":6234,"Ġá¡¥á¢ĭá¡Ńá¢ĳá¡ªá¢ĵ":6235,"Ġá¢ĺá¡ªá¢ŀá¡¬á¢Ľá¡³":6236,"Ġá¢ĺá¡ªá¢Ļá¡ªá¡±á¡±":6237,"Ġá¢ĺá¡ªá¢ŀá¢ĳá¡¬á¡¬á¡¨":6238,"Ġáłªáłłáł¶áł¢áł¨":6239,"Ġá¢ĺá¡ªá¢ŀá¡±á¡«":6240,"Ġá¢ĺá¡Ńá¢ŀá¡Ńá¡¬á¡¬á¢Ļ":6241,"Ġá¡¸á¡ªá¡¬á¡¬á¢ŀá¡ªá¢ĳá¡ªá¡ªá¡ªá¢Ķá¡ªá¡§":6242,"áłłáłµáł¦":6243,"á¡ªá¡±á¡±á¡Ńá¢ĳá¡Ńá¡«á¡¨":6244,"Ġá¢ĺá¡ªá¡±á¡±á¡ªá¢Ļá¡ªá¡«":6245,"áł¡áł·áłŃáł¡":6246,"Ġá¢Ĭá¡¬":6247,"Ġá¡¸á¡ªá¢ŀá¡ªá¡³á¡ªá¢Ĳ":6248,"Ġá¡¸á¡ªá¡±á¡±á¡ªá¡Ńá¡§":6249,"Ġá¡¸á¡ªá¢ŀá¡¬á¢ĳá¢ļá¡ªá¡ªá¡ªá¡³":6250,"á¢Ĭá¡¬á¢ĭá¡Ń":6251,"Ġá¡¥á¢ĭá¡Ńá¢ŀá¢Ĭ":6252,"Ġá¡¥á¡ªá¢ŀá¡¬á¢ľá¡ªá¢Ļá¡ªá¡§":6253,"Ġá¡¬á¡¬á¡³á¡ªá¡ªá¡Ńá¢īá¡¨":6254,"ä½":6255,"å°":6256,"Ġá¢ĺá¡ªá¡±á¡±á¡Ńá¢ŀá¡¬á¢ľá¡ªá¢Ĳ":6257,"Ġá¡¥á¡Ńá¡¬á¢ŀá¢Ļ":6258,"Ġá¡¸á¡ªá¢ľá¡ªá¡ªá¡ªá¡³":6259,"Ġá¢ĺá¡ªá¡³á¡ªá¡ªá¡Ńá¢ŀá¢īá¡¨":6260,"Ġáł²áłłáłª":6261,"áł¤áłŃáłłáł·":6262,"áł¸":6263,"á¡Ńá¢Ļá¡«":6264,"Ġá¢Īá¡ªá¡¬á¡¬á¡ªá¡ªá¡ªá¢İá¢Ķá¡¬á¡ªá¡ªá¢Ļá¡³":6265,"Ġá¡´á¡Ńá¡Ńá¡´á¡Ń":6266,"á¡¬á¡¶":6267,"Ġá¡³á¡ªá¢ŀá¡ªá¡±á¡±á¡ªá¡§":6268,"Ġá¢ĭá¡Ńá¡¬á¢ŀá¢Ķá¡«":6269,"Ġá¡´á¡Ńá¡¬á¢Ĭá¡ªá¢į":6270,"áł¬áł¦":6271,"Ġáł°áłłáł¨áłłáłŃ":6272,"Ġá¡¥á¡ªá¢Ĭá¡¬á¡±á¡±á¡Ńá¢ĳá¡ªá¡ªá¡³":6273,"Ġá¡¥á¡Ńá¢ĳá¡±á¡±á¡Ńá¢Ľá¡³":6274,"Ġá¡¬á¡ªá¢ĭá¡Ńá¡³":6275,"Ġá¢ıá¡Ńá¡ªá¢Ĭá¡ªá¡ªá¡³":6276,"á¢Ķá¡¬á¢Ļ":6277,"á¡¥á¡³á¡ªá¡Ń":6278,"á¡³á¡ªá¡¬á¡¬á¢ĳ":6279,"Ġá¡³á¡ªá¡¬á¡¬á¡±á¡ªá¢į":6280,"Ġá¡¸á¡Ńá¡³á¡¬á¢ľá¡ªá¢ŀ":6281,"Ġá¢ĺá¡Ńá¡¬á¢Ĳ":6282,"á¡ªá¢ĭá¡Ńá¢ĳá¡Ńá¢Ĭá¢ļá¡«":6283,"Ġá¡¥á¡ªá¡ª":6284,"Ġá¢Ķá¡¬á¢ŀá¢Ĭá¡ªá¡¬á¡¨":6285,"Ð²":6286,"Ġá¡¯á¡ªá¡¬á¡¬á¢Ļá¡ªá¢ĳá¡ªá¢Ľá¡³":6287,"Ġá¡¥á¡ªá¢Ķá¡ªá¢ŀ":6288,"Ġá¡¥á¡Ńá¡ªá¡ªá¡ªá¡±á¡±á¡ªá¡ªá¢ļá¡«":6289,"Ġá¢Ĺá¡Ńá¡¬á¢ĳá¡³":6290,"ãĢĶ":6291,"Ġá¡¥á¡Ńá¡Ńá¡ªá¡ª":6292,"á¡ªá¡ªá¡ªá¢Ļá¡ªá¢Ķá¡«":6293,"Ġá¢Ĺá¡ªá¢Ķ":6294,"á¡ªá¢Ľá¡¬á¢ĳá¡§":6295,"Ġá¢ĺá¡ªá¢ĭá¡Ńá¢Ķá¢ĭá¡Ń":6296,"Ð¸Ð¹":6297,"Ġá¢Ĺá¡Ńá¡¬á¢ĭ":6298,"Ġá¡¯á¡ªá¢ŀá¡ªá¢İá¢Ľá¡¬á¢Ļá¡³":6299,"Ġá¢ĺá¡ªá¡±á¡±á¡Ńá¢ĳá¡ªá¡ªá¡ªá¢Ķá¡ªá¡§":6300,"á¢Łá¢¤á¢ĵ":6301,"Ġá¡¸á¡ªá¢ŀá¡¬á¡ªá¡ªá¡³":6302,"Ġá¢Ķá¡ªá¢Ĭá¡¬á¡±á¡±á¡Ńá¢ĳ":6303,"á¡ªá¡±á¡±á¡ªá¢ĳá¡ªá¢Ľá¡³":6304,"Ġá¡¸á¡Ńá¢ĳá¡´á¡Ńá¢Ľá¡³":6305,"Ġá¡¥á¡ªá¡¬á¡¬á¢ĳá¡ªá¢Ļ":6306,"Ġá¡¥á¢Ĭá¡¬á¢ĳá¡ªá¢Ĳá¡¨":6307,"Ġá¡¯á¡ªá¢Ĭá¡ªá¢Ĭá¡ªá¢ĭá¡Ń":6308,"á¡Ńá¢ļá¡¬á¢ĳá¡ªá¡ªá¡ªá¡³":6309,"Ġá¡¥á¡Ńá¡¬á¡¬á¢İá¡ªá¢Ĭá¡ªá¡§":6310,"Ġá¡¥á¡¬á¡±á¡³":6311,"Ġá¢Ķá¡ªá¢ŀá¡ªá¢Ľá¡³":6312,"Ġá¡¸á¡ªá¢ŀá¡¬á¢ľá¡ªá¢Ĳ":6313,"Ġá¢Ķá¡ªá¢īá¡¨":6314,"Ġá¡³á¡ªá¢ŀá¢Ĭá¡ªá¢Ķ":6315,"Ġá¡¯á¡ªá¡¬á¡¬á¢Ļá¡ªá¢ĳá¡ªá¢Ĭá¢Ķá¡ªá¡§":6316,"Ġá¢ĺá¡ªá¢İá¢Ľá¡¬á¢ĭá¡Ń":6317,"Ġá¡¯á¡ªá¢ļá¡¬á¡§":6318,"Ġá¢ļá¡¬á¢ŀá¢İá¡ªá¡¬á¡¬á¡§":6319,"á¡¬á¡ªá¢ĭá¡Ńá¡§":6320,"á¡Ńá¢Ĭá¡ªá¢ĭá¡Ń":6321,"Ġá¡´á¡Ńá¢ĳá¡¬á¢ľ":6322,"Ġá¢ĺá¡ªá¢Ĭá¡ªá¢Ĭá¢Ķá¡ªá¡§":6323,"Ġá¡¥á¡ªá¡±á¡ªá¡±á¡±á¡ªá¡ªá¡ªá¡³":6324,"Ġá¡¸á¡ªá¢ŀá¡ªá¡§":6325,"á¡ªá¢ŀá¡¬á¢Ľá¡³":6326,"á¡¬á¡±á¡±á¡Ńá¡«":6327,"áł¢áł¬áł¦":6328,"Ġ6":6329,"Ġá¡¥á¡Ńá¡¬á¢ĳá¡ªá¢Ļá¡ªá¢Ĭá¡ªá¢ĭá¡Ń":6330,"á¡ªá¢ĳá¢Ľá¡«":6331,"á¡Ńá¢ĳá¢Ļá¡ªá¢ĩ":6332,"Ġï¸µ":6333,"áł¡áł´áł¢áł¯":6334,"Ġ19":6335,"Ġá¡¥á¡Ńá¡Ńá¡±á¡±á¡Ńá¡ªá¡ªá¢Ķá¡ªá¡§":6336,"Ġá¢Ķá¡¬á¡¬á¢Ļ":6337,"Ġá¢Ķá¡¬á¢Ļá¡Ńá¡§":6338,"Ġáł¬áł¦":6339,"Ġá¢Ķá¡ªá¢ļá¡Ńá¢ŀ":6340,"á¡ªá¡¬á¡¬á¢Ļá¡ªá¢Ĳá¡¨":6341,"á¡¥á¡¬á¢ŀá¡ªá¡±á¡±á¡³":6342,"Ġá¢ĺá¡ªá¢Ľá¡¬á¢Ĭá¡ªá¢ĭá¡Ń":6343,"á¡Ńá¡¬á¢ĺá¢Łá¢Ŀ":6344,"Ġá¡¥á¡Ńá¡¬á¡¬á¡Ńá¡ªá¡ªá¡ªá¡ªá¢Ŀ":6345,"çī":6346,"Ġá¢ĺá¡ªá¢ĳá¢Ĭá¡ªá¢ŀá¡ªá¢Ľá¡³":6347,"Ġá¡¬á¡¬á¢ľá¡§":6348,"Ġé":6349,"á¡¬á¢Ĭá¢ļá¡«":6350,"á¢ĺá¡Ńá¡¬á¢ŀá¡³á¡ªá¡¨":6351,"Ġáłªáł¦áł¬áł¦":6352,"Ġá¡¥á¡Ńá¡¬á¡¬á¢ŀá¡ªá¢ĳá¢ļá¡ªá¢īá¡¨":6353,"á¡ªá¢Ľá¡¬á¢ŀá¡±á¡±á¡ªá¢Ĳ":6354,"Ġá¡³á¡ªá¢Ļá¡Ńá¢Ľ":6355,"Ġá¡¬á¡Ńá¢ĳá¢Ľá¡ªá¢īá¡¨":6356,"á¡¬á¡ªá¢ĳá¡ªá¡±á¡±á¡³":6357,"Ġá¡¥á¡Ńá¢ŀá¢Ĭá¡¬á¢ĳ":6358,"Ġá¢ĺá¡ªá¡ªá¢Ļ":6359,"á¡Ńá¢Ļá¡ªá¢ŀá¡«":6360,"á¢Īá¡ªá¢Ĳ":6361,"Ġá¢ľá¡§":6362,"Ġá¢Įá¡ªá¢Ļá¡ªá¡§":6363,"Ġá¢ĺá¡ªá¢ĭá¡Ńá¢ĳá¢Ļá¡ªá¢ŀá¢Ľ":6364,"Ġáłªáłłáł¶áł¢áłŃáł¤áł¯":6365,"Ġá¡³á¡ªá¢ŀá¡¬á¢İá¢Ļá¡ªá¢ĳá¡ªá¢Ľá¡³":6366,"Ġá¡¥á¡Ńá¡¬á¡¬á¡¨":6367,"á¡ªá¢Ľá¡¬á¢Ľá¡³":6368,"Ġá¡¥á¡Ńá¡¬á¢ŀá¡ªá¢ĵ":6369,"Ġá¡¥á¡ªá¡³á¡ªá¢ļá¡¬á¢Ľá¡³":6370,"á¡¬á¡ªá¢Ļá¡§":6371,"Ġá¡¥á¡Ńá¢İá¡´á¡Ńá¢ĳá¡³":6372,"Ġá¡¸á¡ªá¢ŀá¡ªá¢Ļá¡ªá¢ĩ":6373,"Ġá¢ĺá¡ªá¢ŀá¢Ĭá¡ªá¢Ĳ":6374,"á¡ªá¡ªá¡´á¡Ńá¢ĳá¡ªá¢ĩ":6375,"Ġá¡¬á¡ªá¢ŀá¢ĳá¡¬á¡¬á¡¨":6376,"Ġá¡¯á¡ªá¡±á¡±á¡ªá¡Ńá¡ªá¡ªá¡ªá¡³":6377,"Ġá¡¯á¡¬á¢İá¢Ĭá¡ªá¡§":6378,"Ġá¡¬á¡Ńá¡¬á¡¬á¢ŀ":6379,"á¡¬á¡±á¡±á¡Ńá¢ĳá¢Ļá¡ªá¢ĩ":6380,"Ġá¢ĭá¡Ńá¡¬á¢ĳá¡¬á¢ľá¡ªá¢Ĭá¢Ķá¡ªá¡§":6381,"Ġáł°áł¡áł³áł¬":6382,"Ġá¡¬á¡Ńá¡Ńá¡§":6383,"á¡Ńá¡±á¡Ńá¡§":6384,"á¢ĺá¡Ńá¡¬á¢ŀá¡³á¡ªá¡§":6385,"á¢ĺá¡ªá¢Ĭá¡ªá¢Ĭá¡ªá¡Ńá¡§":6386,"Ġá¡³á¡ªá¢ĳá¢Ľ":6387,"Ġá¢Īá¡ªá¢ŀá¢ļá¡ªá¢ĩ":6388,"Ġá¡³á¡ªá¡¬á¡¬á¡±á¡±á¡Ńá¢ĳá¡Ńá¡§":6389,"Ġá¢Įá¡Ńá¡¬á¢Ķá¡Ńá¡§":6390,"Ġá¡¬á¡ªá¡ªá¢Ĭá¡±á¡±":6391,"Ġ2017":6392,"Ġá¢Ķá¡ªá¡ªá¡ªá¡ªá¢Ĳ":6393,"á¡¯á¡ªá¢Ļá¡§":6394,"á¢ĭá¡Ńá¡¬á¢Ĭá¢Ľ":6395,"Ġá¡¥á¡Ńá¢Ķá¡Ńá¢Ĳ":6396,"á¡Ńá¡ªá¢Ĭá¢ĭá¡Ńá¡«":6397,"Ġá¡¥á¡ªá¡´á¡Ńá¡§":6398,"á¡Ńá¡ªá¡ªá¡ªá¡ªá¡ªá¡ªá¢Ķá¡ªá¡§":6399,"Ġá¡¥á¡ªá¢İá¡¬á¢Ļá¡ªá¡Ńá¡§":6400,"Ġá¢ĺá¡Ńá¢ŀá¡ªá¡Ńá¡ªá¡ªá¡ªá¡ªá¢Ĳ":6401,"Ġá¡³á¡ªá¢Ĭá¡¬á¡¦":6402,"á¡¬á¢Ľá¡¬á¡§":6403,"á¢ļá¡¬á¡±":6404,"Ġá¢ļá¡¬á¢Ļá¡ªá¡³á¡ªá¢Ĳ":6405,"Ġá¡¬á¡Ńá¡³á¡ªá¡ªá¡ªá¡³":6406,"Ġá¢Ķá¡ªá¢Ĭá¡¬á¡±á¡±á¡Ńá¢Ķá¡³":6407,"Ġá¢Ĭá¡ªá¢ĳá¡ªá¡«á¡¨":6408,"á¡¬á¡Ńá¢Ĭá¡¬á¢ľá¡ªá¢Ĳ":6409,"Ġáł¬áł¢áł¨":6410,"á¡ªá¡ªá¢ĺá¡¦":6411,"Ġá¡³á¡¬á¢ŀ":6412,"á¡ªá¡±á¡±á¡Ńá¡ªá¡ªá¡ªá¡§":6413,"á¡ªá¢ĳá¢Ĭá¡ªá¢Ŀ":6414,"Ġá¡¥á¡Ńá¢ļá¡ªá¢ŀá¡ªá¡ªá¡ªá¢Ķá¡ªá¡§":6415,"á¡Ńá¢ļá¡¬á¢ĳá¡ªá¡±á¡±á¡Ńá¢Ŀ":6416,"Ġá¡¥á¡ªá¡²":6417,"Ġá¢Ķá¡ªá¡ªá¢Ĭá¢Ĭá¡ªá¢ŀ":6418,"Ġá¢Ķá¡¬á¡±á¡Ńá¢Ĳ":6419,"Ġá¡¥á¢ŀá¢Ĭá¡ªá¢Ļá¡³":6420,"Ġá¡¥á¢ĭá¡Ńá¢Ķá¡Ńá¢Ĳ":6421,"Ġá¡´á¡Ńá¡¬á¢ŀá¡Ńá¡«":6422,"á¡ªá¢Ļá¡Ńá¢į":6423,"Ġá¢ĺá¡ªá¡³á¡ªá¡±á¡±á¡Ńá¢ĳá¡¬á¢ĩ":6424,"Ġá¡¥á¡Ńá¢ľá¡Ńá¢Ļá¡ªá¡Ńá¡§":6425,"Ġá¢ĺá¡Ńá¢Ĭá¡¬á¡«á¡¨":6426,"Ġá¢ĭá¡Ńá¡¬á¢ŀá¡ªá¢Ĳ":6427,"Ġá¡¥á¢İá¢Ĭá¡¬á¡Ńá¡ªá¢Ĭ":6428,"Ġá¢¥á¡Ńá¢ŀ":6429,"Ġá¡¥á¡ªá¢ŀá¡±á¡±á¡ªá¢ļ":6430,"Ġá¢Ķá¡ªá¡±á¡±á¡Ńá¡³á¡ªá¡¨":6431,"Ġá¡¥á¢ŀá¢Ļá¡ªá¡±á¡¬á¡³":6432,"åį":6433,"Ġá¡¥á¢ŀá¡ªá¢ĭá¡Ńá¡³":6434,"Ġá¡³á¡ªá¢Ļá¡Ńá¢ĳá¡ªá¢Ľá¡³":6435,"Ġá¡¸á¡Ńá¢Ļá¡ªá¢ĳá¢Ļá¡Ńá¡±á¡±á¡ªá¡§":6436,"Ġá¡¸á¡Ńá¢ŀá¡¬á¢İ":6437,"Ġá¡¸á¡ªá¢İá¡¬á¡±á¡±á¡ªá¢Ķá¡«":6438,"Ġá¡¥á¢Ľá¡ªá¡Ńá¡§":6439,"á¡¬á¡Ńá¡³":6440,"Ġá¡¥á¡ªá¢Ĭá¡¬á¡§":6441,"á¡Ńá¡ªá¡ªá¢Ļá¡ªá¢Ĳ":6442,"Ġá¡¥á¡Ńá¡¬á¡ªá¢Ļá¡Ńá¢Ķá¡Ńá¢ĳá¡ªá¡§":6443,"á¡Ńá¢ĳá¢Ľá¡¬á¡§":6444,"á¢Ĭá¡ªá¢Ĭá¡ªá¡Ńá¡§":6445,"áłŃáł¡":6446,"Ġá¡¥á¡Ńá¢Ĭá¡¬á¢ĳá¡ªá¡ªá¡ªá¡³":6447,"Ġá¢Įá¡¬á¢ŀ":6448,"á¡Ńá¢ĳá¡ªá¢Ļá¡ªá¡¬á¡¨":6449,"Ġá¢Ķá¡Ńá¡±á¡±":6450,"Ġá¡¥á¡Ńá¡¬á¢Ľá¡ªá¢Ĭá¢Ļá¡ªá¢ĭá¡Ń":6451,"Ġá¡³á¡ªá¢ļá¡¬á¢į":6452,"Ġá¢ļá¡¬á¡±á¡ªá¡ªá¡ªá¢Ķá¡¬á¢ĳá¡ªá¡³á¡ªá¢Ĳ":6453,"á¡¥á¡Ńá¡¬á¡³":6454,"á¢ļá¡¬á¢ĳá¡ªá¢ĭá¡Ń":6455,"Ġá¡´á¡Ńá¢ĳá¢ļá¡¬á¡ªá¡ªá¡ªá¢Ĳá¡¨":6456,"á¡´á¡Ńá¡¬á¢Ĭá¡ªá¡Ńá¡§":6457,"á¢ĺá¡ªá¡´á¡Ńá¡§":6458,"Ġá¢Ķá¡ªá¡Ńá¡ªá¢Ĭá¡¬á¢Ľá¡³":6459,"Ġá¢ľá¡ªá¢Ļá¡ªá¢Ľá¡³":6460,"Ġá¡³á¡ªá¡¬á¡¬á¢ĳá¢Ļá¡Ńá¡ªá¡ªá¡³":6461,"Ġá¢ĺá¡ªá¡¬á¡¬á¢ĳá¢Ľá¡³":6462,"á¢Ķá¡Ńá¢ŀá¡Ńá¡ªá¡ªá¢ļá¡¬á¡Ńá¡§":6463,"á¡¬á¡ªá¢į":6464,"á¡ªá¡ªá¢Ļá¡¦":6465,"Ġá¡¥á¡¬á¢ĳá¡ªá¢Ľá¡³":6466,"Ġá¡³á¡ªá¢ŀá¡ªá¡±á¡±á¡ªá¡Ńá¡§":6467,"Ġá¡³á¡¬á¢ĳá¡¬á¡³":6468,"Ġá¡¸á¡Ńá¢ĳá¡´á¡Ńá¡§":6469,"á¡ªá¢ĳá¢Ľá¡ªá¢ĭá¡Ń":6470,"Ñı":6471,"Ġá¢Ķá¡¬á¡ªá¢Ĭá¢Ĭá¡ªá¢Ĭá¡ªá¢ĳá¢Ļá¡§":6472,"á¡ªá¢Ĭá¡ªá¢ļá¡«":6473,"Ġá¢Ķá¡¬á¢Ļá¡Ńá¢Ľá¡³":6474,"á¡¬á¢ľá¡ªá¢ĳá¡ªá¡§":6475,"Ġá¢ĺá¡Ńá¡¬á¢ŀá¡Ńá¢ĭá¡Ńá¡§":6476,"á¡Ńá¡¬á¡¬á¢ĳá¡ªá¢Ľá¡³":6477,"á¡ªá¢ŀá¢Ļá¡ªá¢ĩ":6478,"Ġá¡¬á¡Ńá¢ŀá¡¬á¡±á¡±á¡Ńá¢ĳá¡Ńá¡ªá¡ªá¢Ķá¡ªá¡§":6479,"Ġá¢ĺá¡Ńá¢ŀá¢Ľá¡«":6480,"Ġá¢ĺá¡ªá¢ĳá¢Ĭá¡ªá¢ŀá¡ªá¢ĭá¡Ń":6481,"Ġá¢Īá¡ªá¢ŀá¡±á¡±á¡ªá¢Ļá¡ªá¢ĩ":6482,"Ġá¢ĺá¡ªá¢ŀá¡Ńá¡ªá¡ªá¢Ķá¡ªá¡§":6483,"á¡ªá¡Ńá¡ªá¢ļá¡Ńá¡Ńá¡§":6484,"Ġá¡¬á¡Ńá¢ŀá¢Ķá¡¬á¢Ĳ":6485,"á¡ªá¢ŀá¡ªá¢Ļá¡ªá¢ĩ":6486,"Ġá¡¬á¡Ńá¡¬á¡³á¢Ķá¡¬á¢ľá¡ªá¢ŀá¡ªá¢Ĳ":6487,"Ġè":6488,"Ġá¡¥á¡Ńá¢ľá¡ªá¡ªá¡ªá¡ªá¡§":6489,"Ġá¢ĭá¡Ńá¡¬á¢Ķá¡ªá¢Ļá¡ªá¡¬á¡¨":6490,"Ġá¡¬á¡¬á¢ŀá¡Ńá¢Ľá¡³":6491,"Ġáłłáł¯":6492,"á¢ĺá¡ªá¢İá¢Ļ":6493,"á¡¸á¡ª":6494,"á¡ªá¡ªá¢ĭá¡Ń":6495,"á¡¯á¡¬á¡±á¡±":6496,"Ġá¢Īá¡Ńá¢İá¡Ńá¢Ļá¡ªá¢Ĳ":6497,"Ġá¢Ķá¡Ńá¢ŀá¡±á¡±á¡ªá¢Ľá¡³":6498,"Ġá¡¥á¡Ńá¢ŀá¢Ĭá¡¬á¢Ľá¡³":6499,"Ġá¡¥á¡Ńá¡¬á¡±á¡¬á¢Ļá¡§":6500,"Ġá¡¯á¡ªá¡±á¡±á¡ªá¡Ńá¡ªá¢ļá¡³":6501,"Ġá¡¥á¡ªá¡±á¡ªá¡«":6502,"Ġá¢Ķá¡·á¡Ńá¢ŀá¢ĺá¡¦":6503,"Ġá¢ĭá¡Ńá¡¬á¢İá¡Ńá¢Ľá¡¬á¢ĭá¡Ńá¢ĳá¢Ľá¡³":6504,"Ġá¢ĺá¡Ńá¡±á¡±á¡Ńá¢ŀá¡ªá¡«":6505,"Ġá¡¥á¡ªá¢ĳá¡ªá¡ªá¡ªá¢Ķá¡ªá¡§":6506,"Ġáł³áłłáł·":6507,"Ġá¡¬á¡¬á¢ŀá¡±á¡±á¡ªá¢ĳá¢Ļá¡ªá¡«":6508,"Ġá¢ĺá¡Ńá¢Ļá¡ªá¡ªá¡ªá¢Ļá¡ªá¢Ĳ":6509,"Ġá¡³á¡ªá¢ľá¡ªá¢ŀá¢ĳá¡ªá¡§":6510,"Ġá¢ļá¡ªá¢ļá¡ªá¢Ĭá¡ªá¢ĵ":6511,"Ġá¡¥á¡ªá¢İá¢Ļá¡ªá¢Ļá¡ªá¡«":6512,"á¡¥á¢Ĭá¡¬á¢ĳ":6513,"Ġá¢ĺá¡ªá¢Ķá¡Ńá¢ĳá¢īá¡¨":6514,"Ġá¢Įá¡ªá¢Ļá¡ªá¢ŀá¡ªá¢ĭá¡Ń":6515,"Ġá¡¬á¡ªá¡±á¡±á¡ªá¢ĳá¢Ļ":6516,"Ġá¢ļá¡¬á¢ĳá¡Ńá¢Ĭá¡ªá¢ĳ":6517,"Ġá¡´á¡Ńá¢Ķá¡Ńá¡±á¡±á¡ªá¡Ńá¡§":6518,"áł¢áł¬áłłáł¨":6519,"á¡¥á¡¬á¢ŀá¡ªá¢Ĭá¢Ķá¡ªá¡§":6520,"Ġá¡¥á¡Ńá¢Ļá¡Ńá¡ªá¡ªá¢Ķá¡ªá¡§":6521,"Ġç":6522,"Ġáłµáł¢áłŃ":6523,"Ġá¡¥á¡ªá¢Ķá¡ªá¡±á¡±á¡Ńá¡³á¡ªá¡¨":6524,"á¡¥á¡Ńá¡¬á¢Ĭá¢ĭ":6525,"Ġá¡¥á¡Ńá¢ŀá¢Ĭá¡¬á¡ªá¡ªá¢Ķá¡ªá¡§":6526,"á¡¬á¢ĳá¡ªá¡±á¡±á¡ªá¡Ńá¡§":6527,"Ġá¡¥á¡Ńá¢ĳá¡ªá¢Ķá¡¬á¢ŀ":6528,"á¢İá¡Ńá¡§":6529,"á¡¸á¡Ńá¢ĳá¡´":6530,"á¢¡":6531,"á¢ĺá¡Ńá¡¬á¢Ķ":6532,"Ġá¡¥á¢Ĭá¡ªá¢Ķ":6533,"Ġá¡´á¡Ńá¡¬á¢Ļá¡Ńá¢Ĭá¡ªá¢ĳá¢ļá¡¬á¡Ńá¡§":6534,"Ġáł¦áł¬áł¡áł¢":6535,"Ġá¡¬á¡³":6536,"Ġá¡¬á¡ªá¡±á¡±á¡ªá¢ĩ":6537,"Ġá¡¥á¡¬á¢Ĭ":6538,"Ġá¢Ķá¡Ńá¡¬á¡¬á¡Ńá¡ªá¢Ĭ":6539,"Ġá¡¥á¡³á¡ªá¢Ļ":6540,"á¡ªá¡¬á¡¬á¢ŀá¡ªá¢Ľá¡³":6541,"Ġá¢ĭá¡Ńá¡¬á¢ľá¡Ńá¢ĭá¡Ń":6542,"Ġá¢Ķá¡Ńá¡ªá¡ªá¢Ļá¡Ńá¡±á¡±á¡³":6543,"Ġá¡¸á¡ªá¡´á¡Ńá¢Ļá¡³":6544,"á¢Ķá¡Ńá¢ŀá¡´á¡Ńá¢ĳá¢Ľá¡¬á¢ĳ":6545,"á¡ªá¡ªá¡ªá¢Ļá¡ªá¡³á¡ªá¡¨":6546,"á¡Ńá¡ªá¡ªá¢ļá¡¬á¡§":6547,"Ġá¢ĺá¡ªá¢Ķá¡¬á¡±á¡±á¡Ńá¢Ŀ":6548,"Ġá¢ĺá¡Ńá¢ĳá¡±á¡±á¡ªá¡±á¡±á¡Ńá¢ŀá¡«":6549,"Ġá¡¥á¡Ńá¡¬á¡±á¡ªá¢Ĭá¡ªá¡¨":6550,"á¡¯á¡ªá¢į":6551,"Ġá¡³á¡ªá¢ŀá¢Ļá¡ªá¢į":6552,"Ġá¢ĺá¡ªá¡±á¡«":6553,"á¡ªá¡Ńá¡ªá¢ĭá¡Ń":6554,"áł¤áłµáł¤":6555,"Ġá¢Īá¡ªá¡ªá¢Ĭá¡±á¡±á¡ªá¡ªá¡¬á¡¨":6556,"Ġá¢ĭá¡Ńá¡¬á¡¬á¢ļá¡ªá¡Ńá¡ªá¢Ĭá¡ªá¢Ľá¡³":6557,"Ġá¢ĭá¡Ńá¡¬á¢Łá¢Łá¡¦":6558,"Ġá¢Ĺá¡¬á¢ŀ":6559,"Ġá¡¥á¢Ļá¢ĳá¡ªá¢Ľá¡³":6560,"Ġá¡¬á¡ªá¢ĳá¡±á¡±á¡ªá¢Ľá¡³":6561,"Ġá¢Ķá¡ªá¢Ĭá¡ªá¢Ĭá¡ªá¢Ļá¡ªá¡§":6562,"á¡Ńá¡³á¡¬á¡¦":6563,"Ġá¡¬á¡¬á¢ŀá¡Ńá¢İá¢Ļá¡³":6564,"Ġá¡¬á¡ªá¡¬á¡¬á¢Ļá¡ªá¡«":6565,"Ġáł²áł¦áł®áł¡áł¨":6566,"Ġá¡´á¡Ńá¡¬á¢Ĭá¡ªá¢Ŀá¡¨":6567,"Ġá¢Ķá¡ªá¡¬á¡¬á¡ªá¡ª":6568,"á¡Ńá¡ªá¡ªá¢Ľá¡¬á¡±á¡±á¡Ńá¡§":6569,"Ġá¢ĭá¡Ńá¡¬á¡ªá¢Ļá¡Ńá¡Ńá¡ªá¢Ĭá¡ªá¢ĭá¡Ń":6570,"á¡ªá¢İá¢Ķá¡Ńá¡¬á¡¨":6571,"á¡Ńá¢ĳá¡±á¡±á¡ªá¢Ļá¡ªá¡§":6572,"Ġá¡¯á¡ªá¢ŀá¡³":6573,"Ġá¡¬á¡¬á¢ĳá¡Ńá¡±á¡±á¡Ńá¢Ļá¡Ńá¢ĳá¢īá¡¨":6574,"Ġá¡³á¡ªá¢ŀá¡±á¡±á¡³":6575,"Ġá¡¬á¡Ńá¢ŀá¡¬á¡±á¡±á¡Ńá¢Ļá¡§":6576,"Ġá¢ļá¡ªá¢Ĭá¡ªá¢Ľá¡¬á¢ĳá¡ªá¢Ľá¡³":6577,"á¡Ńá¢ĳá¡Ńá¢Ĭá¡¬á¡¦":6578,"Ġá¡¸á¡Ńá¡³á¢Ļ":6579,"Ġá¡¥á¡Ńá¢ŀá¡Ńá¢Ķá¡¬á¢Ļá¡ªá¢ĩ":6580,"Ġá¢ļá¡Ńá¡¬á¢ĭá¡Ńá¢ŀ":6581,"Ġá¢Ķá¡Ńá¢ĳá¡¬á¢Ľá¡³":6582,"Ġá¢Įá¡Ńá¢ĺá¡Ńá¢Ŀ":6583,"ĠÐĳ":6584,"Ġá¢ĺá¢Łá¢Ĭá¡±á¡¬á¡¬á¡¨":6585,"Ġá¡¥á¡±á¡ªá¢ŀá¡¬á¢Ĳ":6586,"Ġá¢Ķá¡Ńá¡±á¡Ńá¢Ŀ":6587,"Ġá¢§á¢Łá¡¦":6588,"Ġá¢Įá¡ªá¢Ļá¡ªá¢ĭá¡Ńá¢ĳá¢Ľá¡³":6589,"á¡¥á¡Ńá¢ŀá¡Ńá¢ĳá¢Ļá¡Ńá¡±á¡±á¡ªá¡§":6590,"Ġá¡¥á¡Ńá¢ŀá¡Ńá¡±á¡±":6591,"Ġá¢Ķá¡ªá¡ªá¢Ļá¡ªá¢ĳá¡«":6592,"á¡¬á¡ªá¢Ķá¡ªá¢ĩ":6593,"Ġá¡¥á¡Ńá¡¬á¢Ĭá¡ªá¡¬á¡¬á¢Ķá¢Ĭ":6594,"Ġá¢ĺá¡Ńá¡±á¡±á¡Ńá¢Ľá¡«":6595,"Ġá¡´á¡Ńá¢ŀá¡±á¡±á¡ªá¢Ķá¡³":6596,"á¡ªá¢ĭá¡Ńá¡¬":6597,"Ġá¢Ĺá¡ªá¢Ĳ":6598,"Ġá¡¬á¡¬á¢ŀá¡±á¡±á¡ªá¡ªá¡ªá¡³":6599,"á¡ªá¢ĺá¡ªá¢Ŀ":6600,"Ġá¢Įá¡ªá¡ªá¢Ļá¡Ńá¢ĳá¡ªá¢Ĭá¢Ķá¡ªá¡§":6601,"Ġá¢ĺá¡ªá¢İá¡ªá¢ļá¡ªá¢Ľá¡³":6602,"Ġá¢ĭá¡Ńá¡¬á¡ªá¢Ľá¡ªá¢Ĭá¡ªá¡¬á¡¬á¢ŀ":6603,"Ġá¢Ķá¡¬á¡§":6604,"Ġá¡¥á¡Ńá¢Ĭá¡¬á¢ľá¡ªá¢Ľá¡³":6605,"Ġá¢Ķá¡¬á¢ĳá¡±á¡±á¡ªá¢ŀ":6606,"Ġá¡¥á¡Ńá¢ŀá¡¬á¢Ľá¡³":6607,"Ġá¢Ĺá¡Ńá¢ŀá¡Ńá¡ªá¡¬á¡¨":6608,"Ġá¡¥á¡¬á¢ĳá¡ªá¢ĭá¡Ńá¢Ĭá¡ªá¡§":6609,"Ġá¢ĺá¡Ńá¡¬á¢Ķá¡¬á¢ľá¡ªá¢Ļá¡³":6610,"Ġá¢Įá¡ªá¡¬á¡¬á¢İá¡ªá¡«":6611,"Ġá¢Ķá¡ªá¡¬á¡¬á¢ŀ":6612,"Ġá¡¥á¢İá¡Ńá¢Ķá¢ĭá¡Ń":6613,"Ġá¡¥á¡Ńá¡¬á¢ŀá¢ĭá¡Ńá¢Ĭá¡ªá¡¨":6614,"á¡¸á¡Ńá¡±á¡±á¡Ńá¢ĳ":6615,"Ġá¡¸á¡ªá¢İá¡ªá¡±á¡±á¡ªá¢ĳá¡ªá¢Ĳ":6616,"Ġá¢ĺá¡ªá¢ĭá¡Ńá¡ªá¢ļá¡¬á¢ĳá¡ªá¡§":6617,"á¡ªá¢Ĭá¢ĳá¡ªá¢Ĭá¢Ķá¡ªá¡§":6618,"Ġá¡¥á¡Ńá¡¬á¡¬á¢ĳá¡ªá¡Ńá¡ªá¢ĭá¡Ń":6619,"á¡¬á¢İá¡¶":6620,"á¢ľá¡Ńá¢Ķ":6621,"á¢ļá¡¬á¢ĳá¡ªá¡ªá¡ªá¡³":6622,"ĠÐ³ÑįÐ¶Ñį":6623,"Ġá¢Ĭá¡ªá¢ĭá¡Ńá¢Ŀ":6624,"á¡ªá¢ļá¡Ńá¡¬á¡¨":6625,"á¡ªá¢ļá¡¬á¢ĳá¡ªá¡ªá¡ªá¢Ķá¡ªá¡§":6626,"Ġá¢ĺá¡ªá¡ªá¢Ĭá¢Ĭá¡¬á¢ĵ":6627,"á¡Ńá¡ªá¡ªá¢ĳá¡ªá¡ªá¡ªá¡³":6628,"Ġá¡¥á¡³á¢ĳ":6629,"áł£áł³":6630,"Ġá¢Įá¡Ńá¢Ļá¡Ńá¡Ńá¡§":6631,"Ġá¡¥á¢İá¢Ĭá¡¬á¡¦":6632,"Ġá¡¥á¡Ńá¡¬á¢ĭá¡Ńá¢Ľá¡³":6633,"Ġá¡³á¡ªá¢ľá¡ªá¢ŀá¢ĳá¡ªá¢Ĳá¡¨":6634,"Ġá¢ĺá¡ªá¢ŀá¡¬á¢ĭá¡Ńá¢ĳá¡ªá¢Ľá¡³":6635,"Ġá¡¬á¡ªá¢Ļá¡ªá¡±á¡±á¡ªá¡«":6636,"Ġá¡¥á¡ªá¡ªá¢Ĭá¡ªá¡ªá¡ªá¢Ļá¡Ńá¡±á¡±á¡ªá¢Ŀ":6637,"Ġá¢Ķá¡ªá¢į":6638,"á¢Ĭá¡ªá¢Ļá¡ªá¢Ĳá¡¨":6639,"Ġá¡³á¡ªá¢ŀá¢Ĭá¡¬á¢ŀ":6640,"Ġáł²áłłáł¨":6641,"Ġá¢ļá¡¬á¡±á¡ªá¡ªá¡ªá¢Ķá¡«":6642,"Ó©Ó©":6643,"Ġá¢Ķá¡¬á¢ĳá¡±á¡±á¡ªá¡ªá¡ªá¡³":6644,"á¡ªá¢İá¡Ńá¢Ķá¡Ńá¡§":6645,"Ġá¡¥á¡Ńá¢ŀá¡Ńá¢Ĳá¡¨":6646,"Ġá¢ĺá¡Ńá¡¬á¢ĳá¡Ńá¡´á¡Ńá¢ŀá¡«":6647,"á¡±á¡±á¡ªá¢Ļá¡ªá¢ĩ":6648,"Ġá¢Ķá¡¬á¡³á¡ªá¡±á¡±á¡Ńá¡§":6649,"Ġáłģ\"":6650,"áł¢áłŃáł¡áł®":6651,"á¡¸á¡ªá¢ŀá¡¬á¢ĳá¢ļ":6652,"Ġ7":6653,"Ġá¢Įá¡ªá¢Ļá¡ªá¢Ĭá¢Ļ":6654,"á¡¬á¢ĭá¡Ńá¢ĳá¡Ńá¢Ĭá¢ļá¡«":6655,"Ġá¢ĺá¡Ńá¢Ĭá¡¬á¢ŀá¡ªá¡±á¡±á¡Ńá¢ĳá¢Ľá¡³":6656,"Ġá¢Ļá¡«":6657,"Ġá¢ĺá¡Ńá¡¬á¢Ĭá¢Ķá¡¬á¢ĭ":6658,"ĠáłĤãĢĬ":6659,"Ġá¢Ĭá¡ªá¢İá¢Ļ":6660,"á¡ªá¡ªá¡±á¡ªá¡±á¡±á¡Ńá¢Ŀ":6661,"Ġá¡¥á¡Ńá¢ĳá¡±á¡±á¡Ńá¡ªá¡ªá¢Ķá¡ªá¡§":6662,"Ġá¡¯á¡¬á¢Ķá¢ļá¡³":6663,"Ġá¢ĺá¡Ńá¡ªá¡ªá¢Ļá¡ªá¢ĳá¢ļá¡ªá¢īá¡¨":6664,"á¡¥á¡Ńá¢Ķá¡³":6665,"á¡¬á¡ªá¢Ĭá¢īá¡¨":6666,"Ġá¡¸á¡Ńá¡¬á¡¬á¢Ķá¡¬á¢Ļá¡§":6667,"Ġá¡¥á¡¬á¢Ķá¢Ĭ":6668,"Ġá¢¡á¢Ł":6669,"Ġá¢¤á¡ªá¢ŀá¢ĺá¡¦":6670,"åľ":6671,"á¡ªá¡ªá¡ªá¡±á¡±á¡ªá¡Ńá¡§":6672,"Ġá¢Įá¡Ńá¡¬á¢ŀá¢ĭá¡Ńá¢Ĳ":6673,"Ġá¡¥á¡Ńá¢Ļá¡Ńá¢Ĭ":6674,"Ġá¢ĺá¡Ńá¢Ķá¡¬á¢ľ":6675,"Ġá¢Ķá¡¬á¡±á¡ªá¢ĳ":6676,"Ġá¢ĺá¡ªá¢ĭá¡Ńá¢Ľ":6677,"Ġá¡´á¡Ńá¡ªá¡ªá¢ļá¡³":6678,"Ġá¡´á¡Ńá¡¬á¢ŀá¡¬á¢ĳá¢Ļá¡Ńá¢Ĭá¢Ķá¡ªá¡§":6679,"á¢Ĭá¡ªá¡³á¡ªá¢ļá¡³":6680,"á¢ľá¡ªá¢ŀá¡Ńá¡ªá¢Ĭá¢Ĭ":6681,"Ġá¡¸á¡Ńá¢ŀá¢Ļá¡Ńá¢ļá¡§":6682,"Ġá¢Ļá¡Ńá¢ĳá¢ĳ":6683,"Ġá¢ľá¡ªá¡±á¡±á¡ªá¢Ĭá¡¬á¢Ļá¡ªá¢ĩ":6684,"Ġá¡¥á¡Ńá¡¬á¢ĳá¡ªá¢Ļá¡ªá¢Ĭ":6685,"Ġá¡¯á¡ªá¢Ĭá¡ªá¢ŀá¡ªá¡§":6686,"á¡Ńá¢ĭá¡Ńá¢ĳá¡¬á¡¬á¡¨":6687,"Ġá¡³á¡ªá¢ŀá¡¬á¢ĳá¢Ļá¡Ńá¢Ľá¡³":6688,"á¡¯á¡¬á¢ĳ":6689,"Ġá¢ĺá¡ªá¡¬á¡¬á¢Ķá¡«":6690,"Ġá¢ĭá¡Ńá¡¬á¢ļá¡Ńá¢Ļá¡³":6691,"Ġá¡¯á¡Ńá¢İá¢Łá¢Ŀ":6692,"Ġá¢Ļá¡Ńá¢ĳá¢ĳá¡ªá¢Ŀ":6693,"á¡Ńá¢ŀá¢Ļá¡³":6694,"Ġá¡¥á¡ªá¢ľá¡ª":6695,"Ġá¢ĺá¡Ńá¡¬á¢Ĭá¡ªá¢İá¡ªá¢Ĳ":6696,"Ġá¡¥á¡Ńá¡¬á¡±á¡ªá¢ĳá¡ªá¢ĭá¡Ń":6697,"Ġá¡¥á¡³á¢ļ":6698,"Ġáł¬áł¡áł®":6699,"Ġá¢ļá¡¬á¡±á¡ªá¢Ĭ":6700,"á¡ªá¢¦á¡«":6701,"Ġá¢ļá¡Ńá¢ĳá¡±á¡±":6702,"Ġá¡¥á¡Ńá¡¬á¡±á¡ªá¢ĳ":6703,"áł¡áł·áł¬":6704,"á¡¬á¢Ķá¡Ńá¢Ĳ":6705,"Ġá¡¥á¡Ńá¡¬á¡±á¡ªá¢Ļá¡³":6706,"á¡¥á¡ªá¢Ļá¡§":6707,"Ġá¡¥á¡Ńá¡ªá¡ªá¡ªá¡ªá¡ªá¢Ļá¡ªá¡ªá¡ªá¡Ńá¡§":6708,"á¡Ńá¢ŀá¡ªá¡ªá¡ªá¡§":6709,"Ġá¢Ķá¡¬á¡±á¡ªá¢Ĭá¡ªá¡§":6710,"Ġá¢ĺá¡ªá¡±á¡±á¡ªá¢ŀá¡ªá¡ªá¡ªá¢Ķá¡ªá¡§":6711,"Ġá¡¥á¡ªá¢ĳá¢Ļá¡ªá¢ŀá¢Ļá¡ªá¡«":6712,"á¡³á¡ªá¡¬á¡¬á¡±á¡±":6713,"á¡³á¡ªá¡¬á¡¬á¢Ĳá¡¨":6714,"ĠÑģÑĥÑĢ":6715,"á¡³á¡ªá¢Ĭá¡ªá¡«":6716,"á¡ªá¡¬á¡¬á¢Ĭá¡ªá¡§":6717,"ÑģÐ°Ð½":6718,"Ġá¢Ĭá¡ªá¢ŀá¢ļ":6719,"Ġá¢ĺá¡ªá¢ĳá¢Ĭá¡ªá¢Ľá¡³":6720,"á¡Ńá¢İá¡Ńá¢Ŀ":6721,"Ġá¡¬á¡Ńá¡¬á¡³á¢Ļ":6722,"Ġá¡¥á¡Ńá¡¬á¢Ľá¡ªá¢ĭá¡Ńá¢ĳá¡Ńá¢ĳá¢Ĭá¡ªá¡¨":6723,"á¡¬á¢ĳá¢Ļá¡Ńá¡§":6724,"Ġá¢ļá¢Łá¡ªá¡¬á¡¨":6725,"á¡Ńá¢Łá¡ªá¡«":6726,"Ġá¢Įá¡ªá¡±á¡±á¡ªá¡Ń":6727,"Ġá¢Ķá¡Ńá¢ŀá¡´á¡Ńá¢ĳá¢Ľá¡¬á¢ĳá¡ªá¢īá¡¨":6728,"á¢Ĭá¡¬á¢ļá¡¬á¢ľá¡ªá¢Ĳ":6729,"Ġá¡¥á¡¬á¢Ļá¡ªá¢Ĭá¡ªá¡Ńá¡§":6730,"áł¡áł¬áł¡":6731,"Ġá¢ļá¡Ńá¡ªá¡ªá¢ĳá¡ªá¡±á¡±á¡Ńá¢ĳá¢Ľá¡³":6732,"Ġá¡¥á¡Ńá¡±á¡±á¡Ńá¢ŀá¡ªá¢ĩ":6733,"Ġáłłáł·áłŃ":6734,"á¡³á¡ªá¡¬á¡¬á¢Ļá¡ªá¢Ĳ":6735,"Ġá¡¥á¢Ĭá¡¬á¢ĳá¡ªá¢Ľá¡ªá¡«":6736,"Ġá¢ĺá¡Ńá¢Ĭá¡¬á¢ŀá¡ªá¡ªá¡ªá¢Ķá¡ªá¡§":6737,"Ġá¡¬á¡ªá¡ªá¢Ĭá¢Ĭá¡¬á¢ĳá¡ªá¢īá¡¨":6738,"áł¤áł¤":6739,"Ġá¢ĺá¡Ńá¡²":6740,"Ġá¡´á¡Ńá¡¬á¢ĳá¡Ńá¢Ĭ":6741,"á¡¥á¡Ńá¡¬á¢ļ":6742,"Ġá¡´á¡Ńá¢ĳá¢ļá¡¬á¡ªá¡ªá¡ªá¢Ľá¡ªá¡«":6743,"Ġá¢ľá¡ªá¡±á¡±á¡Ńá¢Ļá¡ªá¡«":6744,"Ġá¡¥á¡Ńá¡¬á¡¬á¢ĳá¡ªá¢ļá¡¬á¢ĳá¡ªá¢Ĭá¡ªá¡§":6745,"åĬ":6746,"Ġá¢ĺá¡ªá¢Ĭá¡¬á¡ªá¢Ļá¡§":6747,"Ġá¡±":6748,"Ġá¡´á¡Ńá¡¬á¢ŀá¡¬á¢ĳ":6749,"á¡ªá¡ªá¢Ĭá¢Ĭá¡ªá¡¨":6750,"á¡ªá¢ĭá¡Ńá¢ĳá¢ļá¡«":6751,"Ġá¢ĺá¡Ńá¢Ķá¡ªá¡ªá¡ªá¡¬á¡¬á¢ĳá¡ªá¡§":6752,"Ġá¡¥á¢ŀá¢Ĭá¡¬á¢ĭá¡Ń":6753,"Ġáł¡áł¯":6754,"á¢Ķá¡Ńá¡¬á¢ŀ":6755,"áł¥áł¨":6756,"Ġ2018":6757,"á¢Ķá¡Ńá¢Ļá¡Ńá¢ĳ":6758,"á¡¥á¡Ńá¡ªá¢Ļ":6759,"Ġá¢ĺá¡ªá¢ŀá¡ªá¢Ķá¡³":6760,"á¡´á¡Ńá¡¬á¢Ķá¡ªá¢ĭá¡Ńá¡«":6761,"Ġá¡¥á¡¬á¢ŀá¢Ĭ":6762,"á¡ªá¡ªá¡ªá¢ĳá¡ªá¢īá¡¨":6763,"Ġá¡¥á¡ªá¢Ļá¡Ńá¡±á¡±á¡Ńá¢ļá¡¬á¡§":6764,"á¢Ķá¡Ńá¡ªá¢Ĭá¡±á¡±":6765,"Ġá¡¥á¡ªá¡¬á¡¬á¢Ľ":6766,"á¡ªá¡±á¡±á¡Ńá¢ŀá¡ªá¢Ľá¡³":6767,"Ġá¢ĭá¡Ńá¡¬á¡ªá¢Ľá¡¬á¢ĳá¡§":6768,"á¡ªá¡¬á¡¬á¢Ļá¡ªá¢į":6769,"Ġá¢Ķá¡¬á¡ªá¢Ĭá¢Ĭá¡ªá¢Ĭá¢Ķá¡ªá¡§":6770,"Ġáł²áł¡áł®":6771,"á¡ªá¢ŀá¡Ńá¡§":6772,"áł°áł¢áł¯":6773,"Ġá¢Ĺá¡ªá¡ªá¢Ĭá¡±á¡ªá¢ĳá¢Ļá¡³":6774,"á¡¬á¢Ļá¡ªá¢Ľá¡³":6775,"á¡ªá¢ļá¡¬á¢Ĭá¡ªá¢Ĳá¡¨":6776,"Ġá¢ĭá¡Ńá¡¬á¢Ĭá¢Ľá¡¬á¢Ĭ":6777,"Ġá¡¥á¡ªá¢¤":6778,"Ġá¡´á¡Ńá¢ĳá¡Ńá¡«á¡¨":6779,"Ġá¢Ĺá¡ªá¡ªá¡ªá¢Ķ":6780,"Ġá¡¸á¡Ńá¢ļá¡Ńá¢ŀá¡Ńá¡ªá¡ªá¢Ķá¡ªá¡§":6781,"Ġá¡¬á¡ªá¢ŀá¡Ńá¢Ľá¡³":6782,"Ġá¡¥á¢Ľá¡ªá¢İá¢Ļ":6783,"Ġá¢ļá¡ªá¢Ĭá¡¬á¢į":6784,"Ġá¢ĺá¡ªá¡¬á¡¬á¢ļá¡¬á¡§":6785,"áł¡áłŃáł³":6786,"áłłáłªáłł":6787,"Ġá¢Īá¡Ńá¢ŀá¡³á¡ªá¡±á¡±á¡Ńá¢ĳá¡§":6788,"Ġá¡¸á¡ªá¢Ķá¡ªá¢ĩ":6789,"Ð¾Ñħ":6790,"Ġá¡¥á¡ªá¢ľá¡Ńá¢İá¢Ķ":6791,"Ġá¢Įá¡¬á¡ªá¢Ĭá¡±á¡±":6792,"Ġá¢Ĭá¢Ĺá¡ªá¡§":6793,"Ġá¢Īá¡ªá¢İ":6794,"Ġá¢Ĺá¡Ńá¢ĳ":6795,"Ġá¡´á¡Ńá¡¬á¢ŀá¡¬á¡Ńá¡ªá¢Ĭá¡ªá¢Ĳ":6796,"Ġá¡´á¡Ńá¢Ķá¡ªá¡ªá¡ªá¡ªá¡ªá¢Ķá¡ªá¡§":6797,"Ġá¡¸á¡ªá¢ľá¡¬á¢ĩ":6798,"Ġá¢ĭá¡Ńá¡¬á¢Ĭá¡ªá¡±á¡ªá¡±á¡±á¡Ńá¢Ŀ":6799,"á¡Ńá¢ĳá¢Ļá¡ªá¢Ŀ":6800,"Ġá¡´á¡Ńá¡¬á¢ŀá¢Ĭá¡ªá¡¨":6801,"Ġá¡¸á¡ªá¢ĳá¢Ļá¡ªá¢Ŀ":6802,"áł©":6803,"á¡¬á¢Ĭá¢ĳá¡ªá¡§":6804,"Ġá¡¸á¡Ńá¢ŀá¡¬á¡±á¡±á¡ªá¡Ńá¡§":6805,"á¡¬á¡±á¡±á¡Ńá¢ĳá¡³á¡ªá¡¨":6806,"á¢ľá¡ªá¡´á¡Ńá¢Ļá¡ªá¢Ĳ":6807,"á¡ªá¢ĳá¡ªá¢īá¡¨":6808,"Ġá¡¥á¡ªá¡±á¡±á¡ªá¢Ķ":6809,"Ġá¡¬á¡¬á¡Ńá¡ªá¢ĭá¡Ńá¢ĳá¢Ļá¡ªá¡§":6810,"Ġá¢Īá¡Ńá¢ļá¡«":6811,"Ġá¢ĭá¡Ńá¡¬á¢ĭá¡Ń":6812,"á¡¬á¡Ńá¡¬á¢Ĭ":6813,"Ġáł²áł¦áłª":6814,"á¢ļá¡ªá¡±á¡±á¡ªá¡«":6815,"á¡¥á¡Ńá¢ŀá¢Ļá¡³":6816,"á¡ªá¢İá¡Ńá¡±á¡«":6817,"Ġá¡¥á¡Ńá¡¬á¡Ńá¡ªá¢Ĭ":6818,"Ġá¡¥á¢Ĭá¡ªá¢ĳá¢Ľá¡«":6819,"Ġá¡¥á¡Ńá¡¬á¢Ĭá¡ªá¢ĭá¡Ń":6820,"Ġá¡³á¡ªá¢ĳá¢ļá¡¬á¢Ŀ":6821,"áł´áł¢áł³":6822,"Ġá¡¥á¡¬á¢ĳá¡ªá¡Ńá¡ªá¢Ĭá¡ªá¢Ľá¡³":6823,"Ġá¢Ķá¢Łá¢ŀ":6824,"Ġá¡¸á¡Ńá¢ŀá¡Ńá¢Ķá¡Ńá¢Ĳ":6825,"Ġá¡¬á¡ªá¢ĭá¡Ńá¢ĳ":6826,"á¢Įá¡ªá¢ŀá¢Ĭ":6827,"á¡ªá¢Ĭá¡¬á¢Ŀ":6828,"á¡Ńá¢Ľá¡§":6829,"Ġá¡¥á¢ĭá¡Ńá¢Ķá¢ĭá¡Ń":6830,"Ġá¢ľá¡ªá¡´á¡Ńá¡³á¡ªá¡¨":6831,"á¡ªá¡´á¡Ńá¢ŀá¡¬á¢Ļá¡ªá¡«":6832,"Ġá¡¥á¢Ĭá¡ªá¢ĳá¢Ľá¡¬á¢ĳ":6833,"á¡Ńá¢ĳá¡ªá¢Ŀ":6834,"Ġáłłáłµáł¤":6835,"Ġá¡¥á¡Ńá¡ªá¢Ĭá¢Ķá¡¬á¢Ļá¡ªá¢ĩ":6836,"Ġáł¬áł¦áł³":6837,"Ġá¡¯á¡ªá¡ªá¢Ļá¡¬á¡ªá¢Ĭ":6838,"Ġá¡¸á¡Ńá¢ľá¡ªá¢ŀá¡ªá¡ªá¡ªá¡§":6839,"Ġá¡¥á¡Ńá¡¬á¢Ĭá¢ĭá¡Ńá¢Ĳá¡¨":6840,"áł¤áł¯áł³":6841,"Ġá¢Ļá¡ªá¢Ĭá¡¬á¡§":6842,"Ġá¢ĺá¡Ńá¡¬á¢ĳá¢Ĭá¡¬á¡§":6843,"Ġá¡¸á¡Ńá¡±á¡ªá¢Ŀ":6844,"á¡¥á¢Ľá¡ªá¡§":6845,"Ġáłªáł¤áł°":6846,"áł£áł®":6847,"Ġá¡¥á¡¬á¢ĳá¡ªá¢ŀá¡ªá¢Ĭá¢Ķá¡ªá¡§":6848,"Ġ9":6849,"á¡Ńá¢Ļá¡ªá¢Ķá¡³":6850,"Ġá¡¥á¡Ńá¡¬á¢Ĭá¡ªá¢ŀá¡ªá¢ļá¡¬á¢ĳá¡ªá¢ĭá¡Ń":6851,"Ġá¢Ķá¡ªá¡±á¡±á¡ªá¢ĳá¡«":6852,"á¡Ńá¡±á¡±á¡ªá¢ĳá¡«":6853,"Ġáłªáłłáł¶áł¢áł³":6854,"Ġáł¡áł³áł¦áł·":6855,"Ġá¡¥á¢ŀá¢ļá¡¬á¢į":6856,"áłµáł¢áłŃ":6857,"Ġá¡´á¡Ńá¢Ľá¡ªá¢Ŀ":6858,"á¡ªá¢ļá¡¬á¢ĳá¡ªá¡ªá¡ªá¡³":6859,"á¡ªá¢İá¢Ļá¡³":6860,"á¡Ńá¡ªá¡ªá¢ĳá¡ªá¡ªá¡ªá¢Ķá¡ªá¡§":6861,"Ġ8":6862,"á¡³á¡¬á¢Ķá¡«":6863,"á¡Ńá¢ĳá¢ļá¡ªá¡§":6864,"Ġáł¨áłłáł¶":6865,"Ġá¡¸á¡ªá¢ľá¡ªá¢īá¡¨":6866,"Ġá¡¥á¡Ńá¡¬á¢ĳá¡ªá¢Ļá¡ªá¢ĭá¡Ń":6867,"at":6868,"á¢Łá¢Ļ":6869,"Ġá¡¸á¡ªá¡¬á¡¬á¢Ľá¡³":6870,"Ġá¢ļá¡Ńá¢Ĭá¡¬á¢Ľá¡³":6871,"Ġá¡´á¡Ńá¢Ļá¡Ńá¡§":6872,"Ġá¡¬á¡¬á¢ŀá¢İ":6873,"Ġá¢ļá¡ªá¢Ĭá¢ļ":6874,"Ġá¢Įá¡Ńá¡ªá¢Ļá¡ªá¢ĩ":6875,"Ñĩ":6876,"Ġá¢Įá¡ªá¢ĳá¢İ":6877,"Ġáł«":6878,"á¡´á¡Ńá¡¬á¢Ĭá¡ªá¡¨":6879,"Ġá¡¥á¡ªá¡´á¡Ńá¢ŀá¡ªá¡ªá¡ªá¡³":6880,"á¡´á¡Ńá¢ļ":6881,"Ġá¢ĺá¡Ńá¡¬á¢ŀá¡¬á¢ľá¡ªá¢Ķ":6882,"áłªáł¦áł·":6883,"Ġá¢Īá¡ªá¡¬á¡¬á¡ªá¡ªá¡ªá¢Ľá¡³":6884,"á¢Ĭá¡ªá¢ŀá¡ªá¢Ĭá¢Ļá¡ªá¡«":6885,"Ġá¢Įá¡ªá¢ŀá¡±á¡±á¡Ńá¡±á¡±á¡ªá¡§":6886,"á¢ľá¡ªá¡±á¡±á¡Ńá¢įá¡¨":6887,"Ġá¡¥á¡Ńá¡¬á¡ªá¢ļá¡Ńá¡¬á¡¨":6888,"Ġáł°áłłáł¢":6889,"áł´áł¢áł¯":6890,"Ġá¡¸á¡ªá¡¬á¡¬á¢ĳá¡ªá¢Ķá¡³":6891,"á¡¬á¢ľá¡ªá¢Ķá¡Ńá¡§":6892,"Ġá¢Ĭá¡ªá¢ĳá¡ªá¢ĳá¢Ĭá¡ªá¡§":6893,"Ġá¡´á¡Ńá¢ŀá¡Ńá¡ªá¡ªá¢Ľá¡¬á¡±á¡±á¡Ńá¡§":6894,"Ġá¢Ķá¡ªá¢ĭá¡Ńá¢Ļá¡ªá¢ŀá¢ĳ":6895,"Ġá¢ĺá¡ªá¢ŀá¡¬á¢ľá¡ªá¢ļá¡¬á¡Ńá¡§":6896,"Ġá¢Ķá¡ªá¡±á¡ªá¡°á¡¨":6897,"Ġá¡¸á¡Ńá¢Ļá¡ªá¢ĳá¢Ļá¡Ńá¡ªá¡ªá¡³":6898,"Ġá¡¸á¡ªá¢Ķá¡³":6899,"Ġá¡¥á¡Ńá¡¬á¡±á¡ªá¡ªá¢ĭá¡Ń":6900,"Ġáłµáłłáł®":6901,"á¢ĭá¡Ńá¡¬á¢Ķá¡ªá¢Ĳ":6902,"Ġá¢ĺá¡¬á¡¬á¡¨":6903,"Ġá¡¯á¡Ńá¡³":6904,"Ġá¡¥á¡ªá¢Ķá¡ªá¡ªá¡ªá¢ŀ":6905,"Ð¾Ð¹":6906,"Ġá¡¥á¡Ńá¢Ĭá¡¬á¢ľá¡ªá¡ªá¡ªá¡³":6907,"á¡³á¡ªá¢ľá¡ªá¢Ŀ":6908,"áł¡áł²":6909,"Ġá¢ıá¡Ńá¡¬á¡ªá¡¬á¡¨":6910,"Ġá¡¥á¡Ńá¡ªá¡ªá¡ªá¡±á¡±á¡ªá¡ªá¢Ļá¡ªá¡§":6911,"Ġá¢Ĭá¡ªá¢Ļá¡Ńá¡¬á¡¬á¡§":6912,"Ġá¡´á¡Ńá¡¬á¢Ļá¡Ńá¢ŀ":6913,"Ġá¡´á¡Ńá¢ļá¡ªá¡§":6914,"Ġá¢ĭá¡Ńá¡¬á¢ŀá¢Ļá¡³":6915,"Ġá¡¥á¡ªá¡±á¡±á¡Ńá¢Ľá¡¬á¢į":6916,"á¡¥á¡ª":6917,"Ġáł²áł¡áł·áł¡":6918,"á¡ªá¢Ķá¡Ńá¡¬á¢įá¡¨":6919,"á¡ªá¢ļá¡¬á¡ªá¡ªá¡ªá¢Ľá¡ªá¡«":6920,"Ġá¡³á¡ªá¢ŀá¢Ĭá¡ªá¢Ķá¡¬á¢ľá¡ªá¢Ĳ":6921,"Ġá¡¸á¡Ńá¢ľá¡ªá¢Ļá¡ªá¢Ĭá¡¬á¡¦":6922,"Ġá¢Łá¢Łá¡§":6923,"Ġá¢ĭá¡Ńá¡¬á¢Ĭá¢Ľá¡¬á¢ĭá¡Ńá¢ĳá¢Ľá¡³":6924,"æ°":6925,"Ġá¢ĺá¡ªá¡¬á¡¬á¢ĳá¡´á¡Ńá¢ŀá¡¬á¢ĳá¡ªá¢Ľá¡³":6926,"æĿ":6927,"Ġá¢ĺá¡Ńá¡´á¡Ń":6928,"Ġá¢ĺá¡Ńá¡¬á¢ĭá¡Ńá¢İ":6929,"Ġá¡¥á¡ªá¡±á¡¬á¢Ŀ":6930,"á¢Īá¡Ńá¢ŀá¡³":6931,"áłłáłŃáł¤áł¯áł¬áł¤":6932,"Ġá¢Ķá¡ªá¡ªá¢Ķá¡ªá¢Ŀ":6933,"á¡¥á¡´á¡Ńá¢Ĳ":6934,"Ġá¡¥á¡Ńá¡¬á¢Ľá¡ªá¢Ĳá¡¨":6935,"Ġá¡¥á¡Ńá¡±á¡¬á¢Ķ":6936,"Ġá¡¸á¡Ńá¡ªá¢Ĭá¢Ĭ":6937,"á¡Ńá¢Ĭá¢Ļá¡ªá¢Ĭá¢Ķá¡ªá¡§":6938,"Ġá¡¸á¡Ńá¢ŀá¢Ļá¡³":6939,"Ġá¡¥á¡Ńá¢ŀá¢İá¡ªá¢Ķ":6940,"á¢ļá¡ªá¢ŀá¡¬á¡¬á¡¨":6941,"á¢ļá¡¬á¡±á¡«":6942,"Ġá¡³á¢ŀ":6943,"Ġá¢ĺá¡Ńá¢ĳá¡Ńá¡±á¡±á¡ªá¡Ńá¡§":6944,"Ġáł²áł¤áł·":6945,"Ġá¡¥á¡¬á¢Ķá¡¬á¢Ĭá¡ªá¡¨":6946,"á¢Ĭá¡¬á¡±":6947,"äºº":6948,"Ġá¢ľá¡ªá¡±á¡±á¡ªá¢ŀá¡ªá¢Ľá¡³":6949,"á¡³á¡¬á¢Ļá¡ªá¡§":6950,"Ġá¡¥á¡Ńá¡¬á¢İá¡Ńá¢Ļá¡³":6951,"Ġá¢Įá¡ªá¢Ļá¡ªá¢Ĭá¡ªá¡§":6952,"á¡Ńá¢Ķá¡¬á¡§":6953,"Ġá¡¸á¡ªá¢ŀá¡¬á¢ľá¡ªá¢ĳ":6954,"Ġá¡¸á¡Ńá¡¬á¡¬á¢İá¡Ńá¢Ŀ":6955,"Ġá¢Ķá¡¬á¢ĳá¡±á¡±á¡ªá¢ŀá¡ªá¡±á¡±á¡Ńá¢ĳá¡ªá¡ªá¡³":6956,"Ġá¢Ĭá¡¬á¢ļá¡¬á¢ľá¡ªá¢ĳá¢ĳá¡ªá¢ĭá¡Ń":6957,"Ġá¢Ķá¡ªá¢Ĭá¡¬á¡±á¡±á¡Ńá¢ĳá¢Ķá¡Ńá¡§":6958,"Ġá¢Ķá¡¬á¢Ķá¡«":6959,"Ġá¡¯á¡¬á¢Ĭá¡ªá¢ļá¡«":6960,"Ġá¡¥á¡ªá¢İá¡ªá¢ŀá¡ªá¡ªá¡ªá¡³":6961,"Ġá¢Ĭá¡ªá¡±á¡ªá¡§":6962,"Ġáł´áł¢áł¨áłłáł·":6963,"Ġá¢ļá¡ªá¡²":6964,"á¢Įá¡ªá¢Ĳ":6965,"á¢ĺá¡ªá¡±á¡±á¡Ńá¡³":6966,"Ġá¢Ĭá¡¬á¡±á¡ªá¢İá¡ªá¡±á¡±á¡ªá¡«":6967,"ÑĥÐ»":6968,"Ġá¢Ĭá¡ªá¢ĳá¢Ĭá¡¬á¡«á¡¨":6969,"Ġá¡¸á¡ªá¡ªá¢Ļá¡Ńá¡ªá¡ªá¢Ķá¡ªá¡§":6970,"Ġá¡¯á¡Ńá¡¬á¢Ĭá¡ªá¡§":6971,"á¡¥á¡Ńá¡ªá¢Ĭá¡±á¡±":6972,"Ġá¡¥á¡ªá¢Ľá¡¬á¢ĳá¢ĳá¡ªá¢Ļá¡ªá¢ĩ":6973,"Ġá¡¥á¡Ńá¡ªá¢Ĭá¢Ķá¡¬á¡±á¡±á¡ªá¡Ńá¡§":6974,"Ġá¢Ļá¡Ńá¡³":6975,"Ġá¢ļá¡Ńá¡ªá¢Ĭá¡ªá¡ªá¡Ńá¡§":6976,"Ġá¡¥á¡ªá¡±á¡±á¡Ńá¢ŀá¢ĳá¡ªá¢Ľá¡³":6977,"á¡Ńá¢ĳá¡¬á¡§":6978,"á¡ªá¡±á¡±á¡ªá¢Ľá¡ªá¡«":6979,"á¡ªá¢Ĭá¢Ĭá¡ªá¡§":6980,"Ġá¢ĺá¡ªá¢İá¡¬á¢ŀá¢ļá¡¬á¡§":6981,"Ġá¢ĭá¡Ńá¡¬á¢ŀá¢ļá¡ªá¡«":6982,"Ġá¡¬á¡Ńá¡¬á¡¬á¢Ļá¡ªá¡«":6983,"á¡Ńá¢Ĭá¢Ļ":6984,"Ġá¢ĺá¡Ńá¢İá¡¬á¡«á¡¨":6985,"á¢Įá¡¬á¡±á¡«":6986,"á¢Įá¡ªá¡ªá¢Ļ":6987,"Ġá¡¬á¡ªá¡±á¡±á¡Ńá¢ļá¡¬á¢ĳá¡ªá¡±á¡±á¡Ńá¢Ŀ":6988,"á¡¥á¡Ńá¡¬á¡ªá¢Ĭá¢Ĭá¡ªá¢ŀá¡ªá¢Ĭá¢Ķá¡ªá¡§":6989,"á¡ªá¢Ķá¡ªá¢īá¡¨":6990,"á¡Ńá¡±á¡±á¡ªá¡ªá¡ªá¡³":6991,"á¡ªá¢Ļá¡Ńá¢ŀá¢Ľá¡«":6992,"Ġá¡¬á¡Ńá¡¬á¡³á¢Ķá¡¬á¢ľá¡ªá¢ŀá¡ªá¢ĭá¡Ń":6993,"á¡¥á¡Ńá¡¬á¢Ķá¡Ńá¡¬á¡¨":6994,"á¡ªá¡¬á¡¬á¢ĳá¡ªá¡ªá¡ªá¡³":6995,"á¡¬á¢ĳá¢Ļá¡Ńá¢Ľá¡³":6996,"Ġá¡¸á¡Ńá¢Łá¡ªá¡ªá¡¬á¡¨":6997,"Ġá¢ĺá¡ªá¢Ľá¡¬á¢Ĭá¡ªá¢Ľá¡³":6998,"Ġá¢Įá¡Ńá¢ŀá¡¬á¢Ļá¡³":6999,"á¡ªá¢Ļá¡ªá¡¬á¡¬á¡ªá¡ªá¡ªá¡§":7000,"Ġá¡¬á¡¬á¡«":7001,"Ġá¡¥á¡ªá¢ĳá¡ªá¡ªá¡Ńá¡ªá¡ªá¡³":7002,"Ġá¢Ĭá¡ªá¢ĭá¡Ńá¢ĳá¡ªá¢Ŀ":7003,"Ġá¡¸á¡ªá¢ŀá¡¬á¡«á¡¨":7004,"á¡¸á¡ªá¡§":7005,"Ġá¡¥á¡Ńá¡¬á¢ŀá¢Ļá¡ªá¢Ĭá¡ªá¡§":7006,"Ġá¡¸á¡ªá¢Ķá¡«":7007,"Ġá¢ĺá¡Ńá¡±á¡±á¡Ńá¢Ķá¡Ńá¡§":7008,"Ġá¢Ķá¡¬á¢ĳá¢Ľá¡¬á¢ĭá¡Ńá¢ĳá¡Ńá¡§":7009,"Ġá¡¬á¡ªá¢Ķá¡ªá¡§":7010,"á¢Īá¡ªá¡¬á¡¬á¡ªá¡ª":7011,"Ġáłªáł¤áł¢":7012,"á¡¬á¢ĳá¡ªá¡³á¡ªá¡¨":7013,"Ġá¡¥á¡Ńá¡¬á¡ªá¢Ĭá¢Ĭá¡ªá¢Ļá¡³":7014,"á¡¬á¢ĭá¡Ńá¢ĳá¢Ļá¡ªá¡¬á¡¨":7015,"Ġá¡¥á¡ªá¢Ľá¡¬á¢ĳá¢ļá¡«":7016,"Ġá¢Ĭá¡¬á¢ĳá¡¬á¡ªá¡¬á¡¨":7017,"á¢Ĭá¡ªá¢ŀá¡³á¡ªá¡¨":7018,"á¡ªá¢ŀá¡ªá¢īá¡¨":7019,"á¡Ńá¢ŀá¡¬á¢ĩ":7020,"Ġá¡´á¡Ńá¢ĳá¡±á¡±á¡ªá¢Ľá¡ªá¡«":7021,"Ġá¡¬á¡Ńá¡¬á¢ŀá¡¬á¢ļá¡ªá¢Ĭá¢Ķá¡ªá¡§":7022,"á¡¬á¢ļá¡¬á¡ªá¡ªá¡ªá¡ªá¡ªá¢Ķá¡ªá¡§":7023,"Ġá¡¸á¡Ńá¢ĳá¡ªá¡±á¡±á¡ªá¡¬á¡¬á¢ļá¡«":7024,"á¡ªá¢ĳá¢Ļá¡ªá¡¬á¡¨":7025,"Ġá¡¥á¡¬á¡ªá¢Ľá¢Łá¡±":7026,"Ġá¢ŀá¡¬á¡ªá¢ļá¡¬á¡§":7027,"áł¯áł¢":7028,"Ġá¡¥á¡Ńá¡¬á¢ľá¡ªá¢Ŀ":7029,"Ġá¡¸á¡ªá¢ŀá¢Ķ":7030,"Ġá¡¥á¡¬á¢Ľá¡ªá¡±á¡±á¡Ńá¢ŀ":7031,"Ġá¢Ķá¡ªá¡¬á¡¬á¢Ľá¡¬á¢ŀá¡ªá¡±á¡±á¡Ńá¢ĳá¡ªá¡ªá¡³":7032,"ä¼":7033,"Ġá¢Īá¡ªá¢ĳá¢Ļá¡ªá¡§":7034,"Ġá¢Ķá¡ªá¡Ńá¡ªá¢Ĭá¡¬á¢ĳ":7035,"Ġá¡¥á¡Ńá¡¬á¢Ķá¡Ńá¢ĳá¢Ļá¡§":7036,"Ġáł³áł¥":7037,"Ġá¡¥á¢ĭá¡Ńá¢ŀá¢ļá¡³":7038,"æĺ":7039,"á¢ĺá¡Ńá¢Ļá¡Ńá¢Ŀá¡¨":7040,"Ġá¡¯á¡ªá¢ĭá¡Ńá¢Ļá¡ªá¢ĳá¢ļá¡¬á¡§":7041,"Ġá¢ĺá¡Ńá¡¬á¢ŀá¡¬á¢İá¢Ľ":7042,"Ġá¡¬á¡ªá¢ŀá¢Ĭá¡ªá¢ĳá¢Ĭá¡ªá¡§":7043,"á¡¥á¡Ńá¡Ń":7044,"á¡´á¡Ńá¡¬á¢ĳ":7045,"Ð³Ð°Ð°Ð»":7046,"Ġá¡¯á¡¬á¢İá¡³á¡ªá¡«":7047,"Ġá¢ľá¡Ńá¡¬á¡§":7048,"á¡Ńá¢Ķá¡Ńá¢Ļá¡³":7049,"Ġá¢ĺá¡ªá¡¬á¡¬á¡Ńá¡ªá¡ªá¡ª":7050,"á¡¬á¡¬á¢ŀá¡Ńá¢ĩ":7051,"á¡¬á¡ªá¡±á¡±á¡Ńá¡§":7052,"Ġá¡¯á¡¬á¢Ľ":7053,"á¡¯á¡ªá¡¬á¡¬á¢Ŀ":7054,"á¡ªá¡¬á¡¬á¢Ļá¡ªá¡§":7055,"á¡ªá¡ªá¢Ļá¡Ńá¢ľá¡ªá¢īá¡¨":7056,"Ġá¡¥á¢ĭá¡Ńá¢ĳá¢Ļá¡ªá¢Ŀ":7057,"Ġá¡³á¡ªá¡±á¡±á¡Ńá¢ļá¡§":7058,"Ġá¡¥á¡ªá¢İá¢Ļá¡ªá¢Ļá¡³":7059,"Ġá¢Īá¡ªá¢ŀá¢Ļá¡ªá¢Ĳá¡¨":7060,"Ð°Ñħ":7061,"Ġá¢ĭá¡Ńá¡¬á¢ĭá¡Ńá¢ŀá¢Ĭá¡ªá¡¨":7062,"or":7063,"Ġá¡¥á¡Ńá¢ŀá¡Ńá¢Ľá¡ªá¡«":7064,"á¡ªá¡ªá¢Ĭá¢Ļá¡§":7065,"Ġá¢ĺá¡Ńá¢Ĭá¡¬á¢ŀá¡ªá¢İá¢Ľá¡¬á¢Ļá¡ªá¡«":7066,"á¡¬á¢ĳá¡ªá¢Ĭá¢Ķá¡ªá¡§":7067,"Ġá¢ĺá¡ªá¢ŀá¡¬á¢ľá¡ªá¢ĳá¡ªá¡ªá¡ªá¡³":7068,"á¢§á¡«":7069,"á¢ļá¡ªá¡ªá¢Ĭá¢Ĭ":7070,"á¢ļá¡ªá¢Ķá¡³":7071,"Ġá¡¥á¡ªá¢ĳá¢Ľ":7072,"Ġá¡³á¡ªá¢ĳá¡ªá¢Ŀ":7073,"Ġá¡¥á¡Ńá¢ŀá¡±á¡±á¡Ńá¡ªá¡ªá¡³":7074,"á¢Łá¡±á¢ĺá¡¦":7075,"Ġáłµáłłáł°áłłáł¬áł¤":7076,"Ġá¡¥á¡Ńá¢ŀá¡ªá¡Ńá¡§":7077,"Ġá¢ĺá¡Ńá¢ŀá¡Ńá¡°á¡¨":7078,"Ġá¡¥á¡Ńá¡¬á¢İá¡ªá¡§":7079,"Ġáłªáł¤áł¯áłŃ":7080,"á¡ªá¢ļá¡¬á¡ªá¡ªá¡ªá¡°á¡¨":7081,"Ġá¢Ķá¡ªá¢ŀá¢ĭá¡Ńá¢Ĭá¡ªá¢ĭá¡Ń":7082,"á¡±á¡±á¡ªá¡³á¡ªá¡¨":7083,"Ġá¢Ķá¡¬á¢ĳá¢Ļ":7084,"á¢Īá¡ªá¡ªá¡ªá¢ļ":7085,"Ġá¢ĺá¡ªá¡±á¡±á¡ªá¡±á¡±á¡ªá¢İá¡ªá¢Ĳ":7086,"Ġá¡¯á¡ªá¢ľá¡ªá¡±á¡±á¡ªá¡Ńá¡§":7087,"Ġá¢Ķá¢Łá¢¤á¢ĵ":7088,"Ġá¡¯á¡Ńá¢İá¡¬á¡§":7089,"Ġá¡¥á¡Ńá¡¬á¢ŀá¡¬á¢Ķá¡Ńá¢ĳá¢Ļá¡Ńá¢Ĭá¡ªá¡§":7090,"á¡ªá¡ªá¢Ĭá¡ªá¡ª":7091,"Ġá¡´á¡Ńá¡¬á¢Ļá¡Ńá¢ĭá¡Ńá¢ĳá¡¬á¡¬á¡¨":7092,"Ġá¡¬á¡Ńá¡ªá¡ªá¢Ķá¡Ńá¡±á¡±á¡ªá¡Ńá¡§":7093,"á¢ĺá¡ªá¢Ĭá¡ªá¢Ļá¡³":7094,"Ġá¡¥á¡¬á¢ĳá¡ªá¢ŀá¢Ĭá¡ªá¡«":7095,"Ġîįİ":7096,"Ġáł¤áł´":7097,"á¡Ńá¢İá¡ªá¢ĵ":7098,"Ġá¡¥á¡Ńá¢ŀá¡Ńá¢ĳá¢Ļá¡Ńá¢Ľá¡³":7099,"Ġá¢Įá¢Łá¢Ļá¡ªá¢Ĳ":7100,"Ġá¡±á¡±":7101,"Ġá¢ĺá¡Ńá¡¬á¡ªá¡¬á¡¨":7102,"Ġá¢ĭá¡Ńá¡¬á¢Ļá¡Ńá¢Ĳ":7103,"Â·Â·":7104,"á¡ªá¢ĺá¢Ŀ":7105,"á¡ªá¢ĭá¡Ńá¢Ļá¡ªá¡¬á¡¨":7106,"Ġá¢ĭá¡Ńá¡¬á¡ªá¢Ļá¡Ńá¡Ńá¡ªá¢Ĭá¡ªá¢Ľá¡³":7107,"Ġáłµáłłáł·":7108,"Ð¾Ð¾":7109,"Ġá¡¥á¡¬á¢İá¡ªá¡±á¡±á¡ªá¡§":7110,"á¡Ńá¢Ĭá¢Ļá¡ªá¢Ľá¡³":7111,"Ġá¢Ķá¡ªá¢ĳá¡³":7112,"Ġá¡¸á¡ªá¢ĳá¡ªá¢İá¢Ľá¡«":7113,"Ġá¡¸á¡Ńá¢ĳá¡´á¡Ńá¡ªá¡ªá¢Ļá¡ªá¡ªá¡ªá¢Ķá¡ªá¡§":7114,"á¡¥á¡Ńá¡¬á¢ĳá¡¬á¢Ĭá¡ªá¢Ŀ":7115,"Ġá¡¯á¡ªá¢ŀá¡ªá¢Ļá¡ªá¡«":7116,"Ġá¢ĺá¡ªá¡³á¡ªá¢ŀá¡¬á¢Ľá¡³":7117,"á¡¬á¢ĳá¡ªá¡±á¡±á¡Ńá¢ĳá¢Ľá¡³":7118,"á¡ªá¢ŀá¢ĳá¡ªá¡ªá¡ªá¡³":7119,"á¡¥á¡Ńá¢ŀá¡±á¡±":7120,"á¡¬á¢ĳá¡ªá¡ªá¡ªá¢ļá¡«":7121,"Ġá¡¸á¡Ńá¢ĳá¡ªá¡§":7122,"Ġá¡¥á¡Ńá¢Ĭá¡¬á¢ľ":7123,"Ġá¡³á¡ªá¢ŀá¡¬á¢ĳá¢Ļá¡Ńá¡ªá¡ªá¡³":7124,"Ġá¢ĺá¡Ńá¢Ļá¡ªá¡ªá¡ªá¢Ļá¡ªá¢Ľá¡³":7125,"á¡´á¡Ńá¢ĳá¡Ńá¡§":7126,"á¢İá¡ªá¡±á¡±á¡ªá¡«":7127,"á¢ļá¡ªá¡§":7128,"Ġá¡³á¡ªá¢ľá¡ªá¢ŀá¢ĳá¡ªá¡ªá¡ªá¢Ķá¡ªá¡§":7129,"Ġá¡¥á¡Ńá¡ªá¡ªá¢Ļá¡Ńá¡§":7130,"Ġá¢ĭá¡Ńá¡¬á¢ĳá¡Ńá¢Ķá¡Ńá¡§":7131,"á¡¥á¡Ńá¢ĳá¡ªá¢İá¢Ľá¡¬á¢ĳ":7132,"--------":7133,"Ġá¡¯á¡ªá¢ĭá¡Ńá¢ĳ":7134,"Ġá¢ıá¡ªá¡ªá¡¬á¡¨":7135,"á¡ªá¢ĳá¢Ľá¡§":7136,"Ġá¢Ķá¡¬á¢ĭá¡Ńá¢Ļá¡ªá¢ŀá¡«":7137,"Ġá¢ĺá¡ªá¢ĺá¡ªá¢Ŀ":7138,"á¡¬á¡¬á¢ŀá¡Ńá¢Ĭá¡ªá¡§":7139,"Ġá¢ĭá¡Ńá¡¬á¢Ĭá¢Ľá¡¬á¢İ":7140,"Ġá¡¥á¡Ńá¢İá¢Ļá¡§":7141,"á¢ĺá¡Ńá¢ĳá¡Ńá¡±á¡±á¡ªá¡«":7142,"Ġá¢ĺá¡ªá¢Ĭá¡ªá¢Ļá¡ªá¢Ĳá¡¨":7143,"á¢ŀá¡¬á¢ĳá¡¬á¡¬á¡¨":7144,"Ġáłµáł¤áł¬":7145,"Ġá¡¯á¡ªá¡§":7146,"Ġáłªáł¦áł²":7147,"Ġá¡¥á¡Ńá¢ŀá¡Ńá¢Ķá¡ªá¡ªá¡³":7148,"Ġá¡³á¡ªá¡¬á¡¬á¡±á¡±á¡ªá¢Ķá¡ªá¡«":7149,"æĪ":7150,"Ð´ÑįÑĢ":7151,"Ġá¢ĺá¡¬á¢Ĭá¢ĳ":7152,"Ġá¡¥á¡³á¡ªá¡Ńá¡ªá¢ļá¡³":7153,"á¡¥á¡ªá¢ĳá¡Ńá¢ĵ":7154,"Ġá¡¸á¡ªá¢ŀá¡ªá¢İá¢Ķá¡ªá¢Ĳ":7155,"Ġá¢ļá¡ªá¢ĳá¢Ĭ":7156,"è¿":7157,"Ġá¡¥á¡Ńá¡¬á¢Ĭá¡ªá¡¬á¡¬á¢ļ":7158,"Ġá¡¥á¢Ľá¡ªá¢İá¢Ķá¡¬á¢ĭá¡Ń":7159,"á¡ªá¢Ľá¡ªá¡²":7160,"Ġáłµáł¦áł¢áł¯":7161,"Ġá¢ĭá¡Ńá¡¬á¢İá¡Ńá¢ŀá¢Ĭá¡ªá¡¨":7162,"Ġá¢Ķá¡ªá¡¬á¡¬":7163,"á¡ªá¡ªá¡ªá¢Ļá¡ªá¢Ľá¡ªá¡«":7164,"Ġá¡¥á¡³á¢Ĭ":7165,"Ġá¢ľá¡ªá¡´á¡Ńá¡ªá¡ªá¢Ļá¡ªá¡ªá¡ªá¢Ķá¡ªá¡§":7166,"Ġá¡¬á¡Ńá¢ŀá¡¬á¢Ľá¡³":7167,"Ġá¡¸á¡ªá¡±á¡±á¡Ńá¢ļá¡«":7168,"Ġá¡¥á¡ªá¡ªá¢Ĭá¢Ľ":7169,"Ġá¡¥á¡Ńá¢ŀá¢īá¡¨":7170,"Ġá¡´á¡Ńá¢ĳá¡Ńá¡ªá¡ªá¢Ķá¡ªá¡±á¡±á¡ªá¢Ŀ":7171,"áł¤áł·áłª":7172,"áł£áł¶":7173,"Ġá¢ĺá¡Ńá¡¬á¢ĳá¢Ĭá¡¬á¢ĭá¡Ńá¢Ŀ":7174,"Ġá¡¯á¡ªá¢İá¡³á¡ªá¡¨":7175,"Ġáłµáł¡áł·áłŃáł¡":7176,"Ġá¢ĭá¡Ńá¡¬á¢ľá¡«":7177,"Ġá¢¥á¡Ńá¢İá¡¶á¡¬á¡Ńá¡¬á¢ĺá¢Łá¢Ŀ":7178,"Ġá¢ĺá¡ªá¡±á¡±á¡ªá¡ªá¡ªá¢Ķá¡ªá¡§":7179,"á¢Įá¡ªá¢ŀá¡±á¡±":7180,"Ġá¡¥á¡Ńá¡¬á¢Ķá¢ĭá¡Ń":7181,"á¡ªá¡ªá¢ļá¡¬á¢Ŀ":7182,"á¡ªá¡ªá¢¦á¡«":7183,"á¡±á¡±á¡ªá¢Ŀ":7184,"á¡¥á¡Ńá¡ªá¢ļ":7185,"Ġá¡¥á¡Ńá¢ŀá¡Ńá¢īá¡¨":7186,"Ġá¢Ķá¡ªá¢ĳá¡ªá¢įá¡¨":7187,"Ġá¡¯á¡ªá¢İá¡ªá¢Ĭá¢Ļá¡ªá¢Ľá¡³":7188,"Ġá¡¯á¡Ńá¡¬á¡¬á¢Ļá¡ªá¡§":7189,"Ġá¡¬á¡ªá¡¬á¡¬á¢ĳá¡ªá¢Ľá¡³":7190,"Ġá¡³á¡ªá¡¬á¡¬á¢ĩ":7191,"Ġá¡¥á¢Ĭá¡¬á¢ĳá¡ªá¡°á¡¨":7192,"Ġá¡¸á¡ªá¡ªá¢Ľ":7193,"á¡¥á¡ªá¢Ľá¡¬á¢ĳá¢ĳ":7194,"á¡¥á¡ªá¢ĳá¡«":7195,"á¡¯á¡ªá¡¬á¡¬á¢Ļ":7196,"Ġá¡´á¡Ńá¢ĳá¡³á¡ªá¢Ķá¡Ńá¢ŀá¡ªá¡±á¡±á¡Ńá¢ĳá¡ªá¡ªá¡³":7197,"Ġá¢ĭá¡Ńá¡¬á¢ŀá¡Ńá¢ĳá¢ļá¡ªá¡§":7198,"Ġá¡¥á¡Ńá¡¬á¡¬á¡±á¡±á¡Ńá¢Ŀ":7199,"á¡¥á¡ªá¢Ĭ":7200,"Ġá¡¥á¢ŀá¡ªá¢ĳá¢Ĭá¡ªá¡¬á¡¨":7201,"Ġá¡´á¡Ńá¢Ļá¡ªá¡±á¡±á¡ªá¡§":7202,"ĠÑģÑĥÑĢÐ³Ð°Ð°Ð»":7203,"á¡ªá¢ŀá¡ªá¢Ĭá¡ªá¡Ńá¡§":7204,"áł¦áłµ":7205,"Ġá¢Įá¡ªá¢Ļá¡ªá¢Ĭá¢Ļá¡ªá¢ĭá¡Ń":7206,"Ġá¡¥á¡Ńá¡¬á¡ªá¢Ĭá¢Ĭá¡ªá¡§":7207,"Ġáł®áł£áł©áłŃ":7208,"Ġá¡´á¡Ńá¢ļá¡ªá¡±á¡±á¡ªá¡Ńá¡§":7209,"Ġá¡´á¡Ńá¢ĳá¢Ľá¡Ńá¢īá¡¨":7210,"Ġáł¬áł¤áł³":7211,"á¡¬á¢Ļá¡«":7212,"Ġáł³áł¤áł®áł³áłłáł³áł¤":7213,"Ġá¡¥á¢Ļá¢ĳá¡ªá¢Ĳ":7214,"Ġá¡¥á¡¬á¢Ļá¡ªá¡³á¡ªá¢Ĳ":7215,"á¡Ńá¢ļá¡¬á¡ªá¡ªá¡ªá¡±á¡±á¡ªá¡Ńá¡§":7216,"Ġáłłáłµáł¢áł¯áł":7217,"Ġá¢ĺá¡ªá¡±á¡±á¡Ńá¢ĳá¡ªá¢Ļá¡ªá¢ĩ":7218,"áł§áł·":7219,"Ġá¢ĺá¡Ńá¢ŀá¡ªá¡Ńá¡ªá¡ªá¡ªá¡³":7220,"á¡¥á¡ªá¢İá¡«":7221,"Ġá¢Įá¡Ńá¡¬á¢ŀá¢ĭá¡Ńá¢Ľá¡³":7222,"Ġá¡¥á¡Ńá¡¬á¢İá¡Ńá¢Ĭ":7223,"Ġá¡¸á¡ªá¢ľá¡ªá¡±á¡±á¡ªá¡Ńá¡§":7224,"Ġá¡´á¡Ńá¡±á¡±á¡Ńá¢ĳ":7225,"Ġá¢ļá¡Ńá¡³":7226,"Ġá¡¥á¡Ńá¢ŀá¡Ńá¡±á¡±á¡Ńá¢ĳá¡Ńá¢ĳá¢Ļá¡§":7227,"Ġáł¥áłª":7228,"á¡ªá¢ŀá¢ļá¡Ńá¡Ńá¡§":7229,"á¡ªá¡±á¡±á¡Ńá¢ŀá¡ªá¢Ĳ":7230,"Ġá¡¥á¡Ńá¢ŀá¡Ńá¢Ķá¢ļá¡³":7231,"Ġáłªáł¦áł³":7232,"Ġá¡¯á¡¬á¢Ĭá¡ªá¢İá¡Ńá¢Ķá¡Ńá¡§":7233,"Ġá¢ĺá¡Ńá¡Ńá¡±á¡±á¡Ńá¢Ŀ":7234,"Ġá¢Įá¡ªá¢ĳá¡ªá¢Ĭá¡ªá¡«":7235,"Ġá¢ĺá¡ªá¢ŀá¡¬á¡ªá¡ªá¡³":7236,"Ġá¡¥á¢Ļá¢ĳá¡ªá¢ĭá¡Ń":7237,"Ġá¡¥á¡Ńá¡¬á¢ŀá¡ªá¢Ľ":7238,"Ġá¡¬á¡Ńá¡¬á¢Ĭá¡ªá¢ĳ":7239,"á¡ªá¡ªá¢Ķá¡¬á¢Ĳ":7240,"Ġá¢ĺá¡Ńá¢İá¡Ńá¡±á¡±":7241,"Ġá¡¯á¡ªá¢Ĭá¡ªá¢İá¢Ľá¡¬á¢ĳ":7242,"Ġá¢ĺá¡ªá¢ŀá¡ªá¢ļá¡¬á¢ĳá¡ªá¡§":7243,"Ġá¡¥á¡Ńá¡¬á¡ªá¢Ļá¡Ńá¢ŀá¢ĳ":7244,"Ġá¡¥á¡Ńá¡¬á¡ªá¢Ļá¡Ńá¢Ķá¡Ńá¢ĳá¡ªá¢Ľá¡³":7245,"Ġá¢ļá¡¬á¡ªá¢Ķá¡ªá¢īá¡¨":7246,"Ġá¢ľá¡ªá¢ŀá¡¬á¢ĳá¢ļá¡ªá¢īá¡¨":7247,"Ġá¢ľá¢Łá¡¦":7248,"Ġá¢Įá¡ªá¢Ļá¡ªá¢ĭá¡Ńá¢ĳá¡Ńá¢ĳá¢Ļá¡§":7249,"Ġá¡³á¡ªá¢ĳá¡ªá¡«":7250,"Ġá¢Įá¡ªá¡ªá¡ªá¢Ļá¡ªá¡§":7251,"Ġá¡¥á¢Ĭá¡¬á¢ĳá¡ªá¢ĳá¢Ļá¡§":7252,"Ġá¡´á¡Ńá¢Ĭá¡¬á¡±":7253,"200":7254,"Ġá¢Ķá¢ĺ":7255,"Ġá¢Īá¡ªá¡ªá¢Ĭá¢Ļ":7256,"áłłáł¯áł´":7257,"Ġá¢Īá¡Ńá¢Ļá¡Ńá¢İá¢Ľá¡«":7258,"Ġá¡¬á¡Ńá¡¬á¢ĳá¢ĭ":7259,"Ġá¡¬á¡¬á¢ŀá¡±á¡±á¡ªá¢Ľá¡³":7260,"Ġá¡¸á¡ªá¢Ļá¡ªá¡±á¡±á¡Ńá¢Ľ":7261,"Ġá¢§á¡ªá¡ªá¢Ļá¡ªá¡§":7262,"Ġá¢ĺá¡Ńá¡ªá¡ªá¢Ļá¡ªá¢Ľá¡³":7263,"Ġá¡³á¡ªá¢Ļá¡ªá¢ŀá¡ªá¡±á¡±á¡Ńá¢ĳá¢Ľá¡³":7264,"Ġá¡¥á¡ªá¢İá¡¬á¢Ļá¡Ńá¢ŀá¡ªá¡ªá¡ªá¢Ķá¡ªá¡§":7265,"Ġá¡¬á¡¬á¢ĭ":7266,"Ġá¡³á¡ªá¢ľá¡ªá¢ŀ":7267,"Ġá¡¥á¡ªá¡¬á¡¬á¢Ķ":7268,"Ġá¡¯á¡ªá¢İá¢Ľ":7269,"Ġá¢ĺá¡ªá¢İá¢Ľá¡¬á¡±á¡±á¡Ńá¢ĳá¢Ľá¡³":7270,"Ġá¡¸á¡ªá¢ŀá¡ªá¡±á¡±á¡Ńá¢Ĳ":7271,"Ġá¢Ķá¡Ńá¡±á¡±á¡³":7272,"á¡ªá¢İá¡ªá¡ªá¡ªá¢ļá¡§":7273,"Ġá¡´á¡Ńá¡¬á¢ĳá¡¬á¢ľá¡ªá¡§":7274,"áł¢áł¯áłłáłŃ":7275,"á¡Ńá¢ĭá¡Ńá¢ĳá¡Ńá¡§":7276,"Ġá¢ļá¡Ńá¡ªá¡ªá¢Ļá¡³":7277,"Ġá¢Ĭá¡ªá¢Ķá¡ªá¢Ŀ":7278,"Ġá¡¬á¡Ńá¡¬á¢ĳ":7279,"Ġáłªáłłáł°":7280,"á¡ªá¡ªá¢Ĭá¡±á¡±á¡ªá¡ªá¡¬á¡¨":7281,"Ġá¡¥á¡Ńá¡¬á¡¬á¢ĳá¡ªá¡±á¡±á¡ªá¢Ļá¡ªá¢ĩ":7282,"á¡¥á¡Ńá¢Ĭ":7283,"á¡Ńá¢Ľá¡ªá¡²":7284,"Ġá¢ĺá¡ªá¡³á¡ªá¡¨":7285,"Ġá¢ĺá¡Ńá¢ŀá¢īá¡¨":7286,"á¡¬á¡Ńá¢Ĭá¡¬á¢ľ":7287,"Ġá¢Įá¡Ńá¡¬á¢§":7288,"á¡¬á¢¥":7289,"Ġá¢ĺá¡Ńá¡Ńá¢Ĺ":7290,"á¡ªá¢ĭá¡Ńá¢Ķ":7291,"Ġá¢ĭá¡Ńá¡¬á¢Ĭá¢Ľá¡¬á¢ĳ":7292,"ÑĤÐ°Ð¹":7293,"ĠM":7294,"Ġá¡¸á¡ªá¢ŀá¢ļá¡ªá¡±á¡±á¡ªá¡«":7295,"Ġá¡¥á¢Ĭá¡¬á¢ĳá¡ªá¢Ļá¡ªá¡¬á¡¨":7296,"Ġá¡¸á¡Ńá¡³á¡¬á¢ŀá¡ªá¢Ľá¡³":7297,"á¡ªá¡¬á¡¬á¢Ľ":7298,"Ġá¢Ĭá¡¬á¢Ľá¡ªá¡«":7299,"Ġá¢Īá¡ªá¡ªá¢Ĭá¢Ķ":7300,"Ġá¡¯á¡Ńá¡¬á¢ĳá¡Ńá¢Ĭá¡ªá¢ĳá¡ªá¢ĭá¡Ń":7301,"á¡Ńá¡ªá¢ĺá¡¦":7302,"á¡¥á¡ªá¡ªá¡ª":7303,"á¡³á¡ªá¢ŀá¡¬á¢Ĳ":7304,"Ò¯Ò¯":7305,"á¢ļá¡¬á¡ªá¡ªá¡ªá¡±á¡±á¡ªá¡Ńá¡§":7306,"á¡±á¡±á¡ªá¢Ļá¡ªá¡§":7307,"Ġá¡´á¡Ńá¢ĳá¡Ńá¡±á¡±á¡ªá¢Ķá¡ªá¡«":7308,"á¡¥á¡ªá¡«":7309,"Ġá¢ĺá¡ªá¡±á¡±á¡ªá¢Ķá¡¬á¢ľá¡ªá¢Ĳ":7310,"Ġá¡¥á¡¬á¢Ļá¡ªá¢Ķá¡«":7311,"Ġáł°áł¢áł¯":7312,"áł¤áł¯áł³áłł":7313,"á¡¥á¡Ńá¡¬á¢ĳá¡ªá¢Ļ":7314,"á¡ªá¡¬á¡¬á¢ĳá¡ªá¢Ĳ":7315,"Ġá¢ĺá¡Ńá¢Ļá¡Ńá¡ªá¡ªá¢Ķá¡«":7316,"Ġá¡¸á¡Ńá¡Ńá¡ªá¡ªá¡ª":7317,"áł¡áł¯áł¡áłŃ":7318,"Ġá¢Įá¡Ńá¢ŀá¢Ļá¡ªá¡ªá¡ªá¡³":7319,"Ġá¢ıá¡Ńá¡³á¢Ķ":7320,"á¡´á¡Ńá¢Ķá¡Ńá¡§":7321,"Ġá¢ĺá¡ªá¡±á¡±á¡ªá¡ªá¡ªá¡³":7322,"á¡¬á¡Ńá¡ªá¡ªá¢Ķ":7323,"á¡ªá¡³á¡¬á¢ĳá¡¬á¡¬á¡¨":7324,"Ġá¡´á¡Ńá¢ĳá¢Ľá¡Ńá¢İá¡Ńá¢Ŀ":7325,"Ġá¢Ķá¡ªá¡±á¡±á¡Ńá¡±á¡±á¡ªá¢ĳá¡«":7326,"á¡¥á¡Ńá¡Ńá¡±á¡±":7327,"á¡ªá¡¶":7328,"á¡ªá¢Ķá¡ªá¢Ŀ":7329,"á¡ªá¢Ĭá¢Ļá¡Ńá¢ŀá¢Ľá¡«":7330,"Ġá¢ĺá¡ªá¢Ĭá¡ªá¢Ķá¡³":7331,"Ġá¡¥á¡Ńá¡¬á¢Ķá¡¬á¡«á¡¨":7332,"Ġá¢ıá¡ªá¡³á¢Ļá¡ªá¡±á¡±á¡Ńá¡§":7333,"Ġá¢ĺá¡ªá¡ªá¢Ĭá¡±á¡±á¡ªá¢ŀá¡¬á¢ĩ":7334,"á¢Ĭá¡ªá¡Ńá¢Ĭá¡ªá¡§":7335,"Ġá¢Ĺá¢Łá¡ªá¡¬á¡¨":7336,"Ġá¡´á¡Ńá¢Ķá¡Ńá¡ªá¡ªá¢Ķá¡ªá¡§":7337,"á¡Ńá¢ĳá¢Ľá¡«":7338,"Ġá¢ĭá¡Ńá¡¬á¢Ļá¡ªá¢ĳá¡Ńá¢Ĳ":7339,"Ġá¢ĺá¡Ńá¡Ńá¡±á¡±á¡ªá¢ŀá¡ªá¡ªá¡³":7340,"Ġá¡¸á¡Ńá¢ĳá¡´á¡Ńá¡±á¡±á¡ªá¢Ļá¡ªá¡«":7341,"á¡ªá¡³á¢ļá¡¬á¡§":7342,"á¡¥á¡±á¡ªá¢ĭá¡Ń":7343,"á¡¬á¢ľá¡ªá¢ŀá¡ªá¢Ľá¡³":7344,"á¡Ńá¡³á¡ªá¡«":7345,"Ġá¢ĭá¡Ńá¡¬á¢ŀá¡Ńá¡ªá¢Ĭá¢Ĭ":7346,"Ġá¢Īá¡Ńá¡±á¡±á¡Ńá¢Ľ":7347,"Ġá¡¥á¡ªá¢ĳá¡¬á¡«á¡¨":7348,"Ġá¢ľá¡ªá¢ŀá¡¬á¡³á¡ªá¢Ĳ":7349,"Ġá¢ĭá¡Ńá¡¬á¢Ĭá¢Ľá¡¬á¢ľá¡ªá¡§":7350,"á¡Ńá¢ļá¡Ńá¡Ńá¢Ĳ":7351,"á¡¥á¡Ńá¡¬á¢Ĭá¡ªá¢Ŀá¡¨":7352,"ÑĤÑįÐ¹":7353,"Ġá¢Ķá¡ªá¡±á¡ªá¢Ļá¡ªá¢ĩ":7354,"²áł¡":7355,"á¡¥á¡Ńá¡¬á¢ŀá¢ĳá¡Ńá¢Ĭá¡ªá¡¨":7356,"á¡¬á¢İá¡¶á¡¬á¢£":7357,"Ġá¢Ķá¡¬á¡¬":7358,"Ġá¡¥á¢ŀá¡³á¡ªá¢Ĭá¡ªá¡«":7359,"Ġá¡¥á¡Ńá¡´á¡Ńá¡±á¡±":7360,"áł¡áł¯áł¡áł¬":7361,"ï¸¶":7362,"Ġá¢ĺá¡Ńá¢Ļá¡ªá¡ªá¡ªá¡³":7363,"Ġá¡¸á¡ªá¢İá¢Ļá¡Ńá¡³á¡ªá¢Ŀ":7364,"Ġá¡¥á¡ªá¢ĺ":7365,"Ġá¢ĺá¡ªá¡±á¡±á¡Ńá¢Ļá¡ªá¢Ļá¡ªá¢ĩ":7366,"á¡Ńá¡ªá¡ªá¢Ļá¡ªá¡°á¡¨":7367,"Ġá¡¥á¡ªá¡´á¡Ńá¡«á¡¨":7368,"Ġá¡¸á¡ªá¢Ļá¡ªá¡±á¡±á¡ªá¢ĳá¡ªá¡ªá¡ªá¡³":7369,"Ġá¡¥á¡ªá¡±á¡±á¡Ńá¢ĳá¢Ľá¡ªá¢ĳá¢Ļá¡§":7370,"Ġáł¬áł¤áł·áłłáł¯":7371,"á¡´á¡Ńá¡¬":7372,"Ġá¡³á¡ªá¡¬á¡¬á¢ļá¡ªá¡±á¡±á¡ªá¢Ľá¡³":7373,"Ġá¢Ĭá¡¬á¢İá¡«":7374,"Ġá¡¸á¡Ńá¢ŀá¢Ķá¡¬á¡«á¡¨":7375,"á¢Łá¡²":7376,"Ġáł¢áł¶áł¡áł·":7377,"á¡Ńá¢£":7378,"á¡ªá¢ĳá¢Ľá¡ªá¡ªá¡ªá¢Ķá¡ªá¡§":7379,"Ġá¡¥á¡Ńá¢ŀá¡¬á¢ľá¡ªá¢ĳ":7380,"Ġá¡¶á¡ªá¢ŀ":7381,"Ġá¢ĭá¡Ńá¡¬á¢ļá¡¬á¢ŀá¢Ļá¡ªá¢Ĳ":7382,"Ġá¢ĺá¡ªá¡¬á¡¬á¢Ķá¡ªá¡§":7383,"Ġá¡³á¡Ńá¡«":7384,"á¡¥á¡Ńá¡¬á¡ªá¢Ĭá¢Ĭá¡ªá¡¨":7385,"Ġá¡³á¡ªá¡¬á¡¬á¢İá¡ªá¢Ŀ":7386,"á¢ŀá¡Ńá¡²":7387,"Ġáł°áł¢áł·":7388,"Ġá¡¸á¡Ńá¡ªá¢Ľ":7389,"ĠD":7390,"Ġá¢ľá¡ªá¢ĭá¡Ńá¢ĳ":7391,"Ġá¡¸á¡Ńá¢Ļá¡Ńá¡±á¡±á¡Ńá¢Ŀ":7392,"Ġá¡¥á¡Ńá¢Ļá¡Ńá¢ŀá¡¬á¢Ļá¡Ńá¡ªá¡ªá¢ļá¡«":7393,"Ġá¡¬á¡¬á¡±á¡±á¡Ńá¢ĳá¢ļá¡¬á¢ĳá¡ªá¢Ĳ":7394,"áłłáł¯áł²áłł":7395,"åĮ":7396,"á¡ªá¢Ļá¡Ńá¢Ĭá¡¬á¡¦":7397,"Ġáł¬áł¦áł¨":7398,"Ġá¡¯á¡ªá¢ŀá¡ªá¢ĳá¡ªá¢Ļá¡ªá¡¬á¡¨":7399,"Ġá¢Īá¡ªá¢ŀá¢ļá¡ªá¢īá¡¨":7400,"á¡Ńá¢ĳá¢ļá¡ªá¡ªá¡ªá¢Ķá¡ªá¡§":7401,"á¡Ńá¢ĳá¢Ļá¡Ńá¡§":7402,"á¡Ńá¡ªá¡ªá¢ĳá¡ªá¡§":7403,"Ġá¢ĺá¡Ńá¢Ķá¡ªá¢Ļá¡ªá¡«":7404,"á¡Ńá¢İá¢Ķá¡Ńá¢ĩ":7405,"á¢ĺá¡Ńá¡±á¡±á¡Ńá¢ŀ":7406,"Ġá¡¸á¡ªá¢ŀá¡¬á¢ļá¡ªá¡ªá¢Ĭá¡±á¡±á¡Ńá¡«":7407,"Ġá¡¥á¢ŀá¢ĳá¡¬á¡¬á¡¨":7408,"Ġá¢Ķá¡ªá¡±á¡±á¡Ńá¢Ĳá¡¨":7409,"Ġá¡¥á¡Ńá¡ªá¡ªá¡ªá¢īá¡¨":7410,"Ġá¢Ķá¡ªá¢Ĭá¡¬á¢Ľá¡³":7411,"Ġá¡´á¡Ńá¢ļá¡ªá¡ªá¡ªá¢Ķá¡ªá¡§":7412,"á¡ªá¡±á¡ªá¢Ľá¡³":7413,"á¡ªá¡±á¡±á¡ªá¢ĳá¡ªá¡ªá¡ªá¡³":7414,"Ġá¡³á¡ªá¢ŀá¡ªá¢Ľá¡³":7415,"á¡ªá¢ļá¡¬á¢Ĭá¡ªá¢ĭá¡Ń":7416,"Ġá¢ĺá¡Ńá¡¬á¢ĭá¡Ńá¢Ĭá¡ªá¢ŀá¡Ńá¢İá¢Ľá¡«":7417,"Ġá¢ĺá¡Ńá¡¬á¢ļá¡«":7418,"á¡ªá¢Ļá¡ªá¢Ĭá¡ªá¡¨":7419,"á¡¬á¡ªá¡ªá¢Ļá¡ªá¢Ĳ":7420,"á¢Ķá¡³":7421,"áł¡áłŃáł¡áł³":7422,"Ġá¡¯á¡ªá¢Ķá¡Ńá¢Ļ":7423,"Ġá¡¥á¢İá¢Ľá¡ªá¡¬á¡¨":7424,"Ġá¢Ĭá¡¬á¢Ĭ":7425,"á¢Īá¡ªá¡ªá¡ªá¢ļá¡§":7426,"á¢Ķá¡Ńá¡¬á¡¨":7427,"á¡¬á¡±á¡¬á¢įá¡¨":7428,"Ġá¢Ķá¡ªá¡Ńá¡ªá¢Ĭá¡¬á¢Ĭá¢Ļá¡ªá¢Ĳ":7429,"ĠáłŃáł¡áł³áł¡áłŃ":7430,"Ġá¢Īá¡ªá¢Ķá¡¬á¡±á¡±":7431,"á¡Ńá¡ªá¢Ĭá¡±á¡±á¡ªá¢ĳá¡ªá¢ĩ":7432,"Ġá¡¥á¡Ńá¡¬á¡¬á¢ĳá¡±á¡±á¡ªá¡ªá¡ªá¡³":7433,"áłłáł°áł¤áł¨":7434,"á¡ªá¢ŀá¡ªá¡³á¡ªá¡¨":7435,"Ġáłº":7436,"Ġá¡¬á¡¬á¡±á¡±á¡ªá¢Ļá¡ªá¢ĩ":7437,"Ġá¢¤á¡ªá¢Ļá¡ªá¢Ŀ":7438,"Ġá¢ĭá¡Ńá¡¬á¢ŀá¡³á¡ªá¡¨":7439,"Ġá¢ĭá¡Ńá¡¬á¢ļá¡¬á¢ŀá¢Ļá¡ªá¡«":7440,"Ġá¢Ķá¡¬á¢ĳá¡±á¡±á¡ªá¡§":7441,"Ġá¢ĺá¡¬á¢ľá¡ªá¢ĺá¢Ŀ":7442,"Ġá¢ĭá¡Ńá¡¬á¢Ľá¡Ńá¢ĭá¡Ńá¡§":7443,"á¡Ńá¡ªá¢Ļá¡§":7444,"á¡¬á¡±á¡±á¡Ńá¢Ĳ":7445,"Ġá¡¥á¢ĭá¡Ńá¢Ķá¢Ĭá¡ªá¡§":7446,"Ġá¡¥á¡¬á¡³á¡ªá¢Ĭá¡ªá¢Ĳ":7447,"Ġá¢ĺá¡ªá¡±á¡¬á¢Ļá¡ªá¢ĩ":7448,"Ġá¡¸á¡Ńá¢Ľá¡¬á¡Ńá¡§":7449,"Ġá¢ĺá¡ªá¢Ĭá¡ªá¢Ĭá¢Ķá¡¬á¢ĳá¡ªá¢ĭá¡Ńá¢ĳá¢Ľá¡³":7450,"Ġá¢ļá¢Łá¡§":7451,"Ġá¡¥á¡Ńá¡¬á¢ŀá¡±á¡¬á¢ĭá¡Ńá¢ĳá¢Ľá¡³":7452,"Ġá¡¥á¡Ńá¢ļá¡ªá¢ŀá¡ªá¢Ľá¡³":7453,"Ġá¡¸á¡Ńá¢ľá¡ªá¢ĩ":7454,"Ġá¡¯á¡Ńá¡¬á¢ĳá¡Ńá¢Ĭá¡ªá¢ĳá¡ªá¢Ľá¡³":7455,"á¡¥á¡ªá¢ĩá¡¨":7456,"Ġá¡¥á¡ªá¢Ľá¡Ńá¡±á¡±á¡³":7457,"Ġá¡´á¡Ńá¡¬á¢ŀá¡¬":7458,"Ġá¢ĭá¡Ńá¡¬á¡ªá¢Ļá¡Ńá¢ŀ":7459,"á¡¸á¡Ńá¢ľá¡ªá¢Ļá¡Ńá¡±á¡±á¡ªá¢Ŀ":7460,"Ġáł¬áł¥áł®":7461,"Ġá¡¥á¢ŀá¢Ĭá¡¬á¢ĭá¡Ńá¢ĳá¢Ľá¡³":7462,"Ġá¡¬á¡Ńá¢ŀá¡¬á¡±á¡±á¡Ńá¢ĳá¢Ľá¡³":7463,"Ġá¢Ĭá¡¬á¢ĳá¡³á¡ªá¢īá¡¨":7464,"Ġá¢ľá¡ªá¡ªá¢Ĭá¢Ľ":7465,"Ġá¡¸á¡Ńá¢ŀá¡Ńá¡Ńá¡§":7466,"Ġá¡¥á¡Ńá¢ŀá¡Ńá¢Ķá¡¬á¢Ĳ":7467,"Ġáł´áł¢":7468,"Ġá¢§á¡«":7469,"á¡ªá¢Ļá¡¦":7470,"Ġá¡¥á¡Ńá¢ŀá¡Ńá¡³á¡ªá¢Ĳ":7471,"Ġá¢Ķá¡ªá¢ŀá¡ªá¡¬á¡¬á¡§":7472,"Ġá¡¸á¡ªá¢ŀá¡ªá¢ļá¡¬á¡§":7473,"Ġá¡¥á¡Ńá¢ĳá¡ªá¢İá¢Ľá¡¬á¢ĳá¡ªá¢Ľá¡³":7474,"á¡¬á¡±á¡ªá¢Ĭá¡¬á¡¦":7475,"Ġá¢Ĭá¡ªá¢Ļá¡ªá¢ŀá¢ĭá¡Ń":7476,"Ġá¢Ķá¡ªá¢ĳá¡ªá¡±á¡±á¡ªá¡§":7477,"Ġá¢Īá¡ªá¢ĳá¡³á¡ªá¡¨":7478,"Ġá¡¥á¡¬á¢ĳá¡ªá¢ŀá¡ªá¢ĭá¡Ńá¢ĳá¡Ńá¢Ĭá¢Ķá¡ªá¡§":7479,"Ġá¡³á¡ªá¡ªá¡ªá¢Ķá¡¬á¡±á¡ªá¢Ŀ":7480,"Ġá¢ĺá¡ªá¡³á¢Ķá¡¬á¡ªá¡ªá¡³":7481,"á¡¥á¡³á¡ªá¡Ńá¡ªá¢ļá¡¬á¡§":7482,"Ġá¡¸á¡Ńá¡³á¡¬á¢ľá¡ªá¢ŀá¡«":7483,"Ġá¡¥á¢ĭá¡Ńá¡Ńá¡ªá¢ĭá¡Ń":7484,"á¡¬á¢İá¢Ľá¡«":7485,"Ġá¢Ķá¡ªá¡±á¡ªá¡±á¡±á¡Ńá¢ĳá¢īá¡¨":7486,"30":7487,"Ġá¡¥á¡¬á¢ŀá¡Ńá¡±á¡±á¡ªá¢Ŀ":7488,"Ġá¡¥á¢Ľá¡ªá¢ĳá¡ªá¢ĭá¡Ń":7489,"Ġá¢ľá¡ªá¡±á¡±á¡ªá¢Ĭá¡¬á¡§":7490,"Ġá¢ĺá¡Ńá¡¬á¡³á¡ªá¡¬á¡¨":7491,"Ġá¡¯á¡¬á¡ªá¢Ĭ":7492,"Ġá¢Ķá¡ªá¢ĳá¡±á¡±á¡ªá¢Ľá¡³":7493,"á¡¸á¡Ńá¢ŀá¡³á¡¨":7494,"Ġá¡¸á¡ªá¢İá¢Ļá¡Ńá¢ŀ":7495,"Ġá¡¥á¡¬á¢ĳá¡±á¡±á¡ªá¢Ľá¡³":7496,"Ġá¡¬á¡¬á¢ĳá¡ªá¢īá¡¨":7497,"á¡¸á¡ªá¡Ńá¢ĳá¡«":7498,"á¢Ķá¡¬á¡±":7499,"áłłáł°áł¢":7500,"Ġá¡¸á¡Ńá¡«":7501,"Ġá¢ľá¡Ńá¢İá¢Ķá¡¬á¢ĩ":7502,"Ġáł¶áł¡áł·":7503,"Ġá¡´á¡Ńá¡¬á¡¬á¢Ľá¡¬á¢ĳá¢Ļá¡§":7504,"Ġáł¤áł¢":7505,"Ġá¡¥á¡¬á¢Ķá¢ĭá¡Ńá¢ĳ":7506,"Ġá¡¥á¡¬á¡³á¢ļ":7507,"á¢Ķá¡Ńá¢ŀá¡±á¡±á¡ªá¡§":7508,"á¡ªá¡³á¢ļá¡¬á¢ĳá¡ªá¡§":7509,"Ġá¡¥á¡Ńá¡¬á¡¬á¢ĳá¡ªá¢ļá¡¬á¢ĳá¡ªá¢ĭá¡Ń":7510,"á¡¥á¡ªá¡³á¢ļá¡³":7511,"Ġá¢ĺá¡ªá¢Ķá¡´á¡Ńá¢ŀ":7512,"Ð°Ð¹Ð»":7513,"Ġá¡³á¡ªá¢ŀá¢Ĭá¡ªá¡§":7514,"á¡ªá¢ĳá¢Ľá¡ªá¡°á¡¨":7515,"Ġá¢Ķá¡Ńá¡±á¡¬á¢ŀá¡ªá¡ªá¡ªá¢Ľá¡³":7516,"áł¦áł¯áłµáł¦":7517,"Ġáł´áł¢áł¨áł¢":7518,"Ġáłªáłłáł°áłł":7519,"Ġá¢Ķá¡Ńá¡Ń":7520,"Ġá¡¬á¡ªá¡±":7521,"Ġá¡¥á¢ŀá¢Ĭá¡ªá¢Ķ":7522,"Ġá¡¥á¡Ńá¢ŀá¡±á¡±á¡Ńá¢Ļá¡ªá¢ĩ":7523,"Ġáł²áł£áłŃ":7524,"Ġá¢ĺá¡Ńá¡¬á¢İá¡ªá¡Ńá¡§":7525,"Ġá¢Ķá¡¬á¢ĭá¡Ńá¢Ķá¡³":7526,"Ġá¡¥á¡Ńá¢ŀá¡¬á¢ľá¡ªá¡ªá¢Ĭá¡ªá¡ªá¡ªá¡«":7527,"Ġáł¬áł¤áłŃáł¤áł´":7528,"Ġá¢Ķá¡¬á¡ªá¢Ľá¡¬á¢ĳá¡ªá¢Ĭá¡ªá¡¨":7529,"Ġá¢ĺá¡ªá¢ĳá¡³á¡¬á¡°á¡¨":7530,"Ġá¢ĭá¡Ńá¡¬á¢Ļá¡Ńá¢ĳá¡´á¡Ńá¢ŀá¡«":7531,"Ġá¢ĺá¡ªá¢Ĭá¡¬á¢Ļá¡ªá¢ĩ":7532,"á¡¸á¡Ńá¢Ľ":7533,"Ġá¢Ķá¡ªá¡±á¡ªá¡ªá¡ªá¢Ļá¡ªá¡ªá¡ªá¢Ķá¡ªá¡§":7534,"Ġá¢ĺá¡ªá¢Ĭá¡ªá¢Ĭá¡ªá¢Ľá¡³":7535,"Ġá¡¥á¡Ńá¡Ńá¡±á¡±á¡Ńá¢ĳ":7536,"Ġá¢Ķá¡ªá¢ĳá¡Ńá¡ªá¡ªá¢Ķá¡ªá¡§":7537,"Ġá¢Ķá¡Ńá¢ĳá¡¬á¡ªá¡ªá¡³":7538,"á¢ĳá¡ªá¢Ĭá¡ªá¡Ńá¡§":7539,"Ġá¡³á¡ªá¡¬á¡¬á¡ªá¡ª":7540,"Ġá¢ĺá¡Ńá¢ĳá¡Ńá¢ĳá¢Ļá¡Ńá¡±á¡±á¡ªá¡§":7541,"Ġá¡¸á¡ªá¢ŀá¡¬á¡±á¡±á¡Ńá¢ļá¡ªá¢Ľá¡³":7542,"ĠÑħÒ¯Ð½":7543,"á¡¥á¡Ńá¡´":7544,"Ġá¢ľá¡ªá¢İá¡ªá¢ŀá¡³á¡ªá¡¨":7545,"Ġá¢ļá¡Ńá¡±á¡±á¡Ńá¢ŀ":7546,"á¢Īá¡ªá¢ĳ":7547,"Ġá¡¥á¡Ńá¢ŀá¡Ńá¢Ķá¡¬á¡ªá¡ªá¡Ńá¡«":7548,"Ġá¢Ķá¡Ńá¡±á¡¬á¢ŀá¡ªá¡ªá¡ªá¡ªá¡ªá¡³":7549,"á¡´á¡Ńá¢ĳá¡³á¡ªá¢Ķ":7550,"Ġá¡¥á¡¬á¢ŀá¡Ńá¢Ĭ":7551,"Ġá¢ıá¡¬á¢ľá¡ªá¡ªá¡¬á¡¨":7552,"Ġá¡¥á¡Ńá¡¬á¡³á¢ļá¡«":7553,"Ġá¢ĺá¡ªá¡³á¡ªá¢ĩ":7554,"á¡¬á¢ľá¡ªá¢ļá¡«":7555,"á¢ľá¡ªá¢ĩ":7556,"á¢ľá¡¬á¢ŀá¢Ļá¡¬á¡ªá¢ļá¡³":7557,"Ġá¢Ķá¡ªá¢İá¡ªá¢Ĭá¡ªá¢Ŀ":7558,"Ġá¢ĺá¡ªá¢Ķá¡Ńá¢ŀá¡ªá¡ªá¡ªá¡«":7559,"Ġá¢ľá¡ªá¡±á¡±á¡Ńá¢İá¡ªá¢ĵ":7560,"á¡¥á¡ªá¢Ķá¡ªá¡±á¡±á¡Ńá¢Ļá¡ªá¢Ĳ":7561,"á¡Ńá¢Ļá¡Ńá¢ĳá¢īá¡¨":7562,"Ġá¢Ĭá¡ªá¢ĭá¡Ńá¡³":7563,"Ġá¢Ķá¡ªá¡ªá¢Ļá¡Ńá¢ŀá¢ļá¡³":7564,"ĠÐĽÐ°Ð¼Ð°":7565,"á¡±á¡ªá¢Ĳ":7566,",\"ãĢĬ":7567,"Ġá¡¬á¡ªá¡¬á¡¬á¢ĳá¡ªá¢Ķá¡«":7568,"á¡ªá¡±á¡±á¡Ńá¢Ķá¡¬á¢Ļá¡ªá¡«":7569,"á¡ªá¢Ĭá¢Ļá¡ªá¢Ľá¡ªá¡«":7570,"á¢Ķá¡Ńá¡¬á¡±á¡«":7571,"Ġá¡¥á¡Ńá¡¬á¢Ĭá¡ªá¢ŀá¡ªá¢ļá¡¬á¢ĳá¡ªá¢Ľá¡³":7572,"Ġá¡¬á¡Ńá¢īá¡¨":7573,"á¡ªá¢Ķá¢Ĭ":7574,"Ġá¢ĺá¡ªá¡³á¡¬á¢Ķ":7575,"á¡¬á¢ĭá¡Ńá¢ĳá¡Ńá¢Ĭá¡ªá¡Ńá¡§":7576,"Ġá¢Ĭá¡ªá¡³á¢Ļá¡ªá¢ĭá¡Ń":7577,"Ġá¢ĺá¡ªá¡³á¡ªá¡ªá¡ªá¡³":7578,"Ġá¡¸á¡ªá¡ªá¢ļ":7579,"Ġáłªáł¢áł³":7580,"Ġá¡¥á¢İá¡Ńá¢Ķá¡Ńá¢Ĭá¢Ķá¡ªá¡§":7581,"á¢ĺá¡ªá¢Ĭá¡ªá¡³á¡ªá¢Ĳ":7582,"Ġá¡³á¡¬á¢ļá¡¬á¢Ĭá¡ªá¢Ķá¡³":7583,"Ġá¢ĺá¡ªá¡±á¡±á¡ªá¡±á¡±á¡ªá¡ªá¡ªá¡³":7584,"ÑįÑį":7585,"á¡Ńá¢ĳá¢Ļá¡ªá¡¬á¡¨":7586,"á¢ĺá¡ªá¢ŀá¡Ńá¢īá¡¨":7587,"á¡ªá¢ŀá¡ªá¢ĭá¡Ńá¢ĳá¢Ľá¡³":7588,"Ġá¢Ķá¡Ńá¢ŀá¡Ńá¢ĳá¡±á¡±á¡ªá¢Ļá¡ªá¡§":7589,"Ġá¡¥á¢Ĭá¡ªá¢Ļ":7590,"Ġá¡¥á¡ªá¢ŀá¡¬á¢ĳá¡±á¡±á¡ªá¡ªá¡ªá¡³":7591,"á¡Ńá¡±á¡±á¡ªá¢ļá¡¬á¡Ńá¡§":7592,"á¡¸á¡Ńá¡±á¡±á¡Ńá¢ŀ":7593,"á¡¬á¡±á¡±á¡Ńá¢ĳá¡Ńá¡±á¡±á¡ªá¡Ńá¡§":7594,"Ġáł¤áł¶":7595,"Ġá¡³á¡¬á¢ĳá¢Łá¢ĺá¡¦":7596,"Ġá¡´á¡Ńá¢ĳá¢ļá¡¬á¡ªá¡ªá¡ªá¡³á¡ªá¡¨":7597,"á¡¬á¢ĳá¡«":7598,"Ġá¡¥á¢İá¢Ĭá¡ªá¡±":7599,"Ġá¡¸á¡ªá¡ªá¢Ķá¡Ńá¡¬á¢įá¡¨":7600,"Ġá¢Īá¡ªá¢Ļá¡ªá¢īá¡¨":7601,"Ġá¢Īá¡Ńá¢ľá¡Ńá¡ªá¡ªá¡³":7602,"Ġá¢ĺá¡Ńá¢ŀá¢Ķá¡¬á¢Ļá¡§":7603,"Ġá¢ļá¡Ńá¢Ŀ":7604,"Ġá¡³á¡¬á¢ļá¡¬á¡°á¡¨":7605,"Ġá¡¥á¡¬á¡ªá¢Ĭá¢Ĭá¡¬á¡³á¡ªá¢Ĳ":7606,"á¡ªá¡ªá¢Ķá¡ªá¡ªá¡¬á¡¨":7607,"Ġá¡¥á¢İá¢Łá¡¦":7608,"Ġá¡¸á¡ªá¡¬á¡¬á¢ŀá¡ªá¢ĳá¡ªá¢Ļá¡ªá¢ĩ":7609,"á¡ªá¢£":7610,"á¢Ķá¡¬á¡¬á¡¨":7611,"á¡ªá¡ªá¡ªá¡Ńá¡¬á¡ªá¢Ļá¡Ńá¢Ŀ":7612,"Ġá¡¥á¡ªá¡´á¡Ńá¡³á¡ªá¢Ĳ":7613,"á¡³á¡¬á¢ĳá¡§":7614,"Ġáł¦áł¢áł¯áł¡áł³":7615,"á¡ªá¢¨":7616,"á¡³á¡¬á¢Ļ":7617,"á¢Ķá¡ªá¢ļ":7618,"Ġá¡¥á¡¬á¢ŀá¢Ĭá¡ªá¡ªá¢Ķá¡¬á¢Ĳ":7619,"á¡³á¡ªá¢Ŀá¡¨":7620,"á¡¯á¡¬á¢Ļá¡³":7621,"Ġá¡³á¡ªá¢ľá¡ªá¢Ķá¡ªá¡ªá¡Ńá¢ĳá¡ªá¡ªá¡¬á¡¨":7622,"Ġá¢ľá¡Ńá¡¬á¡ªá¡¬á¡¨":7623,"Ġá¢ĺá¡ªá¡±á¡±á¡ªá¡±á¡±á¡ªá¡ªá¡ªá¢Ķá¡ªá¡§":7624,"áł¢áł°áł¢":7625,"á¡Ńá¡±á¡±á¡ªá¡ªá¡ªá¢Ķá¡ªá¡§":7626,"Ġá¡¥á¢ŀá¢ļá¡¬á¢İ":7627,"áłłáł¬áł¢":7628,"á¢Ľá¡¬á¢ŀ":7629,"Ġá¢ĭá¡Ńá¡¬á¡¬á¢Ķá¡³":7630,"áł´áł¦":7631,"Ġá¢ļá¡Ńá¡¬á¢įá¡¨":7632,"Ġá¡´á¡Ńá¢ĳá¢ļá¡¬á¡ªá¡ªá¡ªá¡ªá¡ªá¡³":7633,"Ġá¢ĺá¡ªá¡Ńá¡ªá¢ĭá¡Ńá¢ĭá¡Ń":7634,"á¡ªá¢Ķá¡Ńá¡¬á¢ŀá¡Ńá¡ªá¡¬á¡¨":7635,"Ġá¡´á¡Ńá¢ĩ":7636,"á¡Ńá¡Ńá¡ªá¢ļá¡³":7637,"Ġá¡³á¡ªá¡ªá¡ªá¢Ļá¡ªá¡±á¡±á¡ªá¡ªá¡ªá¢Ķá¡ªá¡§":7638,"),":7639,"áłį":7640,"Ġá¢Īá¡ªá¡¬á¡¬á¡±á¡±á¡Ńá¡«":7641,"áł¡áłªáł¡áł¯":7642,"á¡±á¡±á¡ªá¡«":7643,"Ġá¢Ĺá¡ªá¡ªá¢Ĭá¡ªá¡ªá¡ªá¡«":7644,"á¢İá¡«":7645,"Ġá¡¥á¡Ńá¡±á¡Ńá¡ªá¡ªá¢Ķá¡ªá¡§":7646,"Ġá¡³á¡ªá¡ªá¡ªá¢Ļá¡ªá¡ªá¡ªá¡³":7647,"Ġá¢Ķá¡ªá¡ª":7648,"Ġá¡¸á¡Ńá¡ªá¢Ĭá¢Ķ":7649,"Ġáłªáł¤áł¯áłª":7650,"Ġá¢Ķá¡Ńá¡¬á¢Ķá¡Ńá¡¬á¡¨":7651,"Ġá¡¸á¡ªá¡ªá¢Ĭá¡ªá¡ªá¡Ńá¢ĳ":7652,"Ġá¢Ķá¡ªá¢Ļá¡Ńá¡³á¢Ļá¡³":7653,"Ġá¡¬á¡¬á¡±á¡±á¡ªá¡´á¡Ńá¢ŀá¡«":7654,"Ġáł´áł¢áł©áłŃ":7655,"á¡¥á¢ļá¡¬á¢Ĭá¡ªá¡¨":7656,"á¢ĺá¡Ńá¡¬á¢ĭá¡Ńá¢ŀá¡¬á¡¬á¡¨":7657,"á¢ĳá¡ªá¡³á¡ªá¡¨":7658,"Ġá¡¥á¢Ĭá¡ªá¢Ĭá¡ªá¡¨":7659,"Ġá¢ĺá¡ªá¡±á¡±á¡Ńá¢ŀá¡¬á¢Ķ":7660,"Ġá¡¥á¡ªá¢ľá¡ªá¡±á¡±á¡ªá¡§":7661,"Ġá¡¥á¡ªá¡±á¡±á¡ªá¢ĳá¡«":7662,"å¹":7663,"Ġá¢ĭá¡Ńá¡¬á¢ŀá¡Ńá¢Ĭá¡ªá¡¨":7664,"Ġá¡¯á¡ªá¡¬á¡¬á¢Ļá¡ªá¢ĳá¡ªá¡³á¡ªá¡¨":7665,"Ġáł¤áł¬áłłáłŃáłłáł¨":7666,"á¡¬á¢ľá¡ªá¢ļá¡¬á¡§":7667,"Ġá¢ıá¡ªá¡§":7668,"Ġáł¬áł¡áł³":7669,"Ġá¡¯á¡ªá¡¬á¡¬á¢ŀá¡ªá¡±á¡±á¡Ńá¢ĳá¡Ńá¡ªá¡ªá¢Ķá¡ªá¡§":7670,"Ġá¡¥á¡ªá¢Ĭá¡±á¡ªá¢Ĭá¡ªá¡§":7671,"ĠS":7672,"Ġá¡¸á¡Ńá¢Łá¡ªá¢ŀá¡ªá¢ĩ":7673,"Ġá¡¥á¡Ńá¡ªá¡ªá¡ªá¡±á¡±á¡ªá¢ĳá¡¬á¢ĩ":7674,"Ġá¡´á¡Ńá¢Ļá¢Ļ":7675,"Ġá¡´á¡Ńá¢Ķá¡ªá¡ªá¡ªá¡ªá¡ªá¡³":7676,"Ġá¢ĺá¡Ńá¡¬á¢ŀá¡¬á¢İá¡ªá¢Ĭ":7677,"Ġá¢ļá¡¬á¡±á¡ªá¡ªá¡ªá¢Ķá¡¬á¢ĳá¡ªá¡±á¡±á¡ªá¡Ńá¡§":7678,"á¡ªá¢İá¢Ļá¡ªá¢Ľá¡³":7679,"á¡¬á¡±á¡±á¡ªá¢ŀá¡ªá¡«":7680,"Ġá¢ĺá¡Ńá¡¬á¢Ķá¡¬á¢İá¡ªá¡Ńá¡§":7681,"á¡Ńá¢Ļá¡ªá¡°á¡¨":7682,"Ġá¡¥á¡ªá¢Ĭá¡¬á¡±á¡±á¡Ńá¢ĳá¢Ľá¡³":7683,"Ġá¡¥á¡Ńá¡¬á¢ŀá¡Ńá¢Ĭá¡ªá¢Ķá¡Ńá¡§":7684,"Ġá¡¥á¡Ńá¡ªá¡ªá¢Ļá¡Ńá¢Ľá¡³":7685,"á¡ªá¢Ķá¡Ńá¡°á¡¨":7686,"á¡¸á¡Ńá¢ŀá¡ªá¢Ĳ":7687,"Ġáł¬áłłáł¶":7688,"Ġá¢ĺá¡ªá¢ŀá¡ªá¡±á¡±á¡ªá¢ļá¡«":7689,"á¢¦":7690,"Ġá¢ĺá¡ªá¢Ļá¡ªá¡±á¡±á¡ªá¡Ńá¡§":7691,"á¡¬á¢ĭá¡Ńá¢ĳá¡Ńá¢Ĳ":7692,"ĠáłŃáł¤áł¤áł¯":7693,"Ġá¢Ķá¡¬á¡±á¡ªá¡Ńá¡ªá¢Ĭ":7694,"Ġá¡´á¡Ńá¡¬á¢Ľá¡¬á¢Ĭá¢ĳ":7695,"á¡ªá¡¬á¡¬á¡°á¡¨":7696,"á¡ªá¢Ķá¡¬á¢ŀá¡ªá¢Ĳ":7697,"á¡Ńá¡³á¡ªá¢ļá¡³":7698,"Ġáł¢áł³":7699,"Ġáł¬áł¤áł¶áłłáł·":7700,"Ġá¢Įá¡ªá¢Ļá¡ªá¢Ĳá¡¨":7701,"á¡¬á¢Łá¡ªá¡§":7702,"Ġáłłáłµáł¢áł¯áł¯":7703,"Ġá¡¥á¡Ńá¢Ļá¡Ńá¢Ŀ":7704,"Ġá¢ĺá¡ªá¡³á¡¬á¡¦":7705,"Ġá¡¸á¡ªá¢İá¡Ńá¢ŀ":7706,"Ġá¡¬á¡ªá¢ŀá¡Ńá¡ªá¡ªá¡³":7707,"Ġá¡¯á¡ªá¡¬á¡¬á¢ŀá¡ªá¡±á¡±á¡Ńá¢ĳá¢Ľá¡³":7708,"Ġá¢ĺá¡Ńá¡ªá¡ªá¢ĳá¡ªá¡ªá¡ªá¢Ķá¡ªá¡§":7709,"Ġá¡¥á¡¬á¡±á¡¬á¢ľá¡ªá¢ĭá¡Ń":7710,"Ġá¡¸á¡ªá¡³á¢Ķá¡Ńá¢ŀá¢ļá¡³":7711,"Ġá¢ĺá¡ªá¡³á¡ªá¢ĳá¡±á¡±á¡ªá¡§":7712,"Ġá¡´á¡Ńá¢ļá¡ªá¢ĳ":7713,"Ġ.":7714,"á¡¬á¡³á¡ªá¢ļá¡³":7715,"Ġá¢ĺá¡Ńá¡¬á¢ĳá¡ªá¢Ĭá¡ªá¡¨":7716,"Ġá¡¬á¡Ńá¡¬á¡³á¢ĳá¡ªá¢ĳá¢Ĭá¡ªá¡§":7717,"á¡³á¡ªá¢ľá¡ªá¡§":7718,"Ġá¢Ĭá¡¬á¢Ļá¡ªá¡§":7719,"Ġá¢ĺá¡ªá¢Ļá¡ªá¡´á¡Ńá¢ŀá¡«":7720,"á¢ĺá¡Ńá¢İá¢Ļá¡§":7721,"le":7722,"Ġá¡¥á¡ªá¢ĳá¡Ńá¢Ķ":7723,"á¡ªá¡ªá¡ªá¢ĳá¢Ļá¡³":7724,"á¡¥á¡Ńá¢Ļá¡ªá¢īá¡¨":7725,"á¡Ńá¡³á¡ªá¢Ķá¡³":7726,"á¢ĭá¡Ńá¢į":7727,"Ġá¢ĺá¡Ńá¢Ķá¡ªá¢ĳá¡ªá¡ªá¡ªá¢ļá¡«":7728,"Ġá¡³á¡ªá¢ĳá¢ļá¡¬á¢Ĭ":7729,"Ġá¢Ķá¡ªá¢ŀá¢ĭá¡Ńá¢Ĭá¡ªá¡§":7730,"Ġá¡¥á¡Ńá¢ĳá¡Ńá¡°á¡¨":7731,"Ġá¢ĺá¡ªá¡±á¡±á¡Ńá¢Ļá¡ªá¡§":7732,"Ġá¢Ķá¡Ńá¢Ļá¡Ńá¢ĳá¡Ńá¡±á¡±á¡ªá¢ļá¡«":7733,"Ġá¢Ĭá¡ªá¢ĳá¡ªá¢ĳá¢ļá¡ªá¢Ĭá¡ªá¢Ŀ":7734,"Ġá¡¸á¡Ńá¢İá¢Ķ":7735,"Ġá¡¥á¡¬á¢ĳá¡ªá¢Ĭá¡ªá¡§":7736,"Ġá¢Ķá¡Ńá¢ŀá¡±á¡±á¡ªá¢İá¢Ľá¡«":7737,"Ġá¡¯á¡¬á¢Ļá¡Ńá¡±á¡Ńá¡§":7738,"Ġá¡¬á¡ªá¢ŀá¢Ĭá¡ªá¢ļá¡ªá¡§":7739,"Ġá¢Ķá¡ªá¡Ńá¡ªá¢Ĭá¡¬á¢ĭá¡Ń":7740,"áł¬áłłáł¢":7741,"Ġá¡¬á¡ªá¢Ĭá¡ªá¢Ŀá¡¨":7742,"Ġá¡³á¡ªá¡¬á¡¬á¡±á¡±á¡ªá¢ĳ":7743,"Ġá¢ľá¡ªá¢ŀá¡¬á¢ĳá¢ļá¡ªá¢ĳá¢īá¡¨":7744,"Ġá¢Ķá¡¬á¡¬á¡Ńá¡ªá¡´á¡Ńá¢ŀá¡¬á¢ĳá¡ªá¢Ľá¡³":7745,"á¡´á¡Ńá¢ľá¡³":7746,"Ġá¢Ķá¡Ńá¡±á¡¬á¡±á¡±":7747,"áłłáł¯áł¢áłŃ":7748,"Ġá¢Ĭá¡ªá¢Ĭá¡ªá¢ŀá¡ªá¢ĭá¡Ń":7749,"Ġá¡¸á¡ªá¡ªá¢Ļá¡Ńá¢ĳá¢īá¡¨":7750,"á¡Ńá¢ĳá¡ªá¢Ĭá¡ªá¡Ńá¡§":7751,"á¡´á¡Ńá¡¬á¢Ŀ":7752,"Ġá¡¥á¡ªá¡Ńá¡ªá¡ªá¡ªá¡Ńá¡§":7753,"Ġá¡³á¡ªá¡±á¡±á¡ªá¢Ļá¡Ńá¢ŀá¢ĳá¡¬á¢ĩ":7754,"Ġáłªáł¢áł´áł¢áłŃ":7755,"Ġá¢Ĭá¡ªá¢ŀá¡¬á¡«á¡¨":7756,"Ġá¢Ķá¡¬á¢ĳá¢Ļá¡ªá¢ĩ":7757,"Ġá¢Īá¡ªá¢ŀá¡±á¡±á¡ªá¡³á¡ªá¡¨":7758,"Ġá¢ĭá¡Ńá¡¬á¢İá¡Ńá¢Ķ":7759,"Ġá¡³á¡ªá¡ªá¡ªá¢Ļá¡ªá¡±á¡±":7760,"Ġá¢Įá¡Ńá¡¬á¢§á¢Łá¡«":7761,"á¢Ĭá¡ªá¢Ļá¡³":7762,"áł¡áłªáł¡":7763,"Ġá¢ĺá¡Ńá¢Ķá¡¬á¢ľá¡ªá¡ªá¡ªá¡³":7764,"Ġá¢ļá¡Ńá¢Ĭá¡¬á¡ªá¡ªá¡³":7765,"Ġá¢ļá¡Ńá¢ĳá¢İá¡Ńá¡§":7766,"á¡ªá¡ªá¡ªá¢ĳá¡ªá¡ªá¡ªá¢Ķá¡ªá¡§":7767,"Ġá¢ĺá¡ªá¡¬á¡¬á¢ĳá¢Ļá¡ªá¡¬á¡¨":7768,"Ġá¢Ĭá¡¬á¢ļá¡¬á¢ľá¡ªá¢Ľá¡³":7769,"á¡ªá¢¥":7770,"áł¯áł¢áłŃ":7771,"á¢ļá¡ªá¢ļ":7772,"á¡¥á¡ªá¡ªá¢Ĭá¢Ĭ":7773,"Ġá¡¥á¡Ńá¡Ńá¡±á¡±á¡Ńá¡±á¡±á¡ªá¡Ńá¡§":7774,"Ġá¢ļá¡¬á¢ĳá¡Ńá¢Ĭá¡ªá¢ĳá¡ªá¢ĭá¡Ń":7775,"Ġá¡¥á¡Ńá¡¬á¡¬á¢ĳá¡ªá¢Ļá¡Ńá¢Ĭá¢Ķá¡ªá¡§":7776,"Ġá¢ļá¡ªá¡¬á¡¬á¢Ļá¡ªá¢į":7777,"á¢Ķá¡Ńá¢ŀá¡´á¡Ńá¢ĳá¢Ľá¡¬á¢ĳá¡ªá¡ªá¡ªá¢ļá¡«":7778,"á¡¥á¡Ńá¡Ńá¡ªá¢ĩá¡¨":7779,"á¡ªá¡Ńá¡ªá¡ª":7780,"Ġá¢ıá¡¬á¢ľá¡Ńá¡³":7781,"Ġá¡¥á¡Ńá¡¬á¡ªá¢Ĭá¢Ĭá¡ªá¢ŀá¡ªá¡³á¡ªá¡¨":7782,"Ġáłªáłłáł¢áłŃ":7783,"Ġá¡¥á¡ªá¢Ĭá¢ĭá¡Ńá¢ŀá¡ªá¡«":7784,"Ġá¡´á¡Ńá¡¬á¢ĳá¡Ńá¢Ĭá¢ĳá¡ªá¢Ĳ":7785,"Ġá¡¥á¡ªá¢ĳá¡ªá¡±á¡±":7786,"áłµáł¢áł¶":7787,"Ġá¢Įá¡Ńá¢ŀá¢Ļá¡ªá¢Ľá¡³":7788,"Ġá¡¥á¡Ńá¡¬á¢Ľá¡ªá¢Ķá¢ĭá¡Ńá¢ĳ":7789,"Ġá¡¬á¡Ńá¡¬á¡¬á¢Ŀ":7790,"Ġá¡¥á¡Ńá¡Ńá¡±á¡±á¡ªá¡§":7791,"áłłáłŃáł¤áł¯áł¢":7792,"Ġá¢Ĭá¡ªá¢Ĭá¡ªá¢ŀá¡ªá¢Ĳ":7793,"Ġá¡¥á¡Ńá¡¬á¢ŀá¢ĭá¡Ńá¢ĳá¢Ľá¡¬á¢ĳá¡ªá¢Ľá¡³":7794,"á¡¬á¢Ĭá¢ĳá¡ªá¢ĭá¡Ń":7795,"Ġá¡´á¡Ńá¢Ļá¡Ńá¢ĳá¡±á¡±":7796,"á¡¯á¡ªá¢Ķá¡³":7797,"Ġá¡¥á¡ªá¡³á¡ªá¡±á¡±á¡ªá¡«":7798,"Ġá¡¸á¡Ńá¡¬á¡¬á¡±á¡ªá¢Ĭá¡¬á¡¦":7799,"á¡¥á¡Ńá¡¬á¢Ĭá¡ªá¢ŀ":7800,"Ġá¡´á¡Ńá¢ĳá¡±á¡±á¡ªá¡³á¡ªá¡¨":7801,"Ġá¡¸á¡ªá¡ªá¢Ļá¡Ńá¢Ķá¡«":7802,"Ġá¡¥á¡Ńá¢Ķá¡Ńá¢ĳá¢Ļ":7803,"á¢ĭá¡Ńá¡¬á¢İá¡Ńá¢Ľá¡¬á¢Ĳ":7804,"á¡ªá¡ªá¡Ńá¡Ńá¡§":7805,"Ġá¢Ĭá¡¬á¡«á¡¨":7806,"Ġá¡¬á¡ªá¢Ĭá¡¬á¢ŀá¡Ńá¡ªá¡ªá¢ļá¡«":7807,"Ġá¡¥á¡ªá¡±á¡±á¡Ńá¢ļá¡¬á¢ĳ":7808,"á¡Ńá¢ŀá¢ĳá¡ªá¢Ĳ":7809,"áł°áł¢áłŃ":7810,"ĠÑİ":7811,"á¡Ńá¡Ńá¢ĳ":7812,"á¡Ńá¢Ķá¢Ļá¡§":7813,"Ġá¡¥á¡ªá¢ĳá¢Ļá¡ªá¢ŀá¢Ķá¡¬á¡ªá¡ªá¢Ķá¡ªá¡§":7814,"á¡ªá¢ĭá¡Ńá¢ļá¡¬á¢ĳá¡ªá¡§":7815,"Ġá¢ĺá¡ªá¢ŀá¡Ńá¡ªá¢Ĭá¡±á¡±":7816,"á¡¥á¡¨":7817,"Ġá¡³á¡ªá¡±á¡±á¡ªá¡°á¡¨":7818,"á¢Ķá¡ªá¢Ĭ":7819,"Ġá¡³á¡¬á¢ļá¡¬á¢Ľá¡ªá¡«":7820,"á¡´á¡Ńá¢ĳá¡Ńá¡Ńá¡§":7821,"Ġá¢Ķá¡Ńá¡ªá¢Ĭá¡±á¡±á¡Ńá¡ªá¡ªá¢Ķá¡ªá¡§":7822,"Ġá¢ĺá¡ªá¢Ŀá¡¨":7823,"Ġá¡¥á¡Ńá¡¬á¢Ĭá¢ļá¡¬á¢Ĭ":7824,"Ġá¢Ķá¡ªá¢ļá¡Ńá¢ĳá¡«":7825,"Ġá¡¥á¡Ńá¡ªá¢Ĭá¢Ķá¡¬á¡§":7826,"á¢ļá¡¬á¡³":7827,"Ġá¡¥á¡Ńá¢ĳá¡¬á¢İá¡¶á¡¬á¢£":7828,"á¢Įá¡Ńá¡¬":7829,"Ġá¡¥á¡Ńá¢Ĭá¡¬á¡¦":7830,"Ġá¢ĺá¡Ńá¢Ĭá¡¬á¢ŀá¡ªá¡±á¡±á¡Ńá¢ĳá¡Ńá¢ĳá¢Ļá¡§":7831,"Ġá¢Ĭá¡¬á¡±á¡ªá¡ªá¡ªá¢ļá¡«":7832,"á¡¬á¡ªá¢ĭá¡Ńá¢Ļ":7833,"Ġá¡¯á¡ªá¡¬á¡¬á¢ļá¡ªá¢ĭá¡Ń":7834,"Ġá¢Ĭá¡ªá¢Ļá¡ªá¢Ĭá¢ļá¡¬á¢ĳá¡ªá¡§":7835,"á¡¥á¡Ńá¡¬á¡¬á¢Ŀá¡¨":7836,"Ġá¢ĭá¡Ńá¡¬á¢Ļá¡Ńá¢ĳá¢Ľá¡³":7837,"Ġá¢ĺá¡Ńá¡¬á¢Ĭá¢Ķá¡¬á¢ĭá¡Ńá¢ŀá¡«":7838,"ç»":7839,"á¡Ńá¡Ńá¡ªá¡ªá¡ªá¡ªá¡ªá¡ªá¡³":7840,"á¡¥á¡Ńá¢ŀá¢ļá¡¬á¢ĳá¡ªá¡ªá¡¬á¡¨":7841,"Ġá¢ĺá¡ªá¢ĳá¡ªá¢ŀá¡ªá¡ªá¡ªá¢Ĳ":7842,"Ġá¢ļá¡¬á¢Ļá¡ªá¡³á¢Ĭá¡¬á¡¦":7843,"Ġá¡¥á¡Ńá¢ĳá¡³á¡ªá¡¨":7844,"Ġá¢Īá¡ªá¢ŀá¡Ńá¢Ļá¡«":7845,"áł¯áłłáł¨":7846,"Ġá¢ľá¡ªá¢Ļá¡ªá¡ªá¡ªá¡³":7847,"á¡¥á¡ªá¢İá¢Łá¢ŀá¡¬á¢¤á¡ªá¡¨":7848,"îį":7849,"á¢Ļá¡Ńá¡±á¡±á¡ªá¢Ŀ":7850,"á¡¥á¡ªá¡ªá¢Ĭá¢Ĭá¡¬á¡¦":7851,"á¡ªá¢ŀá¢Ļá¡ªá¡§":7852,"Ġá¡¥á¡ªá¢Ľá¡¬á¢ĩ":7853,"Ġá¢Ķá¡¬á¢ŀá¡±á¡±á¡ªá¡±á¡±á¡³":7854,"Ġá¢ıá¡¬á¡ªá¢Ĭ":7855,"Ġá¡¥á¡Ńá¢ļá¡ªá¢ŀá¡ªá¡ªá¡ªá¡³":7856,"Ġá¢Ĭá¡ªá¢Ļá¡ªá¢Ķá¡Ńá¡§":7857,"Ġá¡¥á¡ªá¢Ļá¡ªá¡±á¡±á¡ªá¢ŀ":7858,"Ġá¢ļá¡Ńá¡´á¡Ńá¢īá¡¨":7859,"Ġá¢Ĭá¢Ĭá¡¬á¢Ŀ":7860,"á¡¥á¡Ńá¡¬á¢ŀá¢ĭá¡Ńá¢ĳá¢Ľá¡¬á¢ĳ":7861,"Ģł":7862,"Ġá¡¬á¡ªá¢Ķá¡ªá¡ªá¡ªá¢Ķá¡ªá¡§":7863,"Ġá¢ĺá¡ªá¢Ķá¢ļá¡³":7864,"Ġá¡¥á¡Ńá¡¬á¢ŀá¡³á¡¬á¢Ķá¡Ńá¢Ĳ":7865,"á¢Ķá¡ªá¢ŀá¡ªá¡§":7866,"Ġá¡¸á¡ªá¢ĳá¡¬á¢İá¡ªá¢ĩ":7867,"198":7868,"Ġá¡¯á¡ªá¡³á¢ļá¡¬á¡§":7869,"Ġb":7870,"Ġá¢ĺá¡ªá¡±á¡¬á¢ĳá¢ļá¡ªá¡±á¡±á¡Ńá¢ĳá¢īá¡¨":7871,"Ġá¡¸á¡ªá¢ŀá¡¬á¢ľá¡ªá¡§":7872,"Ġá¢Įá¡Ńá¡¬á¢ŀá¢ĭá¡Ńá¢ĳá¢Ļ":7873,"á¢Ķá¡¬á¢Ŀá¡¨":7874,"á¡¬á¢ľá¡ªá¢Ĭá¢Ķá¡ªá¡§":7875,"Ġáł²áł¡áł³":7876,"Ġá¢ĺá¡Ńá¢ŀá¡ªá¡Ńá¡ªá¢ļá¡³":7877,"Ġá¡¥á¡Ńá¢ŀá¡Ńá¢ĳá¢Ļá¡Ńá¡ªá¡ªá¡³":7878,"Ġá¡¬á¡¬á¢ĳá¡Ńá¡±á¡±á¡Ńá¡Ńá¡ªá¢ļá¡³":7879,"á¡³á¡ªá¡¬á¡¬á¡±á¡±á¡ªá¢ĳá¡«":7880,"áł³áłłáł¢":7881,"Ġá¡¸á¡Ńá¡ªá¢Ļá¡³":7882,"Ġá¡¬á¡ªá¢ľá¡ªá¡±á¡±á¡ªá¡ªá¡ªá¢Ķá¡ªá¡§":7883,"Ġá¡¬á¡ªá¢İá¡Ńá¢ĩá¡¨":7884,"Ġá¡¬á¡¬á¡ªá¡ªá¢Ķá¡ªá¡±á¡±á¡ªá¢Ĳ":7885,"á¡¬á¡±á¡ªá¡«":7886,"Ġá¢ĺá¡ªá¡³á¢Ķá¡¬á¢ĭá¡Ńá¢ĳá¢Ľá¡³":7887,"á¡ªá¡±á¡ªá¡«":7888,"á¢ĺá¡ªá¡´á¡Ń":7889,"Ġáłµáł¤áł·":7890,"á¡ªá¢Ĺá¡ªá¡§":7891,"Ġáł²áłłáł®":7892,"Ġá¢ļá¡¬á¡ªá¢Ĭá¡±á¡±á¡ªá¡Ńá¡ªá¡ªá¡ªá¡ªá¢Ľá¡³":7893,"á¡³á¡ªá¡±á¡±á¡ªá¢ŀá¡¬á¡§":7894,"Ġá¡¸á¡ªá¢Ĭá¡¬á¢Ŀ":7895,"Ġá¢ĺá¡Ńá¡¬á¡¬á¢ĳ":7896,"Ġá¡³á¡ªá¢ĳá¡³":7897,"Ò¯Ð¹":7898,"Ġá¡¯á¡ªá¡¬á¡¬á¢Ļá¡ªá¡´á¡Ńá¢ŀá¡¬á¢Ľ":7899,"Ġá¢ĺá¡Ńá¢Ĭá¡¬á¢ŀá¡ªá¡±á¡±á¡Ńá¢ĳá¡ªá¡ªá¡³":7900,"Ġá¡¯á¡ªá¢Ĭá¡ªá¢Ĭá¡ªá¡§":7901,"Ġ2019":7902,"Ġá¢Ĭá¡ªá¢ĳá¡ªá¢ĳá¢ļá¡ªá¢ĭá¡Ń":7903,"Ġá¡¥á¡ªá¢¡":7904,"Ġá¡¬á¡Ńá¢Ķá¡ªá¢ĳá¡ªá¡ªá¡¬á¡¨":7905,"Ġá¡¥á¡Ńá¢ŀá¡¬á¡«á¡¨":7906,"áł°áł¢áł¨":7907,"Ġá¡¸á¡ªá¡ªá¢Ľá¡Ńá¡§":7908,"Ð·":7909,"á¡¬á¢ľá¡ªá¢Ļá¡ªá¡«":7910,"Ġá¢ĺá¡ªá¢ŀá¢Ķ":7911,"á¡¬á¡±á¡±á¡Ńá¢ĳá¡Ńá¢Ĳ":7912,"á¡¯á¡ªá¢Ĭ":7913,"Ġá¢Īá¡ªá¢Ļá¡ªá¡±á¡±á¡Ńá¢ŀ":7914,"Ġá¢ĺá¡Ńá¡¬á¢Ķá¡Ńá¡³":7915,"á¡Ńá¢ŀá¢Ĭá¡ªá¡§":7916,"á¢Ĭá¡¬á¢Ĳ":7917,"Ġá¡¥á¢ŀá¡ªá¢Ĭá¡ªá¡«":7918,"Ġá¡¥á¡¬á¢ĳá¡±á¡±á¡ªá¡ªá¡ªá¡³":7919,"Ġáł¬áłłáł¤":7920,"Ð¸Ð»":7921,"á¡Ńá¡Ńá¡ªá¡ªá¡ªá¡ªá¢Ľá¡³":7922,"Ġá¡´á¡Ńá¢ĳá¡Ńá¢İá¡ªá¢Ŀ":7923,"áł¡áłŃáł¡áł·":7924,"Ġá¡¸á¡ªá¢İá¡¬á¢ľá¡ªá¢ŀá¢ļá¡³":7925,"á¡¬á¡ªá¢Ĭá¢ĭá¡Ńá¡«":7926,"Ġá¡¥á¡Ńá¡¬á¡ªá¢Ĭá¢Ĭá¡ªá¢ŀá¡ªá¢ĳá¢Ļá¡§":7927,"Ġá¢Ķá¡ªá¢ŀá¢Ĭá¡ªá¡¬á¡¬á¢ĳá¡ªá¡§":7928,"á¡¬á¡±á¡±á¡ªá¡§":7929,"Ġá¡¥á¡Ńá¢ĳá¢Ļá¡ªá¡ªá¡ªá¢Ķá¡ªá¡§":7930,"ol":7931,"Ġá¢ŀá¡Ńá¢İ":7932,"áł¦áłŃáł°áł¡áł¨":7933,"Ġá¡¯á¡ªá¡¬á¡¬á¢Ľ":7934,"Ġá¡¸á¡ªá¡±á¡±á¡ªá¢ĳá¡´á¡Ńá¢ŀ":7935,"Ġá¡¸á¡ªá¢ŀá¡ªá¡±á¡±á¡Ńá¢ĳá¡Ńá¡ªá¡ªá¢Ķá¡ªá¡§":7936,"Ġáł¤áł¯áł":7937,"á¢ĭá¡Ńá¡¬á¢Ĳ":7938,"å¸":7939,"á¡¥á¢ŀá¢Ļá¡§":7940,"Ġá¢ıá¡Ńá¡³á¢Ķá¡ªá¡ªá¡¬á¡¨":7941,"Ġá¢ıá¡Ńá¡Ńá¢ĵ":7942,"á¡¥á¡Ńá¡¬á¡¬á¢ŀ":7943,"Ġá¢ĺá¡ªá¡¬á¡¬á¢ĳá¡´á¡Ńá¢ŀá¡¬á¢ĳá¡ªá¡ªá¡ªá¡³":7944,"Ġá¡¥á¡Ńá¢ŀá¡¬á¢ĳá¢īá¡¨":7945,"Ġá¡¸á¡Ńá¢ŀá¢ļ":7946,"Ġá¡¥á¡Ńá¡¬á¡±á¡ªá¢ĳá¡ªá¢Ľá¡³":7947,"Ġá¡´á¡Ńá¡¬á¢Ļá¡Ńá¢Ĭá¢Ķá¡ªá¡§":7948,"Ġá¢ĭá¡Ńá¡¬á¢ĳá¢Ļ":7949,"Ġá¡¥á¢ŀá¢Ļá¡ªá¢İá¢Ļá¡³":7950,"Ġáł²áł¥áł·":7951,"Ð°Ð°Ñģ":7952,"Ġá¡¥á¢ŀá¡¬á¢ľ":7953,"Ġá¡´á¡Ńá¢ĳá¡±á¡±á¡ªá¡±á¡±á¡ªá¡Ńá¡§":7954,"Ġá¢ĺá¡ªá¡±á¡±á¡ªá¢ŀá¡¬á¢ĳá¢Ļá¡§":7955,"Ġá¢ĺá¡ªá¢Ĭá¡¬á¡±á¡«":7956,"Ġá¢ĺá¡ªá¢İá¡ªá¢Ĭá¡¬á¡§":7957,"Ġá¡³á¡ªá¢Ļá¡Ńá¢ĳá¡ªá¡§":7958,"Ġá¢Ĭá¡¬á¢ĳá¢Ĭá¡ªá¢ĭá¡Ń":7959,"á¡¬á¢Ļá¡Ńá¡±á¡±á¡ªá¢Ŀ":7960,"Ġá¢ĺá¡ªá¡ªá¢Ĭá¢ļá¡«":7961,"Ġá¡´á¡Ńá¢Ĭá¡¬á¡±á¡¬á¢Ļ":7962,"Ġá¡¥á¡Ńá¡ªá¢ļá¡ªá¢ĳ":7963,"á¡Ńá¡±á¡±á¡Ńá¢ĳá¡Ńá¡±á¡±á¡ªá¡Ńá¡§":7964,"Ġá¢ĺá¡Ńá¢ĳá¢Ļá¡ªá¢Ĳá¡¨":7965,"Ġá¡¥á¡Ńá¡¬á¡¬á¢ĳá¡±á¡±á¡ªá¢Ľá¡³":7966,"Ġá¡¥á¢Ľá¡ªá¢ĳá¡ªá¡§":7967,"áłłáł¯áłª":7968,"á¢ĺá¡Ńá¡Ńá¢Ŀá¡¨":7969,"Ġáł²áłłáłŃ":7970,"Ġá¡¸á¡ªá¡ªá¢Ļá¡Ńá¡§":7971,"á¡ªá¡´á¡Ńá¢ŀá¡¬á¢ĳá¡ªá¢ĭá¡Ń":7972,"á¡³á¡¬á¢Ŀ":7973,"áł¦áł¯áłµ":7974,"á¡¬á¡ªá¢Ĭá¡±á¡±á¡Ńá¡«":7975,"Ġá¡¥á¡ªá¡³á¢ļá¡¬á¢ŀá¡ªá¡ªá¡ªá¡³":7976,"á¢Ķá¡¬á¢ĳá¡±á¡±":7977,"á¡ªá¢ŀá¡ªá¡¬á¡¨":7978,"Ġá¡¸á¡Ńá¢Ļá¡ªá¢ĳá¡§":7979,"Ġá¢ļá¡ªá¡³á¡ªá¢ŀá¢Ĭá¡ªá¡§":7980,"á¡¬á¡Ńá¡±á¡±á¡Ńá¢ĵ":7981,"Ġá¡¥á¡Ńá¢ļá¡¬á¡°á¡¨":7982,"Ġá¡¸á¡ªá¡ªá¢ļá¡Ńá¡«":7983,"Ġá¡¥á¡ªá¢ĳá¢Ļá¡ªá¡±á¡±á¡ªá¡Ńá¡§":7984,"á¡ªá¢ĳá¢Ľá¡ªá¢Ĭá¢Ķá¡ªá¡§":7985,"Ġáłłáł©áł¬":7986,"Ġá¡´á¡Ńá¢ļá¡ªá¡±á¡±á¡ªá¢Ľá¡³":7987,"Ġá¡¬á¡¬á¢ŀá¡±á¡±á¡ªá¢ĳá¢Ļá¡³":7988,"Ġáłªáł£áł³":7989,"á¢Ķá¡ªá¡¬":7990,"Ġá¢ĺá¡Ńá¢Ļá¡Ńá¢ŀá¡ªá¢Ľá¡³":7991,"Ġá¡¥á¢ĳá¡³á¡ªá¢Ĭá¢Ļá¡Ńá¢ŀá¢Ľá¡«":7992,"á¢ļá¡Ńá¢ĩ":7993,"á¡¬á¡±á¡±á¡Ńá¢ĳá¢īá¡¨":7994,"Ġá¡¥á¡Ńá¡¬á¡±á¡ªá¢Ļá¡ªá¡«":7995,"Ġá¡¥á¡ªá¢ľá¡Ńá¢Ļá¡ªá¢ĩ":7996,"á¡ªá¡ªá¢Ĭá¢Ĭá¡ªá¡«":7997,"áłŃáłŃ":7998,"Ġá¡³á¡ªá¢İ":7999,"á¡´á¡Ńá¢į":8000,"Ġá¡¥á¡Ńá¡¬á¢ĳá¢Ľá¡ªá¡¬á¡¬á¡³":8001,"ãģ":8002,"Ġá¢ĺá¡Ńá¡±á¡±á¡Ńá¢ĳá¡Ńá¡ªá¡ªá¢Ķá¡ªá¡§":8003,"á¡Ńá¢İá¢Ļ":8004,"Ġá¡³á¡ªá¢ľá¡ªá¢ŀá¢ĳá¡ªá¡ªá¡ªá¡³":8005,"Ġáłłáł·áłª":8006,"Ġá¢ıá¡Ńá¢Ĭá¡ªá¡¨":8007,"Ġá¡¸á¡Ńá¢Ļá¡Ńá¡±á¡±á¡Ńá¢Ļá¡³":8008,"á¡¥á¡´á¡Ńá¢Ĭá¡ªá¡§":8009,"á¡¬á¡±á¡Ńá¢į":8010,"Ġá¡¥á¢ŀá¡¬á¢Ĭá¡ªá¡¨":8011,"Ġá¡¬á¡¬á¢ŀá¡Ńá¡ªá¡ªá¢Ķá¡ªá¡§":8012,"Ġá¢ĭá¡Ńá¡¬á¢ľá¡Ńá¡§":8013,"Ġá¡¬á¡ªá¢ĭá¡Ńá¢Ľá¡³":8014,"Ġá¢¡á¢ŀá¡ªá¡ªá¢¦á¡«":8015,"Ġá¡¬á¡ªá¢ŀá¢Ĭá¡ªá¢ļá¡ªá¢Ĭá¡ªá¡¨":8016,"Ġáł¶áł¡áł¬áł¡":8017,"á¢ľá¡ªá¢Ļ":8018,"Ġá¡¥á¡Ńá¡¬á¢ŀá¢ĭá¡Ńá¢ĳá¢Ľá¡¬á¢ĳá¡ªá¢Ĭá¢Ķá¡ªá¡§":8019,"á¡ªá¢ŀá¡ªá¡±á¡±á¡Ńá¢ĳá¡Ńá¡§":8020,"Ġá¡´á¡Ńá¡¬á¢Ĭá¢ĳ":8021,"Ġá¢ĭá¡Ńá¡¬á¢Ļá¡Ńá¢ĳá¡Ńá¡§":8022,"á¡¥á¡Ńá¡¬á¡³á¡ªá¢ŀá¢Ļá¡ªá¢Ĭá¡ªá¡§":8023,"Ġá¢ĺá¡ªá¢Ĭá¢Ľá¡¬á¡§":8024,"Ġá¡¬á¡Ńá¡¬á¡³á¢ĳá¡ªá¢ĳá¢Ĭá¡ªá¡¨":8025,"åº":8026,"Ġá¡¸á¡Ńá¢ŀá¡Ńá¡±á¡±á¡Ńá¡§":8027,"á¡¯á¡ªá¡¬á¢İá¡ªá¡§":8028,"á¢ĺá¡ªá¢Ļá¡ªá¡§":8029,"Ġá¢Ĭá¡ªá¢ĳá¢İ":8030,"ï¸ĸ":8031,"Ġá¡³á¡ªá¢ĳá¡ªá¡Ńá¡ªá¢Ĭá¡ªá¢ĭá¡Ń":8032,"Ġá¢ĺá¡ªá¡±á¡±á¡Ńá¢Ķá¡ªá¡ªá¡³":8033,"Ġá¡³á¡ªá¢ľá¡ªá¡ªá¡ªá¡ªá¡Ńá¢Ķá¡¬á¡±á¡±á¡³":8034,"á¡ªá¡´á¡Ńá¢ĳ":8035,"Ġá¢Ķá¡¬á¢ŀá¢Ļ":8036,"Ġá¡¥á¡Ńá¢İá¡³":8037,"Ġá¢ĺá¡ªá¢İá¡ªá¡Ńá¢ĳ":8038,"Ġá¡¥á¢İá¢Ļ":8039,"á¡Ńá¡±á¡±á¡Ńá¢ĳá¡Ńá¡°á¡¨":8040,"Ġá¢ĺá¡Ńá¡±á¡±á¡ªá¡ªá¡¬á¡¨":8041,"Ġá¡¥á¡¬á¢ĳá¡ªá¡Ńá¡ªá¢Ļá¡§":8042,"Ġá¡´á¡Ńá¢ŀá¢ļá¡ªá¢ĩ":8043,"Ġá¡¥á¡ªá¡±á¡±á¡Ńá¢ĳá¢Ľá¡ªá¡ªá¡ªá¢Ķá¡ªá¡§":8044,"Ġá¡¸á¡Ńá¢Ļá¡Ńá¢ĩ":8045,"á¡¬á¢Ľá¡¬á¢ŀá¡ªá¢Ĳ":8046,"Ġá¡¸á¡ªá¡¬á¡¬á¢ŀá¡ªá¢ĳá¡§":8047,"ä¸Ģ":8048,"Ġáłªáł¤áł¶":8049,"Ġá¡¥á¢İá¢ļá¡¬á¢ĳá¡ªá¢Ĭá¡ªá¡§":8050,"áłłáł¯áłłáłŃ":8051,"Ġá¡¸á¡ªá¢ľá¡ªá¡±á¡±á¡ªá¡§":8052,"Ġá¢Ķá¡ªá¢ŀá¢Ĭá¡ªá¡¬á¡¬á¢ĳ":8053,"Ġá¡¬á¡Ńá¡¬á¡³á¢Ķá¡¬á¢ľá¡ªá¢ŀá¡ªá¢Ĭá¢Ķá¡ªá¡§":8054,"á¡ªá¢ĳá¢Ļá¡Ńá¢ĭá¡Ń":8055,"Ġá¢Ĺá¡³":8056,"Ġá¢ĺá¡ªá¢Ķá¡´á¡Ńá¢ŀá¡«":8057,"Ġá¡¥á¡Ńá¢ļá¡«":8058,"Ġá¢Īá¡ªá¢ŀá¡±á¡±á¡ªá¢Ľá¡ªá¡«":8059,"Ġá¡³á¡ªá¢ļá¡¬á¢İ":8060,"Ġá¡´á¡Ńá¡¬á¢Ļá¡Ńá¢İá¢Ľá¡¬á¢Ļá¡ªá¡«":8061,"Ġá¢Īá¡Ńá¢ŀá¡Ńá¢ĩá¡¨":8062,"á¡Ńá¡ªá¢Ķ":8063,"á¡¬á¡±á¡±á¡Ńá¢ŀ":8064,"Ġá¡¥á¡ªá¢ŀá¡ªá¡ªá¡ªá¢ĩ":8065,"Ġá¡¥á¡Ńá¡¬á¢ŀá¡Ńá¡³":8066,"Ġáłłáł¯áł³":8067,"Ġá¢ļá¡ªá¡§":8068,"Ġá¢Ĺá¡Ńá¡ªá¢Ĭá¡ªá¡ªá¡Ńá¢Ŀ":8069,"áł¡áłŃáł´áł¢":8070,"á¢ĺá¡Ńá¡¬á¡²":8071,"á¢Łá¢İá¢Łá¡±á¢ĺá¡¦":8072,"Ġáł´áł¢áł¬áł¤áł¯áłł":8073,"199":8074,"Ġá¡¸á¡Ńá¢ŀá¡ªá¢ĳá¢Ļá¡Ńá¡±á¡±á¡ªá¡§":8075,"Ġá¡¥á¡Ńá¡¬á¢Ļá¡³":8076,"áł¤áł³áł¤áłŃ":8077,"Ġá¢Ĭá¡ªá¢ĳá¡ªá¢ĳá¢ļá¡ªá¢Ľá¡³":8078,"Ġá¢ĺá¡ªá¢ĳá¡ªá¢ŀá¡ªá¡ªá¡ªá¢Ľá¡³":8079,"Ġá¢ĺá¡¬á¢Ļ":8080,"Ġá¡´á¡Ńá¡¬á¢Ļá¡Ńá¢ĭá¡Ń":8081,"Ġt":8082,"Ġá¢ª":8083,"á¡ªá¡±á¡±á¡Ńá¢ĳá¡Ńá¢Ĳá¡¨":8084,"Ġá¢ĺá¡ªá¢ĭá¡Ńá¢ŀá¢Ĭá¡ªá¡¨":8085,"á¡¸á¡Ńá¢ŀá¢ļá¡¬á¡§":8086,"Ġáłłáł°áłłáłŃ":8087,"ĠÐĽÐ°Ð¼ÑĭÐ½":8088,"Ġá¡³á¡ªá¢ŀá¡¬á¡³á¢ļá¡¬á¢ĳ":8089,"á¢Ĭá¡ªá¢ļ":8090,"á¢ĺá¡ªá¡±á¡±á¡Ńá¢ĳ":8091,"Ġá¢ĺá¡ªá¡¬á¡¬á¢ļá¡¬á¢ĳá¡ªá¡§":8092,"á¡¥á¢ŀá¢ĭ":8093,"á¡¬á¡ªá¡±á¡±":8094,"Ġá¡¥á¡Ńá¢Ľ":8095,"á¡Ńá¢Ĭá¡ªá¢Ĭá¢Ķá¡ªá¡§":8096,"Ġá¢ĺá¡ªá¢Ĭá¡¬á¢Ĳ":8097,"Ġá¡¥á¢ŀá¡ªá¡³":8098,"Ġá¡¥á¡Ńá¡¬á¡ªá¢Ļá¡Ńá¢Ķá¡Ńá¢ĳá¡ªá¢Ĳ":8099,"Ġá¡¥á¡Ńá¢ĳá¡Ńá¢ĳá¢Ļá¡§":8100,"á¢Łá¢Ľ":8101,"Ġá¡¬á¡Ńá¢ŀá¡¬á¡ªá¡ªá¢Ļá¡³":8102,"Ġá¢ĺá¡ªá¡±á¡±á¡ªá¢ŀá¡¬á¢Ľá¡³":8103,"Ġá¢ļá¡Ńá¡¬á¢ĭ":8104,"Ġá¡¥á¢Ļá¡ªá¡§":8105,"Ġá¢Ķá¡ªá¢ŀá¡±":8106,"Ġá¢ļá¡Ńá¡¬á¡§":8107,"á¢Ĭá¡ªá¡³á¡ªá¡¨":8108,"Ġá¡¥á¡Ńá¡¬á¢Ľá¡Ńá¡¬á¡¨":8109,"Ġá¡´á¡Ńá¢ľá¡ªá¡ªá¢Ļá¡³":8110,"Ġá¢Įá¢Łá¢ĺ":8111,"á¡¸á¡ªá¢İá¡¬á¢īá¡¨":8112,"Ġá¢ĺá¡Ńá¡ªá¡ªá¢Ļá¡ªá¡±á¡¬á¡ªá¡ªá¡³":8113,"Ġá¡¥á¡Ńá¡¬á¡«":8114,"Ġá¡¥á¡ªá¡³á¢ĳ":8115,"á¡¬á¡¬á¢ĳá¡Ńá¡±á¡±":8116,"Ġá¢ĺá¡ªá¢ŀá¡Ńá¡§":8117,"á¡Ńá¡±á¡ªá¢Ļ":8118,"á¡Ńá¡ªá¡ªá¢Ļá¡ªá¡±á¡±á¡ªá¡Ńá¡§":8119,"Ġá¡¬á¡ªá¢ĳá¡ªá¡§":8120,"Ġá¢ĭá¡Ńá¡¬á¢Ľá¡«":8121,"Ġáłªáł¤áł¯áł¬áł¤":8122,"Ġá¡¯á¡ªá¢Ķá¡Ńá¢Ļá¡ªá¡¬á¡¬á¢ļá¡Ńá¡Ńá¡§":8123,"Ġá¡¬á¡ªá¢ŀá¡±á¡±á¡³":8124,"Ġáł¡áłµ":8125,"Ġá¡¥á¡ªá¡³á¡¬á¢ľá¡ªá¢Ķ":8126,"á¢Ķá¡¬á¡ªá¢Ľá¡¬á¢ĳ":8127,"á¡¥á¡´á¡Ńá¢Ĭá¡ªá¡¨":8128,"áł¤áł°áł¢áłŃ":8129,"Ġá¡¯á¡ªá¢ļ":8130,"á¢Īá¡ªá¢ļ":8131,"á¡Ńá¡Ńá¡ªá¡ªá¡ªá¡ªá¡§":8132,"Ġá¡³á¡ªá¡±á¡±á¡Ńá¡±á¡±á¡ªá¡Ńá¡§":8133,"Ġá¡¸á¡ªá¢Ļá¡ªá¢Ľá¡³":8134,"Ġá¡¥á¡Ńá¡¬á¢ĭá¡Ńá¢Ĭ":8135,"Ġá¡¯á¡ªá¢Ĭá¡ªá¢Ĭá¡ªá¢Ĭá¢Ķá¡ªá¡§":8136,"Ġá¢ĺá¡ªá¡¬á¡¬á¡´á¡Ńá¢Ķ":8137,"á¡ªá¢ĳá¡ªá¡«á¡¨":8138,"á¢Ĭá¡¬á¢Ĭá¢Ķá¡ªá¡§":8139,"Ġá¢ļá¡ªá¡±á¡±á¡ªá¢Ľ":8140,"Ġá¢Īá¡ªá¢ŀá¡±á¡±á¡ªá¡³á¡ªá¢Ĳ":8141,"Ġá¡¥á¡¬á¡¬á¢İá¡Ńá¢ŀá¢ĭá¡Ńá¡³":8142,"Ġá¢Ĭá¡¬á¢ĳá¡³á¡ªá¢ŀ":8143,"áł¤áł¶áł¤áł¯":8144,"Ġá¡¸á¡Ńá¢ŀá¡¬á¢ľá¡ªá¡ªá¢Ĭá¡±á¡±":8145,"Ġá¡¥á¡¬á¢ĳá¡±á¡±á¡ªá¡§":8146,"Ġá¡¯á¡ªá¢ŀá¡ªá¢Ķá¡³":8147,"Ġá¢ĺá¡ªá¡ªá¢Ĭá¡±á¡ªá¡±á¡±á¡Ńá¢Ĳ":8148,"Ġáłłáł®áł¢áł³áł¤áł·áłłáł¯":8149,"Ġá¡¯á¡ªá¢ŀá¡ªá¢ĳá¡ªá¢Ĭá¢Ķá¡ªá¡§":8150,"Ġá¡¯á¡ªá¡¬á¡¬á¢ŀá¡ªá¡±á¡±á¡Ńá¢ĳá¡ªá¡ªá¡³":8151,"Ġá¢ĺá¡ªá¡±á¡±á¡Ńá¢ĳá¡ªá¢Ĳ":8152,"á¡ªá¢ļá¡¬á¢Ĭá¡ªá¡°á¡¨":8153,"Ġá¡¥á¢Ľá¡ªá¢İá¢Ķá¡¬á¢Ľá¡³":8154,"Ġá¢ĺá¡ªá¢Łá¡ªá¢Ŀ":8155,"Ġá¢Īá¡ªá¡ªá¢Ļ":8156,"Ġá¡¥á¡Ńá¢ĳá¢Ľá¡ªá¡«":8157,"á¡¥á¡Ńá¡¬á¢Ĭá¡¬á¡§":8158,"Ġá¢Įá¡ªá¢ļ":8159,"Ġá¡¥á¡Ńá¢ŀá¡Ńá¢Ķá¡¬á¡°á¡¨":8160,"Ġá¡¥á¡ªá¡³á¢ļá¡¬á¢ŀá¡ªá¡±á¡±á¡ªá¡Ńá¡§":8161,"Ġá¡¥á¡Ńá¡¬á¢Ĭá¡ªá¡¬á¡¬á¢ĳ":8162,"á¡ªá¡ªá¡³á¡ªá¢ľá¡ªá¢Ŀ":8163,"Ġáł¬áł¦áł®áł¦áł°":8164,"á¡Ńá¢¥":8165,"á¡¥á¡§":8166,"á¡ªá¡ªá¡³á¡¬á¢ĳá¡¬á¡¬á¡¨":8167,"Ġá¡¥á¡ªá¢ľá¡Ńá¡ªá¢Ĭá¢īá¡¨":8168,"Ġá¡¯á¡ªá¢İá¡ªá¢ĭá¡Ń":8169,"áł¦áłŃáł¡":8170,"Ġá¡¥á¡ªá¢ļá¡¬á¡«á¡¨":8171,"á¡ªá¢ŀá¢Ļá¡§":8172,"á¡¸á¡ªá¢Ľ":8173,"á¡Ńá¢Łá¡¦":8174,"Ġá¢Łá¢ļá¡¬á¢Ŀ":8175,"á¡ªá¡ªá¡Ńá¢ĳá¡ªá¢Ŀ":8176,"Ġá¢Ĺá¡Ńá¡Ńá¢Ĭá¡¬á¢ľá¡ªá¡§":8177,"Ġá¢ĺá¡Ńá¡ªá¢Ļ":8178,"Ġá¢¡á¡¬á¢ĳ":8179,"á¡¬á¡ªá¢Ļá¡ªá¡ªá¡¬á¡¨":8180,"Ġá¢ļá¡Ńá¢ĳá¡³":8181,"Ġá¢ļá¡ªá¢Ĭá¡ªá¢ŀá¢ĳá¡ªá¡°á¡¨":8182,"Ġáł¶áł¤áł°":8183,"Ġá¡³á¡ªá¡ªá¡ªá¢Ļá¡ªá¢Ľá¡³":8184,"áł¦áł¯áł³":8185,"Ġá¢ĺá¡ªá¢ŀá¡¬á¢ĭá¡Ńá¢Ļá¡ªá¡§":8186,"Ġá¢ļá¡ªá¡ªá¡ªá¢Ļ":8187,"Ġá¡¸á¡ªá¢ŀá¡ªá¢Ĳá¡¨":8188,"Ġá¢ĺá¡ªá¡³á¡ªá¢ŀá¡¬á¡§":8189,"á¢ĺá¡ªá¢Ĭá¡ªá¢ŀ":8190,"ä¸Ń":8191,
[...]
